module {
  llvm.func @malloc(i64) -> !llvm.ptr
  llvm.mlir.global private constant @__constant_100x100xf64_0(dense<"0xC6A52A6D718653402C0C91D3D7CB2D40764F1E166A7D2C40DD088B8A38A5374019AC38D55AE8314097FF907EFBD35340473CD9CD8CAE3A40D672672618435240725303CDE77C1F40CBF44BC45B754B40B74604E3E03B5440F4DC425722E954406EF7729F1CD9314032755776C1403E40E3E2A8DC44252640ED2AA4FCA4E254407DEC2E50523C524082380F2730D153407E9065C1C41720406DCA15DEE5AE57401C2785798F5B3E40AF2479AEEFD73440E338F06AB96953404F948444DAF62340E88711C2A35B40402F6AF7AB00AF5740931ADA006C315440C8CEDBD8EC303A40717500C45D695040B64B1B0E4BBB3C405D88D51F61F83540BF823463D11C204061DF4E22C2E73840915F3FC406073B40B72572C119EC4F407157AF22A3FF4640ED65DB696BA64540DC82A5BA80CB3D40FDBE7FF3E22E5640E4DA5031CE04584073F22213F0E342405A0EF450DBEC4340FD4E93196F5329406B60AB048B634940F94B8BFA2427384077F4BF5C8BD35240C2DCEEE53E4C5840C381902C604A4A4029B000A60CA42D4005DCF3FC6923E03F9241EE224C635540451152B7B3974C40603FC4060BBE5840D80B056C07B3524092205C01853A3E404E266E15C4E82240598AE42B81005740611BF16437014940AAF1D24D62C75640992B836A83ED4F4008B0C8AF1F61564001158E209522FE3F899B53C900E43C4098A7734529D2584076C58CF0F69A424055867137886353405CFFAECF9C5D2D400BF0DDE68D3852405E83BEF4F6C94D40AAF06778B3A15040FD497CEE042E504016A243E048D0404053CE177B2F5E09401BA19FA9D78D1640BADC60A8C3AA004027A435069D9E4740EE23B726DD2B5340F4A5B73F1711534076AA7CCF48183F40444DF4F928EF434015E2917879823E4065C8B1F50C1F42400E83F92B64715340DCBA9BA73AE42240172B6A300DAD5140AE105663096E5840BF47FDF50ABB3B404A287D21E4383240FFCC203EB02327402AFF5A5EB9C04540DA8CD31055083740DD5ED218ADE14F40035DFB027AE453400A9E42AED407384060C9552C7E7B2640A8A78FC01FC45840BCCADAA678242C4050E09D7C7A764240933A014D8441514005C3B986195A4E40459F8F32E2864D404D83A279002B3940317BD976DA0B5340D1764CDD95B34140842BA0504F5734408884EFFD0DB2484076C1E09A3B9453405793A7ACA6C34A40FAF19716F5FB50407BF832518428304081423D7D04764C4021AE9CBD33763640EEEBC03923DC44406342CC2555373940356090F469CB4840DAE4F04927322140F277EFA831A34A40419AB1683A14564003D19332A97A53404EF2237EC55E4640D47D00529BF80440F5F57CCD72565340778192020BF030409F7422C1542313404B598638D615124068B27F9E06803740C9AB730CC8B62940363E93FDF3D035405682C5E1CCB14C40177E703E756B544039ED293927FE4D409C19FD6838894E4000732D5A80E6304066136058FE1E4A4001A3CB9BC3254F406EDFA3FE7A4E564050340F60919548405A2F8672A2DD3F40DB300A82C72056402387889B53253F40E013EB54F91441402E008DD2A56F44408DB454DE8E004E400C1EA67D73135840E25CC30C8D233440297B4B395F1C29407061DD7877B03D40562C7E5358A9D53FADF9F197164F4C4066834C3272EA3C40C7A17E17B6A23540A86F99D3651116403354C554FA7C504022179CC1DF575040B3F0F5B52EBD3740B8CB7EDDE9E84C400BF0DDE68D431540639AE95E279523403FABCC94D6A855401503249A40E12F404435255987EB33405EA0A4C0021C5240526342CC25934E4062F71DC363CB3340213B6F63B3025340857D3B89087FFB3F7D7555A016BF4640D57ABFD18EA54B409A6038D73043BB3F8786C5A86BD0524076711B0DE0CF4840D28F8653E6062F402C7E5358A90C52402DCC423BA763464082548A1D8DEC5440F3CAF5B699085140B3CD8DE9094B1D40A227655243FB1C40DE04DF347D763540DE5A26C3F19C194087BF266BD4C75440F818AC38D5305440A22AA6D24FDA4A40556CCCEB88331A40D65757056AB14540A5A487A1D5C9E03FFF5BC98E8D203B40BBD39D279E174540EF1F0BD121744C407901F6D1A98755405B43A9BD88575140D0D4EB1681E93540F9DA334B024247405D876A4AB2A05540DB5207793DD8FF3FAB5D13D21AFF5440D462F030ED794640469A780778C95040948444DAC61F4C40245F09A4C4D62040782975C938DA58407E737FF5B8875840649126DE013E0B40FB213658388157404D9F1D705D3A5240DE58501894FA5240679B1BD313DE3F405DFDD8243FE44A40467D923B6C725640D34B8C65FA1D4440BB7CEBC37A715240534145D5AFBE49401EF98381E7EB58401A6B7F677BD3514054C37E4FACD343409816F549EEB5574066101FD8F17F0340D97A8670CC764F403FFED2A23EB45440232F6B62817A524010B1C1C249384F407077D66EBBF7524023A12DE752743F4052B7B3AF3CEB5040A8363811FD0244403509DE904657414058C51B9947444E40CD1E6805864051401C2444F982B35340A04E79742338364038DA71C3EF3E36405D4E098849B81F40E0826C59BEAE524006BAF605F4E55840452BF702B3EE3D40109370218F8E49408D2AC3B81B4A4B40689599D2FAEB3840A7E7DD5850B24940B8CEBF5DF64758407008556AF60E44409ACFB9DBF5CC5240143E5B07077B1840B20E4757E96D5440377172BF439350404E0D349F73373140E78EFE976B393B40AD6A494739FC5440C9586DFE5F3756400C23BDA8DDDB4C40601F9DBAF2585140C2BF081A33C53B40581B6327BCAE47406C5ED5592D324340B4AED172A0B54940D976DA1A11FC214015A930B610BC2940E12538F581C246403E7B2E5393DF54406BF12900C6375740B0E42A16BF555840904E5DF92C955240C9C859D8D350524055F833BC5943244030D63730B950544003CE52B29CE412401E8997A773774A403E213B6F637E5540C078060DFD0D54400E84640113BA4640EC87D860E137504069FCC22B49D23340A27E17B666432C4094A3005130094B40A568E55E60662E40381092054C484640A1F2AFE595FB52402634492C29034240F4A62215C62A4B40C631923D42114A4055F65D11FCBB5740F96871C6301F43401D9430D3F64558400F2BDCF29115554085B18520074D2440035C902DCB9343408F8AFF3BA23A24406669A7E6726747403483F8C08E5F2D401A31B3CF633553402BC1E270E65B3C4002D53F88643A484005DF347D764450403DB5FAEAAAC0374025E7C41EDA9727407E1D386744A74A40ED82C13577F043403337DF88EE513540F1129CFA408253400261A758353A4840A8363811FD9E3A40035DFB027A1D3840F12E17F19D903340E76D6C76A4A55840C3BB5CC477C224404CDF6B088ECBD33F5DC136E2C9B04D40E485747808665140DD611399B9A75740E719FB928D273340A930B610E4903A40B9895A9A5B6058401A355F251FBB484054909F8D5CBD4A40200DA7CCCD370D406AA33A1DC80E3040BB421F2C633E5440422619390BDE57400FD07D39B3654940433BA759A0B52640A98768740729214030478FDFDB7C55406A6AD95A5F6830406B274A42228527404C6BD3D85E7D4B40BEBED6A546885140E3FE23D3A1930F4070EF1AF4A59E584059FCA6B052D546407BA01518B2E95840A11342075DFA58409D0DF967067123406B2C616D8CAF40400D897B2C7D104240CA52EBFD46BBF63F2A8BC22E8AAC4E404818062CB9385440D00F2384479B48402AFD84B35B9F3240C79FA86C58694440842D76FBAC405540EF0390DAC4DB47404A287D21E4B84E40723447567E0945406728EE7893F65040302B14E97EAA43407F50172994E13F4060AC6F60725B3640DF8C9AAF921F58406364C91CCB654A400455A35703A03A40C366800BB20F5440151DC9E53FE24540DA38622D3E8D5140570A815CE29A40405D15A8C5E0311140E603029D499756401842CEFBFF584340DA8D3EE603184D40FC6F253B36DE424084B70721204F25403FA88B14CA005340664CC11A67EB3F40DD5ED218AD515340CB4BFE277F754540D1915CFE434641404D310741473D46404C8DD0CFD49556409DB98784EFB3444051A5660FB4A204407AE2395B404B5340207EFE7BF06C5640B1169F026034364093FE5E0A0F1A114002637D0393225440ABAE43352509414058703FE0818B4340E6CDE15AED24554065E08096AE70374074B7EBA5292E37405C8DEC4ACB724740734A404CC21D5140A88AA9F4130A4B407192E68F69434E40E48233F8FB535240B5C35F9335085740A5BC564277112D40DECA129D65E62540EC681CEA77A345401250E108523A50404ED026874F4E47407D40A03369EF4540A1478C9E5B6D514027D87F9D9B404B405586713788225540271763601D534B40B0AF75A911EA4740938C9C853D15454003249A40114146408DB5BFB33D323340BABA63B14DAA2A40AAD381ACA7D05840785F950B95B9554019A9F7544EA140405E2F4D11E0804B40008FA850DD9C0940944E24986A3621407079AC19193C484019CBF44BC4BB3140A48E8EAB913B46401EDFDE35E8BA5240C55565DF15753F404963B48EAA8A56406364C91CCBF3404066DB696B44A04540535DC0CB0CE758400F4240BE8421534009FEB7921D1BD53F3A3E5A9C312C53407041B62C5FCB4040BEBD6BD0974E4A40F91400E3198843403BAC70CB47B21940AE81AD122C763A40BA4C4D82376955401DE56036016E3B40E5B7E864A91B4640B6F5D37FD6F84840EFC682C2A078314027A5A0DB4BE8464005FBAF73D3235340768BC058DFF83C40AD855968E7AA5640B5368DEDB5400E40287FF78E1A914D403E213B6F638657407BBC900E0F6852400DA7CCCD372F5340A86F99D365854140F54718062C07544014984EEB36D24040D11F9A79724DDB3F16F71F990EB452403AE7A7380E4C324087A8C29FE1F656406E1805C1E38B1040616BB6F2926A5340C0CDE2C5C29016405FCE6C57E81F5340DC0DA2B5A2CD4240053411363CB13440E1F08288D4E455401A33897AC1F544403370404B57502D4098309A95ED3947404242942F68E92B4095F0845E7F155440224F92AE99B83540BBD1C77C40D55440C9AF1F6283493540BFB51325214F49404EB857E6AD0230408D9B1A683E4330405D86FF74034F474017A06D35EB104A4015562AA8A816404061E0B9F7704356407BF5F1D077935340EBC37AA356444A4058FE7C5BB0D408405019FF3EE31441403D9B559FAB094D4016FA60191BF44B40D55B035B25383A40AE484C50C3375740EB36A8FDD6244D40BFB67EFACFE85140CB67791EDC6D4A400A9DD7D82576584038BD8BF7E3DE53404B5CC7B8E2A85440776A2E37186AE73FB1A547533DD14E401689096AF84156407B4CA4349BB254404F20EC14AB544240A5BF97C283561940003ACC9717A84E402A52616C21F55640AD1402B9C4D11240CF13CFD902904D40CA37DBDC985C4140F19C2D20B49A4C40F8E0B54B1B162040AD307DAF219A4740BBD39D279E2F34409E280989B4ED3940A226FA7C94474640AC8F87BEBB475040EBC891CEC0E80940AE635C7171D4E93FB41D53776508544041F0F8F6AE5F4B40813D26529A8255404DC0AF91249E4A4077D9AF3BDD4958406058FE7C5BB75340CB4DD4D2DCAE3340656F29E78BBDF03FBF9D44847FDD3140116F9D7FBB4F5440DD7D8E8F168B4840DA8D3EE6030223407898F6CDFDBD2E40FA7C941117483C40ED2C7AA70202534049F59D5F948C31406D8E739B70854E4098DD938785AA224084BBB376DB15124040C39B3578573040F46F97FDBA93024006D671FC503A5040D4981073495651400B630B410E9E3C400A14B18861625540A9177C9A939F4740095053CBD6384240389F3A56292351405E656D533C3E5140317903CC7C914F406FBC3B3256A34D40A164726A677820409D499BAA7B9758401DAB949EE9185240D8D47954FC1B434056BB26A4359A4F40AEF36F97FD2C4740D578E926312438401D588E9081803E40D0D38041D22553400B24287E8C7D3440340EF5BBB0A14440CF68AB92C8F35840EFA99CF6946C3C40B7990AF1480856409622F94A203B4040DD5ED218AD305840A1F2AFE5956B0C407B2E5393E01D15403882548A1D3D40405C76887FD8815040B47405DB882A55408600E0D8B3165640FDF7E0B54B4D49402CD49AE61D673140C39B35785F0D4340164B917C25F64840DA1EBDE13E5153405917B7D1006A48405C3CBCE7C0C04840D0622992AF484F40E4A1EF6E6589D63FF9D687F5461D5240B8E4B8533A9C444069554B3ACA513640C40776FC1708F53FC18F6AD8EF393D40FED30D1478474C40D4D347E00F9F45406C938AC6DAAC5340EB54F99E91503B407DCD72D9E84E40406D1ADB6B41635440AD855968E7925740EC3026FDBDAE404069C537143ED94540E4F6CB272B060140B7291E17D56F554026E4839ECD9243409F008A9125074E40C37FBA81023353409C4EB2D5E55857408330B77BB95B42403337DF88EE7850406765FB90B7B8424008228B34F1C350403ECDC98B4C7A5340158DB5BFB3195140022CF2EB8747534027A435069D300040221CB3EC49604440D4F20357794A43402BC1E270E6DB36405DFA97A432D6564039B9DFA128244D40417DCB9C2EA055402C64AE0CAAB74F40622CD32F11CF0640C8EC2C7AA79A2E40336DFFCA4A075440A7EA1ED95CBB41400518963FDF524340D8B79388F0F95340EF5701BEDB155540719010E50B9C4540CADC7C23BAC33A40C6DB4AAFCDA04340D1747632383B5040956247E3507FF23F9818CBF44BB2544020274C18CDD655403D4679E6E5B00740FA9B5088803B56407BA4C16D6DE74540392BA226FA785640D789CBF10AAB5540992842EA76C65640C87E164B910C3C40882B67EF8C8C5340C078060DFD5F5040F4FBFECD8BAB254096CCB1BCAB664E4042B28009DCD64940D4D4B2B5BE080D402A745E63972E4D406DCA15DEE5622F4093C9A99D616A9B3F0F45813E91FF204086200725CC7C43400518963FDF3A35407EE19524CF953A4090BFB4A84FED55401B67D311C0B34D406AA33A1DC8F2564099A0866F610A50402B2FF99FFC1D4240D6E429ABE9644440ABEB504D49135640E6C93505324F4B406B9A779CA2034B40A8FDD64E949C3E4002637D0393BB1840B933130CE7A65140F33AE2900DD9564009DFFB1BB43E5540B343FCC396A62240035FD1ADD7864E402CD7DB662A0050405C02F04FA90A2F40FD4D2844C0854B406C921FF12B0F5240876BB587BDB83B40336E6AA0F9EF5140BCCD1B27859854406AC2F69331E04F4044F98216121D5440C11DA8531E334C4076A565A4DEB55740711E4E603A753D406E32AA0CE3415540349F73B7EBF3514006BAF605F448464095490D6D00664540A99F3715A9D04C409C8A54185B9840401C295B24EDA63140056F48A302C95640E36DA5D766BF3140001B1021AE0C3F4005DD5ED2181D1340740CC85EEF925240E605D847A756434083893F8A3AE552403259DC7F641442407E71A94A5BDA4B40321EA5129EAA53405EF58079C8343F40E6E5B0FB8EE34340F6419605131B3A4085D1AC6C1F022840F20BAF24798E3040EB54F99E91803B40315C1D00713D4E40C24EB16A10EE4A4006465ED6C46A2C409E094D124B105640DA0418963FC05740C93D5DDDB1815540C9E53FA4DF935540CA349A5C8CA54440F3CCCB61F77949408847E2E5E9A2504019575C1C95132B4064027E8D244954408997A77345CF4140083D9B559F3A544042AF3F89CF0944407AA702EE798E2F40342DB1321AC358401EA67D737F234D401D05888219A32240533D997FF4534C405C9198A08633434055F833BC590155405AF2785A7E244340B0E600C11C8755402810768A55E3194006685BCD3A8F3440BFD6A546E8BF2F4098DEFE5C34503240DBDD03745F804B40FDF9B660A9484E406DAE9AE788185340CB811E6ADBA4344086032159C0E44440C93EC8B2605A3340DFA5D425E30C484086C77E164BEB4F404489963C9EF25640A2B437F8C2742E409BE3DC26DCEF3140856055BDFCE15640A794D74AE89E2340ADA7565F5D075540931804560E0943405F950B957F6534405BB05417F0DC4940309FAC18AEDE1440EB8CEF8B4BAD3540B83D4162BB73294075B169A51021504035CF11F92EFE5840FF9254A698774D40E0BBCD1B278552406E895C7006F72140AA99B514903A3D4015A8C5E061FA0640AC3C81B053C957403E062B4EB53657408EAD6708C70C16402922C32ADED810407FBC57AD4CF4414016A75A0BB3D156408FE046CA16A95540ACE3F8A1D2302040D6355A0EF4825740E2EA0088BB225240062B4EB5169E3140A110018750EE5240A67C08AA466944407590D783491D3040F8A8BF5E61EF56406FF1F09E0307524002F1BA7EC1623F40BFD6A546E8C0574095D233BDC4AB5640EC6AF294D5FC384012F8C3CF7FFF17403A3B191C250557405D6C5A29040E44400A9FAD8383AD2040A85489B2B73A44407008556AF62034408962F20698CD3340E318C91EA115524009A69A594B9541407D5EF1D4235B4540847F11346610454088A1D5C9190D55405B785E2A360A33407959130B7CA54E40A5D93C0E83B15740C2DA183BE16D31404C35B396025E3340417DCB9C2E0940401E6B4606B9DB3F401D3EE944828928402387889B5389064020240B98C0D14A401ADEACC1FBBD57400C8FFD2C96521C40AB933314779B5140FBAE08FEB7605540E355D636C51058407F30F0DC7B3E53408FE21C75749445406D8FDE701F6915400491459A78F6574075ADBD4F55494A40520B259353394740BBB4E1B0344A41407AC37DE4D6785040F5143944DCA85440C45E28603B164740158DB5BFB31D4240FF3D78EDD2144440A1866F61DD6354406EF9484A7AC5544023A12DE752144840753FA7203FF0544009A7052FFA7D544067EE21E17B4E524007616EF772C7484039EE940ED6F25340C26D6DE179191940B40584D6C3FD54406EA301BC05B04A40BF0AF0DDE6893B4019AC38D55AF842402672C119FC893A40A33B889D29204D40439259BDC33F4F40E02A4F20EC14E83FD61A4AED45F64F407BDB4C85786412403D1059A48993424052D2C3D0EA9B5040BBD39D279EF14A400B0C59DDEA2D3840FCE25295B6F80D40B935E9B644EA5440420A9E42AE5C304032AF230ED960074048A5D8D138A83D4028F4FA93F8F65740433866D9938003409EB64604E3A95740F030ED9BFB032C402DEDD45C6E1E40402D3F709527095240473EAF78EA9C5440AA2A3410CB265440A400513063DC4240F69A1E1494123A40A5164A26A7AA554081EB8A19E15C504050ABE80FCDDC18403B8F8AFF3B3223409D2FF65E7C012B40919DB7B1D9C9424024F0879FFF7554408716D9CEF70B294069554B3ACAE056404D2EC6C03A3F54407F2E1A321E2D50406CCD565EF24B55406C054D4BAC3C2240AF78EA9106DF3A40069CA56439595240B5A7E49CD86D47406249B9FB1C894D4002D369DD06685040A1F2AFE595B338400E15E3FC4D78574053E8BCC62E6D39402E01F8A754B14D407A1C06F3577E47408ACC5CE0F2704640B98E71C5C55110408EE89E758DCE55408A0629780AA93E40B1868BDCD3293F4080F44D9A061546408A73D4D171E95340F030ED9BFB4B3B405CE674594C9C4A401555BFD2F94A5440D0285DFA976C324093718C648F70534052B648DA8D865740EC51B81E85673A407A56D28A6F2953408028983105D95840A48B4D2B8576454051137D3ECA743C405AB8ACC266F01040530438BD8B772340A3CB9BC3B5C04C409E23F25D4A253F4089963C9E964553409FE74F1BD54913404241295AB9172A40488787307E52454009E23C9CC0342F40973B33C170D353407365506D70155840583849F3C78D50402481069B3AA551401590F63FC09A41401A4D2EC6C00F53406E4C4F58E21F58408D43FD2E6CA14E401C60E63BF8A9204039622D3E05D84E4016FA60191BDA0F401F2FA4C3439C4340FA25E2ADF39F1840C87BD5CA84874640A0E062450D2620404703780B24ED5340C845B58828C84240F418E599974B2140CE33F6251B2F0D4002BB9A3C65F13C40FD101B2C9CFC2840BAA0BE654E274140B950F9D7F28A2640B91798158ACC42409CA38E8EAB725840E141B3EBDE824740FA97A432C53D5140CBF78C4468B75240E50B5A48C00249404AEF1B5F7B7A4140D447E00F3FDF3F407974232C2A123F400B9B012EC8F235400D52F01472605040F295404AEC215740F110C64FE3FA5540994528B682E61E4085949F54FB584A4039605793A75C2E40522976340EA14B407784D38217652940EDF5EE8FF7023740F777B6476F004D4027BEDA519C0153406C787AA52C5732405837DE1D198543408BDEA9807B1E1D4030116F9D7F7F4840DCF0BBE996413B40B82231410DF9554094F8DC09F663504081423D7D04D551404277499C15F53040D87DC7F0D817574075B0FECF611B5140A08B868C47594340F566D47C95442F40EBC726F9114651400283A44FABB758400AD9791B9BD13E406AA4A5F2765B54407D21E4BCFFCF0440BC92E4B9BE7F4E40BCE9961DE2433C4033FAD170CA042E4021EA3E00A9252140D7DEA7AAD07E4240F5108DEE20662340F9BEB854A5E15040C6C03A8E1FDA4A407689EAAD81F14840193DB7D0959442400F43AB9333FE4E40D525E318C9335340653733FAD1EB55408658FD118613544002D9EBDD1F794940594FADBEBA922840E6E5B0FB8EEB56400553CDACA5D75440683D7C9928524440AB4198DBBD14294051C07630622B5240A31EA2D11DB6434041BCAE5FB03D454024F0879FFF1350403C889D29742647403049658A399C534072E0D57267162A40CF6BEC12D5332D402BDCF29194A64C40933655F7C83A51403909A52F84564740EE08A7052F164940B7D4415E0F344F40554D10751F88504036AB3E575B413D40859675FF58B758401536035C90A7494050FBAD9D284756409CDB847B6532434059DAA9B9DC801140E38E37F92D9C49401827BEDA51704440102219726C4930407E6E68CA4E8B4440438F183DB7C0554004E5B67D8F7237405F46B1DCD2D357401E17D522A2D81840904FC8CEDB664040E99AC937DB3C24406DFE5F75E4684240C1A90F24EFDE5040E7C41EDAC74A3A40C4CF7F0F5E733E401D9430D3F61F5840DAC87553CAB5574082C8224DBC3F4B40EFACDD76A13D37401F82AAD1AB5758405DC2A1B778B821402FC37FBA81635640029EB4705955144010EA2285B2B843403F726BD26DF85040FFB27BF2B08845409AED0A7DB08E50408010C99063133840E02EFB75A7833040284696CCB16A4140643A747ADEDD3540CB64389ECFFC5440015130630A6850409C6C0377A0662440F91400E31943564050711C78B5DCDF3F33FCA71B28302A402FDFFAB0DE602E404182E2C7981A58403EB14E95EF3B4940B6BDDD921CF436402EABB019E0C85540F0C16B97366C12408368AD6873515440E6CE4C309C9D444018CC5F2173614440FF5E0A0F9AA14B402234828DEB314340F88C4468045D41403883BF5FCC7D55404E9D47C5FFA342407976F9D687175340164D672783F54C40FF774485EA263B4055BDFC4E930B4E405A643BDF4FD34240E4A08499B61F22402E71E481C8CA4C408F705AF0A2572240153C855CA9C7094063F20698F96A4540C66F0A2B15241240F5108DEE20CE57407F87A2409FC03240C39D0B23BDB0394005DD5ED2183F4340C8EBC1A4F8C644402250FD8348D64E405FD0420246F7564026AC8DB1134E3F40336E6AA0F92A40402367614F3BF83640C1FD80070679544081D07AF832C54640BDA94885B12B4C401EA4A7C821DD5340CBBF9657AEE5474001A777F17E9453405FB2F1608BBF5840E19A3BFA5FCE4540FF0758AB765B42401A16A3AEB56F544063D520CCED404A401D39D21918BC554022A5D93C0ECC5140287D21E4BCD85340408864C8B15D4940878BDCD3D5313C4078D4981073291D400858AB764D2E4340EB5223F433CD2E4032CC09DAE4B82D401B9FC9FE79BE3240EC88433690CD5540B5FE9600FCBD564059880E8123145340F12A6B9BE22925409FCA694FC97F4E40A3CB9BC3B54A23409D6340F67A170E40E02BBAF59A0A364021CD58349DCD254074D2FBC6D79053403E92921E86DA5740F437A11001155040B1DB679599FA48400F99F221A8D63840401361C3D33F3B4094D920938CD04E40575F5D15A8D13940F56393FC88C05240D7F7E12021FE4240C6C210397D214340923B6C2233EF45403126FDBD14F256408B4E965AEFF852405E0EBBEF18E04A40876EF607CAF52E40EC12D55B03C3584073840CE4D9C05340E3DEFC8689964C400989B48D3F510D40D1747632380C4B40F99E91088D6957409D64ABCB299130402E8D5F7825B5574005A8A9656B052240F4C0C760C53B444092EBA694D7BA3B4009E066F1627D5140E140481630FE54405E4D9EB29A4E28401BBAD91F28E955403DF19C2D206C27400873BB97FBCC5840E9263108AC0044403BC8EBC1A4C04040C5C9FD0E450115405BCF108E59695040E197FA79535D45400E65A88AA9335540C2F693313EC3574039B4C876BE2F3940C7A17E17B6D855403733FAD170865140180AD80E46ECC93F02F04FA9127932400E4E44BFB6DE394032E9EFA5F0905440B6662B2FF9A8504088BCE5EAC72C56404C35B396021E3C40E4DBBB067DFF40404D327216F6741A401497E31588E55140DEFFC709137750401399B9C0E5474B40C2189128B424444037514B732BCF56407233DC80CFB34E4037C478CDAB305540F415A4198BB4564022382EE3A6924D40C102983270C24B40145FED28CE8358400648348122B64B40C347C4944878444066DCD440F38144402828452BF74C4340DFF94509FA3251407D59DAA9B92E55408B6B7C26FB714940C382FB010F155140F0C2D66CE5BD35401137A79201D03E4094DA8B683B363F40F3CCCB61F7A74D40FAEC80EB8AB9334077A22424D236E33F5C566133C0A74D405EB9DE3653392E40A67B9DD497E53A40BD1DE1B4E025474018EC866D8B4A4340E99C9FE2387C4940F9484A7A182B584096B4E21B0A8F3040073F7100FD985240DD240681958B3340CAC2D7D7BAD04C406F675F7990B255409CFBABC77D5F39407AFD497CEEB8384016A6EF3504054D40825660C8EA0E4B4032E5435035A23640677DCA3159C83240789961A3ACD75040554FE61F7D5B52403D450E11371F2940B151D66F26CD514038BBB54C860940408D0DDDEC0FB44F405F5CAAD216172440B534B74258754E405CCAF962EFF74840FDF675E09C7C5840C51F459DB93D5640F986C267EBD03F40FDF49F353F04504057EBC4E5783A544008E6E8F17B5E5840BF81C98D22D74440DFC5FB71FB2C554069AA27F38F17504031B2648EE5EB4840C1E3DBBB067B55403BE0BA6246143440C07B478D096F4240CD21A98592653F40F568AA27F3214F4014799274CD4F54404AECDADE6E11204079B0C56E9F14564001892650C4664040FD6A0E10CC035340E753C72AA5A94340419AB1683AF450407C98BD6C3B674C4016A3AEB5F7934140DFFB1BB457ED49409A94826E2F7925408D98D9E731444340F660527C7C9E3F407B116DC7D4DD444034BC5983F77B4C4044E048A0C1C355403FAC376A85791B402716F88A6E194D4096E99788B7D354404AB54FC7633C48400C01C0B16757384078EE3D5C723A43403813D38558F14740A774B0FECFC74E40454B1E4FCB3B4E40BFF2203D45E64C40B686527B11C15140B8239C16BC403040EEB1F4A10B4A3E405F44DB3175B727401406651A4D244E40E3E13D0796673E40F2237EC51A662C40A6D425E318635340096B63EC846F3C4036CAFACDC43C4C409F909DB7B1912E4034DAAA24B26C5340EBE2361AC0FD5440C68A1A4CC32E4C402A1BD65416DD29400CE9F010C6CB41408CF50D4C6E803D400E4FAF94659E4C405111A7936CC858405DC47762D6F74A40E527D53E1D074440E2EA0088BB5A2C40C38366D7BD950540718E3A3AAEB24A402E7079AC19D90C40A3AD4A22FBBC4D40ECFA05BB61854C40E8D84125AE63F63FAED9CA4BFE871E403DB665C059224840315BB22AC2DD194085B4C6A0133952407FDE54A4C2302A40672783A3E46B4B40CB845FEAE7CD124045D7851F9C29514000378B170B5F42405D16139B8FDB2B40EAB0C22D1F5F4A407D5A457F682A56403D601E32E58540409ECE15A584C433408997A773457F4D40A11342075D5F54402E724F5777744F40919A7631CDF64540BD70E7C248C33E4049861C5BCF3E4540BFD7101C979B46408EE733A0DE524A4014ECBFCE4D9337405D37A5BC563E3A401BF1643733222B40E8A1B60DA30F51404791B58652FB2B40B821C66B5E613C40C5E74EB0FF5C4F4075CC79C6BEAC51400801F9122ACC4040FDC1C073EFBB544094A2957B8135324061A5828AAADFE93F0CE9F010C6BC57405322895E46D53D40B28174B169AD4640664AEB6F092A4140658D7A8846D70340A12B11A8FE494740187D0569C6E20940E5B33C0FEE163E40A20914B188674D4027F56569A7A75040D520CCED5EA630409DB81CAF40783240A835CD3B4E953840E753C72AA5A3384002D6AA5D13C357405E143DF031C0524064062AE3DFB71040FEB8FDF2C92C534064AF777FBCB71E404CE2AC889A243B404B3CA06CCA351F40998235CEA6954D40139B8F6B43C95140CB4DD4D2DCB95240A3EA573A1FE23340B77C24253D8D54404AD1CABDC09245403D821B295B17574036CAFACDC4AC4B40CEA5B8AAECBBD53F4B72C0AE26B457402AFEEF880ACD5740C974E8F4BC945540E7E26F7B82D0534071395E81E8D14B406FBBD05CA7C54540508D976E12E94940F3E2C4573B5A1E40DC7F643A74BA1240A81C93C5FDA75640CC457C2766DD37407007EA9447D543401FF64201DB2357403BFC3559A38A5840691A14CD0386474081EB8A19E1EE52408A027D224F1D5840F294D5743DAB4C40BE1589096A402C4049F7730AF2F0514040170D198FCE5040F88903E8F78952404A438D42920B4040EB538EC9E2DE21402BC24D46951D37405CE84A04AAA54C40ACA8C1340C7D4140662FDB4E5B934D40B343FCC396DE0D407496598462A5424009FB7612114E534061FA5E43705C044000C45DBD8A825140185B087250045040F3203D450E5857401BA034D4287E47405245F12A6B232040ECDADE6E49744A40A7406667D1C94440A8FE4124437E1B40FBE59315C39D4C40003620425C345240DE5A26C3F146414068226C787A2F4540BC92E4B9BEE955404E603AADDB304A40DE1E84807C9F4E400E1137A792B94240E52B8194D8034740F240649126724240D8F4A0A014254940CF84268925D253405CAAD216D7180D405AD427B9C31F5240984F560C57A33240F7B182DF861443405930F14751D6534063D009A1830752407CEE04FBAFEF4440EBFD463B6E184140E7C75F5AD4014740AD3594DA8B545140A6EECA2E18CB5440137F1475E676374059FD118601B55140DBF813950DEF524018062CB98A834C404C8BFA2477783C406F62484E26284340EFE2FDB8FDC353403FFED2A23ECB4D40D3F544D785AA5440ED9925016ABC5340FA0CA837A38A3A403048FAB48A8C514007EBFF1CE65B384081ED60C43E8A5540BC96900F7A8441406840BD19350B4C4065C6DB4AAF185840F5D896016729E63FDAFE959526BF4340A0A52BD8460056404AB6BA9C12C03640C442AD69DE254940C632FD12F1963340CC7D721420E24040A9143B1A8790504021E7FD7F9CBA4440514D49D6E1902040003ACC9717864D40D5EB1681B1515240B24813EF002F3040C901BB9A3C5D3E40EEE9EA8EC5D231401897AAB4C5251A4000A94D9CDC725540772FF7C951D64A400400C79E3D88544085B2F0F5B54654407C48F8DEDFEC534086E464E2566105407B2FBE688F9B4840742497FF90B23840B01BB62DCA3435404DBD6E1118DE5740C79E3D97A96910406F10AD156DC63140BC22F8DF4A8E34401B2AC6F99BA45540E294B9F9467D5340FD2D01F8A73C2B40A4FB3905F98C504093A8177C9ACF5040CB30EE06D1944A40635FB2F1600D5340E63DCE34616D4F40A112D731AE102D406EF7729F1C1342402788BA0F40522F40228AC91B60AE2F404D0F0A4AD1D857405A80B6D5AC194F407CB94F8E02343340CB4A9352D0D13D4063B7CF2A3335354066868DB27EA55240AAEE91CD553B2D40774A07EBFF2454405DC0CB0C1BE75740429946938B6051403737A6272C2A5840FB22A12DE7023B4043C879FF1FF720409279E40F067E4C402D25CB49281D2D408C2E6F0ED78C4840E8BE9CD9AEE55640B7F1272A1BD23E40F65E7CD11E27574061E124CD1F4958409B75C6F7C5DC5240CEC7B5A1623657408BC3995FCDD943407C0DC17119A34D4063D1747632CE4A40344C6DA983103940AF27BA2EFC924440A0E1CD1ABCD94C40BE8575E3DD6754402F17F19D98C35440A27A6B60AB4C2F405F0A0F9A5DE75840DE1D19ABCD472D40E1EB6B5D6AE43940EBC4E57805B450402C2B4D4A41FB3740A9F57EA31DA71540DF89592F86C0584004AF963B33BB4B4029EACC3D24FC2C407505DB88279651405E807D74EAEE4E40C5E74EB0FFEE3E402B69C537147C4B4054E6E61BD12D4D4045B75ED383223940AF22A303924C4F40A568E55E60BC49405D8AABCABE925340C748F6083537344059147651F4F64C409ACC785BE9793240124E0B5EF4294140A79201A08A6B304043C70E2A719DE33F6090F46915CA5040D026874F3AE1394027309DD66DA8444092955F0663045840B7291E17D51C5440747ADE8D05753640DFC5FB71FB551C407CF1457BBC5C3F403B376DC66936564085EAE6E26F30524013D731AEB81028404AEF1B5F7BE255409B70AFCC5B4741404DF8A57EDEEC484085CE6BEC12F95740CD565EF23FAD4C4081CEA44DD5BD5740D6C9198A3BDE943F54FF209221871F404832AB77B8A55240F7578FFB565147403A579412822344401975ADBD4F33474089B7CEBF5DCE4040DDE9CE13CFF255407E3672DD94C95740F9F36DC1527D2C40EE5F5969526C45403602F1BA7E1158407A1A3048FAF44640FC8A355CE44E41408509A359D90A53403866D993C0E62F40DB166536C8CC5540E94317D4B7F4444010AE80423D1A514098C0ADBB799245406477819202B3294001A777F17E915240F1475167EE692240FD4CBD6E116438402CA0504F1F8956408E20956247CF3740BEBED6A546CC51402DEBFEB1103939403ECC5EB69D564A4020425C397B3F2A403752B648DA893E40888043A852B3044000FE2955A2084240368FC360FEE85540D65757056ACF5140D927806264353640ED815660C8984540E259828C80DC51406B9A779CA25B4040E0BA624678A14F40D4B837BF61765540EC4D0CC9C97C4A40BF7CB262B85A1A40B2D7BB3FDE8A5140C3D32B6519D84B402EC72B103D7D3F404913EF004F9C4C405EB9DE3653492B4084656CE866F33A400B43E4F4F54A46404CA7751BD44A3D40B8AF03E78C0A5440A88FC01F7E3B5240FBB0DEA81574554091EEE714E4085040AA454431793E53404819710168EC2D408463963D09983D40548B8862F2DE4140C39ACAA2B0632E407782FDD7B9474540990F08742627554076A565A4DE254C40B3D1393FC5BD3540DD0BCC0A452E3240B5C6A013423F3C401D71C806D20534408A8EE4F21F09514011FDDAFAE9254140FBCDC474217E564050C58D5BCCCE55404149810530D75740C98E8D40BCC255405C3AE63C634F42402AE27492AD2E1F40889FFF1EBC3E47404701A260C65443401A51DA1B7C292F40FCA5457D924143401A321EA512662940081EDFDE35181D409E5F94A0BF94394027DBC01DA85C5440FED137691AE41D407F4C6BD3D81854406C7A50508A7E564086E28E37F97D2F40842BA0504F8F454028BB99D18F4E4540DA1A118C83233440FEB5BC72BD752C40567F8461C07A4540A4C343183FD25740DCB8C5FCDCE02540306475ABE74E4740768BC058DF382E40FAB9A1293BA94E40D252793BC2091D40EF552B137E312340FF58880E817F50403E93FDF334E044409B3C65355D835340C32973F38DEA4240A1116C5CFF1C4C40E204A6D3BAB14E4006B8205B96933E40A8FE41244374544084B9DDCB7D5054402D060FD3BEE12240B84082E2C7F2444097CADB114E0A55401406651A4D065540037D224F925A4740AD33BE2F2E034F402106BAF605D55840F6CFD380417232403FE257ACE1E850402BF702B342BF4940E2016553AE943640C6A70018CF503A40F418E5999795514087FE092E561C2F40ED444948A44134402026E1421E653940FB04508C2C134C402FBE688F17375640AC1E300F99223E40CD3FFA264D5B34402F4D11E0F46C454020CF2EDFFA7357403370404B57CC58400BEF7211DF293340F7915B936EFB55407A5567B5C0235340B1506B9A776458404014CC9882C94F40BA4E232D95CF3E4004ABEAE5775AF43F6B0E10CCD14F52406E5166834C522140608F8994669B3240191F662FDBCE1F40A20DC00644395640A1496249B90734407CD3F4D901C335409A3FA6B5693C1340A27DACE0B73952401C446B459BE30E402DD1596611F44940CB2E185C73FB4B4016A1D80A9A5A3340F54C2F3196B923405BD2510E66F85040E42CEC6987933B4051DA1B7C61B22140EDEF6C8FDE344840AA9D616A4BED3540EC6AF294D5E9574044C4CDA964303740EAAF575870895540530438BD8BEF5840CC46E7FC14C7D33F963D096CCE0E5340C3B986191A5F2B403CF9F4D896614B4023DDCF29C8774540904E5DF92CAF0640CB68E4F38A565440F4893C49BA105840E99B340D8AC551400934D8D4795C2D40672B2FF99F7A4F400FF10F5B7ABE4A407E8E8F1667924F401CF0F96184A833409204E10A284A46402711E15F04C3514062670A9DD7EC5540397CD28904D33240B9A81611C56C3440014C1938A0E947405871AAB5300B394025404D2D5B334A40522B4CDF6B443840E12879758EAF4F405D6C5A290436444050ABE80FCD7C26401F49490F43DF3240D9CC21A985B24740A52DAEF199F75640732F302B14712A40CD91955F0643214068E7340BB45555400B96EA025E74444043E6CAA0DACA54407B681F2BF8E93D404E098849B802424023F59ECA690756403CF9F4D896AD3440454B1E4FCBD73F40CA1AF5108DDE3B40C58D5BCCCFD52640D6E5948098855640E0A128D02772E43F2786E464E2664E40F8544E7B4ADB5240C3EFA65B76FE5140C780ECF5EEAE5740D6AC33BE2F4355401363997E89EC3D408FC536A968AA484096B036C64ED05540C93D5DDDB1D43F4029B000A60CE83540DCA16131EA744D405C3CBCE7C07C4F405A492BBEA1AB5140E25817B7D13E494050C422861DBA48408C65FA25E2974E407E5358A9A0C44F402B31CF4A5A3551409357E71890B93A401C60E63BF86F55406DA818E76F1A3C40537B116DC77152400CC9C9C4ADC452404AEB6F09C0914240304AD05FE8BE5440C51F459DB9414E406F2D93E178D64540DF32A7CB6232414065E256410C243C405E9CF86A477D3340F10F5B7A34674D40D02A33A5F51B584091D6187442080340BC3D0801F97E3640466117450FED56406E861BF0F95E5740FAB660A92ED04B402C2AE27492A53640E3DD91B1DACC3C40B24B546F0D2646401A6CEA3C2AD23B406682E15CC30CEE3FC2C1DEC4900A4F40F299EC9FA7913D402D0ABB287A2245402849D74CBED744408E0244C18C8F5640C093162EAB183A402979758E01CE5340FCA5457D924D534022E010AAD4A84740F6EB4E779E203740E5637781929C42408C9E5BE84A604440C956975302923A4037E0F3C308812B402CD505BCCC6F564083BEF4F6E794584077BB5E9A22724A40BCCCB051D67250409758198D7CDEE03F39D384ED27BB4E40B0AC342905F75240D200DE0209F22F406116DA39CDFA2340F92CCF83BBC739408FFCC1C073FF2240753BFBCA830C4040CE8C7E349C6057405262D7F67687374056D636C5E3C452407593180456065740840F255AF214324003B5183C4CC326400B08AD872F9B3040AFEB17EC86995440492C29779F414440350BB43BA40E4B40448655BC91012D402CF015DD7A9D504077F35487DCEC394021037976F95E4A402D3F7095274846407BC03C64CAF45140E6046D72F8F24140D525E318C9145040624CFA7B293356403946B247A81D4C40AF5FB01BB6B94F402766BD18CA1A58408D0E48C2BE8057406EE00ED429855840BE86E0B88C573840DBDC989EB0943D40C3482F6AF7AF3F4095B7239C16B0324073D53C47E4032540BE50C076300A22409DD5027B4C8A42402F51BD35B0EB4A40FC6EBA65876A4A409B58E02BBA993340E44A3D0B427530408FAA2688BA7D484080D6FCF84BA143406DC5FEB27BF24240378B170B43F355404DA25EF069E850404C16F71F997F554057EE056685FA54406BF3FFAA23F952404E5E64027E71494036AE7FD7679F564017D34CF73A9144409D685721E5EF214073D6A71C93C5DC3F4D2F3196E93F2440DA59F44E057A4B405E2A36E675AA4240AD4CF8A57EF04E40D93D7958A8CF57400DFFE9060A0C4240624B8FA67A4D5740376F9C14E64B5840D926158DB5033D4082751C3F545F5640AD8905BEA2DB324032AD4D637B934B40A983BC1E4CFA1A402106BAF605D7544073BD6DA6421C18406B813D2652DC5440A038807EDFFB4840ADDBA0F65B9F3240944DB9C2BBBC4B40F52B9D0FCFC75240661536035C2C3640FD6838656E9E39409C340D8AE6911A401CF0F96184A45740FCC56CC9AA624340F8FC304278215540448B6CE7FBBB5540C70E2A711D9B52402B357BA015983540BC3D0801F9724E407CD5CA845F955440CC24EA059FE0404038BBB54C86D33A401DACFF7398705340787DE6AC4FD94640763579CA6AA2564031D28BDAFDA75640261AA4E029484A4003EACDA8F9A44840026729594ED855408DEC4ACB48E25440E5266A696EB15040E9F010C64FED54406ADB300A827458406002B7EEE6C74340469561DC0D8B56401F86562767043140D7BD158909CC4A40959EE925C60753403E78EDD286014940AEA06989953930408BC058DFC0904140EC6AF294D50558408BFCFA2136C02B40FAEFC16B974E4940CBD93BA3AD0554408A8F4FC8CE9748404FCB0F5CE5F94F408350DEC7D1CC1740FCA6B052415E564052EE3EC74755574033FAD170CAB05140D252793BC2A9F43F2C802903075437400394861A85804B400514EAE9230D5740DE21C50089423F4086E464E2568110407A6EA12B117C4A402446CF2D742B43403C4ED1915C923640FEB968C8782A4440CA6FD1C952232640FAF02C4146535540AA471ADCD61C4F40A7583508730F4640CC0BB08F4E75234087F8872D3D264D4036AFEAAC16B75240ABAE433525EB4E40C879FF1F27AE4640B4C9E1934E644440E947C32973DD4740399CF9D51C344140DFE00B93A9BA56408E5A61FA5EB25040FB90B75CFDDA49403C31EBC550BE1340FAB660A92E7C4D402EFEB62748A03F40A39410ACAAE95340D00D4DD9E9134A40ECBE6378ECD054405874EB353D8C41403CDEE4B7E8C404402B8881AE7D653540626A4B1DE489424011DF89592F0E5140C170AE6186865140C55565DF15210540B680D07AF8E456408A93FB1D8ACC44403946B247A86A5740A27F828B157C5640D0285DFA97984D408FC2F5285C3E53406DA818E76F8C404010069E7B0FEE5340D3A414747BAF4E4078D503E621475240B2F336363B9E534062F9F36DC1264640444FCAA486FE544001310917F2804A4025CADE52CE8F4B4041F33977BBBE27400AF2B391EBEF54400708E6E8F15B4140001DE6CB0B70FF3FEAAEEC82C1DE564048533D997F8C3A40E31A9FC9FEBD4F404835ECF7C47C4B402D944C4EEDB44D409B8E006E16765740EB54F99E915A5340D2C5A69542B242403F6F2A5261C44540011764CBF27D234094675E0EBB834740D7A3703D0A833B40DB31755776E102406CEBA7FFAC974D40DCB930D28B1A2D40A48AE255D6924A406B63EC849784514073B9C15087BD4840B16F2711E18951405BEA20AF07EF54403EEC8502B67334403CD862B7CF1243406D1E87C1FC1542403F373465A76331405C548B8862544240AC1919E42EFD53402FE065868D7235404D4EED0C53154940AE4676A565244940B85CFDD8240724407BBE66B96C864C402A36E675C4A53240CE397826348D4140F9A3A833F7B84F40A8A8FA95CE814E4011514CDE00A32240C03DCF9F363753400A302C7FBE7C5340B1A4DC7D8EF54C406DE2E47E874A4D404660AC6F608638409961A3ACDF195240E52B8194D82D2140D5B48B69A6414C404565C39ACAC05840A0E062450DD23C4063B5F97FD50B514048A643A7E7453B408483BD8921625340207C28D1927736405AF10D85CFAA3D40D047197101B758408E05854199F847408E01D9EBDD9E544086032159C0C04040A41B615111A7BB3F18B5FB5580B85340A77A32FFE8B14B401615713AC9C95540E3A59BC420C354401766A19DD37F5140A67C08AA462F174045F46BEBA72F49401651137D3E6849405227A089B0BB51404754A86E2E463140D311C0CDE2E15640B62DCA6C90C9FB3F6EC0E787111E3A40DDEF5014E8F329402C2B4D4A415F29404C5299620EA23140109370218F7953402BDD5D674326224009E066F1621F5640CEFBFF3861DC5340A4AA09A2EE03D73F98C28366D7F13B40477364E597611140336B2920EDC5514008944DB9C2B33F404F5B2382715450408CD8278062F422408E588B4F01AC46405ED5592DB0CB4440730F09DFFB094C40EF91CD55F33752403579CA6ABA823140EE073C3080F0E63F75E95F92CAF049406403E962D3B04740F183F3A963B65240F3AE7AC03CA44240062FFA0AD2504C4082E7DEC3256F2C40BB26A43506BA5640F5F6E7A221CF3C409818CBF44B5A49400BD0B69A758E2A4094C151F2EA9CE73F4C6C3EAE0D8D3D403E7AC37DE4A23A40C9C7EE02254857402B85402E71F64B40310A82C7B7035540E9D1544FE67721406BD619DF170718407F2F8507CDAF5140F0C4AC17436927402F88484DBB783C40E525FF93BF47474038BF61A241635340C0046EDDCD831140757808E3A76D3B403CF9F4D8966E504076FF58880EA942405A29047289165640126C5CFFAE054E4005C1E3DBBB9152409485AFAF75654C4086915ED4EEAB3240FB3BDBA3377E4740C58F31772D854940A305685BCDB44940354415FE0C8F334049145AD6FDE34340102384471BA95740D4EFC2D66CE5C53F9F76F86BB25E3440D788601C5C955240575D876A4A721D409221C7D633B15840FA43334FAE994C4012DC48D922F1414027D9EA724A025740D7851F9C4FA34440B2F50CE198B74F4031D0B52FA097044066834C3272560240FB57569A94964E40A033695375014A405C7171546EF15540C51B9947FEC0384076FBAC3253475040C18F6AD8EF112240B5C35F93358A4840C0CC77F0137F35408AE942ACFEFA544078465B95449A544082FE428F18F15340DFE00B93A91215406C5B94D920CB5740BEC1172653175240E8F86871C6F44B40062E8F3523C3F23F7E1EA33CF3165840AF963B33C12653405C57CC086FF33B4078B5DC99094631405FEB5223F4932C4026C808A870B2464045A165DD3F3A45408AE59656433C4340CB845FEAE7D52040C8D3F2035723474087E123624AAF5440CB64389ECFCA4F4034F44F70B1DA384034D769A4A5765840AC915D6919D74240D34CF73AA90D534059DAA9B9DC27574086AE44A0FADB3A4002D8800871615440AD4B8DD0CFC15040FBAC32535AD0574063B5F97FD5E74D40D47C957CECE64E4062BD512B4CFF52408B16A06D351C554096E7C1DD5947524098A77345293F5040CA1AF5108D8E2E40EF90628044994D40001E51A1BA3932401BF67B629DEA3E40A643A7E7DD58504087C1FC15320A5240E161DA37F7CB3F4045847F1134F44B400D33349E084A2340F9484A7A18125440DA71C3EFA6CB37408670CCB2277F554061DF4E22C26B33404FCE50DCF1685740F3CCCB61F70D33405F24B4E55C704940A7E7DD5850D15140314278B471003B40705D3123BCD45040F241CF66D50B3E4044C02154A9075840384C3448C1055740F3203D450E5A5740BD72BD6DA6E44C4098F90E7EE2CE52402A8F6E84453546400F0BB5A67913504090DAC4C9FDCEFB3F0C7558E19655404083328D26179B3A401FD61BB5C2B2574009DD257156A41E40FB75A73B4F8C3D407D3F355EBA02554054A703594FCB4F404D11E0F42ED84A406806F1811D565840575D876A4A245640022A1C412A6F43409CFD8172DBD63040942F682101C30C405C3E92921E68404001F6D1A92B465140C40B2252D3B151406231EA5A7B733B40309B00C3F2BB54400D0055DCB8514140882CD2C43BA04F40EE073C3080A83C407A34D593F91F4B4032E884D041FB3240789CA223B9EC28407976F9D687D855407F69519FE45E4940FBE93F6B7EBC0D4095B54DF1B8A823407E8E8F166744354014048F6FEF8B56404C6F7F2E1AB15340041E1840F88F56406BBB09BE691040404FB16A10E6E55040E17D552E54965240A8531EDD080B4240E90AB6114FD6314036CEA62380E6554070ECD973996E4640AF7AC03C64CA19402384471B477E4A40F7CC920035C52940ED0C535BEA6E49405CC7B8E2E29C3640A12FBDFDB9880040EFACDD76A1CC5840EDBAB72231E94E40C3F17C06D45F3D4078EFA83121BE32402DB308C556424A40C8B260E28F344340F17F4754A85E1F40861E317A6ED123406F9D7FBBEC205240B55373B9C1682840B01EF7ADD6E90240C0ED0912DB074140F2B22616F864424082C476F700FF47400CE8853B17A35540D94125AE6363504087C0914083C45540C39B35785FBB5440E90E62670A1A55407C7C4276DEFE4A40D7A02FBDFDC952408B89CDC7B52D5340FC34EECD6FAE5040C440D7BE80DE294048FDF50A0B684E4095EF1989D0D8474064045438827054401FBB0B9414C43A4067EE21E17BA942407311DF8959D145401C60E63BF8E53C408CF678211D6447400BD3F71A82933E40069CA564392911404C512E8D5F9020406DE2E47E878F5140779D0DF9671C4A402CD32F116F593540E1D39CBCC83E4C40CAA486360017564076C4211B48A150400A850838848C524076E272BC02FF4940B7D26BB3B14A4340971C774A073D5240F2B4FCC055763C40F564FED137992440E066F1626196494094DE37BEF6A35840FC6F253B361950401EA7E8482E314A404D4A41B797664C40A3E5400FB5AA58404A7EC4AF580D4240DB6E826F9AA63840E76F422102844F4051853FC39B094F40931B45D61A435540AC394030470FF63F2F336C94F55E544044696FF085674C402D42B115343F4E40D74FFF59F3094E40AB7B6473D5675340F0FD0DDAAB1155407AA9D898D77108407D96E7C1DD193640C556D0B4C41A56407C6308008EA34040DE921CB0AB9126404E62105839940440213CDA3862BD3440B0CA85CABFFC4740F4DE180280CB3B4066F84F3750082F40200C3CF71E924D40A3AEB5F7A92E55408FAB915D69BB49408AE3C0ABE5D65740FBAD9D2809B14140D53DB2B96AE253406D3B6D8D083552409FE40E9BC89C2C40357F4C6BD34C3240FD497CEE047D41408D63247B84FE48407EAB75E272BC25408655BC9179BC2540D7135D177E1A464082A8FB00A4B455400AD6389B8E9C444003D0285DFA765640F04DD36707E2424045B8C9A8328CC13F9C8A54185BBA41408EACFC32183F4D40527FBDC282394240865451BCCA1E3B40758F6CAE9A7754407461A417B5133A401492CCEA1D662040C51A2E724FF14040CE6C57E883A54D40A4880CAB7889534033535A7F4B8A5840B07092E68F334840D4BB783F6E7856407B13437232E53B40F8A41309A69E324045F12A6B9B2F564068075C57CCDA5240FF209221C7A044406DAAEE91CDB50040726C3D4338A35340A8380EBC5AE24A40A48E8EAB91514C4064E597C118BB5640C74B378941A0FB3FDA1D520C90164F4094F6065F98B03B40D0EE9062800F54408B87F71C584256404754A86E2EAE1740BDA772DA53F6344030F1475167C62C406C21C84109834D405C0531D0B59F354032C7F2AE7A5E51409D137B681F1945405000C5C892EF4540AB75E272BCAE304008AEF204C24646407347FFCBB5024140F3E505D847954C404FE960FD9F7144404C512E8D5F9038403F1F65C40500554012DA722EC5DD2840A96C58535961564073A087DA36543740CB80B3942C4B5040048F6FEF1AD64D40A2EF6E6589C4444084B7072120A733406B49473998015340F92F1004C83A45403D9AEAC9FC273040BE67244223164D40C1E61C3C13464940D7F6764B72305840861BF0F9610E484004E44BA8E0764A40FB761211FEF1304042B456B439CED53F9224085740F125403A07CF8426FF4340E6B2D1393FAD3540C558A65F22EE324042B3EBDE8A864740DD4598A25C622C408330B77BB96F2F406A6AD95A5FEB5740054EB6813B7C4F405BED612F145E4F40AFEE586C93775040FB7953910A1654402BF9D85DA0324A40793A5794126A2B40C72FBC92E4415840FE614B8FA67AD83F5D19541B9C324E405BED612F143E45401405FA449E64F23F7B4D0F0A4A394B4055185B0872B01640354069A8514645403E03EACDA80B4C406687F8872D4B5840AF44A0FA07A3504044C2F7FE06405740CF488446B0C152409414580053BE28402B6D718DCF404140FE63213A044D55402B51F696724D54402FDD240681952D40AD8905BEA27B3440D1E9793716E24E40B0CA85CABF423D40C85F5AD427A3444033FE7DC6858B2D40AB5E7EA7C97C1A407AFB73D190155040F78F85E8104C3C4087C5A86BED89534014967840D96C3D40AF5FB01BB60F50404F90D8EE1E043D404298DBBDDCDF5840A1815836731643406BD5AE096945234083177D05696611400B09185DDE242240B55373B9C13C4340FAB9A1293B2D25400B47904AB1535640EF59D76839BC50400531D0B52F524F40D49CBCC804943140D9AF3BDD79AC4A401FF7ADD6899B30405038BBB54C825240FF5C34643C0C4840CC2555DB4DF0CF3FDE1E84807C194D40F373435376B22A4019E76F42215C4140D93EE42D571736401844A4A65DC0404076E272BC02D130400E6ABFB5135B5440CDCD37A27B623840C6FA0626371A45402B137EA99FA54D40A2258FA7E53E5640FF06EDD5C7CF3240A8AAD0402CDB31406B49473998415340D2AC6C1FF2624B409BAF928FDDC0514001A3CB9BC3705440AFCC5B751D1223403ACD02ED0E61504035ED629AE9063C40F4F8BD4D7FB6284062A3ACDF4CFA4D40FE7BF0DAA5513D40CD052E8F35DF414040C39B3578614F409C6ED921FEC34F40B30C71AC8B135040A4C343183F793D402D05A4FD0FD4394059A31EA2D1393B409605137F14AF494056D80C70419E4E40C2DB831090F749405512D907597E214052616C21C81750409CC0745AB73117401AC40776FC294A40ED832C0B26F44C4008CBD8D0CD9D51403E062B4EB51E24402907B30930ACF73FB5E0455F416E3A40A1BE654E97AB5340FD67CD8FBF44394087A8C29FE147574018601F9DBA035840F7AB00DF6D323D40581B6327BCDC4740E7C3B304196531406478EC67B11406406A32E36DA597F43F7BF7C77BD5D63C4068EBE0606F7E4D40A35A441493434C40486AA164724E32406B48DC63E9ED5540EA77616BB60A2D4015C8EC2C7A2151405322895E46874A405917B7D100DC4F4049BC3C9D2B32304072A609DB4F4050405FF0694E5E903740516C054D4B2753402EE23B31EBC251407172BF43513C37404966F50EB7355040C554FA0967BB3540E48409A35999F13F8D0A9C6C039341406DC7D45DD9934E40D009A1832E010F40FD6CE4BA29D5124020B75F3E59F7424098A59D9ACBBD124032755776C13E544081B053AC1A595140319A95ED437E1540543541D47D864C40B1DCD26A48342540D0F23CB83B2B0D40F261F6B2EDBE5240BF823463D11A524096218E7571534E40301004C8D0294740C7BB2363B5D25740191C25AFCE974F409DF529C764CD4A400F98874CF9802B4055698B6B7CB84340C5AA4198DB4D1B40B5183C4CFBC60640709692E524A0434002B7EEE6A9064B4099F04BFDBCAB554006F2ECF2AD11434059FD118601B85640BB0D6ABFB513F43FADC1FBAA5CF03140B85A272EC77F574077DA1A118C8B3440D05FE811A3FF3E40895FB1868B70584019028063CFF84540BB0D6ABFB551574006D671FC5059404024B6BB07E82756406B4AB20E478749403049658A39E03440965AEF37DA512840A48B4D2B85675540E94317D4B7745340F12F82C64C3C50409B215514AF8231403411363CBDBA3640ABCDFFAB8E34374098F738D384C14E403C6BB75D68104B40B62C5F97E1E656409CA5643909651840C843DFDDCA12E43F4CFA7B293C9750403CBD529621EA41405649641F64AD4F403A90F5D4EA2B41405682C5E1CCCB564053E751F17F1D454032E36DA5D72E2140E17A14AE47253B401F679AB0FD8C34407BD7A02FBD014340E54350357AFD2B40CAF962EFC55B30406EDA8CD31055D03FDBC01DA8535C4B407E5182FE42794F401FBB0B9414B4504049F7730AF2D54C40C498F4F752524E40E6AE25E483ED53404165FCFB8CB851402481069B3A0FEF3F969350FA42E44140B14F00C5C8C22A4099BA2BBB605C4A4083DE1B4300B05440AA0EB9196E0F51409835B1C057C65440CDCD37A27B824140BE11DDB3AEED30400EF96706F1E53F405872158BDF50394064E597C1184950408E5C37A5BC57584029779FE3A34F4040CCCF0D4DD9C14940FAD51C20984D4340E76F422102CE084089997D1EA370324074B33F506EA95440FC6D4F90D8A44240A5315A4755A14840329067976F2F4C40AA285E656D1B52406C7C26FBE76D3740BBEF181EFBF14340B74604E3E04D5040AD4CF8A57E463140C34A051555F55740C5591135D1D71C4055A4C2D842CB5040ACADD85F76915340EDF5EE8FF73239404374081C09744440E84B6F7F2E064840AB5CA8FC6B3D3D403FC571E0D52F5740DE0033DFC1055040691B7FA2B2A13B40BE839F38801A35405725917D908D53404E97C5C4E6F944400729780AB99E4B4035971B0C75182E4062A1D634EF14484000A8E2C62D444040292504ABEAD54E402C4833164DF343406F1118EB1B364340027FF8F9EF4141404E2844C021024E4055DB4DF04DFF54400778D2C265D5F93F47567E198CC13040BA6A9E23F21D544050FD834886B83340151F9F909DDF444048A98427F4684A403866D993C01C42404BCD1E6805E2454017F032C346E2554063B7CF2A334D204060E4654D2C082F40ECDADE6E49A751409F5A7D755570184035B8AD2D3CC05540D575A8A6245F4F40F52A323A20D93C400723F609A0A2574060CAC0012D2C5540514A0856D52D4440221ADD41ECDC2840DAE731CA338F5340C2FBAA5CA85157407C2C7DE882A648407157AF22A3FE554006D49B51F3152140357EE19524D54040939048DBF84735400A65E1EB6BBD164029B2D6506A254F40F2785A7EE0C84B40838AAA5FE92957406347E350BFFB3F4090C18A53AD385240484F9143C46135403A048E041A6CD73FB1DCD26A48B64A401AE1ED4108C8D53F39639813B4F3444093C7D3F2039D4F402F17F19D98874B407EC51A2E722F23401D01DC2C5E06434091D26C1E877C55408FA7E507AE7A2A40B6DAC35E28F054406762BA10ABED58408A0453CDAC2E5240B1F9B83654F55640EBAC16D863AE4F40AA9D616A4BAB4040F22895F084C65640C70DBF9B6EEF44401ADB6B41EFB1364065726A67986A5040029F1F4608974F40B1A888D3494A4D40153AAFB14B9C36406D59BE2EC3DA54406A183E22A6004D40C3D8429083255340191EFB592C63494098BD6C3B6DA9304071E6577380682A402B357BA015F83E40CCB73EAC37B4544090BB085394BF3C404A7D59DAA9625440B2834A5CC71E57403106D671FCBC36407FBDC282FB492040A70705A5689D4E4025ADF886C2095040967A1684F28E1E40F4C5DE8B2F245440AB5B3D27BD6B3940E4D6A4DB12B557409609BFD4CF334B40261AA4E029C42740CA4E3FA88B483B405DE0F25833AA39400322C495B3AB4340BE8575E3DDDF4040890CAB7823673C40227024D06069584010CEA78E55875640D1764CDD951153408E226B0DA58A5640C53BC09316AEE63FD13E56F0DB025540C40B2252D33055405E9D6340F66A10405073F22213BC3F409BC6F65AD0E65640F6B52E3542033840731074B4AA31504048F949B54F855440E7E26F7B82EC5040B3F0F5B52EC25640F5108DEE20F62F401E6D1CB1162B3C40726F7EC3447F38401DE736E15E9B4940CBF44BC45BBB3640193DB7D095AD5640FF4124438EC851402881CD39788E2C4062105839B43C4A40325706D5062B3E40B51A12F758FA4640E3DF675C38BC55400FED6305BFB1514075012F336C544A402D228AC91BBC44406A12BC218D575040207D93A641EF51403C889D29741EF63F105D50DF328B4940F3565D876AFA424010ECF82F10E41C401A31B3CF63E24440A3409FC8930A4B407F315BB22A6C4540F6B52E354238554033DE567A6DA84840E90AB6114FD655405F0D501A6A5C2E40F705F4C29D2943405E85949F54EB3E40D87E32C6877B4A40560F98874CC652402C67EF8CB6BE5840614F3BFC35353C40CB10C7BAB855284034D8D47954E444401B649291B30C394053094FE8F5874F401901158E20DB5440315F5E807DB43E409A0986730D37474098689082A75853403AC95697539054405E6743FE993955407DE882FA968D44400E2C47C840D44640ADF71BEDB88751400327DBC01D3038402B6A300DC3ED4940AE9D280989EC4B40B554DE8E7004434057D11F9A79705440BF2CEDD45C30524076C3B645999D37407461A417B5655840323B8BDEA9782F40C7BDF90D13185440A4FB3905F9B90F4040DB6AD619F74140020CCB9F6F9B1F401DB0ABC9531F56404D4D8237A40342405DA3E5400FCD3F401BBCAFCA852951403CDD79E2399F4840C07630629F602D40A114ADDC0B635840ED647094BC02564087FC3383F8A43B40D717096D39534340AE47E17A14EE40405D3123BC3D9F5540D4997B48F8F64940DF52CE177B8F4C4030116F9D7F695340B779E3A430DF4D40D4601A868FDB574011E335AFEABD53409F9273620FA13840C5538F34B8FD2740DD06B5DFDAF53840D2FF722D5A044940B7989F1B9A504E40454772F90F58574056116E32AA0CC33F94347F4C6B4B364040C05AB56B063740EE5A423EE895544014B18861873D4140C808A87004134840921FF12BD6FD5240A9A10DC006843A40B16A10E676975140EF1D3526C45A4440823B50A73C2E5140DFC0E446916519409D9D0C8E920B4C407638BA4A773D40408109DCBA9B1C52401213D4F02D1853402E5393E00DF132405DC30C8D27EC52402B86AB0320424B401A506F46CDEF2040BC3D0801F9DE53402BF9D85DA0484F40CA367007EA8852407842AF3F89245840234C512E8DBB4B40198D7C5EF1D4BB3F020CCB9F6FE33D40D520CCED5E7E1340B75F3E59313A5640080264E8D82B544084F1D3B837BF4D4086764EB3406C534087FBC8AD49CB4F405B61FA5E433E554050C763062A4C53402235ED629AA343405F0A0F9A5D471E40529ACDE330524F4040F9BB77D4180140F052EA9271C151408658FD1186FB5040CEFE40B96D094040658D7A8846CF23406E6B0BCF4B250040FED7B96933AD55406A6CAF05BDA71540DD5D6743FE412A4047CB811E6AAF40403DB83B6BB72B44400B5F5FEB52834E4022E3512AE1594940653733FAD16150401A87FA5DD8C441400589EDEE01755440CC9A58E02B223E40F8AA9509BFA440407CF31B261A6041406D73637AC2F644401A170E8464A12E4002F390291FE25140A1F831E6AEE855407C61325530F45740178046E9D2B72A40F92CCF83BB2B5440A375543541345640459E245D334653406760E4654D1C1D406F1283C0CA3A5340E869C020E98A52405EF3AACE6A5D3D40CD94D6DF12602F40698B6B7C26834A40A1F2AFE5954F3C40C7832D76FB9A4440B554DE8E70BA1E407FA2B2614D9D44400551F7014898504071033E3F8CA82840BC3FDEAB56D553405A68E7340BA65140CC2A6C06B8ED5840F0FACC599F324C40C7B8E2E2A85C49408F1A13622EB926401555BFD2F966404054E3A59BC4B04840605AD427B993414082C476F700EF564005BF0D315EAB4140F7E5CC768522544092205C018547564013B70A62A064544033DC80CF0FC058405CAAD216D7F02E40F1129CFA401C4940A1BAB9F8DBE65040A56B26DF6C8B5540E92CB308C5D64440321F10E84C224240ADF6B0170AC358404BE82E89B3E63740D3C1FA3F87D932400DFCA886FD145640605B3FFD679D39401F4AB4E4F1044340FEB4519D0EAE53407D0569C6A2A053407FA65EB708985740BA826DC493353140F1BC546CCC014040D4B7CCE9B2B85340C4060B27696E39406D37C1374D07424074B4AA251D714440D82B2CB81F244C40DE02098A1FD055405C9198A0860E57402315C61682A24740AEF199EC9F814240CF11F92EA5DA4540429605137F6D5340B3976DA7AD13404018EAB0C22DFD4A400987DEE2E16D21402C0DFCA8863C58407F349C32379050409622F94A2015184090A4A487A1515540645930F14711074069A9BC1DE16E5240236AA2CF4781524077BCC96FD17D4B40BA6587F8871F5340F8A75489B2B7BC3FB64DF1B8A80631406F2A52616C4D44404C8E3BA583BD2740EF75525F96365240B726DD96C81349407BD7A02FBDF13840BFF4F6E7A2B54C4028D192C7D3522340D72FD80DDB4A49404240BE840AE64A40384C3448C18F4440494739984DCC4540A9A3E36A642711408718AF7955E65140F436363B526658404C1AA37554A85340A5D7666325584E40D07D39B35DA53B40350873BB973D5040581B6327BC94514014083BC5AA23524040DF162CD5294940F23FF9BB773253401F10E84CDA804340CD21A985924D394066683C11C44157402D431CEBE2C958403561FBC918C33340B6DAC35E28AF51402E1F49490F231840A14ACD1E683D3D4016C26A2C61674A402C8194D8B5CA5040467C2766BD281A404D310741474336404C6DA983BC1EF83F227024D060431440FA5FAE450B903040289D4830D5EE4A402A3BFDA02E6456407A50508A56BD5240F10F5B7A34274D402B14E97E4E0B5340EC34D252790D444097749483D9D040401A4E999B6F4D564069C878944AF43440F4E159828CF82340957CEC2E50DA5240F7216FB9FA7E56408655BC9179E44A40B2632310AF1F4340DEC7D11C59C652407FF6234564F84C404DDC2A88819C5440FE0DDAAB8FEF4640E4BA29E5B5D2F63F068195438B06544010AFEB17EC0848409C525E2BA1374440AE4676A5659E5540001C7BF65C2558400B96EA025E965540969350FA42C245401F12BEF7376A43408716D9CEF7194F400516C094812349401BD9959691665340D9EA724A405444400CCEE0EF174F4640E256410C74E74940910C39B69E2D314071E6577380883940367689EAAD393A4082C5E1CCAF7658404F22C2BF084E3240B806B64AB019534026E318C91EE74640BB473657CDCC5840A60C1CD0D215304076FF58880EB35240FA5FAE450BF03A40C2A2224E272D3640A950DD5CFCA74840C992399677E93D4012859675FFA24940E76F4221020B5740F94D61A5824C4C40672783A3E45950407461A417B5A14640E86A2BF69719524075029A081B8C4B401F0F7D772BBB394023A298BC01F444407496598462934F40BD7328435520574067B8019F1FFE27407C9C69C2F6CB2F40147B681F2BC02140F085C954C1681A40764F1E166A752A40BB99D18F86CE54401E32E543504D3940E89FE06245FF51402F19C748F6624C40B98C9B1A68462240923D42CD907A4040F18288D4B40BF13FF4DE180280E65340D82B2CB81F06514086AE44A0FA7F2A40FFB27BF2B0601E4094A46B26DF7C2D40FC8EE1B19FA856402750C42286913140E59D4319AAB0524084BC1E4C8A51494047E867EA759C57401B81785DBF1E5840986DA7AD11C1F13FC1C9367007CB5840759483D9046A554058E1968FA45E50407BC03C64CADF4B4032CB9E043649514019ADA3AA0935514041BCAE5FB09B3140DBC1887D02EC4B404034F3E49A82584081CD3978265A4C407CEE04FBAF333940DD0A6135968A56404014CC98828A5640E6EAC726F97531404F2157EA59444D40A2D3F36E2C424B40A2B2614D655852406E8B321B644A4640399A232BBF7241405DFB027AE1CD50401059A48977E8554083A3E4D539364D40BC749318040751403622180797064F404487C09140A735409A22C0E95DC04440D7DAFB5415B45040161747E5267C41409F39EB538E893440C23060C955EB52400DC4B2994344534084D89942E7E534403E7958A835874040E960FD9FC3E4534067D311C0CDC9554009168733BFA84C40126745D444BF5840E083D72E6DDC4740EA92718C64833A40E54691B586EB5040320400C79E0F54402FC1A90F24EF2D404EEFE2FDB8DD37408509A359D9964C40E2C80391454E49404AF1F109D9ED38405DA9674128B94240569C6A2DCCBF5140395E81E849EA5840670A9DD7D87F414090BE49D3A08758407638BA4A77472C40A8AAD0402C5353407555A016830725406500A8E2C68D03404696CCB1BCE74940E27668588CAB5140F46E2C280C4AF83FE59A02999DC5FC3F16DF50F86CC25440151C5E1091A6584094A0BFD0231A3E40069D103AE8024840AA2C0ABB28165840747973B856E85240616C21C841BF4B40B950F9D7F2BC4440B34291EEE7304740E5D5390664B14340930035B56C474C4055682096CD583B40390F27309D46104061FF756EDA4A504082397AFCDEBE2D404F3C670B082F4240804A95287BFB5140E1F08288D48F5640DAC534D3BDA6584090A339B2F2395240957F2DAF5C654540D9791B9B1D24554026A94C3107434E402B6C06B820A94C403C9F01F566815440077AA86DC35B57403813D38558914E40CF4BC5C6BC14414017B7D100DEDA4E4008228B34F1C3584033FAD170CAD844403C2F151BF3D55840DC0F786000911C404983DBDAC23557409AEAC9FCA3DD5240D05FE811A3555240081EDFDE350E4740957D5704FFBF364056F0DB10E3954B4093A7ACA6EBED4C40DAFF006BD5B95540637D03931B3F4840826F9A3E3B624C40B1A71DFE9A7047407C629D2ADF33C03F3EEB1A2D07923B4003ED0E2906EF5440D25625917D0F5240A1F65B3B51385140D80B056C07A14040362383DC45383B408448861C5BED43408B37328FFCDC5640CE1C925A282155407C46223482D65440C576F700DD205740D6027B4CA4D3504081069B3A8FE550405E2C0C91D3975040B939950C00BD4D403EEC8502B63A574094895B0531A15740EBC6BB2363674A40E770ADF6B07D58406FD8B628B32951406B8313D1AFCB424016C3D50110BB454028637C98BDCE47407289230F44561940B9162D40DBC632401AA4E029E45556400EDB1665367C4040E8323509DE5C3A403AB187F6B1722D40CDCD37A27B661C40DD0720B58920564001A3CB9BC3E136401AA20A7F86BB4E40A56ABB09BE2D5040B5A679C729365540E753C72AA5CF49405853591476F54E40C8444AB379142D40E9D32AFA43973140AC0320EEEA6745400DA7CCCD37AE37406806F1811D3F1E4020F0C000C24142404489963C9E561040A27DACE0B7315840498446B07111484015C78157CB794D403318231285160A4047904AB1A3B7544096404AECDA6849407D76C075C5B42840ACE46377815550405DFE43FAED45414089230F4416F55840577A6D3656524F4059FB3BDBA3571B40CCD4247843AC5340AD84EE9238D33F40FF3F4E9830FE3540C2A6CEA3E20D4140B1C22D1F49DD3C4007B64AB038684B407C65DEAAEB483A40D88349F1F109A13F04763579CA4A4140FBE93F6B7ECD524058E71890BDAA3640A583F57F0E9336402A1BD654165D52408639419B1C6B5340F4A5B73F17993A404EED0C535BB04140D1E97937167450401633C2DB83102C4084D72E6D387C2540CA367007EAF8404099D4D006608D47400118CFA0A1974B40C79FA86C5853144048C153C8957A0F409604A8A965574740A323B9FC8784494043C879FF1F7B39405FB2F1608BDD2A40171230BABC0952408F5033A48A8A2D403BE466B801233940E02BBAF59AF62D40EFACDD76A1654640DA20938C9C2C55400533A6608D09534004E275FD82013740293FA9F6E9B25640BB4560AC6F6C48409274CDE49BEDEA3F98DF6932E39251400E6ABFB513555840425DA45016B04F409085E81038C9534040F7E5CC76114240FCE3BD6A65DD5440FA0967B796D53C40E38C614ED0561D40C092AB58FCD63240A703594FAD4C5640F180B22957064A407EC51A2E72B351400875914259024C40CD9541B5C18544405D34643C4A165440FC709010E555534091ED7C3F359E4E402098A3C7EFAD224003D2FE075893324093C7D3F2033D4C4054ABAFAE0A0F534040852348A5424140103FFF3D786D0240CCB8A981E6D7584010035DFB022D5840ECC20FCEA74E4E403F389F3A56205440C18C2958E3EC3C408F554ACFF4875040AF05BD37864C4A405EA10F96B1D54E40D234289A078853401AFA27B8580C55407EE02A4F20ECFC3F7920B24813B54440302AA913D044E43F44A7E7DD587D5340A94BC6319235334055A4C2D842C24840D218ADA3AA174E40E5D3635B06C840407CD5CA845F565640B13385CE6BC15040BDAB1E300F594640314278B471EC3F40522B4CDF6B3C4240D9B3E732352B4E40BEBC00FBE8DD544086E7A56263B645403B8A73D4D1555540313F373465771640895C70067F67524073DBBE47FD0B4140E3A8DC442DAD2540AB97DF69324B5840DE59BBED42DD494065AA605452733F405CACA8C134C83740207BBDFBE3F7564091ED7C3F35A23D4048A98427F4C05540EC3191D26CD64140DE3EABCC943E4E40069D103AE85555400CCC0A45BA315040EBAD81AD123C1840F4F928232E8A58401C977153036B454086747808E3525140C652245F099E4040C8B260E28F0354400CE9F010C6274E40DEFFC70913BA3040F4DE180280E54E402C9D0FCF12003E407F349C32374D5840176536C8247B3B40863DEDF0D7042E40B9A981E6739239404D6551D845993A40037AE1CE85F13440737FF5B86F194C405551BCCADA462640C4EA8F300C54494027F6D03E56D651404F58E201654A554099B9C0E5B1495740D2A92B9FE5BA5340FED7B96933064740B9A981E673C851401212691B7FA64940C4CE143AAFA53A40105839B4C8CE5340DA006C4084C04440FA9B50888061404057B08D78B29B30404F0647C9AB532940D1E97937161A4740CD920035B502464037548CF337412140BED9E6C6F44041404F7633A31F1B4A405BEA20AF07131D40689599D2FA1B1740D97745F0BFC13E40EC12D55B03673340E6E95C514A7C574071AE6186C6F73140624D6551D820574098BD6C3B6DB525404721C9ACDEA11D40D1AFAD9FFEED4540221807978E245740F5108DEE20C25340BD6E1118EB994F40211FF46C563156406458C51B99A05140537765170CF637404182E2C7985E50407E8CB96B09AF50405B25581CCE3C04405C3B511212E93940EA08E066F1CE4D4001BF469220CA5340A8C7B60C38794F402F35423F53DE50402254A9D903C45640BAF94674CF0F51402A3927F6D0FEF73FE162450DA680514053EC681CEAF65440AD6EF59CF4AA34400EA14ACD1EEA49400211E2CAD98B45403C855CA967C7524065355D4F74114A40F5A10BEA5BBA31406F641EF9830942407FF78E1A131D5340FFB1101D023B3E40F817416326D25640255CC823B8274F407BA35698BE1D4040E4F736FDD90D564052EE3EC7474F3A4062105839B468494082E7DEC3256F2040A3C9C51858C7104023827170E96D554022FB20CB825754405CAD1397E3994840B2BE81C98D1C4440EE0912DBDDE85140967A1684F2665440664E97C5C4C24440B0E595EB6DD30A402DAF5C6F9B9949409109F83592FC4840CC6262F371194F40778192020BA6554066FA25E2ADE33A40B41CE8A1B6D93C4029ED0DBE30812440DC9BDF30D11038407715527E521F4840E621533E04414940247EC51A2E5642406CEEE87FB96A3F40D3D9C9E02867514093C6681D55B52E4036ACA92C0A1B3D40E76D6C76A42351402C9FE579703B3E406475ABE7A4D349400A12DBDD037C3D401B683EE76EA452407FD93D7958C02040A6D590B8C709544015AB06616ECF50400247020D362D4140226DE34F54D444407C60C77F81FC3540C3B81B446B7A56402D23F59ECAF94D4019AE0E80B8725040A9A0A2EA577A1440C284D1AC6C7F2140F566D47C958836402CF180B229E34440EB1C03B2D7032B40454B1E4FCBB74340199293895B8A53405516855D1430554054FCDF11151A3E40F3CAF5B699004A4096E7C1DD593D4D407521567F844B57401B9B1DA9BEA74B405871AAB5301F3740A5129ED0EB6B4040BCCE86FC337B564069E4F38AA7AB584083DA6FED44EE5340753DD175E1EF3640558A1D8D433B5640F5DA6CACC4835540FC5069C4CCCA4A40215C01857AFE55406F2D93E178AE3D401BD5E940D6EC54407EAA0A0DC453564036EA211ADD313F403485CE6BEC3C58400F0D8B51D7364E40817A336ABED22B40D55E44DB317D3840790778D2C266574094F6065F98715740E9F17B9BFE3E474074603942063646402F52280B5FF74F4036069D103A0839404BADF71BED975640577BD80B052E4F40806264C91C0B39409BFF571D39221740E3FDB8FDF2754040BCCD1B2785FB4C40A69BC420B04A2B40D55A988576FE4B408104C58F31C55640508C2C9963965640BF9CD9AED08B53406150A6D1E43E5440637AC2120F2816409B030473F4E64C403BA6EECA2EC256400612143FC6FE55405C035B2558485140925ED4EE57D85140B3EA73B5152D53401FA0FB7266E1554028D192C7D3563440F4F8BD4D7F235140B891B245D2684340A7EB89AE0BCF2F403D2AFEEF88723640F513CE6E2D63154023BBD23252BB50401C615111A7C31E40F44D9A06450321408B8D791D71595440A6B73F170DA91C4086915ED4EEB713401650A8A78FB45240F1F109D979FF4B408811C2A38DDC5640DCBB067DE9A35040B62C5F97E18F2A4083C13577F455584050357A35409D334062BCE6559D11464061A8C30AB71F56409F56D11F9A092740895E46B1DCDA43404643C6A3546A374037514B732BDA47408D98D9E7314A0040B41EBE4C1409324009FD4CBD6E9F5540957EC2D9AD9A56403B38D89B18FE57401C7E37DDB2233E40DF180280633A5140DC80CF0F23CA5540CC441152B73B2E4061AA99B514A44940C2C073EFE1D047406747AAEFFCBA56400E10CCD1E30E564096B4E21B0A1D5840B7F1272A1B3613405303CDE7DCA250403CF71E2E39075640F321A81ABDC350401B2D077AA828514006BAF605F42555407D9752978CB746402A1DACFF735E4740B51B7DCC07F43840C0D02346CF865240FC36C478CD0B4D4090DC9A745B904740B4CBB73EACD65040A376BF0AF04A534088D860E124C13040D8648D7A887E3140E6C93505326B2940D15AD1E6385F21402176A6D07983534008910C39B61E0B40FF4124438E1955406B0E10CCD13554402D793C2D3F0950401C7C613255364940BD38F1D58E664140ABB35A608F6B404027A3CA30EE3638405890662C9AD845404A24D1CB28E7544052B648DA8D0A3A40514A0856D5A73140EE77280AF4E93B409A5B21ACC6FA214084D72E6D38F55340A9BEF38B128246408C6A11514CA443406FA0C03BF9E2444094FAB2B4535F374013286211C34C424001DC2C5E2CCC2C406A6B44300E2D5140202922C32ABC5240FCA6B052414F5640EAE74D452AFC3540E3FBE25295D15540F372D87DC7D2494012A1116C5CC74540FC372F4E7CA52C40FC36C478CD0F3B4020B58993FBC4504019ADA3AA09A2FC3F983270404B8F3D4046EEE9EA8EB75540EE5EEE93A3A758401230BABC39983C404F965AEF37FA2E404FB2D5E594D01C408E1F2A8D986D33407098689082D255400726378AACAA5440F5D8960167F857409DA04D0E9F043840E31B0A9FAD105340BDA772DA536C56406C5ED5592D3E4C40A12FBDFDB9F43E40494BE5ED08F54240AF7B2B12139651409AB0FD648CE74440728A8EE4F24254409CF9D51C20A03D4058E20165534C57401EDC9DB5DBE041400934D8D479942B4072158BDF14662D40C9E4D4CE30DF414000CADFBDA3862040C4E8B985AECC4540F30181CEA48C51408693347F4CB33C4076543541D4C34F4061C26856B6375640540262122EDE4A40021077F52A823F4012F6ED2422FA4D402AFD84B35B133240B33F506EDB85414014048F6FEF1E3940E0DA8992908155401F8315A75ABD4540FA264D83A2D921408E226B0DA54A324094C0E61C3CC14140984F560C57A33B403BA8C4758C054140AE9D2809890758403A5AD5928E88514023DBF97E6A744F4030F5F3A6225E57409F758D9603D9444062821ABE85C2554027F911BF62294C40E65B1FD61B435740B01EF7ADD6E94F4001C287122DBA55403F00A94D9CBE4540E789E76C0101384050E108522951564091459A7807502740B2648EE55D345240CE70033E3F505240FC00A43671B84640E88711C2A3875540D120054F21995540A167B3EA73C51E40A59E05A1BC273340C26856B60FD91240D63730B951404440E030D12005DA5840B39AAE27BA504C40DD5F3DEE5B252E40D3BD4EEACB3B51409CA73AE4663A55408C4B55DAE2A440409B75C6F7C5874C40BB421F2C630312406E35EB8CEFA14340BD344580D3905640274A42226D0055405F622CD32FA93C40F2D1E28C619626400D37E0F3C34C4940F2EEC8586D9457403FABCC94D6733540477364E597253640527DE71725F02540A9A0A2EA57FE3E4077BAF3C4731440406E32AA0CE31E4940A4AA09A2EE4B41407100FDBE7FAA5740868F882991F446408600E0D8B3845340EE3F321D3A9F4B407898F6CDFD9D4F409772BED87BD14F40CC96AC8A70AF3140DDEC0F94DB8A3940ED9BFBABC7A13C40AE9D2809893E48409128B4ACFB474140A4897780271741405E2A36E6753C3340492C29779FA3F13F03EACDA8F94E46400796236420DF1D40D74D29AF95F64B40EE23B726DDEC4340BC4049810542564010EB8D5A61C2294040D9942BBC294B4063B7CF2A33A54C407CF2B0506B6A3C404C50C3B7B02951402507EC6AF2A64240D2A6EA1ED9E25240452A8C2D04BD43402DEC6987BFA0454031D0B52FA0525740BC0853944B973940B9C1508715864040ED65DB696BF252405C9198A086FF224005A2276552B73740554FE61F7DAC5640E71C3C139AFE4F407DAD4B8DD0075840126A865451DC07405E64027E8DFC3A40EB54F99E911C4440C5E57805A23F3F4038A4518193605240E5805D4D9E2E454013471E882C8242406403E962D3844240E12879758E285640ED9DD156256B4D40F44E05DCF30842403BA759A0DDE856400E2F88484D0450407AC8940F41E94B402EA9DA6E82AF0F406ADE718A8E5C4340A439B2F2CB843540F1F09E03CB8E5240F0315871AADD26403622180797523A40CBF3E0EEAC5938404E4700378B694D404F948444DAEC5640B5E21B0A9F314C40B37C5D86FF443F401D3EE944825D3E403D2828452BB5544094DDCCE847FB3440B9AAECBB22DA5640A04FE449D24544400133DFC14F483240F88BD992558541405645B8C9A8F2574070CD1DFD2FA75440B54E5C8E57285040745C8DEC4AF748402F17F19D98D51C4068976F7D583D4140132D793C2DCD40403D2828452BB33B40543541D47D000E40C63368E89F0457405322895E46FE5540C2DEC4909CB04C4093AB58FCA6684840B726DD96C8F152406AF816D68DB0554030A017EE5CE02C4005FBAF73D33D534074CE4F711CB02940DDD0949D7E2E514096D1C8E7158744409AEC9FA701BF3740FA980F08749E2240C4CF7F0F5E9B0A40193735D07CF84D40E76F422102F850408EC87729750130403BE0BA6246344C40A3ACDF4C4C071B405EA0A4C0025A4D406745D4449F7B51401E87C1FC159153405A9D9CA1B86B5540909E228788433A40FFB3E6C75FA65840522635B401B350400DFAD2DB9F63204060EAE74D45AC41409E29745E6319554067D7BD1589045340FFE6C589AF22584002D369DD06805040A2F14410E70D5440BA84436FF1235540861F9C4F1D845840F9A067B3EA374A400400C79E3D5E5540F3E505D847634E406FD74B5304B75140EE26F8A6E9D34440D976DA1A11A4264063601DC70F3F4C4099B7EA3A541F32405133A48AE28D30409B030473F4D04540B9162D40DBF84640F5D555815ACC364008556AF6404F4740FF40B96DDF2D494043AB933314ED4E400E85CFD6C1C9454096AFCBF09FCE2D407808E3A771285540D2C77C40A0965540E3DD91B1DABE5740D767CEFA94EE5740392BA226FAC55340E8DCED7A698B524070B6B9313D8B4240A6423C122FCD4A403672DD94F2BB5040EEEC2B0FD2D14940DEE4B7E8642E5240E4F90CA837832640B9718BF9B9B929406268757286975740CC4065FCFB4C5840D21A834E081DA43FE08618AF79AB5640D1782288F38C3340E9EFA5F0A04547406E4F90D8EE225340A8FFACF9F1375140E17CEA58A5B42740180B43E4F4134B40CEC64ACCB3A047404510E7E104324240A5BF97C283062C4083A5BA8097E91C4077483140A2934840B0592E1B9D4327403B70CE88D2962D40A5DC7D8E8F624D40A9D898D711C156407784D38217395740EA08E066F12A5340BD72BD6DA68451405B3FFD67CD0F2540336C94F59B445240B8B1D991EA7F4140F6ED2422FCF7374049DA8D3EE6B31440AAD4EC8156C65640FF209221C7AE4040FCA9F1D24DA63A404C88B9A46AEB36406C94F59B890A56406094A0BFD0830440D72FD80DDBE04C405A65A6B4FE5C46405A7F4B00FE825840BC5983F7556A5240DA006C408477534093020B60CAE851404FC939B1877E30409F05A1BC8FE73D40BFD6A546E8B54D400C93A982510053409B374E0AF3BA4E402A3BFDA02EB25840919C4CDC2A7C46404F5AB8ACC23A454069FCC22B49B64A403691990B5CA84F4012A27C410BFD3240821DFF0582F1534064E597C118E92B4031B5A50EF2E23540B341261939034640698EACFC32281A40CAE0287975EE4C4014596B28B5872540A471A8DF851D2740E1ECD632193046401AA54BFF921C444032772D211F544E409752978C63A0494066101FD8F1605640A6F0A0D975BD4D40B9382A3751E543403B1DC87A6A034C4081B22957781F2840D5CE30B5A5DE314011E335AFEA284840E7E3DA5031FF50404E469561DC774B40280B5F5FEB504F401EA8531EDD4C454027840EBA84494B4060C77F812042404030D7A20568B323406EF7729F1CB34C403197546D37F14240F3565D876A1A2140433BA759A00546407BF99D2633025040E62494BE10222A4076A565A4DEFB5840A8E49CD8431E5040469561DC0D6E5740C669882AFCDB46403E42CD902AAA17409274CDE49BA65340D28DB0A888A75540B81E85EB51A052409D0DF96706992B4000AAB8718BC137404B2366F679B4334087191A4F04492E40336B2920EDDF23404CFC51D499214240BB5E9A22C0734740F8DD74CB0EF111408C9DF0129CA7574001DA56B3CE5E53407C629D2ADFE14540C51F459DB90D5340C1E09A3BFA654840D04543C6A3A65440787FBC57AD1258407959130B7C153D40C1A90F24EFBD5440F3565D876ABC5140215A2BDA1C774040B9C49107227B1F406C257497C469224032207BBDFB674F40A77A32FFE89B3740DE03745FCE175140C32D1F4949505640E6CC76853ECA4F408670CCB22772524056EF703B34724B40D13B1570CF694440BC3C9D2B4A134C40E01115AA9B154C40DECA129D656C4D408FAA2688BA0F2740BABC395CABE14E4058552FBFD3284A40DBC4C9FD0E3153403B1DC87A6A61384028486C770F784340E78D93C2BC47564089997D1EA31757407689EAAD812657402E73BA2C265755405AA0DD21C50029405CCCCF0D4DD94E40255CC823B8DF43406D533C2EAA894240D026874F3A0D3E40DFBF7971E23D45405DFA97A432E747402AC93A1C5D8752406669A7E6720358407EC7F0D8CF8E3640AF05BD3786E44540209BE447FCCD5440132BA391CF815740CBD8D0CDFEF952407923F3C81FF42A404E42E90B21B25640D5AE09698D41D33F1EFD2FD7A2250C405C1E6B4606B54340CCB56801DA7A4E4013656F29E7795840240ED940BAD80B40BA4BE2AC88F63A40BA85AE44A05A1240446ADAC534631940E413B2F3363A4740F14BFDBCA9405540280B5F5FEB3C4040CC7B9C69C2804C40AF7D01BD70673640F180B22957915340300F99F221264840E2033BFE0BFC2540191EFB592CED494060747973B830404059DC7F643AB40A40D9EBDD1FEFA9424018B14F00C5E43E400B7A6F0C01F03440A758350873A8534043E38920CE505440F969DC9BDFE43F40AFB0E07EC08B494099D6A6B1BDCE3240081EDFDE357248403579CA6ABAE8524022C2BF081A73F23F8196AE601B3A514065C405A051BE4F409B215514AF763940361FD7868A2F4B40CA8D226B0D01454083F6EAE3A17E52407DCA3159DC333E40C2FC1532576A54409C8A54185B8C34407711A62897761540923CD7F7E1A4494074435376FAC124404CA59F70765B14406072A3C85AE33740C6C4E6E3DA4358403B191C25AFEC5140058BC3995F8D4A400F4240BE848758407898F6CDFDE756400CCEE0EF17173B40DA756F456202F13F2DE92807B341414006836BEEE86B3040257A19C5729B49404B92E7FA3EBC4A401E19ABCDFFD54D403D61890794DE584025CCB4FD2B2D5540DBDFD91EBD393B40B69DB64604C14E40D02B9E7AA4D45040D8B628B34169524032ACE28DCCC345409C887E6DFD9B52405B07077B13E0534062307F85CCF5364057B26323107740403465A71FD45757408CA03193A8771D4076C24B70EA9D5540F96706F1819B5540245F09A4C489564053EA92718C71524098BD6C3B6D0DEC3F925B936E4B6D5040680586AC6EBD2D400A80F10C1ADE4740A52F849CF7CF29407E52EDD3F14E5240423EE8D9ACEC49406B7F677BF4FF56401CEC4D0CC9412540297B4B395FEC2D406AF981AB3C01574047FFCBB568493C40CE397826344A53409CA73AE466EE56400ADB4FC6F8003E4045F0BF95ECF646404B766C04E2E35840DACBB6D3D6685340261DE560368D4E409581035ABA66434044C02154A94D44409E996038D7265440B43A394371DA5540D270CADC7C23164002BC0512149B5440884CF910544DF63F9C6B98A1F14457405932C7F2AEFF5740E199D024B1E75340740CC85EEFD75440D029C8CF46DA3F408908FF2268784940B5C01E1329DC5640F72004E44B7A46402B31CF4A5A5C5440E481C8224DF358409F3D97A949603840CF488446B0C1374033A7CB62627B2E403752B648DA91394067EF8CB62AD54A406EA5D7666365FD3FFE65F7E461305640CDE506431D775740A1F2AFE595974B406BD26D895C7039405439ED29392051403FADA23F347057401407D0EFFB1B3B4038BF61A24146474074D2FBC6D7635040E738B709F7E850402E39EE940EA62B4013EE9579ABDE2A405C38109205FE404094A46B26DFA8304012C2A38D23563D40F0A485CB2AFC5240965984622BF82740663046240A1A5540D3A57F492A330340CD203EB0E37739406D585359146617400307B474054545407DAEB6627FA7414046B1DCD26AAC3440CC988235CE864B4029CDE671186956403830B95164794F408BDEA9807B58534058C9C7EE02D93440313F3734659343404FCB0F5CE553514059130B7C4527224065C6DB4AAF4756402DB0C7444A731F40095053CBD6B24C4011018750A52A5840EBE3A1EF6E57554073D87DC7F05A44401D554D10759FEE3F103CBEBD6BC25740F47002D369E931408655BC91799C2840992A1895D4065640B4AED172A0872540B56FEEAF1E6F464013D731AEB8B84540323D618907495040492EFF21FD364140EED11BEE23045140A6B8AAECBBEE42403A234A7B83FA5140001DE6CB0B5005401D9430D3F6073E408BC56F0A2BF518408E8F16670CB74840774CDD955D99564005FD851E319E4A40693A3B191CB55640CEDE196D55324B40B0AD9FFEB35C47405E4D9EB29A904440C78157CB9D992840682101A3CBC34B407023658BA4EF43403FE603029D0A5340B83F170D19E14D40107A36AB3EDF4B40768BC058DFB2454024456458C5632940890B40A3742F51407768588CBA1042408847E2E5E9F43440B77F65A549D93340290989B48DBF454060CD018239FC57400438BD8BF75F434084D9041896675540C8CF46AE9B323B40362218079702484098F738D3845A5640A4FCA4DAA7ED55403D0E83F92BB95840EA40D653ABD3504047B071FDBB3A3140446B459BE3545340AA66D652409C56409207228B34892F40BFEFDFBC382F4B40E5D4CE30B5413140DEAD2CD159E64C403A75E5B33C774D40C11DA8531E2D2D40501DAB949EB92240999CDA19A6FA4C403E78EDD2865750405A828C800AAF5040BD1B0B0A83763940D61BB5C2F47D4C40DAC534D3BDDD5740A7785C548BD55240838769DFDC5F0340276A696E855A50409A3FA6B569D7514061DEE34C13D95740F06AB933133A464037C478CDAB575740E27327D87F37424042B3EBDE8A6A5840F374AE2825443540B796C9703CA15840122EE411DCA0534084F3A9639552F03FD9976C3CD8323B4067D47C957CAC1D40F31E679AB09D3340B3075A8121005640E5D4CE30B5A5F73F2E3883BF5F195340494C50C3B79C424032E5435035AE5640035E66D8281D484010EB8D5A61485840A8C30AB77CEC36406E6AA0F99C3953405EF6EB4E77224240E76ED74B537E5740EE77280AF4B54A40ED478AC8B00A214047718E3A3A2E0940E8F4BC1B0B655640E1EB6B5D6A44504039622D3E05B440404B901150E15F5840C34483143C9B4B40AD3594DA8B064D4057957D5704D85040D655815A0CD23F40806264C91CE85140E50E9BC8CCFF4E40F6B52E35422D5740A96A82A8FB2C5040FC8C0B0742D84E4012DBDD0374945240601E32E543A456402BC3B81B444853409FE8BAF083314E402F51BD35B05132407AE1CE8591F23B40594E42E90BEF4C4092B3B0A71D823D40B2BB4049818D47408FFB56EBC4ED4B4003232F6B62D45740359A5C8C81594E40CF11F92EA5B25040BE310400C7F85140DC4AAFCDC6A64D40CE18E6046DEA40409700FC53AA644D40A0F99CBB5D4548407B87DBA1618C51401A8BA6B393334D407F85CC95413B4F40A304FD851EC14D40AA656B7D9151584009336DFFCA6632409351651877631F408C65FA25E2714340693A3B191C274540541C075E2D07464092CB7F48BF1A52407A7077D66E2D4F40A14D0E9F74544E405ED6C4025F185340223999B8557851409ACC785BE9574E40AF0793E2E3A35240469A78077835554094347F4C6B7857407D5EF1D4230DDD3FBBB88D06F0424C40F10F5B7A34095440A08B868C47212D4026A8E15B58614740D0B9DBF5D2BD56407380608E1EF34B4088BEBB95256457409E7DE5417A863D40DEC83CF20744564084640113B80051402E573F36C93734403B53E8BCC6604C407BBC900E0FE1E83F202922C32A7E09405567B5C01EAB5740F624B03907DF4A40850B7904376C57407C629D2ADF7B3540C4D0EAE40C0D3F404DD87E32C6071E409FC9FE791A564140AE7E6C921F0A534099F221A81AD75340E99AC937DB842C40C685032159643440670C738236D91C4068EBE0606F363140B2D826158D0B5440DEACC1FBAA903A406FF1F09E036B3040DA56B3CEF8B256403BC269C18BA84540AA7EA5F3E1C12040228AC91B60764840B2B8FFC874564340782975C93890564032755776C19C4240668522DDCFF14640F5A276BF0A3B55407F50172994F5534069739CDB847F5240DDD3D51D8B934440392BA226FA84434084F41439440A424011514CDE009B2240310C587215454940FD87F4DBD7212F40E25CC30C8D9F3E40F452B131AFDD5340E84D452A8C1852408D9944BDE0E34F403F58C6866EF61A40A27DACE0B73153406C79E57ADBA84140319413ED2AFA58407E198C118937574061C3D32B655C524078616BB6F2ED53405AD93EE42DD73B400475CAA31B853340E5F21FD26F7758409A5B21ACC652F23F2B508BC1C31E45402882380F2738234076FC170802483F40E21DE0490BCE544062DC0DA2B5DE3E40BEDD921CB03554405B24ED461FBB4140F8FC304278544D408A3BDEE4B7383D40ED9C6681767B4840102384471B2D504070B54E5C8E8B4D40C51A2E724F5055400E10CCD1E37F384084471B47ACEB4940D427B9C326DF52407EE19524CFB5F73F05C58F31772DEB3F13F241CF66AC5040594C6C3EAE374D4026AAB706B6F63340B6A0F7C610943B40C6151747E56D57403FE42D573FE230403D9AEAC9FC7548408753E6E61B9543400514EAE923264F4053AF5B04C6944C40EC67B114C9372D40681F2BF86D95534000C974E8F44E4B4021E527D53E4B5840ACC5A700187F3D40CEDE196D55F04040BC41B456B4194440D1AE42CA4FB04340342DB1321A19014016BD5301F79C1840D908C4EBFA050D40BF28417FA12F5440BA2F67B62B3A5640CAC16C020C334A4044183F8D7B785040E44A3D0B42CF5140242BBF0CC66B5340C11F7EFE7B864F40817C09151CC256401AC05B2041253B40757808E3A7445040DFDFA0BDFAE8574093E2E313B2B653405A2A6F4738913140EB71DF6A9D8A5740A08CF161F6922B40809C306134FF3E402AA73D25E77757402FFD4B5299EA4F4012D89C83676E3F40C47B0E2C472B5440C70DBF9B6EC9424020240B98C03D14400400C79E3D3F5240A054FB743C6D5840334FAE29906F5840D13C80457E205740FCC7427408F43140732F302B14A123401CEF8E8CD579544037C478CDAB3AD13FD07CCEDDAE3B514021C8410933B74C404F05DCF3FCA94D401C5C3AE63CA3F43F834D9D47C5CC534042058717446E4940D905836BEEE82840DAE731CA33AF0B402E8CF4A2767F394007CF842689934340232C2AE2749A464010751F80D4304B407ADFF8DA33394340CC96AC8A709F5540CE18E6046D184540E1EB6B5D6A5557408386FE092E84424019710168947E2140B05582C5E14E57400B28D4D3478034405D37A5BC56023540D2A6EA1ED9DA4D40C5CA68E4F3F25440831953B0C6C913404B5CC7B8E2024040B532E197FAED58407F2F8507CD9C4C4079AF5A99F04456405182FE428F1C4B4085B4C6A013544540F35487DC0C4712409CDB847B654E1D40DBDC989EB0B651406AA2CF4719A957400C21E7FD7F9CFE3F034356B77A1F524056664AEB6FBB4040E9482EFF21E454403082C64CA29A5540E35295B6B8961F4046B5882826754940DA53724EECF35840AF40F4A44C755640B2A03028D3DC344030F0DC7BB824564089F02F82C692564020B6F468AA471040942F682101794E40F38FBE49D3384B40F12DAC1BEF584B40B534B742584754400CB1FA230C2D564047C66AF3FF444740C2FBAA5CA8724A40EF3A1BF2CFF83040897D022846CB5140EA793716144E42406971C630279C4D40268BFB8F4C973E407AC4E8B985E650408B16A06D35454640ADC090D5AD255140137D3ECA880BBC3FBF29AC545099574088A06AF46AD158409160AA99B5144F40E3A8DC442DB5364004392861A6AB404025404D2D5BF14B40990E9D9E779F4C40F261F6B2ED684540FEF2C98AE1204440D234289A07EC32404301DBC1882E5140D61F6118B0243640469561DC0D92284005C4245CC82D4440215C01857A0D5240F6D4EAABAB535040B35DA10F967456406C43C5387FE85740F3C64961DE675540861E317A6E5357405532005471FB4D401EA67D737F2520409016670C73A4514033A8363811775740904B1C7920BF52409C89E942AC1E01401E3526C45CC35140BB7B80EECB790040F913950D6BB55040B83EAC376AA458400BD28C45D3412B40382EE3A6061555401B118C834B5342404356B77A4E9A1C4063D34A21900557406EFB1EF5D79454402F6AF7AB005337404B02D4D4B2FD4040DBA50D87A5813A40D464C6DB4A6F0340D2FC31AD4D234240B1F9B83654B834402252D32EA68650402B69C537147E1840D19332A9A17930405F46B1DCD2EE4E40520C906802FD31402D077AA86DB7564085268925E59639401A6F2BBD36934340B056ED9A9026314009C6C1A563724140C76647AAEFE24C40F3ACA415DF0B5540132C0E677EBD20402F17F19D983C5340C3B645990D6A4F40F3936A9F8E39574000ADF9F1971257407AC7293A923336405281936DE0E4404053211E8997C25640494BE5ED08654D40D32EA699EE5B5740D044D8F0F4E22A4018B14F00C5481240982F2FC03E46454008CDAE7B2B6A3640D6389B8E00E0534077853E58C67E2F40F7729F1C05583840AA622AFD84B7364059C0046EDDCA5540577A6D3656AA3340E1D05B3CBCEF5740A5DAA7E331F33B40488787307EE2224053B0C6D9749B544094F7713447A847401805C1E3DB3B0440CA3505323BA453402C2CB81FF0DD5440F3936A9F8E945240795DBF6037A83A405874EB353D1D5840207F69519F4C2B40B3EDB43522981D40DECCE847C3F55640BA85AE44A0C4574093FDF33460324440BBB6B75B92AE504008E753C72A3343400919C8B3CBFB5640EE0912DBDD61464020274C18CD384A406EC2BD326FE34B40A323B9FC876757408FE3874A23E24C407FFACF9A1F894C40EED0B01875413B40B64B1B0E4BA3544052D66F26A6025540EBC4E5780579544044F7AC6BB4C2554025B1A4DC7DCE2940C619C39CA0E14D40DA3BA3AD4A3050403A03232F6BF8454080290307B45034401BF5108DEEB8354099B8551003534E4003B00111E21F534002284696CC39254011A8FE41244F3040AFEDED96E43554406A2E3718EA182240D05E7D3CF4DD01408A93FB1D8A6351408638D6C56DF03B4029CE5147C7974840FB3A70CE88F64140166C239EEC6A4740707D586FD4263E40850662D9CC1546406B459BE3DC3846407EA8346266FB3140D234289A07B84740AEBCE47FF2D55340FDF50A0BEE5E5340CDC98B4CC07F1C4071AFCC5B75B52F4082E2C798BB0B534099B85510035E5640766C04E275BF4E4061DD787764CD524018D00B772E9C174048A5D8D13894074088BCE5EAC7924D408849B89047A358407100FDBE7FE32040DFC0E44691314B4068588CBAD67E0B40462234828D485640AA807B9E3F794340FC8C0B0742805540925D6919A9073D4005A568E55E8006406ABFB51325135740DE3AFF76D90E5240C51F459DB98D5340244223D8B8BA5340B0E600C11C39344053944BE3179A3D40FE0FB056ED763540E04A766C04CA4E4084D89942E7C1334032E884D041335240715985CD00FB4F402A029CDEC5E7574017450F7C0CF232401DC9E53FA45FF03FEDBC8DCD8E2354403694DA8B68DB2A401FD7868A71BA4F405B423EE8D93C5040C440D7BE80B625402FBE688F174E5240A5F8F884EC3A4140037976F9D65E5240DFC4909C4CE43C4077BB5E9A22C9584015580053068354406E179AEB3422404035D3BD4EEA574D4005DF347D760E4440A4FACE2F4A264440D767CEFA94945140FDBE7FF3E2F434407EFFE6C5892F0F40234BE658DEEF464012312592E85D36406CCCEB8843D64B403750E09D7C344D40FFCEF6E80D654840F19E03CB11723240B9A7AB3B167C5340813D26529ACB4B40207D93A641893740FE47A643A75F2D40EB025E66D8FC3140498105306582484027C11BD2A8B4514099F5622827885740C3D7D7BAD42D504088F19A5775F606402176A6D0792254409C1727BEDA774040CA1B60E63B8646406C7A50508A145040280F0BB5A6192B402E1EDE73605D464096218E7571CB5640B35DA10F964135404AECDADE6EFF414051F9D7F2CA1E57401D39D21918BD3F401A6A1492CC3A4C40DF89592F862A2240F06AB933131A4740CCB6D3D6882250400BD1217024082C40C0E8F2E670CB4F40475854C4E924F63F6DE525FF93614040D314014EEF5210401711C5E40D5B5440EBC6BB23631D2640EA42ACFE083342406E4DBA2D916D4D40ED9BFBABC72A5440917EFB3A704EFE3F74CE4F711CBC4440EA08E066F16D5140427A8A1C22CC4840543882548A7F4C40357C0BEBC6BB2640B16CE690D47A4640E0F76F5E9C6E4A401AC1C6F5EF4A25402BF702B342112440E068C70DBF01514037FFAF3A723C2540D1CE6916683254400F5EBBB4E19446400EA0DFF76FB24E4037C1374D9FE94140753C66A032D6234076FD82DDB0915140D636C5E3A2DA584055850662D9C252404F75C8CD709B34401900AAB871CBFE3FB6F468AA27DF5740D4449F8F321A5840BDFBE3BD6AA9434043C70E2A71613B40B96FB54E5C2E1040A4DFBE0E9C385740C2A38D23D6F85640FCC401F4FB585640C440D7BE80B04B404D81CCCEA2F335409AEC9FA7013B224048FAB48AFEBC5740C39B35785FB51440CEFA9463B27653403106D671FC3F524015C440D7BE901540ED815660C84E44409E4319AA62F04D40A0A9D72D024F434090A0F831E6023240AF7B2B1213E25240FA97A432C5AC2540AA0D4E44BFA63040731074B4AADD20408AE76C01A145174047ACC5A7000047406E179AEB349A4F400667F0F78BAD404025E659492BA24A400211E2CAD9F3304077A38FF980F82B40B1A206D330615040D4635B069C393640FEB627486CB15040E2E65432009C3340ECF65965A6C03240DDEBA4BE2CA74D4071CCB22781053D405D86FF74038142403FAC376A85234440E1CFF0660D6A3340DEE522BE13CC5140149337C0CC7B57403A5AD5928E1649401DE5603601DE3840378DEDB5A0474B40A4FCA4DAA75554402F50526001B25140726BD26D89AC22404A4563EDEF1C4440499C155113A55840FE0DDAAB8FC7104003EACDA8F9B229403F389F3A56C92940763579CA6A5951400F7BA180ED2009407077D66EBB655740DEE7F86871944B40A16AF46A80DE4640070ABC934F573440300DC347C47C50408A7780272D26564094BC3AC780DC4A403C3080F0A1524F401BB80375CAAC57400BD5CDC5DF0E244039B35DA10F7A5140C765DCD440474A40A7B228ECA2D64A408884EFFD0DB44840B8CEBF5DF6C65840040473F4F84654402638F581E41531403A58FFE730794240772CB64945CD57407A6D365662AE4540B22AC24D464D2540C4B30419011154406EC2BD326FAA58404BE658DE55C54040043752B6487D57406D72F8A413E74240F1BDBF417B4B5040E2900DA48BAB51404B3B35971BB84940D61BB5C2F46145405E8429CAA5BF4640BF0F0709515E2E4084656CE866A72840D9CF6229928D49404C6DA983BCB05440BE4F55A181B44B40793D98141F425240BD1DE1B4E045424015C9570229EF534015CAC2D7D742314005E10A28D44D554071CB4752D2633940B0743E3C4B6C444006802A6EDC23574015E5D2F885473A40583849F3C7324F40BAF94674CF9E4B402F3201BF46B4514045D4449F8F144E4086747808E3F94F4002469737877B5340178046E9D22F3040FD497CEE0448564040A0336953475240B6662B2FF9C72B40BF45274BAD7B46403E3DB665C0A14D40E9D66B7A50B05040AE10566309F346408E91EC116A0E3A40F661BD512BFB55404E603AADDB3B5640FC36C478CDBE554052D32EA699B62640D655815A0CF2514029ECA2E881354340C8B1F50CE1AA534030F2B22616AE4240058A58C4B0CF33409D853DEDF08A554007280D350A694B401344DD0720E93E40122F4FE78A3C524043CA4FAA7DEC4A406FBC3B3256033E40E7AA798EC8C75340DA0418963F9141407638BA4A771A564063B66455846F534003EFE4D3635D514016C1FF56B2C552405E49F25CDFBE574025C9737D1FBE2940A3AF20CD5834CB3FD68F4DF223B84A408881AE7D01D35240D3A23EC91D784C40BA10AB3FC282584095EEAEB3219F0E40AB984A3FE1644440FEF15EB532C2514069E04735EC770940389ECF807AF333401CD3139678D43F40F111312592D049409AB33EE5988F5240B0A9F3A8F8AF29400806103E94515840AEB7CD5488A65540C45DBD8A8C3E4540CC2555DB4D7353403E23111AC1562F40C289E8D7D6774F40FA7DFFE6C5B53740BB26A435065E524045132862112B4D40FA9B508880DD4A408EE6C8CA2F835040DF347D76C0AD2E405875560BEC35374066A4DE533959424058C6866EF62741407A6F0C01C0885340957CEC2E50CE4E40AA44D95BCAE133401633C2DB83A5564018601F9DBAE95440E00F3FFF3D644C402C11A8FE41004C40C89A9141EE7A2F40A6F27684D3FC4E40E868554B3A715640153944DC9C8AF73F88D51F6118385140EDB776A2249651401E6CB1DB671A50406728EE7893F0534008556AF6400C5740AA2D7590D7B5564006B98B3045A74140A0E238F06A7346403B6F63B323CB414097546D37C1CD4540FBE6FEEA712C5840CF49EF1B5F073240D6E429ABE9FA1F40CE3637A6278251406DA983BC1E7C2F408D26176360AD414094A3005130E152401AA6B6D4412A4A4022DFA5D425B7324072A3C85A438A5440B03A72A43378244003B5183C4C9B3D40F986C267EBDE5540E04A766C040A4A40D2FBC6D79EC91E40809F71E1400C47404241295AB9B8564084D382177D065440F0F78BD992454D40D508FD4CBD245340A58636001B4C4A4035ECF7C43AA5374091EF52EA9207444026E5EE737C583740B438639813735140425DA45016FE4D4082AE7D01BDD047401AA721AAF08453406DA983BC1E6056409D8026C2867949405E2F4D11E0B950404D8237A4511F4840A3B08BA2073D51404E9B711AA2922040F4A8F8BF23BE55403FE08101845E55403E3C4B9011C45240F62686E464B21240CE88D2DEE0DF3A40342DB1321A1B40403ACD02ED0E39364008CC43A67C9C3940A5A2B1F6776A3F40F9BB77D4988C4340BA4C4D8237D15240401361C3D31656408751103CBE385340EC866D8B32CB114056D3F544D7165040232C2AE274CA5340A8E507AEF2EC41401C7920B2481949403E93FDF334AC4A40463F1A4E99D154405E49F25CDF3729403332C85D846B42405BEA20AF07732F40AA436E861B49534032005471E305514032772D211FA24840C139234A7B6B414007EC6AF2946B45405308E41247224740F433F5BA455354403E78EDD286F34D40C3A04CA3C98D36407940D9942B645440B1E1E995B2683240422619390B734D405BD1E638B79F5740A6F27684D37A4F4047C66AF3FF264E4038691A14CD373D402E8CF4A276633E400B43E4F4F5FB574099BA2BBB60BA5040B70A62A06BF148402DB308C55628344009FA0B3D628421408A00A777F1F15040B24813EF001346407A19C5724BD32A40D48041D2A7353340295DFA97A4DA2840198D7C5EF1FC414028603B18B1533D40D9CEF753E3674840E0BE0E9C33D64340FBE6FEEA71FF1240D84812842BFC3E40D74FFF59F36F5140F5F3A622153E4C40486B0C3A214C4140FA2B64AE0C605240CC28965B5AC0534006F6984869361340D06394675ED624405CE509849D62EA3F1B82E3326E9F5040A321E3512ACB54400C570740DCBD2C40E2CD1ABCAFF63940C09657AEB7165640621399B9C0565340B4006DAB597F20407A6CCB80B34D5040713D0AD7A3635640323CF6B358E05840E2E7BF07AFD85440B4226AA2CF5B3E40221B48179BB55240001B1021AEC84C40124C35B396F35440E3A59BC420DE4440280B5F5FEB2A424034DAAA24B25338402D42B11534C45540463F1A4E9989484000016BD5AE2954400A664CC11AF554405AF10D85CF561940910F7A36AB104040A2ED98BA2BDB0140F8DD74CB0E253840B98D06F01690504008E412471ED3514060E63BF889414E402AAA7EA5F3B75240B1FCF9B66029164061A417B5FB9C5440F8DF4A766CF457406C3F19E3C3B83640FC6F253B36422E4025EB7074959E1940EE23B726DDB62E4001F8A75489BE4B40A5D766632592374022C154336BA130406C239EEC66C61E40B340BB438AC10A40463F1A4E9938514066F50EB743F9564065FED13769B75740A37895B54DA931409A999999990D3440E36F7B82C4FE3E4044DFDDCA12D65140A65EB7088C313F4075AF93FAB2F64B400DA7CCCD376D5240419AB1683ABB2240B5C2F4BD86C05040D7A4DB12B9F44E40419E5DBEF5205640A0C552245FB94F4045813E9127D348409AB0FD648C714E400A850838843E3940B8CCE9B298943140C4211B48176F4740917C259012F74240661536035CE6544088122D793CDF4040A435069D10DA54400070ECD9734B48403B55BE6724204040ADDEE17668F03B40404E98309AD13D4031EA5A7B9FDC4640E694809884254A406DAD2F12DAFD584059DE550F98D14540412E71E481AE4540EF7211DF89591E404CC11A67D32153409AB0FD648C6C57408C4D2B8540FE144008228B34F1AE5040CAF962EFC5C55440DE205A2BDA0C5540EBC6BB2363BD4E405264ADA1D4DEEB3F041F8315A79553402AE27492AD39544061C26856B6CF5840FF05820019AA2C4075CAA31B6116534068757286E2F63040675F79909E764740A58636001BC954407767EDB60B4DFD3F906AD8EF89474440B972F6CE683B4040EE08A7052F844340C6FA06263783524005DD5ED218213840AA807B9E3FF54A4073BA2C2636F33F40B77D8FFAEBCB4A402F505260014CD43FA10F96B1A1DB02400E4DD9E907D35440153AAFB14B74034078B81D1A161B2D40713B342C46994840FAD4B14AE90D4F40005471E316033B408CBFED0912745540EBC6BB2363154140081EDFDE357352405439ED29399B31407619FED30D225640DDEF5014E8434440E7C2482F6A771A409F2287889B415640ACAB02B5182C3240F73DEAAF57C85240D1217024D07037406094A0BFD0AC5540948444DAC6F5464064CDC82077510940A8C821E2E69A48404C6C3EAE0D7D4E40CB2C42B115624A4074B4AA251D7B544072DC291DAC4F3C407A7077D66EB32F405325CADE52AA31409DF3531C07D646401878EE3D5C095740E199D024B10C4F40A5D8D138D4314C401B7FA2B2613D38401EC4CE143A0F3040A19E3E027F04334030A182C30B2B58402BFA43334F1C5240BBD1C77C40964340D5E8D500A5A1EA3FF433F5BA45343F40F3AE7AC03CC4354082ACA7565F8D4740CF656A12BCF53E403E9468C9E3645340F699B33EE57257403E213B6F6334524022C495B377285140D9B11188D7315640CA4E3FA88B6C464025EB707495BE2F4098DD938785FC5040132C0E677E8955407A53910A630F4340D120054F21E55740C078060DFD734D4012F5824F73155340E1EF17B3250B3B406A166877481934408A5759DB14674840E57ADB4C85384D40DC291DACFFA74240DC0E0D8B51734F4071C6302768AB43407E1CCD9195155040E96514CB2D894640A6D1E4620CA44540B56FEEAF1E7D4E40952BBCCB450155405DC136E2C9CA5340292504ABEA6558406E313F37341D40404089CF9D60974840999A046F48933E405CE333D93F90544011E2CAD93BA3FA3F4757E9EE3AA7334073A25D8594BB4340374F75C8CDA44940CAA99D616A933A40EA3F6B7EFC5516403A799109F81D3C40E9B5D95889A13B408FA67A32FFC03440793D98141F8D5240A1BB24CE8ADA5040AB984A3FE1745440D4EFC2D66C951D4050357A35402B4E407BBB253960B723401CB5C2F4BDAA3340E674594C6C064640A1681EC022CF274088DA368C82CE4240A8C4758C2B9258400ADB4FC6F8615640ED45B41D530727401EA5129ED09F54406D1CB1169F525240B3EBDE8AC4244B40F0C16B9736DA4D407FC2D9AD65F354409E7939ECBEE94F406E861BF0F9DD354055F99E9108A134401CD3139678D250408FE3874A23FE5440C6C1A563CED345400AD7A3703DF64F40202922C32ADE1B4034F5BA4560444240B6F81400E33250402C62D8614C504140CD3B4ED191F04F405AF5B9DA8A314C4044FCC3961E375240F452B131AF794140F9D9C87553BD5240CD920035B51751400458E4D70F554840B7EC10FFB0255640A034D42824F656408C9FC6BDF9853B4061DF4E22C26B4A40942EFD4B52955240677E3507087D53403D7D04FEF02B474087DEE2E13D8A53408B8C0E48C2F23C400DFAD2DB9F245140965984622B304640B69E211CB3165340971B0C75589D4A400F45813E91BB3C4088F2052D2434384087A3AB74775551409AD18F865311504076E3DD91B196494039D6C56D34802740C005D9B27C1D2F40799274CDE4C14C4021AF0793E2233B40F4C13236746B4F4032C9C859D8B315400420EEEA553C5540F18288D4B4654E40444DF4F9288B4040F8AA9509BF935640062FFA0AD2A652406475ABE7A4B55840191D90847DFB0140D5B0DF13EBFF57401EF98381E7CE4C408F368E588B472A403961C26856EF55401074B4AA257D2A40B94F8E0244392940AAF23D23116A3140666B7D91D01E3440AF997CB3CDAD3340BFD364C6DB06424009E066F1625547400ABC934F8F3D4540BC033C69E16E444022FAB5F5D3DF4240B77D8FFAEB9B404036CB65A373085140AF25E4839E5C54407FDE54A4C2443440EFFFE384099743407079AC1919FC3B407A3881E9B4E8564027FA7C9411535540BA10AB3FC270F23FA8716F7EC3440340541EDD088B6D504035289A07B080574040BFEFDFBC615140A2B5A2CD71575740B2BB40498185E53F4B0169FF03CC374003ECA353578D5340BC5983F755A1524052D66F26A68B014005A3923A010D2740CF15A58460213C40C11F7EFE7B403240A1DAE044F4F746403EEAAF5758E43440E1455F419A753440E5D18DB0A8824D408AC745B5888444409147702365E540407DCEDDAE97324F401B82E3326E0650400A9DD7D825284040B54E5C8E57324F40998235CEA61B4540F33D23111AAF424060234910AE503840EC8497E0D4874D407EFE7BF0DA6C55406E895C7006CF414073BD6DA642684740456458C51B3E5340A0FCDD3B6A2429409D4A06802ADE4940FA980F0874EB5340070B2769FEFE5140420A9E42AE78484064AC36FFAF064240E15E99B7EAFC5240EF5701BEDBA55340ED0F94DBF61D224072C3EFA65B161940DE921CB0ABFF524009FCE1E7BF99574058C6866EF62F4940AF5DDA70588A2E4084622B685A8757408FE1B19FC54D52402E7590D7839957402FFD4B5299FC414089230F44160D5240FED2A23EC9B34F40AF963B33C1A35540A7C98CB79537524034D593F9478956400AA1832EE1704A4033E202D028FF41404C37894160FD33406631B1F9B8685240DFDC5F3DEE8B49407C0BEBC6BB331D40946DE00ED43D3D40581D39D21954494091B6F1272A5F4640164B917C25ED58402F52280B5F275340C3B986191AFF52400EDC813AE5405440F165A208A97F574096ECD808C49F33400458E4D70FF11440DFA3FE7A85D94740F3C98AE1EAC4564031410DDFC2525440B130444E5F714640917F66101F384640F33CB83B6B1858402098A3C7EFF53A4034492C2977FF5440CAFCA36FD2B4E83FC3B7B06EBCC54940D2C2651536CF5240DB31755776394440431B800D8892414037514B732B0C33401D0247020D9D5640340F60915FEF4E4024B726DD96983C405B9A5B21ACAC51400EDB1665367A56407B319413ED155440D4F2035779522A409F5912A0A6223B40718FA50F5D702B4047E350BF0BA2564038F3AB39401E4440B8AF03E78C504140A54BFF92543A5740C7D6338463275240D1950854FF6822409E060C923EF45440280CCA349A8C58406C257497C442534077F52A323AD55140D8614CFA7B6250403C6BB75D68DA434004E3E0D23188554000ADF9F1977A3C4059BF99982EBF53402BF697DD938E56401E520C90689E49407099D365315655400C5BB39597B75140C38366D7BD875140BB641C23D9674D40D4BA0D6ABF6D29405AF10D85CFCB5440BB6246787B375640C8B60C384B985140FE4465C39AE04240D6E1E82ADD693940A88E554ACF342B400D18247D5AD352406C5B94D920D3224096D05D1267465340E7012CF2EB994040B7EC10FFB07548407DCB9C2E8B0140402C8194D8B5BDD93F99D6A6B1BD761540BBF083F3A9FF47401B4641F0F8BC4840A06B5F402F4152404B94BDA59C405040914259F8FA88434063D520CCEDF24C4068925852EE465840711FB935E926404032923D42CDEB51408F705AF0A2125140266E15C4406F4040F1457BBC90B2324069E388B5F8455840F60A0BEE07F25740DCD6169E97A84A4046EC134031004240C7A17E17B6DC5640C2FA3F87F9AA4A40C66D3480B7D550405AD93EE42D7650400457790261A7F03FEFE6A90EB90C57404DD6A88768C648408655BC9179141440C6DB4AAFCDE051402288F37002C54C406C7A50508A462A40D61A4AED453A4240B3EA73B515173C40F1F62004E46B43407973B8567B2A4F40A7AFE76B96C95240BEBC00FBE8B03E40BFB9BF7ADCAB43406D6FB72407E42C40C99063EB19323C40DAAA24B20F285840A8A9656B7DBB474066101FD8F14D4B40320395F1EF8D4F404721C9ACDE41514053944BE3179624405B09DD25714C57403FC91D369189484036E84B6F7F46314034D593F9471F0C40161406651A07494086E63A8DB4EB5840BCB376DB85DE3A40F33AE2900D5C374021054F21576F53407D21E4BCFF4F2F40AD1397E3157E584072C119FCFD484B407E703E75AC525640C7BB2363B5B905408E1F2A8D98D352401BF5108DEE8026409C33A2B4373648404562821ABEEE504003EB387EA86F5640CA198A3BDEAC2240522AE109BDC62840E620E86855F33340C6151747E5B855401D740987DE135040B95164ADA1F452401F84807C09C355405D16139B8F5B2540514D49D6E16352408E3A3AAE46E352405ED89AADBC4A50403BFBCA83F41C2740552FBFD36407554085B69C4B71BC5540EE21E17B7FCC54401F9F909DB7DE5840448A01124DBC3A400C03965CC5E551406FB72407ECD84E406C3D433866C94A404B57B08D78C85040003B376DC6A25440910A630B419A4C402E39EE940ECA3540D331E719FBEA414043588D25AC9139407D957CEC2E683140A374E95F92784940CAFD0E45815F5240B2B8FFC874981C40BB0CFFE906EE48407BA2EBC20F962D40DCDAC2F352253D40FF03AC55BBE6F33F03249A40119E564061889CBE9E245540492BBEA1F0514740E99AC937DBE43840CA6B257497484F40A8E3310395D25140D23AAA9A20BA13401FF296AB1FCB4C4030F2B226163820400CCA349A5CEC0140FA47DFA4692C4340118E59F624B00740A180ED60C44A3A40062E8F3523BA5340FD14C78157973840CDAD1056639056409148DBF813993C40177E703E75CC3940B77BB94F8EEA28408600E0D8B39855406A183E22A6CC2E4066DD3F16A2E25040C47AA35698804F4086730D3334ED5740098CF50D4CBA3F40815D4D9EB2F55540FA4674CFBA215540DEAF027CB7B53E4099F5622827EA3140E4F560527CD24840D3872EA86F8D3C40F2CEA10C55E74440FB90B75CFD51504009FB761211EE1C400ED76A0F7B7D3740BDC5C37B0E7C1C40C23577F4BF503C4007EC6AF29439304095D39E927352534027BC04A73ECC584002637D03936C5440FC1D8A027D245840043DD4B661BC3340F20C1AFA27383E40833463D174204340DC2C5E2C0CD14C407D073F7100AD264011FC6F253B1E3E40651A4D2EC63455408EACFC3218474640707A17EFC7FA5540C11E1329CD3E3840D6E594809894504067B4554964754C40B610E4A084A144403A5B40683D464B40F35487DC0CB74740A93121E692BA3C40C22FF5F3A6504040CA6B2574979A514051BCCADAA68B50400038F6ECB9543440E065868DB2E6534089EE59D768593040D26EF4311FCF56408F1CE90C8C2034403EB14E95EFAF4440CCEB884336F82E409B3C65355DEF4640EACBD24ECDC6554017618A72698E58405F7CD11E2F5F55406614CB2DADBA3640AE2EA704C4D84840ED0E2906482B564013D731AEB8F65140CD02ED0E2997534081D1E5CDE100494040C1C58A1A58314084BA48A12C3650400455A35703B4494053EC681CEAD65340A1A014ADDCFF3940D15AD1E6384720408DB800344A9E524031074147AB4A5240C634D3BD4EA64A409737876BB5E250406BD619DF17265840446B459BE3125540BEA4315A47D14240DEE7F86871104040FDA36FD23428DB3FBEF8A23D5ECF5640DC9DB5DB2EBB5640001E51A1BAF4564097E2AAB2EF715340E4326E6AA01932400647C9AB73104F4011C5E40D304B2B401366DAFE95C54B40603AADDBA0F95540BDFE243E77EE3B401FA0FB72665F57402E724F577774374019AA622AFDB43F406D1B4641F0C8264085EE92382B5A2D40F566D47C95042B40DA006C4084DC38407AE40F069E39434097E2AAB2EF375040D5EDEC2B0F163240D8D64FFF599B2540841266DAFEDD28408F183DB7D09741403C6A4C88B9DE4E40986DA7AD114120406ADAC534D30D1240862172FA7AB842408EE55DF5802C524012DA722EC5214240A6EF3504C7593540919C4CDC2A882A40698F17D2E11D34401C261AA4E0B34340603AADDBA03E5540A4C519C39C525340FBCC599F724A4A40CA4FAA7D3A645740B341261939B14C409F758D9603FD0240F415A4198B8845405AF5B9DA8A9B58401212691B7F745640CC2A6C06B89448401FA2D11DC48E1A40723106D6713C5840CD5A0A48FB2255401BF67B629DCF51405454FD4AE7074640EA20AF0793884C402DCF83BBB3C956409BE447FC8AF25740A795422097A81D404DA3C9C518395040603C8386FEAB50403BFBCA83F49553404C512E8D5F86474093718C648F7D5240CD936B0A64663840C9AD49B725423740CBD58F4DF2BB4940CE6DC2BD32E15540024BAE62F1BB32402EC72B103DE142406021736550053B409EB4705985453340A4C16D6DE1BE51409546CCECF3BC464008556AF6403F3440115663096BB15540C22FF5F3A61158401DC70F9546142C400055DCB8C5FCF93F54724EECA1813A4076C6F7C5A5963340DDB419A721BE3E40FBCE2F4AD0D54240359A5C8C814130401DCC26C0B0D83640A0DE8C9AAF1A3340B62DCA6C90813E4028806264C9F84A4091BA9D7DE5BC554048179B560A454740261DE56036ED4240719010E50B5A4340B0C6D97404201D40F183F3A9630D4B40E1ED4108C8835440F0C4AC1743F85840454B1E4FCBAF3640792288F370D95540988A8D791D405540A75B76887FC24F40910E0F61FC0453404BB1A371A8C948401DE38A8BA35632408CBD175FB4873F4006137F1475E75240E509849D626C52402D5DC136E2715240FE43FAEDEB2005400AD7A3703D0A184023658BA4DD743040BB09BE69FAB64C4099F04BFDBC27404002B9C49107F63A404F58E20165B74240063065E0802B5140868F882991040D40747ADE8D0535524044A67C08AA9C53407429AE2AFB284D40B0E42A16BF412F4006B8205B9693344001DF6DDE386E58409163EB19C2015840B28174B169034140399CF9D51C0A4640C6C210397D4E5340111C977153D7324061A6ED5F5910504077A04E79748B48403430F2B226D6FF3F12876C205D12564040DCD5ABC8F55040CF842689253951403EEB1A2D07E23B40FED2A23EC9154740F25F200890E14E402310AFEB170C2C4037C7B94DB84B3740711E4E603A434140357BA01518204040793BC269C1C3314049A297512C9346401FBDE13E72B6504030478FDFDB6C4E406A4FC939B19F39406EFC89CA86E95440DCBDDC27476B474006651A4D2ECA4740081F4AB4E46B55400B42791F478319403CA06CCA15EE2C406EDC627E6EC245404568041BD7674540D53DB2B96AAE4840588CBAD6DE2C5740B3D0CE69164C4F40BC9179E40F161540EE0A7DB08CA3484080D6FCF84B394440C233A14962195840C5C551B9893A3B4088F19A5775B625407F50172994355140FC8A355CE48E1E404A44F81741B9574003603C8386D15240677FA0DCB60F2B40BED9E6C6F404E33FC4793881E9783C40E9F010C64F2F3C408B5242B0AA064C405AD8D30E7F0D3340D5CA845FEAB72C40C4B12E6EA36D3A403F389F3A5667464009336DFFCA4A194074D0251C7A535740040473F4F81D0840601E32E543AD504085D1AC6C1F6C524010AD156D8E455240236937FA988F3540001FBC7669633B407B4CA4349B094A406090F46915F851407349D57613BC47408063CF9ECBE24D40C974E8F4BCB45840EDF1423A3C5E454048F949B54FF734403332C85D84794840FB0626378ACE4740626A4B1DE47131400AA359D93EB156409E7DE5417A984E407B4B395FECB535408BA6B393C1EB5740C6353E93FD2654400A4966F50E775740E6EAC726F9595140E3361AC05BEE434074417DCB9C504B406F4BE482330447406344A2D0B2004F40E99D0AB8E7194C40745C8DEC4AFB5440D13C80457EC95340441669E21DD02540B7D09508549149403A596ABDDF880B408D0DDDEC0F142F405C7347FFCB352F40EC3026FDBD7435409A7CB3CD8DA9FD3FDEE8633E20284A4014CE6E2D938E574014EAE923F0285140B5C189E8D74B5240F032C34659BB46402FA86F99D3F53B40A6ED5F5969A215402446CF2D74CD4540A7EB89AE0BE732400E30F31DFC5B5440A7936C753984574074D190F1283746402383DC4598AC494023C0E95DBC173C40F7578FFB56AF3B40A33D5E4887874D4037894160E5D0E83F07B13385CE894240DE9387855AF352401D588E90811E4B401DE4F560522A5640C5C89239966357406A85E97B0D345140431F2C6343C71A40FFE9060ABC3F44404C8E3BA5831D494040BFEFDFBCDC4F40E109BDFE24DE0E40639813B4C9112740A795422097C84F40CEC3094CA7D6504070B1A206D3B4534062855B3E92A750409143C4CDA9BC304075B0FECF617E2F402BA4FCA4DA755040A12C7C7DAD145740C6C4E6E3DAE24140B85851836979534040DEAB5626AC36405610035DFB12194035D4282499ED38401494A2957B05564064B2B8FFC83846405EF1D4230D9441408E1F2A8D98B540404EB7EC10FFA4434005DB8827BBDC5540938FDD054A9C4940E94999D4D0945740064CE0D6DDFB504060AFB0E07EC83540F06DFAB31FD9124022A98592C98D49404F779E78CEFF504056116E32AA5851402D431CEBE2164D40B87361A417A54F40DF701FB935F45140AC8F87BEBB2B4E406347E350BFDB2940616D8C9DF0DC4C4085B2F0F5B5BE5040B745990D32DD4840888043A852174540969526A5A05B1C4026FE28EACC9D194027FA7C9411272940C8B4368DED41464016359886E1995340DC0DA2B5A2F54B40593673486A5B574051A5660FB4E44C40CE8AA8893E3F1E40EC4CA1F31A654E407007EA94476B4D408C67D0D03FE854401329CDE671CA49409B00C3F2E7315240211D1EC2F8B94C40E085ADD9CAA94140452C62D8610A5340F35A09DD25E534401AC39CA04DBA3140B70C384BC97A28403CFA5FAE45E55740FC5580EF36354E404B033FAA61D95840F5DA6CACC4CC3240A6F0A0D975C956409F8EC70C546E4E408FA67A32FFF04040DFA9807B9E7F4E4045F5D6C056F34C4022C154336BA85540E0DBF4673FB25340C44142942F283F40AF4335255957184096B4E21B0A5D5040CE88D2DEE01B3340785E2A36E6FC58400454388254E6414074EB353D2868474082734694F6E04F40ED293927F6A554406B2C616D8CB25140E50B5A48C0BA554046B1DCD26A004C401405FA449E4B55408EAD6708C7CC154029B4ACFBC7F63740D09B8A5418BB2B400F7D772B4BC9554039B4C876BEE45640DDEA39E97DCA5240DFFDF15EB5023E400ADB4FC6F87C57409696917A4FD341400F27309DD6113240D811876C20FF4D403C4F3C670BC8504021CB82893FDE4D400ED76A0F7B5B45405A677C5F5C763B4042AF3F89CF4524403CF88903E8DF5540D4D7F335CBAE50403C66A032FEE75040929735B1C01B3840676325E659334140871403249A7C3E408BC1C3B46FEC40400C3F389F3A5A4E4092205C0185AE38409DB81CAF40BE4F40969526A5A0933040320395F1EF531A4011346612F59A4C406F490ED8D5E41A4099F1B6D26BAA5240FCC74274086E40406534F279C52D4940A5DDE8633E4830400F0BB5A6794052407B4FE5B4A7A03A4046B6F3FDD45A4840D0D1AA96744E53409622F94A20EB5240F14BFDBCA99038409C8BBFED094A474072193735D00B5240B1DEA815A66F0C40BE1248895D694C40C2F9D4B14ADD324058C6866EF63149400A9DD7D825BC574078094E7D208B4240EF8E8CD5E62F1E40A08B868C471F584032CB9E04365B4140A6B8AAECBBCA46402062838593044D4072BF4351A01F1340EB8B84B69CA053405A63D009A1DB23405CC64D0D346F1B40FE2B2B4D4AA75240F627F1B913A64040F9BEB854A53D3940BA9EE8BAF076514029B2D6506AEF4540F67AF7C77B951A4026A60BB1FA6B5640C2DF2F664B9E2940E350BF0B5BCB484052BAF42F49FB4440BC900E0F618C45407E5182FE42905640999B6F44F7ED524087C1FC1532DA52403CD862B7CF4A1A402B6EDC627E823040E0BA624678854F400EA2B5A2CDFB4840C32CB4739A7354408EE733A0DE0431409FE3A3C51903014041D47D0052905240A8716F7EC3143F40E622BE13B35EE83F56B77A4E7A5F26405B24ED461FA74740E353008C67195240EC89AE0B3F081F4037DDB243FCA14240A038807EDF2541407EC9C6832DE158402BA4FCA4DAEF4B401EE21FB6F4E243402EAC1BEF8E4C0140A79196CADB0F484020990E9D9E8B4A402F8A1EF8189F5240D5777E5182D638404BE658DE559C51406682E15CC314264016F71F990E334640AB22DC6454D9F93F5890662C9ACA4040A0A86C58536656409D84D21742962F40FE7C5BB054194D4081B22957783456407B832F4CA6F15540359886E123445340B726DD96C80D384014ED2AA4FCF84440B1FD648C0F6C53405A2A6F47383F5140FDC1C073EF8F4C40D7A19A92AC2F4C40E9818FC18ADF4240C39B35785FD5FF3F19C6DD205A5358402C6684B70765384012DA722EC5334440FB03E5B67DFB4F40EE2422FC8B2E514011E50B5A48983B40E1B88C9B1A743D40DE8D058541CB4B40394371C79BE35340A438471D1D0F5640164B917C254A584001892650C4104840BB6070CD1DCA58409B20EA3E00E4554083FB010F0CA64B40535E2BA1BB1053404277499C157A5640A94A5B5CE3AB4040AAB8718BF9B92340B32616F88A8651402EE3A6069A6254402D40DB6AD68D5240E6E95C514A4F574097395D161369504007B7B585E791424095D39E92735E3040FA5E43705C0D57402B4CDF6B08AD5840159161156F543440F48B12F417F23F40028063CF9E0F3640FA62EFC517974D40F0A2AF20CDB05340A20914B18841504072A43330F24A3540F6D37FD6FC980E406B9F8EC70C8C4E4098158A743FA71F4015C5ABAC6D8056400D39B69E217C584032AB77B81D1557403CFA5FAE458D4E40B24CBF44BC494A4051D9B0A6B26C3B4099D9E731CA9F404078B7B244671D3C40DF15C1FF56A23440E5B7E864A9252340D8F335CB65795140651D8EAED2A1554018EE5C18E98C554024438EAD67485240BE688F17D2ED3E40A5F9635A9B3E5340F0DE516342A83840C1C9367007CC41409CA73AE466481C40BEDBBC7152A75140C767B27F9E00434039B35DA10F485140431F2C6343C45640DA1EBDE13ED44B40DCF29194F4BA5740766B990CC709504018778368ADA64840AD889AE8F3D92D409E98F56228A25740CC99ED0A7DA25540E57D1CCD91F851401B2C9CA4F9D34840E9818FC18A0D5540205ED72FD8D14B40F7CDFDD5E3AE3F4099D36531B1F93D405A84622B68BE4F40D0D38041D21B54401D041DAD6AF156407590D783497124401D90847D3B891E4046990D32C93E4F40CFD90242EB3126408DB5BFB33D815340AD855968E7BC2C40DCF0BBE996614B40999EB0C403024C40B43EE5982CE844405EBD8A8C0E0C3540CF84268925D14A406A334E43544F4F404051D9B0A65A3B403524EEB1F4EF454082A966D652B35340813E912749655440FF5BC98E8D5F5140B9C150871512314021CA17B49062414013D38558FDD34340598AE42B81ED57409BAC510FD1F645408F1D54E23ACF5540350A4966F56853406347E350BF0B7B3F642310AFEBD71C4022A7AFE76BBF5440F17EDC7EF9744B406F2EFEB627202C406CB587BD50000340C4978922A4A354400EBF9B6ED9EA51400B60CAC0016356403F55850662694340DEAB5626FC5E5040DDD26A48DC5B484058FFE7305F455240D3DD7536E4D34940E7340BB43B484D408ACA8635957D3640A0A9D72D02231640B328ECA2E8D1224064EB19C231395040EF8E8CD5E6C73F40BE840A0E2F0C3340B4B0A71DFEFE5840C9772975C9B8F23F575C1C959B464C40DDCD531D72AF50407B336ABE4A7E284064B2B8FFC86E4840A86DC32808C358409F909DB7B1312940700A2B1554D052407AC6BE64E3C11A405298F738D3B417405E48878730865440B187F6B18232584062855B3E92F2364062D9CC21A905E23F899AE8F351004740EBABAB02B5084740DFF8DA334BAE32403B35971B0CB53D406022DE3AFF444E40FE0B040132F75340772CB64945634D40D542C9E4D43246407B9FAA4203C14240E62494BE10CE5640BFF04A92E7E7564099840B7904872940F71E2E39EE8A5640E7C75F5AD4175740A9143B1A87E652407CD5CA845FAA19400514EAE923101D409702D2FE0734424092CEC0C8CBA1584049658A39083F5240E294B9F946A64240732CEFAA070CF43FD50792770EEB4E40AD855968E72A4540B3CF6394670F56400055DCB8C50C4E407E71A94A5B2425404F7633A31F8D0F408E3EE60302F25840F4A8F8BF23AA4840B18A37328FA42940DAFF006BD58E0540F9A1D28899A74740A724EB7074705440895FB1868B7C2F40B727486C775F1740BB421F2C63C94140E3C281902CAE4C402E8CF4A276F344404C16F71F99A248409B3A8F8AFF5B17405F5D15A8C53A43408BDD3EABCC54F83F0135B56CADBD4C407B4ACE893D1A4E4016DA39CD022D3340AC1DC539EA68E33F9A94826E2F795440E9465854C4D91440AD6EF59CF42D5340CFA10C5531CB47400839EFFFE3242840E5284014CC7C3D40BF2CEDD45C204D4076FEEDB25F4C5240AF415F7AFB4A5240CBF6216FB9984740F69B89E942F75740E3C798BB960C45401C2785798F3941408BAA5FE97C0C5840996379573DA84D40F792C6681D5150406EC0E78711B647406A50340F60A35540B8921D1B81715040A915A6EF35DE42402C0E677E350E5840A1F5F065A2BE4540639CBF0985D04740CA4E3FA88B5D5040E1D231E719CD584091D61874426D53409DBAF2599EB7474003B4AD669D6749402618CE35CC5648403C4CFBE6FEE234403B6EF8DD74234440D05E7D3CF403474040A20914B1E43B406AFB57569AA84740DC2A8881AE7B45402BC1E270E6B94540BE326FD5756C5440226E4E25036838408B54185B086440404791B58652ED4E40E4D9E55B1F7E524014048F6FEF1221406E179AEB34C251407DE9EDCF45BB574016DA39CD02D54040BDDF68C70DC94A4012BEF73768F25740889FFF1EBCBE3940D36C1E87C1183B402D95B7239C96F83F07431D56B86D564006685BCD3A405140B1DB679599