module {
  llvm.func @malloc(i64) -> !llvm.ptr
  llvm.mlir.global private constant @__constant_201xindex(dense<"0x00000000000000007400000000000000DC000000000000003C010000000000009D0100000000000001020000000000005E02000000000000BF0200000000000022030000000000008503000000000000EC030000000000005404000000000000BB0400000000000020050000000000008005000000000000DE050000000000004006000000000000A60600000000000010070000000000007607000000000000D5070000000000003F08000000000000A608000000000000F9080000000000005609000000000000B609000000000000230A000000000000730A000000000000D30A000000000000370B000000000000930B000000000000F70B0000000000006B0C000000000000C90C0000000000002D0D000000000000970D000000000000FE0D000000000000670E000000000000D00E0000000000003E0F000000000000A60F0000000000000D100000000000007810000000000000DA1000000000000038110000000000008C11000000000000E4110000000000004012000000000000B11200000000000009130000000000006413000000000000CD1300000000000028140000000000008714000000000000EA140000000000004C15000000000000B2150000000000001E160000000000008616000000000000F0160000000000005A17000000000000AC170000000000000E180000000000007818000000000000D8180000000000003F19000000000000A1190000000000000B1A000000000000691A000000000000CC1A000000000000381B000000000000A41B000000000000121C0000000000007E1C000000000000DE1C000000000000351D0000000000009F1D000000000000011E0000000000006D1E000000000000D71E000000000000421F000000000000A11F0000000000000A200000000000007020000000000000D52000000000000034210000000000009D2100000000000008220000000000006622000000000000D2220000000000003523000000000000932300000000000001240000000000006424000000000000D4240000000000003A25000000000000A72500000000000011260000000000007626000000000000D5260000000000002B270000000000009727000000000000F4270000000000005928000000000000BC280000000000001D290000000000007E29000000000000E029000000000000492A000000000000A22A000000000000102B000000000000662B000000000000C62B000000000000322C000000000000962C000000000000F82C000000000000532D000000000000B02D000000000000192E0000000000007C2E000000000000DA2E0000000000003D2F0000000000009F2F0000000000000A300000000000007130000000000000D03000000000000037310000000000009F31000000000000FD310000000000005D32000000000000BF3200000000000017330000000000007A33000000000000E2330000000000004534000000000000AE3400000000000015350000000000007435000000000000DC350000000000003A360000000000009A36000000000000FA360000000000006637000000000000CB370000000000003338000000000000943800000000000001390000000000006539000000000000CC390000000000003B3A0000000000009F3A000000000000063B000000000000693B000000000000D63B000000000000323C0000000000009D3C000000000000FD3C0000000000006A3D000000000000D53D0000000000002D3E000000000000943E000000000000FA3E0000000000005F3F000000000000C33F0000000000002A400000000000008740000000000000F3400000000000005541000000000000B74100000000000022420000000000008A42000000000000FB420000000000006543000000000000D1430000000000003744000000000000A044000000000000FD440000000000006245000000000000C94500000000000028460000000000008B46000000000000EC460000000000004D47000000000000AD4700000000000016480000000000007848000000000000D6480000000000004249000000000000AC49000000000000154A000000000000784A000000000000D74A0000000000002B4B000000000000854B000000000000E74B000000000000434C000000000000A84C000000000000034D0000000000006D4D000000000000D34D000000000000464E000000000000"> : tensor<201xindex>) {addr_space = 0 : i32, alignment = 64 : i64} : !llvm.array<201 x i64>
  llvm.mlir.global private constant 