module {
  llvm.func @malloc(i64) -> !llvm.ptr
  llvm.mlir.global private constant @__constant_100x100xf64_0(dense<"0xE161DA37F740564067B8019F1FC23E40C311A452EC73564009E23C9CC0683040D50968226C4E5040F816D68D771D44403563D17476A21F406138D730439F43403082C64CA2B24540C9224DBC03DC2A40C170AE6186C6E33F0C738236399A5540649126DE01924040868F88299122524068925852EEE64A409CFD8172DBC642409E7DE5417A3A1440C45BE7DF2E7B3D40F913950D6B3553404774CFBA460F4040D40B3ECDC9135740EFE6A90EB9D54B4058207A5226454E4077483140A23D3040F086342A70AE3D408B18761893F44B409983A0A3554F46402EE6E786A6CE4D40E2B034F0A39B58403D484F9143C8434034D593F94716504059147651F4043740698F17D2E16F4740C4EE3B86C79A384082C476F7002B4840790778D2C2B745409B1E1494A2AB4A40172CD505BCA24C40FCE4284014444A404BEA043411CA3C4070EEAF1EF728584010751F80D426F33F541B9C887E755040153B1A87FAC53E40C231CB9E0436BF3F21C9ACDEE1424940CBF5B6990A8855408C6A11514CAA334004745FCE6CB14C40228E75711B60584025766D6FB7603C408A3F8A3A73374F405B22179CC1F555402507EC6AF2CA57404F9143C4CD012440FB761211FE554C4040F67AF7C7DD424001FA7DFFE621444008E753C72A2F4F40D9B27C5D861F3240B35DA10F965E51403849F3C7B4AC4A404A7CEE04FB5B584066F50EB7438E55405890662C9A355840E0BDA3C6847254400F0D8B51D715584090DAC4C9FDE6564099A0866F61ED2E401A34F44F70093540CE55F31C91A75840F1BBE9961DDA2940B858518369CC3F40F9C08EFF02CD384032056B9C4DA33740DD28B2D6506B5140E124CD1FD3DA0D40EDD5C743DF10574083A3E4D5391E3C4044A2D0B2EE5341402A8C2D04395824408F386403E92157400BB3D0CE6956294023DC645419860B40BCE9961DE2E33340A60F5D50DF224C404CDD955D304C4F40BF44BC75FEE5534022516859F7274E40D6389B8E00EC514046EF54C03DFD4840DBF7A8BF5EA93640B2D5E59480003940FDFA213658B825402E742502D56B3F40B6A0F7C6109035402D4146408541554096253ACB2C965340C03DCF9F36235040C478CDAB3A275540AAF1D24D62302A40F54C2F3196453E406E6E4C4F58D84F40B66801DA56BA5040AC53E57B46A351401F4AB4E4F1AC434015C440D7BEA85440FF9600FC53904B40ACAC6D8AC7613740622CD32F11F73540AFD007CBD8382F408CF7E3F6CBF14640E9818FC18AA14E400F9A5DF7560045406281AFE8D6232840634337FB03715340AF5E454607005040F6234564589538406CE9D1544FD75540193DB7D095F252408121AB5B3DFC5440C861307F85255740C28A53AD85534E40EBE1CB4411035040FE7DC685039F57401BBAD91F28773D40A6ED5F596949524006D671FC509136400AA018593253544061C5A9D6C2284940DFDDCA129D06524014234BE658BE0140075E2D7766523A40FA0967B796145340BA30D28BDA654C40AA807B9E3F9C504050711C78B57D5140D0251C7A8B285840C68844A165F74E40E57E87A2401E5040F645425BCE7B4540F6F065A208C34B40EF5701BEDB124D401FF7ADD68947554037C478CDAB86494013B9E00CFEBEF63F904DF2237EC85440C9AA08371931464003EACDA8F9722F4038312427135B3840C6E1CCAFE640534033C4B12E6EE74040B056ED9A90D24440F818AC38D5AD5740A56950340FB82540FF91E9D0E9493D4023BBD23252ED4B40B9162D40DB823340C4B12E6EA3E7474076E272BC029556400795B88E71FF49406806F1811DD458409A780778D2484C409D9CA1B8E3652B402670EB6E9EE0474038876BB5876B484083A44FABE8ED574095D40968226C0440C8B260E28FCB504023DBF97E6AE055404D874ECFBB5D37407C7C4276DE065040D09B8A54183B3E401502B9C491DF58409E0C8E92579945401A3048FAB4A65740A872DA5372E45540857CD0B359A53E40C367EBE060BD4240E202D0285D6A3F40D41055F83394394010919A76315B5140F67D38488854524047AAEFFCA2124C409AB0FD648CA85040D751D50451EF3240E4F560527C4C2B40F96A47718E844640EBA86A82A8394C40F6EFFACC59573B40711E4E603A6A5040446E861BF0D93C406EE00ED4295A5640A8E507AEF27D5040C6FD47A6436B55409A0645F3005158404EF1B8A816993F402CBAF59A1E8249402FF7C95180B85740E50B5A48C03035402D0ABB287A583940C7B94DB857FF5540DC2A8881AEF05440CBA145B6F31144406631B1F9B82E4740543882548A0D2740BA84436FF1603A40DCBC715298B7F63FA39410ACAA0541400A65E1EB6B8D42405DDE1CAED59EFF3FBC74931804DE47409335EA211AD25540BCE82B4833124940C8B1F50CE1D84140D5B32094F70B4040317C444C89D24D40994528B6820B52406B2920ED7F5550408446B071FD414B40718DCF64FFAC3440C00644882B4E544012F5824F73AF55401C08C90226283840E22021CA175657407E71A94A5B3A4F403221E692AAA3414083F6EAE3A1AA544011001C7BF6364A400F289B72857752406F62484E2607564085436FF1F0C95040C009850838EC3240732CEFAA079C55402FC03E3A7501374062A1D634EF2856401CEBE2361A9A4140D508FD4CBD235740006F8104C5255640096B63EC84433640562AA8A8FA775840992CEE3F32B13040ACE63922DFA15540C98E8D40BC763D40CA3505323BAD4A402655DB4DF0095640BAD7497D595E3640132C0E677EAA5140698B6B7C26D74C4082AAD1AB01FB5340494A7A185A8D27400A9FAD8383C250406A4FC939B1C85240A8A624EB70FA414046ED7E15E03BFB3FC2DB831090075740B9DE3653217E1440359886E123823640299831056BC423401651137D3E0A0540C32CB4739AD5364016FBCBEEC95341409CE1067C7E175240B894F3C5DE114C402F19C748F63849409F01F566D4775440C09481035A2D5040626534F279FF5840ADBEBA2A504F454073840CE4D9CD3740DACBB6D3D6295740041C42959A5B434031EBC5504E89574087F9F202EC2854405DC5E23785D65440AED9CA4BFE9F544042D13C8045904040CC5D4BC807A545402E39EE940EDA52408CF2CCCB612F44409A0AF148BC3CDF3FE7AA798EC8905340C4B5DAC35E8754403B527DE7172F4640174A26A776062040888384285F1A4B40D1B1834A5C773E40444DF4F928C94640723271AB2090444040F7E5CC76A142405E83BEF4F6373E403BA92F4B3BE14A407E3672DD941C56400AD6389B8E083B40B2683A3B199E4A401AA4E029E46D5640F8A41309A6A5504045F12A6B9B96564083FB010F0C1A4040FFE89B340D0643407235B22B2DE739406EE00ED4292956400E6ABFB513A935403E75AC527AC041404A9A3FA6B5E74D4033C170AE614246405E6743FE99D922403F55850662314440E7C3B3041981E43F2786E464E2025040965D30B8E6CE3C4098DF6932E3374D40E3A8DC442DBB474098F6CDFDD5AF3B40029D499BAA9657407A53910A63954A40D927806264D95240C68A1A4CC3582240F60D4C6E14165340C022BF7E88415740C6A354C213C441404679E6E5B08B2240C217265305C9454059DE550F98671840A587A1D5C9C53B4007D3307C44942D40EB1ED95C35815340094E7D2079C94A40D05E7D3CF44B41400ABC934F8FEB46403DF372D87D872D40761BD47E6B654F40C2FBAA5CA85E44400667F0F78B79144038BEF6CC92582B408E76DCF0BB735440508D976E12ED4A40DB85E63A8DB952403D65355D4F804A40C8957A16848F5440FCC6D79E59725640126745D4449B4F40088ECBB8A99258403A419B1C3E0D3A4063B66455849F4840CFF753E3A5832A40AA2A3410CB0C5340700A2B155474034044DB317557A0474053211E8997CF3740FBE769C0201B52407B1684F23E5E3A40529B38B9DFAE5140C9ACDEE176624C404B75012F331245408978EBFCDB1554403BE5D18DB0343F404F5AB8ACC2123A40DC2F9FAC18D63B40EA059FE6E4095640EACF7EA488804040F2B391EBA65C3340CEA8F92AF96057400B9B012EC896DC3F70B54E5C8E38534010CB660E494D3B4024B4E55C8A2745408EE89E758D661340F56569A7E69758400AB952CF821C3640CFD72C978DC2554004A9143B1ADA5140554FE61F7DF74140392A37514BC325407B4E7ADFF85A1E40E277D32D3B18494039B709F7CA7D51401096B1A19B05464037E33444150A3540FB3E1C2444AD3E4020F0C000C24D444051BB5F05F80C534066F84F375051574065FD6662BAA650403A7AFCDEA65F3740639AE95E278745402C2AE274925B5740CEA96400A8E152406B459BE3DC2A4C40750305DEC9B3364068AED3484B5B5840A4AB74779DEB5640CB2E185C73EF4A40240F441669C63A4008944DB9C2C94540B1F84D61A5E24640B682A62556B64440A73B4F3C674144406F0F4240BE8E5640AA66D652408C4A4029594E42E90BD83FA1116C5CFFBA5340EC89AE0B3F524C40D9EDB3CA4C5552400CB08F4E5D195040B6DAC35E28D844408CF50D4C6EF24E404640852348D13E4052BAF42F49BA5140DBC35E28602B4540FD82DDB06D2B4C40E1D1C6116BE4584095826E2F692352403106D671FCA65640FE99417C60AD584059A31EA2D1F75040D4EFC2D66C8F5140D8800871E5155740105A0F5F26B6514088D860E124E8574018080264E8684140FA9CBB5D2F7F4D40DCD7817346BC4940A79196CADBA14340607825C973935240D1915CFE431644404754A86E2EF63D40A4E2FF8EA8C84E401A3048FAB42F564058C51B9947685240C4D0EAE40C6658404754A86E2E205740D82C978DCE16564072C45A7C0AA0404082E50819C81734409411178046D14840218FE046CAF84D402EC55565DF7130405D50DF32A78B234084D90418962F5540CBBA7F2C447F2C40145D177E704E2640C139234A7BD321409E077767ED3237408E8F16670CE4534048FE60E0B93749409C6D6E4C4FE82C409753026212C63E4027327381CBF736409BE7887C9750574028452BF702914B4079245E9ECEA741406D59BE2EC3C351408BC3995FCD1D3440E4310395F1CF0F4070EF1AF4A58D4A40062D2460744356400B9B012EC8795840AF5A99F04B414740CD237F30F06552408159A148F7CF4240459DB98784685340611C5C3AE63C01404A97FE25A93C4E407E74EACA67A13840041BD7BFEB6C55408EE89E758DF44040B72A89EC835C46402DEBFEB110ED5140382D78D157903040834D9D47C5365040D369DD06B5B34A402219726C3D1D4A408DCF64FF3C954E4001C3F2E7DB4A4B40C85C19541BBC1D40DF6C73637A3950400E6B2A8BC20F5040FFEBDCB4195D47401E4FCB0F5CAB4640581EA4A7C8A854403D61890794014A407E01BD70E7AE3F40863DEDF0D7E41640247B849A21693840056A317898DE25408BA6B393C1092140E4F8A1D288D13D40A18499B67F8254408692C9A99D565040FF06EDD5C70E524080EF366F9CB154407EE02A4F200C3E40643BDF4F8D071E40B5368DEDB5C8274032923D42CD9C40409337C0CC7794474041EF8D2100E35340B5C35F93359845407BDAE1AFC9745240C11BD2A8C0792D40D5230D6E6B4B4E406C98A1F1448E5440F3C81F0C3C214A405B43A9BD88D9524023111AC1C6D05640A298BC0166064D4061A8C30AB77C2D403259DC7F64284E4054573ECBF3C244408D45D3D9C9D64940C493DDCCE80F4140F9F884ECBC7D2D407CD2890453CD4340D55DD905836B3D406A12BC218D8C544012F758FAD04D294007F016485074364047B071FDBB7B5340EC12D55B03394B405A7F4B00FE29D63F2BFBAE08FEFB4640FB761211FE85FC3F012F336C943934407B15191D90985340473B6EF8DD1E4540E23B31EBC550054043CBBA7F2CD9564045662E7079B83D40EE5D83BEF456494054FCDF1115515740A69A594B016F4C4072C5C551B9665440A036AAD3815E52404AB3791C069D5540640795B88EF748409BADBCE47F7A4640FBE769C0202B57405A10CAFB388A3D408BA9F413CEAD51406E693524EE0051404E098849B80C3540ED4960730EE64D408BE07F2BD9F34B40C6FD47A6434C56408E3A3AAE46904A40467C2766BD7E4E40126745D4441D5340AFCE31207B285140501A6A1492315040AB59677C5F385440EE2422FC8B4652400F5F268A90C22340DA1B7C6132A3584052F01472A5D62940D272A087DA904E409087BEBB95DC54401DAED51EF60E3840F9A1D28899174D40253D0CAD4E423940494739984D68204085285FD042B25740EEEA556474F352403E05C07806EF53406F0C01C0B13D4740AF7C96E7C1FD3A40E29178793A8F2C40CCD24ECDE5C44C4055FB743C662A5840E7AA798EC8E14440FB58C16F439B5240BD512B4CDFFF41405169C4CC3EF15540E485747808BB444022C7D63384F94D40DDEA39E97D0D4A4077F700DD975B43409E29745E638A514022FE614B8F9234406A32E36DA5D7E03F9AB51490F6305840CAFACDC474A054401268B0A9F3A80D40003B376DC6FE51401DE4F56052E95240E4654D2CF0B51D40DD26DC2BF3E446405DF92CCF83CB114040DF162CD55D3540CADFBDA3C6C85640BE874B8E3BF13840B4226AA2CFD95340AB3DEC8502F153400AD7A3703D5E3840B7291E17D5225040725298F7388146406B459BE3DCDE3E406347E350BF3B2240605969520A4C5840A0E238F06AD34440B22C98F8A326584093E52494BEBC3C4042CC2555DB593740276C3F19E3C3D73FD4D4B2B5BEB358404510E7E104E44440F1D4230D6E57454077A04E79747F48404FADBEBA2A04384072FE261422CB514092EC116A86F64740F73AA92F4BDE514021CCED5EEE874F4085268925E56550406AF981AB3C41404061FBC9181F88474020D099B4A9523040C9AA0837198D2E408D5DA27A6B74524061FD9FC37C0136401BA19FA9D7C452407638BA4A77145440C500892650E83E402785798F33C553400ABABDA4318646409A0AF148BC0E4A4054C8957A16D4384059350873BBCF214012A0A696AD2B4E40F165A208A9014440C0B0FCF9B6945740664F029B73FD5340139A2496941D4240AEF02E17F1435340B80721205F8201404B581B63276D50408FDFDBF467AB544019709692E5EB5540601E32E543FC3640F4531C075EF65040BFEE74E7898B434040868E1D54E207405ED6C4025F374940BCEB6CC83F445640F627F1B913BD54400EBF9B6ED96556400E492D944C4754406DC83F33889D4E4033164D6727FE53407BDB4C8578C35440151C5E10910A3740C493DDCCE83B4440D99942E735C0484086E8103812FB574099BB96900F3152400EDAAB8F87BEE43F399D64ABCBB93940D3BEB9BF7AEA49401AC40776FC3703408B5242B0AA86224063EFC517ED2B4C4062C092AB580451409E95B4E21BB25040C9207711A6C033404225AE635C7D434063450DA6611B56401901158E20FD294067B5C01E13953640325A475513C657401AA20A7F869555403F8F519E799F564025ADF886C2534E4001BD70E7C2B03E40DB4FC6F830D652400740DCD5AB9251407FA2B2614D85024009C03FA54AB416402F52280B5FF152400AA0185932B73240D0B9DBF5D2724B4056F146E691333C402332ACE28DFE5140D4298F6E84394740807EDFBF79435040B7088CF50DC44740560E2DB29DEF17405C566133C05A5840C91EA16648FD2D40994A3FE1ECA04C4012BD8C62B9FB4A406EF8DD74CBFA37404D309C6B98A94C40C040102043D73B400B98C0ADBBB9324098689082A72F55408C153598869F58401A4E999B6FCC514013D731AEB82A4C40C0E8F2E6703154404DD6A887684844404930D5CC5A83554082FDD7B969773C40658A39083A66444062BA10AB3FD24740D099B4A9BA27454070B4E386DFBB4340A92EE06586634F40FB743C66A012054042E90B21E73556408692C9A99DDC55401973D712F2C053405C7347FFCB015040BCCADAA678D447407CD5CA845F9452407A50508A564B5040522CB7B41A5A45400ED8D5E429C656400F29064834665540D7851F9C4F55494042E90B21E71F48402BC3B81B44AB02408410902FA13A4B40DA1D520C9068FF3FDAACFA5C6D645040A48CB800343C5640B477465B95003440EC4FE27327175640821FD5B0DFD74840717500C45D8342403B18B14F00245240486E4DBA2DA5444091D5AD9E93A24D40ACC95356D3FA5740FE43FAEDEBA03440534145D5AF9443401EFCC401F48B2840F964C57075A83B401AE0826C59F0414056116E32AA1A4C4027FA7C9411514740E82E89B3227C50404BE7C3B304EE5540F4A96395D2F3FD3F8D976E1283E02440A56ABB09BEE12D40B01F628385C14E402A6F47382D1437403E26529ACD5F3640A01A2FDD245A4D40022B8716D962574071AC8BDB68FD5640CC4065FCFBAC184001C0B167CFB74D4091291F82AA754740448B6CE7FB8D35406728EE78934B5640111B2C9CA4A911401B13622EA9BA4240D7F9B7CB7ECD1B40F4FE3F4E980C5740D4449F8F32275140D50968226CE2534051DB865110D44F40BC94BA641C395240AE450BD0B67A04404E2A1A6B7FE1574061FA5E4370D43A400C738236397C2840B7B41A12F774584044520B2593D656406D382C0DFCDC3E402BD9B11188314E4062D68BA19C5C3C4090F63FC05A1D4E403143E38920262E4012FA997ADDF21F40637E6E68CAD84B40F25D4A5D32F15440800C1D3BA8FF5140D50792770EB14B40EE77280AF46918405DDDB1D826234B40CC5EB69DB61D5640B8C83D5DDD510540AB5B3D27BDEF4740301004C8D00957401BA034D428AD58407B67B455497F55400E164ED2FC774040DEAF027CB72B424030DAE38574724D4043C70E2A716F43406DC9AA0837091640F241CF66D50741400F09DFFB1B3C3940CBDB114E0B463540D0D1AA9674DE484002452C62D8614F40C93B873254105240F0BE2A172A7F1340253D0CAD4EA84940C93D5DDDB1F047402BBEA1F0D91E4F40B4E55C8AABFA2540317A6EA12B911C40C1745AB741F54A409206B7B585494440D905836BEEEB53405E48878730FEE73FB2DAFCBFEA2B5340397B67B455434E40A2B2614D65313A407D5BB05417582540BDAC8905BE022D40024BAE62F16E52408272DBBE470D1640C9207711A60356403AB2F2CB608CE43F4FCE50DCF1761540054D4BAC8C863D40F5B9DA8AFDDD49403F36C98FF88F5740F17EDC7EF96E51404AF086342A8F53403BE5D18DB0282C409A6038D730D74A40910A630B417B584072C5C551B909FC3FB2BE81C98DBC4C406919A9F75412454029E96168751E3340D1CE691668814E408A05BEA25BB05840D7DD3CD52177064057E883656CAC53407A6D365662044240A2B2614D656A5840481B47ACC56F2F40A1D79FC4E7244740D55DD90583D74640E690D442C98B5240F8C1F9D4B1A64440F12BD67091273E40505436ACA99C2D40333674B33F60484056D4601A860FF63F25EB7074952EFF3FFDF675E09CEC5140AE9FFEB3E67155402575029A087F5840D0D4EB1681294540D7FA22A12D8F23400A6AF816D6035040F981AB3C81064940323B8BDEA97C3F40A92EE065861D34404B1DE4F5606F5740C23577F4BFE64340FC5580EF3612504008AD872F13893C40B4CC22145B8F4D40363E93FDF3B55540996379573D28484013D38558FD354F40A0C37C7901EE2F402D211FF46C3642409DB98784EFEA50402079E7508616534042226DE34FA84D409BC6F65AD0F25240519FE40E9BE02640F3C64961DE034640C746205ED74F4D4038A0A52BD8462C40404F0306491F5240C00303081FD2314082E673EE76F25740956588635D1C3340F8A8BF5E61D7494089CF9D60FFB34E408FA67A32FF3645405D6C5A2904320A4076AA7CCF48841140AC38D55A9883404055DAE21A9F445740DC10E335AF0A084034643C4A252C134082E673EE768E574007280D350A994640F699B33EE5043340404CC2853C0E4D4006F4C29D0BFB3F40E04C4C1762FF5140CD3AE3FBE20A2540C45E28603B2810401781B1BE81191440BD8DCD8E54072540198D7C5EF18843400A82C7B777B54F40D8D2A3A99E943A40DC63E94317C4144031ED9BFBABE74140A6BA8097192957404B3CA06CCA6754406F826F9A3E23444009E1D1C61138504074620FED63014240554B3ACAC17E4A408066101FD8F74D40CAFCA36FD29437407C613255302A1340F294D5743D334E405456D3F544065640F5F57CCD72CD504041BCAE5FB01B4A407D586FD40A1E5540B5368DEDB528444080608E1EBF2052403E9468C9E309464081E9B46E83B44540A298BC0166005840BE69FAEC80B74940BEDA519CA39A47408A00A777F1FE4A40F6798CF2CC885440D5415E0F263745409010E50B5A0C344000E1438996D252408F72309B003F45409A417C60C7E453408313D1AFADC33340006F8104C57F12404C18CDCAF6275040FA7E6ABC7493DA3F6A183E22A64E4940F9DA334B02655640A5129ED0EB572D402D0B26FE2886454084F3A96395E23640C63368E89F8B5340280F0BB5A6B9574057CEDE196DDD2D404C512E8D5FA25340895DDBDB2D59104011C8258E3C0437407AA69718CB6B5840124C35B396EE3240616BB6F2928E5640C68B852172665740D2730B5D89AA41406744696FF0C05040A5F44C2F313E4A4055698B6B7C2B5340172AFF5A5E192340FCE25295B6F255406806F1811DBF3C40E0A293A5D6FB0A40A5BE2CEDD4A03940F10EF0A4858B1440C38366D7BDC74A40ABE97AA2EBDE4340C7F2AE7AC06F54404CC11A67D31A52405A643BDF4F452E409BE3DC26DCCF4B40BA8784EFFD453D409F94490D6D5251403755F7C8E670404089D00836AE0F5440850838842AE150402B16BF29AC4C54407EAA0A0DC4945440471FF3018144424048C153C895723440B5C5353E93955140807EDFBF798F4D403FA9F6E9785E5640626A4B1DE4174440637C98BD6C35544008E6E8F17BAF4C4078B5DC99091C42402367614F3BB5504001C11C3D7E055140ED444948A45B5340FC54151A88654C4090D78349F15F404010CB660E49BD2D40E0D91EBDE1F62040481B47ACC5B54D40DBDD03745FB65540DE3D40F7E5F254408E75711B0D20F03FA296E656083B4440E5D022DBF9C249404D4BAC8C46ED5340F59D5F94A03F43404660AC6F60DC584064247B849A025140A306D3307C955140F4A44C6A68C5514039EE940ED6134A40FB777DE6ACDE5740A73B4F3C677B5740B9C667B27FCE1F4080B8AB579133564007D2C5A6958C4F406F63B323D57B4740DAC69FA86CB954407BF5F1D077EE55404D9EB29AAED8554092CF2B9E7A58344039605793A7D05640E700C11C3DBE4C400919C8B3CB61554086AE44A0FA3F4C40605628D2FDCE4540A6B915C26AA24140520E661360503740ECBDF8A23D3555404374081C092A474025B1A4DC7D9A4840D32D3BC43F1F58406C239EEC669E3F4056BB26A4350758409FCA694FC95D3E405A80B6D5ACCF34400778D2C2659F4E40B763EAAEECC21E40AD31E884D0EB504007B13385CE333B40A320787C7BAF374033C51C041D634F40E6B16664909B1C40253B3602F12E3040C974E8F4BCBA55407711A62897E606401A3048FAB4BE4540E831CA332F2734405B5EB9DE363F50405280289831025140579412825513424059C16F438C2D42408D9AAF928F3D0040414816308105414090F98040675A4440267156444DBC3D40A12E52280B57504045D8F0F44AD85040C7F143A511D753401F9E25C808604540B8E864A9F57632400B43E4F4F584364058C9C7EE02414740170E8464019A504041834D9D47C35840AED4B320948D5440FAD4B14AE9BD4D406170CD1DFDD651407F315BB22A6A3A40697407B133615240E9D2BF2495792E408A3BDEE4B75810404C530438BD505640B08EE3874A173D405645B8C9A88041408A9466F33812544028D2FD9C823449403EE76ED74B6345409F05A1BC8FC355408483BD8921195040ABCDFFAB8E7C5140B7EBA529027F5340DA571EA4A743564004711E4E600E4E40AFCDC64ACC7B4E40ABE80FCD3CB9D23F3B53E8BCC6525440FB3E1C2444D95240C878944A78863540446CB0709246144047E5266A69375440D36A48DC63691C40F437A11001234D409D67EC4B36EE28404C35B39602165240B2101D02472A304024986A662D053D40451152B7B3F05740D064FF3C0DA2404057E883656C624C40FD321823126536405837DE1D19CB00409C6C0377A04E58405CC7B8E2E2E80E40FA298E03AFFB5540ECDB4944F80B34406C921FF12BB44740AA81E673EEF1544086ADD9CA4B123240404D2D5BEBC45440BC202235ED5247408940F50F22893C401155F833BC565540E4F560527C964A40A30227DBC0134E401762F547181D524049BBD1C77C8832400BB5A679C7935140B3D0CE69161028404CE0D6DD3C4F4240CAA65CE15D745240960854FF205554409C1A683EE76F5440C6BFCFB870A0EF3F9A931799801F5540D4F19881CAE458401D588E9081EC5340CD0182397A26524085402E71E4234C407FF6234564384B40A81E69705BC252404E62105839843840AD18AE0E803039405A10CAFB384A3740956247E3508B3940397CD28904AA50407FBF982D59015440310A82C7B76C5240317C444C896B5140CBF78C44689C5540CE716E13EE750A40A321E3512AC1354023F609A018914C40E78EFE976BD93540448655BC915D3F40E5805D4D9E1C52405C3B511212545240374F75C8CD7830406A17D34CF71A1D405E49F25CDF634A4040DF162CD51F51403788D68A36574840A852B3075A293C408E01D9EBDD5F4B40E97C789620E3FA3F53B0C6D974A41040F77475C7621B1240273108AC1CBA1F40E5D3635B06C555408E3F51D9B0AE3340C0E78711C2A54340616BB6F292C35240DD7A4D0F0A263540A30392B06FCB3940E23B31EBC5DA414032E9EFA5F0E047404FCC7A31948852406EDBF7A8BF104A401F680586AC5041401C7DCC07043A2040A56950340F655040A46E675F790E41401615713AC90F5240CC61F71DC3DB2940E607AEF204A227408EC87729753D4340C57421567FC24F40A741D13C80025640B7B585E7A5DE39407F85CC954195114046EF54C03D0454405DC47762D66F3340D63A71395E5D4240A017EE5C18992040A2F0D93A38175240DBC1887D02B812401C78B5DC996B5440D3DB9F8B86E2524026A8E15B58AB3640F33B4D66BC7F544035B6D782DEA74640C51D6FF25B74F33F490ED8D5E4A34D4085436FF1F01B5440F390291F82DC5240A2D288997DBE514085B2F0F5B59E1A402384471B470C3D403882548A1DA13D40168A743FA79F52406397A8DE1AFC4B403D81B053AC835640A051BAF42F993440CC7C073F71102240AF06280D35B2574070B20DDC811A3240EAE74D452AAC2D4082FFAD64C74231400EC00644880D4F4057941282557516401F4AB4E4F1740640014F5AB8ACAE40409C16BCE82B52564091F2936A9F965440ED4ACB48BD1748409DBE9EAF592E2C407BC1A73979685240BD395CAB3D475140AFB321FFCC36484037A5BC5642D058402159C0046EFD404094A3005130230B40151BF33AE2A45140C4978922A42251400E2F88484DB73940DFA7AAD040443440F27D71A94A03264057276728EE54404063F030ED9BB35340C9B08A3732D14A40FFCEF6E80DDF53409BAA7B6473D7544021EA3E00A96F4440D1AFAD9FFE094440D0D03FC1C5A23F40513239B533775440BCCD1B278579B33FA9F8BF232A5E4C408B51D7DAFB084C409AEB34D2520D3F406A32E36DA597FE3F98A59D9ACB7D28409869FB57561A2B40D61EF642011BFB3F17D68D7747464D408DF0F62004743940A1D79FC4E7D156400D39B69E21DC0E40992D5915E122374087342A70B22058403A05F9D9C88945408E791D71C8BA3840CFBEF2203DD13A40B4AA251DE5B03740CAE1934E24BA4140999CDA19A6B85140575F5D15A83E514025085740A1E25740CF69166877565740DAC70A7E1B204E40DBBFB2D2A46C4A407714E7A8A3B54E4051F69672BEC82540B85A272EC7EB0F40AD18AE0E801654404A07EBFF1CC8474012DC48D9227152402FF99FFCDDBB034061376C5B94CD3940664B5645B8EC54403E247CEF6F56484095F25A09DDBF564051F9D7F2CA225440D42AFA4333C725403885950A2AB85640C32973F38D0E4B4041834D9D47565340F870C971A73420409C6A2DCC422D4040E7525C55F6BE5540300E2E1D73C352404F779E78CEC647401F9F909DB77F56403106D671FC100F40BE4C142175E940404C8BFA2477335540BBB6B75B92195040D6E429ABE9224C4014CC988235CC4940286552431BEE4D401DE8A1B60D5F3240A5BE2CEDD432464086764EB3407B4240E54691B586024440CC7EDDE9CEEC5740030B60CAC0375140028063CF9E3F3740C784984BAA363D40C3F352B1314D4E40DB6FED4449083E403E0455A357773640D7851F9C4FFB4840116DC7D45DF14E406919A9F7540A5640AABBB20B06EF484074CE4F711C8C354011018750A54B5840505260014C81254040C39B3578714640D3FA5B02F0914340CFBC1C76DFDD4240CEC7B5A162E5554095BBCFF1D1521B40FFE7305F5EC75340AAEFFCA204253740BA4E232D951B32409D4CDC2A88D75640EBE6E26F7BDC4F40F0FCA204FDBC55404225AE635C235340AE11C138B8DC32400ABC934F8F4D5740B16EBC3B326C5040C6FA062637E84D403E25E7C41EEC444059E02BBAF59953404014CC9882FB4940739D465A2A8B3B4056D80C704164434044317903CCE04E401B1021AE9C3D1C40D80FB1C1C2A15540441669E21DE0ED3FC1C58A1A4CE54B40E4DC26DC2B2552407C444C89241E5340B6DB2E34D7D91740C4B12E6EA381F23FEB3A545392DB4940B8EA3A54533A5340CA8CB7955E614E4091D3D7F335E15240C4EBFA05BB992D4041834D9D47A65340098D60E3FA1F52406308008E3DB7514034B91803EB645740FE0DDAAB8F9F5540F4A44C6A68BA544048F949B54F05424052B9895A9A33544053E8BCC62EA1464003EB387EA8DC3740280AF4893C345840F6ECB94C4DE44C40126A865451264B405D18E945EDD64340514F1F813F004C4015E0BBCD1BA858407EA99F37153558407F68E6C93509544087889B53C9544240001E51A1BADD4840A2258FA7E51335403370404B57B65140DD274701A2EC314006483481228C57401DC70F95469C514065506D70228C48401502B9C491155340B0E8D66B7A09524099654F029B3B21405D6F9BA91033564089D349B6BAFA53406D1ADB6B41B33540726A6798DACD57405A2C45F295B01C406B64575A46EA3F4019E76F4221EE38404721C9ACDE153540390F27309D4756403F3BE0BA62FE2E4049809A5AB6F15640A4C16D6DE179993F5F09A4C4AE134640363AE7A738EB5540E63E390A10013C40BC0853944B674440DB334B02D4E03E400247020D36BD2B40200890A163AE58406E6C76A4FA205640C9B08A373245464099805F23492155405E85949F543E5440CF2EDFFAB082434028B682A625363F40E223624A24B53F404CE141B3EBDC4140164F3DD2E0A23D40A0FD481119AE4240A1D80A9A9614424077BB5E9A22FC5140A5A31CCC26A55340FACF9A1F7FDD3A40B77D8FFAEB093340A65EB7088CF53840DE550F98879B5340E3C798BB966555409274CDE49B6A5540BE4BA94BC6BF41401558005306C951401268B0A9F3B245400A86730D33E95040C6504EB4AB1B5640AABBB20B069F4C40433D7D04FE482E407EC3448314783140016DAB5967AC3A4068B27F9E06104C4044FB58C16F9F51406F9EEA909B125140CF68AB92C8262740B933130CE75258402828452BF7555340408864C8B1554F407715527E523E5240C0401020432858407EE19524CF1752401AFB928D0747504004ADC090D5D52F405F0B7A6F0CFD324053978C6324D14C40A437DC476EC130402FA3586E69BB44400856D5CBEFAC524005FD851E31EA2140B3446799457455401668774831745740A3737E8AE3502940FBAF73D3665C1640653909A52F665340DE3B6A4C88034140AE9FFEB3E6174E409B711AA20A6B4940E6B0FB8EE10D4D4020274C18CD0A184047C9AB730C382340F7578FFB56E3404003931B45D6084040BFF2203D45C84D4061E28FA2CE7B50401442075DC2E14340D5CE30B5A5863640430070ECD9130040A59E05A1BC233C40D6C743DFDD18574004013274ECB64D401B649291B3925740F834272F326B4C405DC136E2C970554013622EA9DADC504047B071FDBBFC4F40A647533D994B4440B6F7A92A34064540C366800BB2F74440CD3FFA264D734140381092054CC04440FA7C9411173E5340191BBAD91F8F58400936AE7FD79F4D40B2BB404981F05140DD79E2395B4F53402FA52E19C770524009DD2571562851402366F6798CC35540B9533A58FFC25340BA1116157192574063B66455849D42403D0AD7A370C34940D5777E5182AE134081B4FF01D68A45406B47718E3AA556406F4A79AD84404C40320395F1EF7745407A1A3048FA855240F790F0BDBFB129400F971C774AE1554085268925E57E3D40745DF8C1F9D03740FA7DFFE6C5A144403FC6DCB5843CFA3F9ED1562591A55540A4C343183FF340403EE76ED74B2316403F8BA548BED64A40C91CCBBBEA49334023DA8EA9BBF2F73FCF6BEC12D59F5040A568E55E60ED5240399B8E006E1E24403A2174D0256B5440CFF57D3848043F4039EE940ED6A73E40D21C59F965A6574043E6CAA0DA143340D0B4C4CA685F58400A2DEBFEB1AC4340FAB31F2922473E40EA78CC4065984640D26D895C70825640F0F8F6AE410F124020F0C000C2934B403A1E33501965474032CC09DAE43950400A9E42AED4AB2140815B77F354335540EE3F321D3A59464018601F9DBAE44F40D7DEA7AAD02257402FC03E3A755B5540BD70E7C248C45840AB984A3FE1D15840215C01857A5C4740C0AE264F59FB444065A71FD4458C5840BE2EC37FBA9C5440F5F75278D072474021567F8461E01540A8C30AB77C924340535BEA20AF5756404A5E9D63405A4F40A29BFD8172A73840C6DB4AAFCDEA3B40B6B9313D61E15440A777F17EDC74574093533BC3D4104440E350BF0B5B854640C9569753024E3840D1782288F32E544051FA42C879425040D63730B9517252401668774831A358402BA226FA7C0E5240DA571EA4A77E41409FB0C403CAFA34405E6919A9F7FF5240D7C22CB473DAF63F24456458C5AF5540849CF7FF71A557400E164ED2FC711B4073A25D8594D653407EE4D6A4DB0F504033315D88D53A5040931D1B8178AB4440F294D5743DF5364071CADC7C236E4840EC8502B6839C55404AB6BA9C1246574081EA1F44320444402E724F5777404240A12C7C7DADB34540232F6B6281C33240069E7B0F972448404E2B85402E7E56400B62A06B5F3E50407FBC57AD4CB81C40320400C79EEF4B40E65B1FD61BFF54407286E28E376B4D401842CEFBFF703A40BAA29410ACA64C4099D6A6B1BD4E3840CB4C69FD2DA53840C365153603EE42407B8505F703B62940F86D88F19AC954405AF3E32F2D7A18403DD52137C3ED50409622F94A20B15540691A14CD038B53408E57207A52EE3540ECF99AE5B24151409B58E02BBA4D3F40286552431B7040400B0BEE073C4F5240C806D2C5A695E63FD8D30E7F4D544140F52D73BA2CD84140573D601E324D41400F0D8B51D7C451402D5DC136E2753740863DEDF0D7D45440AEF02E17F1E14B401346B3B27DDC5440310917F208DF51401215AA9B8B5B47402A560DC2DC4A304062BD512B4C6348409AB2D30FEA5C544005FC1A498281514008ABB184B5734740BA66F2CD36F749408A56EE0566A05840D619DF17979A254048FE60E0B92541403B191C25AFEA5740DB6FED44499840408EC87729751C5440611A868F88D93A40CB0EF10F5B123B40DA1CE736E190434056116E32AA164940D4B5F63E551541405BD1E638B7F94F40E272BC02D1EB3D40F2B1BB4049D53D4054E0641BB8B54640FFB1101D029F2A4072C119FCFD0C4D40D28BDAFD2A882F406344A2D0B2A4564097ADF54542FD4840D9CEF753E37D5040CAE2FE23D3512E40FF06EDD5C71156405723BBD2327040401D3C139A24DC4240E42CEC6987F542408927BB99D1E33F40A1BDFA78E8D952407EE5417A8A284740F052EA92718C4F408BFF3BA2425F4E40F98557923CF755408B506C054D6A57409702D2FE07EB5140D00B772E8C9E4D40753FA7203F2D4A40868F882991DC2F4067D47C957C0D5340D829560DC2435540700B96EA02484C4052EFA99CF6243940EEB3CA4C693052402366F6798C4E56409C887E6DFD7C4D4074CE4F711CB852407BFA08FCE1B15240E4BB94BA64DE5140AB96749483034740137CD3F4D9DD3840FA47DFA469785640A8565F5D15944140E23C9CC074F05740B344679945680B408CF4A276BF415140630D17B9A74C5340B8955E9B8D5F424082A8FB00A47A5240D8F335CB65BB484095F430B43A753F40D66EBBD05CDA544090BE49D3A03E4D40C9C7EE022521454094675E0EBB5736400A9FAD83830D4040CD1E6805867840406FB88FDC9AA95240E3FA777DE63C1B401CD2A8C0C9DB51407E8D2441B84E3D40F88C4468047730405F97E13FDD5853408C2D043928C74740E6E5B0FB8E213340DBA337DC47163E400B24287E8C9D36409947FE60E08915404167D2A6EAA3564074266DAAEEA946408EEBDFF5993F4D40D219187959231240656D533C2E0A0A40E6797077D6104B40BA2EFCE07CFD58402B172AFF5A523C40BD715298F77B5840A375543541624140572426A8E1F156408FFAEB1516442D40A86F99D365653A407C0F971C77A35440E4BD6A65C27255404B5CC7B8E226334016855D143DD83440556AF6402B30E93F8258367348F2484085D1AC6C1F9E47406B48DC63E9F1574027C286A757DA2F40053411363CFD3E401EC18D942D92C03F2AC93A1C5DFD3A40A1D80A9A96181E409143C4CDA9064A404CDE0033DF5110407A724D81CC865640378E588B4F1C504083FB010F0C801340D943FB58C1CB3C40DE3EABCC9426354040A19E3E022B544009FA0B3D62884B401171732A197036403A5B40683DD84E40B69DB646049345405AF3E32F2D8E3B40C47C7901F645504065DF15C1FF960440DC847B65DE7E37406F2C280CCA6039405AF10D85CFAA3E406765FB90B73C1240AF7AC03C64E15140CAA7C7B60CCC5440F46E2C280C8A0440130F289B72F346407A7077D66EB25340459BE3DC261A4F40042159C004DB544049658A39083C5040AA9CF6949C731840C767B27F9E575040EDF0D7648DB84B402CA0504F1F713A4094331477BCC94E4012A1116C5C6F3640BE4D7FF6238653401AC231CB9E1433408A73D4D171875140422619390BFD5440F23FF9BB77442F40E6E61BD13DEB4C406D1E87C1FC214A409293895B05FD4F4059501894696C3340EE073C3080B84F40D15D126745944C403563D17476464B4016A1D80A9AC2464002D9EBDD1FFA58409C340D8AE6454940A9D903ADC0C95040618BDD3EAB4C4640D97C5C1B2AC6DB3F8E59F624B0274C40C58D5BCCCF69514036EA211ADD8E55403BC8EBC1A45850401B0DE02D90AA5840C11BD2A8C08D4F40CB9D996038C65740992EC4EA8FCA4840F9821612309E45402B1895D409804140170FEF39B0103B401650A8A78FA15540B1170AD80EC624402C0C91D3D7394C40BB641C23D99254407FA5F3E159284D40902E36AD147A2740F4DF83D72ECA554005C58F31778F514052F01472A51757408D7F9F71E1901B407E52EDD3F1C82C4065C6DB4AAFC53F40F33AE2900D5B5740A46E675F79504440E84F1BD5E9565440F4160FEF39EA5440D099B4A9BA8852401F300F99F2412F40E48233F8FBB15840FF21FDF675384C403A933655F714554069C537143E1C5540A016838769DFA43FB537F8C264F64C403DD7F7E1209538404546072461D7564063B66455848D5840BDC62E51BD150340FA7ABE66B942514080D250A390A03A406D020CCB9F673D40A0185932C73A4C40284701A2605D57403FE0810184F73040FCC74274081038403831242713571240FA43334FAE9B4140862172FA7AB653402CB98AC56F2457407097FDBAD3AD3C4098A7734529D34F403C84F1D3B8B54540734BAB21716B45401844A4A65DFC3E405B608F89941A3C40ECDADE6E496A34407F6B274A42AE50400305DEC9A7D34040F9DA334B022C4E4002D8800871FF554062DA37F757773B405C04C6FA06E6FA3F3E78EDD286274B4049BBD1C77CAE554019E59997C36E3340E738B709F7564740C1E61C3C132A2E4087DF4DB7ECC43540F2D077B7B224584052F17F4754103B4035B56CAD2FF24F40041F8315A7F353408F6D197096AD56404A9869FB575E314046B5882826554A408978EBFCDB315240ED7E15E0BB1D3B4009FCE1E7BF83584037FC6EBA651B4C40651BB803750A1340ECFB7090108B47401250E10852BE5240FF04172B6A8C33405E2F4D11E0DC49408753E6E61BBD3640537765170C264540C0249529E6CC3840008C67D0D02D5340D3669C86A82E5640D49E927362934F400E4FAF9465324B4050E3DEFC867F5140DCF29194F4F01E405BD3BCE314B93040465ED6C402473740378C82E0F10953403A22DFA5D4674840B6F292FFC9965440FCA886FD9EDB5040B939950C00FC5540389F3A5629D557408FFCC1C073F95340802C4487C091424087C09140830D2740F46E2C280C2E31405517F032C38B554002D6AA5D13624E404EF2237EC5BA464019C5724BAB513D409143C4CDA9E03E40723106D6716D5340B6DB2E34D73D3140A721AAF067D758401B2E724F57F72F40349F73B7EBBD544090D78349F1D85440D80E46EC13124B4064575A46EA735040F35487DC0C7D4740CF4C309C6BEE4240255987A3ABE44D405A677C5F5C923A409EB5DB2E348B4640E1F08288D44E524049BC3C9D2BB63340BE50C07630DA494029780AB9520D4D40D6E253008CC7234026732CEFAA7B4840255AF2785AE629402506819543DB1C408E23D6E2539C4540552E54FEB5B04340AE0E80B8AB6F55403B527DE71731384040BD19355F0D3D40C7D5C8AEB4824B40EA78CC4065242640C009850838E0304079AEEFC341FA2740DD60A8C30A955140FE7BF0DAA57533408AE942ACFE26524091B41B7DCC794B40705E9CF86AC7EA3F0A2C802903E71940394206F2EC795140FFCA4A93525039403F1D8F19A8685540662FDB4E5B3B2E4007793D9814373E40F7CB272B864B144066868DB27E031240901150E1082A2540A148F7730AB23840E38C614ED0035740F2EF332E1CF95840B8E9CF7EA408ED3F431A1538D9E64740488AC8B08AFB32407FC0030308D34740BED9E6C6F4DE4F40ECA694D74A9E55402A5778978BC04140BBB88D06F09627409AEB34D2526F5640BF27D6A9F25525409E245D33F9460A400C923EADA2B73C40A0185932C7E24C409E78CE16101A4740AE6708C72C7051400FB56D1805225340D84AE82E897B3540FFE89B340D1558408F34B8AD2DC75040DA3A38D89B18DF3F11FE45D098855040FA0D130D528C34407B4E7ADFF85A4140AFCC5B751DB45240B493C151F26AE83F1973D712F2313A406A2E3718EAE84A400A9E42AED4A8504067463F1A4E945040179F02603C385540E59B6D6E4C9055400533A6608DC54E40BB5F05F86E732940842D76FBACB450406ADD06B5DFF043401F2DCE18E64C2C407D5C1B2AC66D5840CA3159DC7FDE5740A1866F61DD483940B41EBE4C14FD4E408BC22E8A1E0A5140569BFF571DC45640B4E908E0661051405D33F9669B9332409544F64196B51C40684293C492563B40680932022AD43C400056478E74460440A83462669F355340C634D3BD4E524F4066683C11C4025240ADF71BEDB8DB45407B30293E3E145540C5758C2B2ED041409C6F44F7AC2BFB3FF5D901D715CB2740CE3978263454504030682101A3D33A405EA10F96B1C74E4096B377465B9D3340D3872EA86F6F4D40861C5BCF10FC444075AC527AA62F4B40F9F4D89601A74B40B9DE3653219E004071AFCC5B75974B4025EB707495B1554086E8103812CC3A405CACA8C134F83240D522A298BC81E33F9A94826E2FC9424024D1CB2896FB2740363B527DE7DA5640EC89AE0B3F402240CEDF8442042657408BF9B9A1299354401FF64201DB7B434099F1B6D26B331C4093E34EE960FDF23F74ED0BE885A94A40BD6E1118EB3A50401D93C5FD47DA444098C1189128EC3040F5BA4560ACC357406E6C76A4FA624140E257ACE122C72740E3E0D231E78F474017B6662B2F491540297AE063B00A2A409CDF30D120F13A40D712F241CFE6ED3F5C7347FFCB63474019A9F7544ECF3040CA3505323B534240570A815CE2B83E4014799274CD1C4B40E7E104A6D37A3D40706072A3C81223407EC9C6832DF446408C2FDAE385940B40C05C8B16A0893B4047AAEFFCA29410407D24253D0CEC5540F8A6E9B303BC5240EB0088BB7AC052403D450E11371B444078B7B24467095040A08D5C37A5CC25402B4F20EC14C45040AD84EE9238D457408A8EE4F21F175140297AE063B0664E4051BD35B0555C5240DE567A6D36125440CC608C4814BE5740F9BCE2A947C049402C7E5358A96241403EE8D9ACFA365340A75A0BB3D0184640BB9866BAD7445440B7627FD93D7D5440E621533E040D2040D4B7CCE9B2E35240BB61DBA2CCFB51400B7C45B75EDA5540B743C362D4F15240C898BB9690BF3C40639813B4C9765340B9C7D2872E6557409D9E7763413345401CB3EC496043144042B28009DC835640483140A2096852401DE6CB0BB07751409D0E643DB5022D4018B2BAD57346344074D4D17135B44D407901F6D1A94544405DDDB1D826394C4092CD55F31CE74440AB5CA8FC6B0051401C446B459BBB5840715AF0A2AF243E4015FF77448590474071CB4752D2C14B401F300F99F2111A40B532E197FAE654407F129F3BC1D95140CA198A3BDE7B53407289230F444040405B7B9FAA425E584054E57B46223F5340EBE1CB4411E24E400DC7F31950A3324058FE7C5BB0343C40ADF6B0170A782140889D29745EEF4F40ADFBC74274D35540D3DEE00B93691B402E71E481C8C21A40B08F4E5DF938424099F1B6D26B154440A35BAFE941835840030B60CAC0D11D40C51F459DB9FE5640BF29AC545051EC3F130A1170081D4C406EF9484A7ACE434074999A046F085740C0CC77F013F74B40E52B8194D8493F4099107349D58621407862D68BA13557402578431A15A551409126DE019E0248401CEE23B726B155401171732A19702640931804560E90504026C808A87036554015E3FC4D28885340452A8C2D04495240D1EB4FE273033D403FA7203F1B353C402446CF2D74852C40B1FCF9B660054E40D74E948444F647400CE8853B1736264071E316F373AF3240F2086EA46C89224000C5C892398E2C4094C151F2EA9E414097E5EB32FC9F49406D8FDE701F192340E46A64575A523B409CA223B9FC0333407CB43863980D4740897E6DFDF41B514095490D6D00B62740992B836A8313DE3FD40B3ECDC94E5040A8FE4124433C4A40C43E0114236D4340944BE3175E8D3D40D5EB1681B161584095F0845E7F42294081785DBF607542408126C286A75F414042075DC2A1A94F40B91B446B458B1D40A4FD0FB0568B49400B46257502B24C4049DA8D3EE62353409B728577B93A4F4072FE261422C45240276C3F19E31F4540C3BB5CC477CA5840734A404CC2B15440AA807B9E3FC1504097FE25A94CBD4540A818E76F429D3F40B70BCD751A6C53404A7B832F4CDA3F40EFC7ED974F0647404DD9E90775D74D40389F3A56293522401572A59E058252403D2CD49AE693434069A7E67283C53D404E7D2079E7102B4079AD84EE92B802401FDAC70A7E7B23404913EF004F85524011C64FE3DE744340FCE3BD6A6512394020B3B3E89D8A1340EA07759142213940BE86E0B88CD35640B0FF3A376DDE35400EDDEC0F94CD5440B20FB22C980D5640DD989EB0C4245140417DCB9C2EFF4D4027BC04A73EE05540DCBC7152985B57408B54185B089442401D5A643BDF955640FAEC80EB8AC93840E388B5F814E84E400438BD8BF713404035D1E7A38C0A5540A14CA3C9C59839409A27D714C8445640BB48A12C7C214840E17EC00303564A40D1AE42CA4F444940E831CA332F69504052F01472A52A58402E1B9DF353DA444043E38920CE031C40969350FA42682540ABAE433525CD3E403E78EDD2866752407C43E1B375C44F400A68226C786645409D2D20B41E6556409B215514AF184E40D653ABAFAEF64040C8940F41D51B5740E202D0285D3A254050FC1873D7E04B40B2D7BB3FDECD5740B439CE6DC2B54340B954A52DAE4650407940D9942B6053407D04FEF0F3F14E40698CD651D5675140FBAD9D28094944404E7E8B4E963E3740E6CAA0DAE0475840BD0166BE833851400D71AC8BDBB028402A560DC2DC00414068774831403C47405E143DF031BC3040E7C589AF76DC404071E65773805954406D73637AC24643404582A966D6404F409CA38E8EAB7113402618CE35CC685540501A6A1492CC5740062B4EB5165E494080290307B4A42A40D1764CDD95D13640827170E998DB3F401A3048FAB46636407A37161406050640CA89761552115440BE1589096A5C51408DF0F62004D85340EAEBF99AE5C04B4052465C001AA34D4007F0164850FCE23FE4F736FDD90F0E40D5415E0F26645540A22424D236B24B40B51666A19D931A40957D5704FF4557402A1E17D522D9544082CAF8F719054A40FD9FC37C798F48401BBCAFCA85EA0440C939B187F69D344082531F48DE965840EBA9D5575751564029081EDFDE2050400551F7014881564050E09D7C7AFC3340425C397B67924D40641EF98381FB3240B0FECF61BEC04F400AA359D93EF430404A287D21E4BC0840E90B21E7FD3B4A406D533C2EAAA52A40FEEF880AD5654F40BF61A2410A6A57401FF818AC389356402384471B47B42140378C82E0F1D52B40E692AAED2698404095B7239C16385540751DAA29C9E7574084F1D3B837594F40CC272B86ABF94E4083F8C08EFF263A407F4B00FE29BB494084B872F6CE402540F2B6D26BB3EA524038F8C264AA401E40DAAED007CBC553405166834C32E2464055FA0967B7F8544087DBA16131664A40BEA25BAFE94112408F72309B001F5040060E68E90A5E4F406DE7FBA9F14554405A0D897B2CE152400586AC6EF57851402E5915E126DF524033A5F5B704755740EA9106B7B5034740662E7079AC6139406CCF2C09501F3F404568041BD77F4940CFF753E3A5B73D40B3D30FEA22A51E4019E25817B745564039F06AB933431140F0FCA204FD274940529ACDE3304B55400B0E2F8848B52D40E44D7E8B4E8E53408EE733A0DED757406938656EBE4B4B40070ABC934FCA5340EB71DF6A9D3834407BA35698BEFC5140286552431B4C3B408A558330B7AB584036E84B6F7FB35240239EEC66469E5440782AE09EE7355140E257ACE122F34F4045A165DD3F044C40D76D50FBAD8540401A89D00836E245403E0801F9128A0440EA76F69507A91140B47405DB88DB55401346B3B27D7C4D40F31FD26F5F133C4025E82FF4883141406C43C5387F4C5240A9F7544E7BD844400490DAC4C9ED4C40028063CF9E734B403929CC7B9C212940B3B794F3C5AE114065E3C116BB6B5340289EB30584935640DDE9CE13CF5747409757AEB7CD7E5540B43A3943714C53404644317903EC2040C95A43A9BDB02E40AB06616EF75A2D40EB5223F4335745403D0E83F92B2F5640441669E21DA64540F2B0506B9A974A40AFCDC64ACC2346406C787AA52C5E554055320054711D4F406A6D1ADB6BA65740BF0F070951D65840DCB930D28BF85140BFBB95253A67484038D73043E3653A40CB14731074A8464054C554FA09EB474000E48409A35B49407217618A729D3240F969DC9BDF384440E97C789620C05440530438BD8B325040419DF2E8466B5340BC41B456B4274E40DB4E5B2382BA51407F501729949D344043209738F29C534012F5824F730C4740A69883A0A3695540483140A209165240DA1CE736E1B958404FEACBD24E393840F1475167EEB45040DD09F65FE70C534019AF795567C94640D7DCD1FF72D558402E8F3523834C4B40CE55F31C9136564033DC80CF0FB73940F8510DFB3DDF5440D3872EA86F4D4A40272EC72B106135403F74417DCB7A4540E3DF675C388447405EF75624268C4B40D106600322F1564001C11C3D7E4F17401EFB592C45DE3F40CEFA9463B26D50407D5EF1D423E540408542041C42035040DCA0F65B3B5A5040C5591135D1D95640E5ED08A705B752409FE925C6320C5440410C74ED0B8D5840C8073D9B55B950402A01310917CE3D40494BE5ED08A45640F65E7CD11E5F27402618CE35CCE03B408EB27E33311D2140CD72D9E89C2B35409B20EA3E0051244062F9F36DC1BC5340B9382A3751FB1440DDED7A698A743440D0B87020242F3A4091EF52EA92A74940BDC282FB010D4540DD4598A25C7A3A405169C4CC3E4F2D40ADC3D155BAA94D4041BCAE5FB0DB3040EDD286C3D29C304026DF6C7363CA104052431B800D2E4840081F4AB4E4B1374030478FDFDB255040797764AC368A5340BD35B05582151740C0CE4D9B71B6444061FD9FC37CED3340DA20938C9CCD2940137D3ECA885734406DE690D442A54840F16778B306294E40FD497CEE048330402A8E03AF968751409ED2C1FA3F36544082E7DEC3251F2140363FFED2A26E2C40AEF199EC9FED504080828B15354E50402882380F27B057408BFED0CC93AF30401878EE3D5C9848404221020EA1B63040AE0FEB8D5A793A4075C93846B2BF5240179F02603C1743405A10CAFB38AE4E403579CA6ABA6E2040BABE0F0709B950407C9E3F6D5457324066834C32725E2D40DA5548F9493D2E40575D876A4A1A57405891D10149A82D405C751DAA2965324029965B5A0DB65840FFB27BF2B02E464075779D0DF946584062C092AB58E435402E3883BF5F5C5040EC8A19E1ED89484030BB270F0B755440A51309A69ACD3C40E65AB4006DF32340EF92382BA2A60240821C9430D3E4534067B5C01E13545740E0A0BDFA78DA46405F7EA7C98CB35740AE81AD122CCC58404E97C5C4E6F3124086562767281E1940BE2F2E5569DD4240DB8B683BA6E553402046088F36CE0A4011FE45D098FC5740F836FDD98F2D554092CF2B9E7A575640EDB8E177D39B5240EBA9D557573D2740EDB776A224284340AAB5300BED242C40416150A6D12C474016F71F990E4E55409886E123626E4340087250C24CDF54409E616A4B1D243040983270404B7B48401C0C7558E116F23FE3FA777DE66046402385B2F0F561564032005471E39E244022DE3AFF76E54B40496760E4653B4D4067EF8CB62A6D4F404912842BA0443B40AA60545227124C404A27124C358F3C40EC1681B1BEA12D40492D944C4E885140ADDBA0F65B3F524003ECA35357F24B4055A52DAEF1A13B40AED9CA4BFECD47402463B5F97FA144408AABCABE2BB84E40C5008926500C3A404F78094E7DDF534043723271ABA5584021CA17B4902E434023A0C211A42D5240D7C05609160F394035B56CAD2FCE544073D53C47E4F34840D0B9DBF5D20A4A40CEC64ACCB34955402D431CEBE2A64E40164F3DD2E0F240408FFD2C962289584059897956D2363A40B3614D6551E1524010B1C1C249F22E4005C58F31772F53402C4487C091C452402E5915E126EF46407AAA436E8635494064C91CCBBB335740BBD408FD4C795040AE62F19BC2A25040199128B4AC6B434004FEF0F3DF6B33403E7782FDD7D933401DCC26C0B09C4B40FE8172DBBE47384024EEB1F4A1FE5840A5A0DB4B1ABB504040BFEFDFBCD84E4056BABBCE86EC3040BD0166BE837F4D40183F8D7BF399514037E33444157E3640329067976F2C5240CAA7C7B60CD950403A2009FB76824D40F3E49A029921514024D1CB2896333740A54DD53DB27B5340FDA19927D7A85740B79A75C6F7DB5240EF552B137E5D5440D02B9E7AA4DB53405E143DF031245640C0594A9693583B4012BEF73768F5474033F9669B1B831C404739984D80712A40D124B1A4DC1F4F40B91CAF40F4DA524044FB58C16F99524052D66F26A65B4D4015191D9084BF4E40834E081D74774C4078EC67B114E13440A1BFD02346914440B30C71AC8BCD4C40BEA4315A47F50240FF08C380256E5040D2C5A695421C3A40EE5F596952855140882CD2C43B8E4E40D525E318C9D24940AA6400A8E28755402236583849EB3340A1F31ABB442B4B40B9C49107229738401D925A2899CC2A40CEFE40B96D814A405D6DC5FEB233204029EACC3D24C4464034130CE71A863C40CD72D9E89C3B5840E8FA3E1C246D54401904560E2D745640BA8102EFE43955406CE8667FA0803A406C0A647616714040C66E9F5566B84540DC813AE5D1175140C3F5285C8F7A2A4003250516C059504015AC71361D593F40C11C3D7E6F554E4011C30E63D2715640145FED28CE693B409E0C8E9257495740B6A2CD716EE14A4081CD397826F03D403046240A2DC74840224F92AE99EE4540F29A577556474C40466117450F215040136058FE7C3D4D40929735B1C00F52406AC020E9D3DA27407573F1B73D825340A661F88898320340018A9125733A5640AA49F08634C2314009A7052FFA7A344083C13577F46B5340B6F292FFC98B54404A0C022B879E3040312592E865DA4B40DA59F44E05464D403F8D7BF31BB24B405A9E077767B53140DDD3D51D8B453A40569FABADD8D14D409D2B4A09C1235640180AD80E46184A40C24CDBBFB26210409A9658198D0A5440616C21C8416A5440520DFB3DB1E04E40A9C29FE1CD8A2E407BBFD18E1B5D5540F5673F5244845140956588635D0B51402BC0779B377F55405534D6FECEF0444056B950F9D7D640406346787B103A2440BE67244223FA4B404208C897507C50408196AE601B192E40DE8D058541135040BAC0E5B1666832407689EAAD817946406F47382D789D4F40E5F21FD26FDB3440145CACA8C19E5240F299EC9FA7D93C40DA58897956084640AC545051F59650402DCDAD10562F4040D05E7D3CF4FF43409888B7CEBF9D284055C03DCF9F944C40B7B6F0BC54D654407689EAAD814C5040494C50C3B7284B40A1866F61DDB845405A0F5F268ADE5440D9243FE2572757408A3F8A3A73BC5040037B4CA434494340D61BB5C2F43D3540454772F90F1353401ABFF04A923251406F47382D78D1CF3FB4AB90F293E23C40361FD7868A31FF3F5FB532E197822E40A96C585359FD54403C1405FA44725440FF209221C76845409F758D960348584088687407B1A1404045292158556E54405FEB5223F41B46403621AD31E89A454072FBE59315615540BA490C022B294F40336B2920ED5B4E40B2BE81C98D8C50405F605628D25451407F129F3BC13EF33F4CE141B3EBDE2F40EAAEEC82C1595140E38DCC237FEC4940E15E99B7EA263D409E60FF756EAE424044BFB67EFA8B38401747E5266A125540450DA661F81D53406939D0436D7B0A404A5E9D6340BD5140B22C98F8A3E04240F3936A9F8EB7334055698B6B7CC15440C8B7770DFAFA4040C097C28366C25540525F96766A244440984C158C4AB449405AD6FD63213AF93FFEEF880AD58DF93FB1FA230C03FE474058E1968FA41D5140E63DCE3461133F40F9156BB8C81D4A401212691B7F8A4A4027F8A6E9B3094B40D55C6E30D47E58407522C15433BD584079AD84EE92A826408D08C6C1A58654404489963C9E324C40B3B27DC85B2EEC3F583849F3C73C38405D8C81751C3B4C4036B05582C539494023A30392B0CF4B404834812216F139408A5B0531D019374024D1CB28968F554081CF0F2384154A40F7CB272B86A75540E202D0285D424040F1BC546CCC3B35402F51BD35B0455540BE66B96C74E63A40E0A293A5D64B3B403D2B69C537CE50409415C3D5011C4F405BEF37DA71134E40ADF6B0170A2646406ADFDC5F3DAE2C4059A4897780B14440E6E5B0FB8E512D40492A53CC41764E40B7B2446799B050407F4DD6A8871A414074620FED63CA5640E754320054A130402A38BC20223557405A2F8672A28D4440F1F274AE28985640719010E50BDE5340666B7D91D08C4D4006F6984869323340000341800CA54F4030B95164AD85534085949F54FBCC20400516C09481435840261AA4E02928304043FF04172BE23F409E7939ECBE854C40868F882991BC43407D259012BB044A4057E883656C882A40772B4B74969C5840D9092FC1A9325540FD4E93196FE34540933655F7C8F35340DA907F66107D5440A725564623254E4019CBF44BC48F3940B115342DB1024F409A3FA6B569284940E4486760E4AE54404B5CC7B8E28558404774CFBA469F4940A6F0A0D975B050409679ABAE43134540CD0182397A5F58407BC1A739798D52400D33349E08815440BAF605F4C26D4E400FF10F5B7A940C40A2CF471971511D40C25087156EF4514092CD55F31CDE5140A8C7B60C38173D40412D060FD39E4F405DFE43FAEDBD56401555BFD2F9D84940404B57B08DF804400398327040B745409E060C923E653A40CC441152B7CF3740E7374C3448894040132A38BC20B84D4062F54718061F5740CF13CFD902B847404DF910548DBE15405AB8ACC266AA5840FE80070610024B403048FAB48AE245405307793D986D524067D65240DA5A554048179B560AD55340E02EFB75A7BB3340DB15FA6019F7404030664B56453A51409D82FC6CE48E3A4026C3F17C06875340ED7DAA0A0D303440F6D214014E3E52402CF3565D87E23D402310AFEB17E842408C4B55DAE2F44140FDF7E0B54B7B204037161406651AD03FAF264F594DA358407825C9737D774640931CB0ABC9B1414044DE72F5637D4140B189CC5CE0004240C09657AEB76C5640FCE42840147C344071033E3F8CA44540AE9E93DE370555408BC058DFC01B5840DDB3AED1720E5140F566D47C95E55440BB7EC16ED83A3340081D7409875E3B400BEF7211DF84554070EEAF1EF71139401D1CEC4D0C49FF3FE3C3EC65DBC91940D734EF3845454740946DE00ED4154640DAA84E07B28555400A80F10C1AF758407214200A66CC3D404AEB6F09C0EE5640292158552FE74540CBDAA6785C9251402E1EDE7360975440B1A371A8DFE35240A93121E692F84A408672A25D851251403546EBA86A8A3E409161156F645B534017821C94307C5640751DAA29C98E37409D853DEDF0071F40C0EAC891CE61584064744012F6A74340946C753925E2524014048F6FEF9A4640697407B133E524404701A260C6D3564023DBF97E6AEC1840001FBC766923504064213A048EF55340C0417BF5F13D5340FE800706107847403849F3C7B4123040FA5FAE450BB03F40E19BA6CF0E965640963E74417DEF4440618907944DA14940D76839D043CB46406A8995D1C88551400667F0F78B5D484039F06AB9339F3940D40AD3F71A5C56408D7C5EF1D4675340D2A755F4873443406D718DCF645F4D40EC67B114C9FF4140622F14B01DF64D40309DD66D50833A400186E5CFB76B4D40F9A067B3EAF745406B9F8EC70C74274047205ED72F105040B0FF3A376DE35140B4E55C8AABCA224008E57D1CCD814840BCADF4DA6C8C17402D5E2C0C91D14D405985CD00174D544025CADE52CEED4140C79BFC169D7F5340B5A84F72871D4D40D5230D6E6B8B0A40AF97A60870B445400874266DAAEA424024B726DD965C4A40827170E998594040AF27BA2EFCA6544096CD1C925AD45840CB113290675F50406760E4654D2C0C405ABBED4273DF57405455682096E455408ECBB8A981AA5340C500892650564140BEF8A23D5E2953405F950B957FCA53402BF702B3427752406902452C62BA444031B2648EE5B53640D6E253008C5D49401E3691990B7F5040D8BAD408FD9C5040BC5AEECC04C3104001F8A7548992394050508A56EEF45140B58D3F51D960534059A2B3CC220C4D4065389ECF80822C4033C51C041DC52C40E0490B9755A64D4074B7EBA5291B5640F41ABB44F5BA3B401F12BEF73764494050357A35401F4F4010CF126404435840D3DD7536E4525340ECDB4944F897F03F6C770FD07DD2574007EBFF1CE64652407BA180ED60C85340B056ED9A90745440E12538F581D24340B515FBCBEEE537400518963FDFF613406B459BE3DC524940A017EE5C18605440CF6A813D260E3240E78BBD175F903C404B1DE4F5608E3F4096218E7571E54940DFC14F1C40585240BB287AE063085140029CDEC5FB534C40533C2EAA45BC4E40524832AB772455401EDC9DB5DB6658405586713788760140D099B4A9BA7F36408B8A389D647F4C4092239D8191B70B40B8E864A9F58F5540DFFAB0DEA809394003B5183C4C4F5440D6FF39CC979956401B4AED45B4513440ED9BFBABC7AA5840CF31207BBD6B5440603AADDBA09F524017BCE82B48EF4440F9F884ECBCCDFF3FF38FBE49D3F1564060C8EA56CF174140E563778192864440D9D138D4EF035240007157AF22F55340F71F990E9D3F504002486DE2E4023D40F78F85E8103846400AF7CABC558F3440E869C020E9DB24406000E143890C5340A96917D34CF35140A8FFACF9F15D534061FE0A992B5E5640A439B2F2CBD24D40CBDAA6785CDC52407E3A1E3350812540FFEBDCB419734B401958C7F1437D4840F3AD0FEB8D4351400FF0A485CBE04240172B6A300D6F45401E19ABCDFFEB4640E146CA16497F3140D0420246974157400953944BE38B3F4082397AFCDE41544090696D1ADBBB1F40B7EC10FFB0FD334074ED0BE885F73C40AF43352559672640A27F828B15A34D40EC18575C1CBD56404772F90FE9C954406C938AC6DA5F304095D6DF1280E65840682101A3CB6B1440B5A50EF27AC03E40535BEA20AF8B39409D0FCF126403504041B96DDFA3744A4007F0164850683940BC1FB75F3E57474071581AF851493E40043752B648385240207C28D192FF494088F19A57754C4440C921E2E654D23940008FA850DDAE57405B5CE333D95F18406E179AEB349A2F4004C765DCD4D2404093020B60CA303E40A0E1CD1ABCFF4F40D124B1A4DC66554057EE0566852E3D40D5B2B5BE481C33402DEA93DC61431840A296E65608934F40560E2DB29DA54D4097AE601BF11249409ACE4E064735494046990D32C9715240B54E5C8E57D039403CA06CCA15AE4740F8A92A3410255640C4CDA96400935240CB49287D212F5840533F6F2A522926407B8505F703F646408D28ED0DBE68514001FC53AA44F146409BE61DA7E84E544025068195436F494009FA0B3D6200304057B08D78B2BD4840F31C91EF52A4404006D49B51F335104095607138F32D48402E76FBAC323B50402B155454FD29554059E02BBAF5363240AF0793E2E3905140317898F6CDCF5640D4F02DAC1B1C56403AB187F6B182D63FADDF4C4C17224E406E13EE9579E55340E10A28D4D3F35740B1F84D61A5D64D4038A4518193F93040BC74931804F61E40EBA86A82A87854404FE5B4A7E4CF50401283C0CAA1B54640C39B35785F113640E5D4CE30B5275440CB80B3942CA6514030D63730B9974E40D65757056A0D57400DFCA886FD8D5240F0BF95ECD88F504087E123624A4A5840992A1895D4DF4740F25F200890CA5240ADA23F34F3DD5440B11875ADBD985240EA7B0DC171D12F40E9F17B9BFEFB50402157EA59103A14407099D36531AF5740AD1402B9C4C12540785F950B951854403541D47D00F84440DDEC0F94DBEE26408C69A67B9DD45340E8323509DED43840D656EC2FBBB33F40ECC1A4F8F8385640D219187959F340402CB7B41A1237054097FF907EFBB1504010751F80D476224029CE5147C7234A407B6AF5D5552A51403562669FC76027408F006E162F8F5040EFA83121E6CA37404B72C0AE264FD03FE7A8A3E36AFC2F405DDDB1D826194740DB8827BB996F52401A19E42EC2383340CCB8A981E63738402D3F709527565540E8C1DD59BB6F4640B0C56E9F55162F401D56B8E523393C40BD1AA034D42C3F40425C397B6724194095D6DF1280535640689604A8A92D2840E449D235934945406F641EF983053B40E7DF2EFB75B54640FA264D83A2A94140DF6DDE3829CE524074D3669C861057400283A44FAB68384042959A3DD0655740F3AB394030B358404791B58652C1564072512D228A114E409C5088804317504073486AA1647043405419C6DD20A239405C1D0071572F204029CB10C7BA0440401B84B9DDCB774140F2CEA10C55DD3040DDD26A48DC854D40F20C1AFA27E84040CE177B2FBE5C55409FCBD424785349408C4AEA0434BB56402635B401D88E5740A5315A47552757406F9C14E63DF04D407FF78E1A13AC5340E36C3A02B8BD3140C72C7B12D8444340F1F5B52E35324D40FAD4B14AE93D3E40514CDE00335F0A40CF66D5E76A2B4040BDC282FB012F4A405B9885764E4057401D90847D3BA1224094162EABB04C514087191A4F04E14140E7A8A3E36A984D400C76C3B645B9424021E4BCFF8FAF494028F224E99A574C404BAC8C463EA34040A1A17F828B7750403276C24B70D63240EA76F6950775304097A8DE1AD87A58400ABDFE243E5722406E8AC745B5003640E6797077D65A3B40ABB35A608F94554021567F8461483440F04FA9126572554004ADC090D57D3E40BCB20B06D7643840AE6708C72C1B0C40D74D29AF950E4C40D63BDC0E0D6D484052B9895A9A135440904C874ECF414C404B2025766DA9544083FC6CE4BAE9014049F7730AF2AE5140DD787764AC5631405B94D920935A4D405C02F04FA9523940ECC1A4F8F8E8434019E6046D72CA574050508A56EE51454030664B5645FB544049D74CBED98D514035D3BD4EEAD555404AB3791C06032A40FCA9F1D24D764240ACFE08C380A6504081EB8A19E12C5440A8C821E2E61847409B5775560B6438407C5F5CAAD2984E40C172840CE4605140917C259012132840E8F4BC1B0BC04540E2E6543200684440617138F3AB7D4440A04FE449D2974B40D656EC2FBB175240124DA08845A42B404C35B396020A4F4031242713B701574053CBD6FA22394D409B5AB6D617EF45403D98141F9F500F40E04DB7EC101F1440747D1F0E12F05540AEF204C24EB34D4046EA3D95D39E5140B936548CF33B53406CE8667FA07A4540C172840CE4BE5040D7BFEB3367EE56401BD6541685514C4014AFB2B629DE4E4077F700DD97873440431F2C63439B4440D6390664AFEB304049145AD6FD3F57401900AAB8718F4C40938AC6DADF1D5140062FFA0AD26432400AF7CABC559738406DA983BC1E2C1A40CEC3094CA78345405D6E30D461CD5040B58CD47B2AE72D402AFD84B35B9F45402C80290307903240EF8D2100386632408046E9D2BF4446407A3881E9B406554072DC291DACDB36404A6249B9FB8157407C46223482CF4B404D9EB29AAE81564027D9EA724AAE5640D4EE5701BED33C40AF5DDA7058384A40B94F8E024443564018080264E88656407AFB73D1902358400664AF777F4049404FAF9465883656402104E44BA8F43B403AADDBA0F6BF5140F99D2633DEE6394007978E39CF703A402A745E6397A550402BC3B81B444D4840ABEB504D49145640533D997FF42D3640349C3237DF96454070D05E7D3C4A4F40051555BFD2A5344091F0BDBF41FBF63F1344DD07206A53404087F9F2024E4D4042CEFBFF382B4540B3EA73B5158E5440F6ED2422FC132440BED9E6C6F4283D40B81FF0C000F228400DFAD2DB9FFE5340A60D87A5812D4A40E8C072840CF35640B3D30FEA22345040D5CE30B5A50E4540F33CB83B6B9547400EDB166536344E402C9D0FCF122A41409B5775560B624B400BEF7211DFE922407FBDC282FBC05640C13BF9F4D8E453406A4FC939B1BF3840F85278D0ECE35540ABB019E0826A4540AB93331477BD56407898F6CDFD1E5240F3C98AE1EA2829406A50340F60CA57404CA4349BC7DD58403480B74082921240C959D8D30E014E40FD4D2844C04140405C0531D0B55F38401955867137403F406ABE4A3E76494B40A01518B2BAF528409FB0C403CA86144020240B98C0193C403411363CBD3E50409BCAA2B08BB22A40C5E40D30F3F14C40520DFB3DB17E43405342B0AA5E8A3C407218CC5F21CC5040A33CF372D82850407F129F3BC1415240D05FE811A3A74C402CF015DD7AE34040A5BC564277D92A404CC3F01131EB4E40BF9D44847F393040651A4D2EC6A75040B421FFCC20E45840FB96395D16931C406937FA980F183240543A58FFE7103D40F3E505D847D155406ADE718A8E2E5140771211FE45FC4E40F1BC546CCC5B4D4006836BEEE89F3D405725917D901D24409F39EB538E914A40390D51853F9B2640821B295B245C5540A5BE2CEDD4A24E40DD43C2F7FE92564047AD307DAF7C5340F0A2AF20CD7E4C4054E23AC615EC57409DD843FB58ED32401E51A1BAB904364030B95164AD35524033C51C041D394040683C11C4796049406B494739982853407FF78E1A13063240A58636001B2757403FFF3D78EDB55540DD2230D637F35540D82AC1E270965540FA0E7EE2007E3640349E08E23C54304047E4BB94BA883B4084A0A3552D3B57402EC901BB9A2F53403C2F151BF39D55404FCAA4863652494030BDFDB968185640768A558330F556400AF31E679ABE4740179AEB34D2922740D40B3ECDC9A05140A73CBA11166F554052103CBEBDBB55409FAD8383BD334140F06DFAB31F615040ADDF4C4C17023640E84CDA54DDDB5540959F54FB74383940FD2D01F8A76E4640A8C821E2E60A4740DA53724EECDE5040A5D93C0E831D4940E659492BBEFF54401DCA5015535D524020B3B3E89D2A16400BD0B69A75B24740A2B2614D65A7524002F2255470303140246420CF2E054C4049A297512CA339406DE179A9D86C4F403EAF78EA914B58408789062978C157407BD7A02FBDF14840679AB0FD64A43140BDE13E726BE04540EE3D5C72DC9544401E19ABCDFF4F4240DAE55B1FD6EC534015C5ABAC6D3354409758198D7C3A4D402634492C293A574041F2CEA10C745640963FDF162C3340404209336DFF1A18401B2AC6F99B383A40809C3061340B3940E82D1EDE73D95340774A07EBFFF83B40C91CCBBBEA7250408656276728EE0F4009C6C1A563C042402769FE98D67C52400454388254E22840E945ED7E154C3D40613255302A292340174A26A776F23E40FB5B02F04F035440EED0B018752D3B407C28D192C71B2D40170E8464011F3E408335CEA623DC41409949D40B3E5855406AA510C825085540249A40118B84544051F4C0C760752D40691B7FA2B22F4040AF0AD462F0F04D40ED7E15E0BB0553407D2079E7501C4040BB9C121093264540936E4BE482DC584061AA99B51486514090882991442B56401C9AB2D30F9E4E409E9ACB0D861A4C40D940BAD8B49233403FE257ACE15C5240613596B036375840C02154A9D9AE50400F80B8AB5736524011C5E40D302325404A7CEE04FBFA5640ACC77DAB755E38408E59F624B08D5840AAF413CE6E26574099D36531B18340407061DD7877483F4086E810381206474073BC02D193863840A48AE255D6264B40B0C6D9740444374068CC24EA059B3C40D8F50B76C31645407079AC1919EC3240ECDB4944F8F2534066F7E461A17E4C40429605137FA24E40C7478B3386035340C3633F8BA5115840B8585183699A41403197546D37A9574005DEC9A7C7245540427C60C77F28534079245E9ECE865740EB73B515FB8F474097C62FBC928E544095F0845E7F7558405CCAF962EF553640B64DF1B8A882474022C32ADEC8725340D1CABDC0AC20364061FA5E4370624E40DAE6C6F484DF4B403BC5AA41985E5340E9BAF083F3B1294021CEC3094C60554027C0B0FCF98C574024986A662DEE504087C43D963E004C40E0A0BDFA786C3F40DCF126BF457A54406CD097DEFE1249407EFCA5457DD2FA3FCCB6D3D688E0E13FA51133FB3C844540D522A298BCCB4A407715527E52D4534065355D4F74BD0A408D0A9C6C03F7E33FD0B9DBF5D2B838406E68CA4E3F6A464045F5D6C056BB474031B43A39432115405CE674594CE44640919DB7B1D93C5540C6E1CCAFE6575240384C3448C1945240C72DE6E786B2394060C77F8120301E409D66817687442F4013F1D6F9B76B3E405A457F68E6E155408AE5965643A2164084D72E6D38D8584028B9C3263255434071C79BFC16CF48403677F4BF5C48554022DE3AFF769D3E40A54E4013613D5040D1CC936B0A64E13FB0E595EB6D673040105D50DF32114C4012DDB3AED1A2484000FE2955A2E75840641F645930110F40E63FA4DFBE9F5640717500C45D9D3E405303CDE7DC654A4071C630276803494063B9A5D590904E409F2287889B0B2D40BF60376C5BA84940A1D80A9A96902740DAE6C6F484E5F63FB5E21B0A9FF341404580D3BB788F2D400CE8853B17524240ED4ACB48BD8351400DFCA886FD475840BB48A12C7C31414083FC6CE4BA793140FCDEA63FFB2537409BFF571D396C4E40FFAF3A72A4815740F44E05DCF3E846405891D10149D432403C4CFBE6FED750406A6803B0010D43402AADBF2500A947404A7A185A9D0832407616BD5301872A401B2C9CA4F9132A402106BAF605424B40D314014EEF0256404A7A185A9DFC1D409221C7D6338408402C634337FBD33D409DD5027B4C6C2B4015AB06616E3B5440D8F50B76C39A34409775FF58883636407B2DE8BD31C43340C8D11C59F9613E4053AEF02E179F4E404CDF6B088E5550408EACFC32180F38402828452BF76A32407593180456EC4640566133C005B0544009DD257156F83B40234BE658DED93D40ECBDF8A23DC24E406A847EA65EDB4B40CA3159DC7F040E407A89B14CBF424E40333509DE90062A40F46E2C280CC23640A164726A67282F4004E8F7FD9B925340664AEB6F09B456405B7A34D593AE5840D0622992AF5E45402A01310917FE3340F06DFAB31F3747409A25016A6A7139405E6397A8DE1AE23FAD3594DA8B69564067F2CD3637D756407F130A11708E47400B98C0ADBB0D3B4029965B5A0D2458402B4CDF6B083E3B40F0F8F6AE416745407B8505F703E358409450FA42C87915402FC37FBA81022B405A4B0169FFB333405130630AD6544B409B3BFA5FAE093A40349D9D0C8EAA3D40E59D4319AACC4A401DE4F56052BC1F40AA61BF27D6892D40473A03232FDF3540F2B0506B9A672A4004A9143B1A474340CD0182397A142A403999B85510DA5540BF6378EC675D3F40B58B69A67BBA5540313F3734651C5740A1478C9E5BB02340BABC395CAB1E5440C5573B8A730C57402B16BF29ACCA49407D09151C5E783340F2785A7EE07F514073B9C15087213C40B4024356B7CA3E40F56569A7E61441405D328E91ECDD3440FB777DE6AC1755401FD7868A71B151402158552FBF133240BDA772DA5332F73FD3F8855792783640B114C95702994F40F261F6B2EDD851401D925A2899D05640D06053E751A15740408864C8B158574060AFB0E07E7A5040213B6F63B37B2440D7A4DB12B9D8544016DA39CD02EDD53F1764CBF2758B5340F6EE8FF7AA625140AE62F19BC22E4D40793BC269C1005540C93D5DDDB1704D4072DC291DAC795440396403E962934F40A73B4F3C67214F40BA4DB857E6D930408C683BA6EE7E4E400A2C802903872640CB49287D21275840FD67CD8FBF9E4B40704221020E011240001AA54BFF0D5340F0880AD5CD9D2040AF09698D41A7E63FF168E388B5115040F25B74B2D43E4540F702B34291FA3C40C823B891B2B748406A300DC3475A4540508E0244C1DA46400708E6E8F15B404062BD512B4CD7254039B35DA10F3C584001A4367172D73F40E1D05B3CBC3F2C40207A522635625640ADFC3218235208405B5F24B4E5BA4440780E65A88AA74A40B47570B037CF46402E04392861CE30405932C7F2AEB24D4029B000A60CA035405D3123BC3D6A50403BC269C18B8D58401349F4328AED50409B8E006E162FCC3FC5E6E3DA50F12D4067EE21E17B92574086FF7403050C4140663046240A652140CCEEC9C342BD24409F71E1404896F73FF52C08E57D1F50407DAEB6627F8D4F402FDFFAB0DE265440F777B6476FFB53409D47C5FF1D4658401D3EE94482F65640A1BAB9F8DBB25640183E22A6440E4240315C1D0071075340292499D53B203B40CD94D6DF129842405AF10D85CF924B40D522A298BC345540C095ECD808743E406E4E2503403B4340BC77D498105B48403D450E1137F714405A7EE02A4FEC4E4038842A357BEF5640B779E3A430AF1E40895E46B1DC844A4042B115342D2B524046B6F3FDD4BC3E40B41F2922C35A3440E95F92CA142258409CC1DF2F66474B404D2CF015DDEE4B406A4B1DE4F59A4D40A379008BFCEA3F4027158DB5BF7D40402D0B26FE28BA5440342DB1321A4E51403AE97DE36B4F2E40BB26A435061D0C40BBF2599E07B72E40B476DB85E60A4340C74ACCB3926E3740C59107228BF44C40008DD2A57FF53440D8F335CB657735407F6C921FF1B32D408C118942CB7B5640AB23473A032D4140925CFE43FA414840221B48179B83534057CEDE196DC541400553CDACA51E5140747973B8560B1B405A7F4B00FE954E40478D093197E4114067800BB2657F4540CDAE7B2B124951409B711AA20AC147409ACE4E064737474011AB3FC2309A554048FAB48AFEBC4B407BDCB75A277155405BCD3AE3FBCC4C40F30016F9F5EB26408F006E162F935440CE6DC2BD32A73740BE141E34BB8E504069E04735EC6D56404165FCFB8C175340626534F2793B434086E810381288184065C6DB4AAF795040A393A5D6FB9F404082C98D226BAD1B402524D236FE0A4240AD86C43D96F75140D252793BC2A751408109DCBA9BAF3C40B43D7AC37DCC4C40276C3F19E3031D40EFE2FDB8FD9E3840B20E4757E99644408B19E1ED41C83540F90FE9B7AF3B3D400B0DC4B2999F384065FD6662BA8241400F9C33A2B4DC5840D8BB3FDEAB8E34405A2DB0C7441A4B404F78094E7DFC4E40EF3845477253564082C8224DBC125740FFCF61BEBCB04740F3716DA818E553400A3197546D5F4440AF3E1EFAEE863040F1BBE9961D755240DAAED007CB244B40A31F0DA7CCDB4440D74CBED9E6161440F0A5F0A0D9694340D3838252B44E36404485EAE6E2A7454072FA7ABE66C25840C8D11C59F9253C408FA9BBB20B20544024F1F274AECE524051D9B0A6B2B8124076E272BC0229464001A43671729F0A401A3048FAB4364840780DFAD2DB6B5140D3307C444CB938405ABDC3EDD0D43A405A0EF450DB505240D4D51D8B6DE44B402575029A083D44404A44F81741C95640C2DA183BE14F4A402E90A0F831361F40E2B034F0A3723E40C2F869DC9B3D4840C9C7EE0225A14040B9FFC874E8F85040FFCC203EB0DB3A400CE6AF90B96E3540D47FD6FCF8CB4E4021AF0793E2D319407E01BD70E78A3E40FBAE08FEB72A2C40F3E2C4573BD0514098309A95ED6C514029965B5A0DBB44402D7C7DAD4B31464023DA8EA9BB2E3540E10D6954E0D24440BB25396057314440ADC266800B144E40282CF180B23D4F402C616D8C9D97524091D26C1E870115409225732CEF3C4F405DFA97A4322B5440DD0720B58984554077A22424D226194085419946931E564098512CB7B45A2840C28A53AD851B4940E77283A10E1D49407B4D0F0A4A013E40D47E6B274A522440C72FBC92E41D3940B648DA8D3E345140E9B985AE44B45140D5777E5182415040E21FB6F4689846409F008A9125E14940D0251C7A8B3F54408124ECDB497C2F401DE56036011C4F40FD14C78157FD4040BD715298F78A49405A4B0169FFED4240AC02B5183CD83F40F488D1730B78564065AA605452572E4044DB317557F557401477BCC96FF55240EAEC64709404434011E0F42EDEDE54404224438EADF55440F60B76C3B67130406BD26D895CE55340669FC728CF5048405260014C19F041404A7A185A9D405540F7CDFDD5E3462E408FA50F5D504B544088F4DBD78195474067F3380CE6AB4940287CB60E0E7605404F029B73F01355409835B1C0572753406F490ED8D5345540A0DCB6EF510B4240D175E107E799444078EDD286C30E57405401F73C7F9A2F4076340EF5BB01564073BC02D19372F23F7633A31F0DA74440043C69E1B2395640C93CF20703745840DCBB067DE92D5540FA980F08748E4240596C938AC6CA2140DB34B6D782D62A40E597C11891D154404CC2853C827B0240390B7BDAE12A5140A79196CADB225140B876A224247C4A40AA7F10C990F7494035F10EF0A4A748400F9D9E7763713C40D099B4A9BA572540064B75012F332A402A53CC41D0ED324076A8A624EBD85240D942908312564640170FEF39B0465640F03504C765CE5240ABB019E082842B4045B9347EE15B5440D578E92631183640A3923A014DA424406E32AA0CE3E645401D3A3DEFC6363940213CDA3862AD1440957EC2D9AD8D574095D8B5BDDD6A5640E529ABE97AF2104023F609A018DD4C40562DE92807933A40718DCF64FF1C38405917B7D100DB534069A9BC1DE1404640151E34BBEED52F40A0504F1F81CB3D40836A8313D18C55409E0C8E92579B4040CC0BB08F4EF7514074232C2AE2F4E13FD89E5912A0D04E4098A608707A673140F3599E0777474C4031EC3026FDEF41401B2AC6F99B62494034D6FECEF66C31408044132862092740058A58C4B0233C40257A19C572FD4040849B8C2AC3583E404E97C5C4E6C552405C3AE63C6354574058535914762451404E8061F9F3653940B0A9F3A8F8385340E57ADB4C853A574057EA5910CAAA544057CF49EF1B65474014419C8713A64C40656F29E78B0F58401361C3D32BD93340274BADF71B0F55405DA79196CA0742404C8A8F4FC8284A400053060E688925409DBAF2599EFF26404930D5CC5AEE4540C63368E89F18444009FA0B3D621B554002BB9A3C65950F409929ADBF25A841402579AEEFC3F6504044A852B3076E504081B2295778794F40BA675DA3E53041403080F0A144F0554033C170AE618B54408F554ACFF4595740C39FE1CD1A11534004ABEAE5779C4D403FAA61BF276E424021753BFBCA573140D1CABDC0AC564D40FD6B79E57A03494005A568E55E8E49402330D637303C55400801F9122AB55140965E9B8D95D44D40EF7211DF89BD444031D28BDAFD963F403CA2427573AF46404DBC033C69C5554010069E7B0F1D484067D65240DA434D4016DBA4A2B1A356401AA20A7F86FB54405419C6DD20144540DA8D3EE603AA244082C476F700854B40098849B890B74E40AF7AC03C642E304041446ADAC5E25840CF49EF1B5FFB0340C4EE3B86C7FA4740C7F2AE7AC0CC36408CD7BCAAB3CD5440A2EC2DE57C2A564062DC0DA2B5BE4440DB6AD619DF7F4340C7F2AE7AC0D55040BDC282FB0147334029E8F692C6E552404565C39ACA8A4D40D177B7B2443F2D40AD4ECE50DC492D401BB96E4A79414040C4EA8F300C503B40C1C58A1A4C814940899B53C9006A474076FEEDB25F9725401250E10852534E40902DCBD76538094011A8FE4124BD4F40A87004A914C35540BD1C76DF31775840100874266D4255402C7E5358A9A84740ADA6EB89AE6D4F4071C971A774CD5040F627F1B913F8344093C7D3F2036957408CDCD3D51DF14540B9FB1C1F2D065040FDA36FD2349A4C40F629C764716B3E4031410DDFC21C4B4028486C770FE55540C8409E5DBE4050405EF6EB4E77335140C3482F6AF7394940147651F4C0BB3440753E3C4B90034A40F4FC69A33AE956403881E9B46EA33B40B1A4DC7D8E094D407C9DD497A5C14340E5F1B4FCC0DA54401EA9BEF38BE63640FBE769C020A14B40DD4598A25CDE4C400795B88E714856404E5E64027E4D1E40B1DB679599F752404417D4B7CC474F402A5437177FF85040D218ADA3AAA340408333F8FBC5103440A9893E1F65DC4F40D2C77C40A0615040A5F3E159824C5740952C27A1F49B44400DFCA886FD224D404DA25EF069044C40CDC82077111A3040D908C4EBFA3B5140AB984A3FE1B24E401D1D5723BB144840DBDE6E490E545840B24B546F0D583E400A14B18861272F405874EB353D7456404E97C5C4E6D550404F7974232CDC5040919DB7B1D9ED4A4073D6A71C93154340F0366F9C14FB544072C5C551B9490C40BB809719367D5040E92807B3098444403733FAD1707E36405A0EF450DBA65740925A28999CC84E40DFF94509FA2A5040CF9ECBD424A0314060E7A6CD38BD1A40EF53556820CE214092E68F696DEE4E401B683EE76EC337408099EFE02740464081069B3A8F175640130A117008575840F5143944DCD641407EA7C98CB7A25840807D74EACA614240C93CF20703D7514016A5846055354B407BA2EBC20FE44240CA54C1A8A49E5140DD5CFC6D4F304C403DF19C2D207E5140FFB27BF2B08455401EA5129ED0A948400876FC1708295440E4310395F1614B403E78EDD2863343403A90F5D4EAABED3FC72E51BD35115340D41055F833943640BA66F2CD36DA5540D2A6EA1ED9FC3F403FE603029DE921401E6CB1DB67F506404D2EC6C03A7A4F40F4346090F4F9254087C43D963EF55340FFCD8B135F113440B6F292FFC9954D407522C15433625740A6423C122F374940026729594EA44940715985CD007F3640E90DF7915BD55340348639419BD05840BA6A9E23F29D0A40C2F9D4B14A7B5640581AF8510D8B2F405073F22213B843406116DA39CD9F564049A297512CB74940A88DEA74205D4640527FBDC282B74540A983BC1E4CB8564020D26F5F07A9564072DC291DACB3494015FF7744850258406C223317B8A15540DAAD65321C5A5540813FFCFCF7BB534070986890828B374082FFAD64C7604840ABB35A608F654040B2D7BB3FDEBB3D40F60CE198652C53406D57E88365CA4340603FC4060BA7524063B7CF2A33FD564094FAB2B4534349403BAB05F698781D40F56915FDA14F55407EE36BCF2C9940401CCF6740BD9252404D9F1D705D454940F83768AF3E5C4540A4DFBE0E9C33E73F9D84D217422B574021E527D53E113F4084D558C2DA92474061C43E0114FD4E40A08A1BB798465440876D8B321B742D40BCAFCA85CAB9564004763579CA895740E8A221E351AF5140E2E6543200F04F40438EAD6708234B405798BED710A04840A6D1E4620CDE45406D3997E2AAA23640DD94F25A09FD0D40C6FA0626379A2B40508C2C9963BB4E4030134548DDE75540FE60E0B9F7F04240FB3BDBA337A43C405B28999CDAA14B4079043752B6903B40FA6184F068FD524031992A1895765240386BF0BE2AFB37407349D57613C24E40776682E15CCD5440BCC96FD1C9615840566133C005FB4E40218FE046CAAC5640FA7C941117785640AB5D13D21A033240B28009DCBA2F3140A2B2614D65AB4F4067B62BF4C1720C403161342BDBC25440A087DA368C565340BF81C98D224740400D8E9257E7E455404D68925852363E408D7DC9C6836F4940D029C8CF46323040F5F57CCD72D53040D1C952EBFDDE5540AEBA0ED594615440DF88EE59D7F0404003B68311FBDC474081069B3A8F6A40401BF164373386514043723271AB2152404E97C5C4E69D57406C787AA52C5F494077F700DD974F53407EE19524CF8D4E40FAD005F52DA31B40F59ECA694FE55440E6E61BD13DBB4140B58B69A67B3D3740CA54C1A8A48C44407BF8325184D15740081C0934D8242E407FDDE9CE132B4D40F357C85C19A421408600E0D8B3265840FCE4284014C0444036AD1402B9DD5140FA7FD591230D43405B087250C22B52402C2AE274920B4A406C223317B8284440A1832EE1D0BF48408AAF7614E7D44F4025404D2D5B0057406E8786C5A8DB2E40AA81E673EEF6E53F06A1BC8FA3092F407EC85BAE7E0C1540AAB8718BF94D43406FD575A8A6884740A6EF3504C77F5740223999B8555E4C401990BDDEFDBD3840F14927124C813640EE7C3F355E495440F1F274AE28C13F4022365838499953405376FA415D335840075C57CC080F0F409FE40E9BC8005640A6D6FB8D76564340FF2268CC248650402AE44A3D0B2251406EA7AD11C13436402F4FE78A52DA544005F9D9C8758057402829B000A68C23403A9677D503FC4E4097A949F086175140284701A260C45840632AFD84B3AF544050AA7D3A1E331B4092CEC0C8CB9E464086C8E9EBF964484012DE1E8480164340878BDCD3D5F14040D95F764F1E225340D122DBF97ED226405323F433F50C404052B648DA8D404C408753E6E61BFE5840488787307E8A4140C34659BF99895040BB99D18F863C5740605628D2FD96524016A1D80A9A6D5140D5B2B5BE4858504060747973B89B5540E2E47E87A22E4D40A5F3E15982542F404DF910548DF44940533E0455A3494E40BCC96FD1C9D2584009DFFB1BB45D4F4093718C648F004840077E54C37ECC5340060E68E90AF652401021AE9CBD274F4085949F54FB0D5740D7DD3CD52179454031242713B7044840FD2D01F8A7DA414040A6B5696C134640823AE5D18DF156406E179AEB3458544012691B7FA2CE3C40C558A65F227E43407E6E68CA4ED05340F6285C8FC23D3B40F69B89E9420839400A80F10C1ACC51405C7347FFCB354B40E2CCAFE600BA55406B9A779CA26E5740BC202235EDA05640C7478B3386F5424046990D32C9045240A4A7C821E2CE2E40C1A90F24EFD65740CAFE791A301A40401C5E10919A6E50407AC37DE4D69C4340E8BE9CD9AE4021404A26A77686593140D237691A14C534408E59F624B0654D40280CCA349A024F403659A31EA2625640B8239C16BCFE56400CAEB9A3FF2F42405D88D51F617E584045292158550B3140ED0BE8853B2749404A5E9D6340765340D2FD9C82FC7E4840A19DD32CD07A4040B2BB40498105204057D0B4C4CA21564014AE47E17A3756401B48179B56864A40EA04341136283A402577D84466F042401FD7868A717E07403ACFD8976CD64040C426327381BB4840C2F869DC9BCF2A407F69519FE4275840CCB6D3D688A842401F2FA4C343A0574054A9D903AD1D5340172D40DB6ADA3A40E544BB0A29AD54400DFB3DB14E0F5140F38E53742497D23FCAFB389A233F4940CF4D9B711AA8494034A1496249974440F6D214014EEF923FBF7CB262B83A1E404417D4B7CC0D314015AC71361DF116403733FAD170DA13404DA1F31ABBC42C400BB8E7F9D31A33402578431A1511544097C62FBC92D75040728BF9B9A1CF48407C2B1213D4D04940422619390B8B57400B7F86376B183B40FEF0F3DF83874240329067976F0D5040D190F12895143C40CB660E492D084C402F151BF33AD64640AE484C50C3134740F1B73D41626B4C40AF7AC03C646A0F405ABA826DC4094140C364AA60544A26405589B2B794FD4640C5E2378595FE4A40BA13ECBFCE294A405551BCCADA4457402B4F20EC1407514073A25D8594534C4004E5B67D8F5E4640EEEE01BA2F5334405C76887FD80A4C407C293C6876314A40247D5A457F2445402FA2ED98BA425240F4311F10E83C1F402C0E677E35EB4740D4BA0D6ABF25564035B8AD2D3C414B4097C5C4E6E39E4440B37BF2B050832B40D446753A900528405ABA826DC451514019CA8976156E5240085BECF659654540F46A80D250AB3B4062D9CC21A973474085D1AC6C1F72F33FC11DA8531E974B4066D828EB37A456408A1D8D43FD3621409CC24A051503534005F86EF3C6793D4015E126A3CABE4C40B84082E2C7A44D4066683C11C4EB45407FFB3A70CEA432405DA5BBEB6CC8EB3F3BFC3559A35B57401BDA006C402A454079793A57943E474074EFE192E3884240747B4963B46E3840F3CAF5B699525440FEEDB25F777225403622180797965040A9177C9A934B42409DBCC804FC9E574086AE44A0FA445840ACADD85F76D05840419E5DBEF5A53D40639AE95E27E54840EEB1F4A10B722E4050E09D7C7A2856400113B875376E514049861C5BCF7040404BE82E89B3723C401E335019FF8A404081069B3A8FE04940BF982D59156341409DD7D825AA5B3D406A15FDA1995A53403883BF5FCC0E37409E7B0F971C0F2F40548EC9E2FEEF454056478E740666354015CAC2D7D7B35540AE635C7171515540E544BB0A29CF514072A774B0FEF746400F46EC13409D53403198BF42E6B25340C3D32B6519D23B40A4C684984BAC5340E92807B309E24740D7F9B7CB7EDD3640EDD808C4EB965840711C78B5DCB34C40AB77B81D1A4618405D8C81751CF55840D95F764F1E8233400327DBC01DF558402992AF0452645240313F3734655851403CC1FEEBDCE253403D7C9928427639408F5033A48A6E3440BEA1F0D93AD15240DCD440F339634E40BFF2203D459E2840CEDDAE97A63C364022895E46B110374036AE7FD767C45640124A5F08395055407D5C1B2AC6A9274065A9F57EA3BD1540F38DE89E759C5540302FC03E3A6A53407AA69718CB4C2B40EB573A1F9EC6504091D5AD9E932C5640942EFD4B520D4E40199293895B754140BD70E7C248E340405DC0CB0C1B725340D74CBED9E6024C40B16F2711E1965440A0A696ADF5B34640E3AAB2EF8A801F405340DAFF00532540ABCC94D6DFAE324060AE450BD02654404303B16CE6EC3640B5FF01D6AA825040842BA0504F5C534046459C4EB2113240C03FA54A94814140DA8D3EE6033E5540D2FE0758ABF63F40CC2A6C06B8402640C767B27F9E0055403F1BB96E4A453F40F6B3588AE4733940C13A8E1F2A365040749B70AFCCFB3F403BE12538F58F444059BE2EC37F5640406D8D08C6C1D34840EE79FEB4517158409ECF807A33C64A40494C50C3B71022408A9125732C7B4640D061BEBC00A947404F1F813FFC542340F3E7DB82A54C4540E831CA332F394F408E90813CBBF15640742502D53F9C44400F63D2DF4BB7504043FF04172B0C5540CB0EF10F5B8A38407407B13385704C4048F8DEDFA06857408352B4722F4C44404C8A8F4FC86B50406A85E97B0D794540C9C9C4AD82D55040317898F6CD6F47406B813D2652B44140438EAD67085C504069E4F38AA7FC44409294F430B4123640CC7B9C69C22A434037A8FDD64E8A49402236583849BD52403AEAE8B81A9D44402DB0C7444AD85840C6A52A6D71F74140E1B721C66B1E4040BB29E5B5125A344037397CD289BA4A40FF06EDD5C7DD4E40EC4E779E7866554032C687D9CBA04540DC48D92269B74B40367689EAADD740408D98D9E731C23B40CF6740BD19BD4640BB7CEBC37A7B2F405F402FDCB96E4B40B8AD2D3C2F95EA3F6FD575A8A6465840609335EA21B858402D5DC136E2C90240A6EF3504C7E93440C3B81B446B0B4B40EF37DA71C3614240C362D4B5F6CE23405C3CBCE7C0364840721AA20A7F60574011548D5E0D7E404056D28A6F286B5040F1D58EE21CF5EE3FD6355A0EF452554050C763062ADF444090F7AA9509F35840CBDB114E0BD44140878A71FE264051408AC745B5883850407104A9143B125440850838842ACD4340D8648D7A88F15040CA87A06AF4804D40213EB0E3BFB64D40992B836A83555240E6B0FB8EE1094340164B917C25BA4A40F6EB4E779EB1514088BA0F406A63574005357C0BEBC23340AD6EF59CF47555401B6327BC044450404F3C670B0841304098DD938785875440C3633F8BA5025140E4F560527C584240F7578FFB56573740255CC823B8212C4078B81D1A164C5440E754320054D146402C9E7AA4C1AD0F40BDAAB35A6027304085EE92382BA21740261E5036E5823B401A6EC0E78785304039B35DA10FF8414039454772F96F2B403E07962364D43640F513CE6E2D2F4C40185E49F25C24544059349D9D0C924A40EDBAB72231874140957EC2D9AD395640BD1AA034D4315640D82AC1E270C951408787307E1A534740F0DDE68D93722C40CE380D5185BF23403F8C101E6D984840E4F38AA71E134940A20C553195AE57409FE40E9BC8915140FB761211FE7B57409DB81CAF40E84140CBD6FA22A1852A40506D7022FA4516407C7F83F6EA630F40524832AB77F80F40FC71FBE593113D40DFDDCA129DD93740640795B88E3F5140CD02ED0E29B2384040C1C58A1A0E534042D2A755F439544090DC9A745B8A51400723F609A00442406F0ED76A0F594C40C5707500C474584010ECF82F109F574022DFA5D425554540709692E524503F40CDAD1056639935408787307E1A4E5440614F3BFC357854408BA548BE12381E40570A815CE2D350406493FC885F81584039ED293927BE27406798DA5207B252407288B83995C84440DEC9A7C7B67046402063EE5A42864C400DC4B29943BE464035B8AD2D3CE147401B9C887E6D7DF43F29081EDFDE313740F965304624075340CC2555DB4D502B403B8E1F2A8D4850400588821953CF5340CA8B4CC0AFE558407235B22B2D454540DF8AC404353E514059C0046EDDB74940A950DD5CFC193040FAD2DB9F8BBA44405B0BB3D0CEA741400B444FCAA4064740F9C08EFF029855409BE271512DA234405F7EA7C98CCD4640F6EE8FF7AA294540B80721205F22454059F9653046184340B03907CF845857400919C8B3CBCB4740CA501553E9B455405B41D3122B6D53403849F3C7B4884E40E700C11C3DBE3F401E17D522A27B5240723271AB208A55402C4833164DA718403C670B08ADC33E4092205C0185C23F4012DDB3AED1A22C40F5D6C0560930564064AC36FFAF944B40FDDD3B6A4C864F40D8497D59DAC53440516C054D4BCE4C403620425C39AE564062855B3E9271514082CAF8F719D7FE3F765089EB18A548409C3061342BA75840AB93331477643840906AD8EF89514C40158F8B6A11BF4340F9D85DA0A4B44640F4A78DEA748C5740BE13B35E0C754D40ECC20FCEA7FE1A40D76B7A5050564F404E0B5EF415A64B40D5B48B69A62F3A4049490F43ABBA56404D327216F63243403411363CBD8F5540C904FC1A49E352405FB35C363AAF3E406BBA9EE8BAC83640A1DB4B1AA3C3554035D3BD4EEAA75840A857CA32C42F4D4085EB51B81EE13B4018EB1B98DC785440CFA10C5531BF4140C24F1C40BFE349400C94145800D3ED3F4BCB48BDA7122F40FFB1101D02585340ACE63922DFFA5640F9D7F2CAF5BE5040CF2F4AD05F184340978E39CFD8933B407F86376BF0075540FB3F87F9F2D455408D7BF31B26E23B40F624B03907665540D1798D5DA2884940711DE38A8BA34A40357A354069975840459BE3DC26503640D027F224E936424022FB20CB82985440A35A441493933C40EEE9EA8EC5AC50400A100533A6905540B4CBB73EACF7F93F29B3412619474E4007D3307C444E49408BA71E6970EF334029ECA2E881AC51404A438D4292592C404A26A77686791E40EEAF1EF7ADE63940C85C19541B9C1640CAFB389A23994E40F99FFCDD3BFB564032E719FB925943403BFE0B04018550406669A7E672A35840F0FACC599F324A409E42AED4B30008409A05DA1D52F85040302E55698BAB4F40211D1EC2F83D3140C0CDE2C5C2005340E751F17F47503C4014CFD90242FB3D4010786000E13C5640C79FA86C584C58409607E92972225040CB9D996038DB584019390B7BDABE524004763579CACA3640F4C5DE8B2F1A2140B88FDC9A74FB364056B950F9D7B22240C6C4E6E3DA8C55407C48F8DEDF2E4E4078EFA83121135340315C1D0071454340BE4BA94BC6EF4640A2CF4719718D4040228D0A9C6CFB2640E8305F5E80C65340E7FC14C7819F4D4048FE60E0B9B7FE3F2C11A8FE41A65440BFF2203D45CE3540D314014EEFB44D40679E5C53209A504069C537143EAE50404F7974232CB7544014B18861878C56407D09151C5E045340D7506A2FA2553D40D993C0E61C38384051DA1B7C616E31403E03EACDA8BB51400E2DB29DEFEC5340E77283A10E173D408DEF8B4B55D05840FAF02C41462556408A5B0531D0053E40A873452921E8344054E3A59BC4C25640B7B585E7A5023D404757E9EE3A514B406493FC885F02504089601C5C3A804740AD307DAF2138F63F0729780AB99207401553E9279CDF4E40CFC0C8CB9A7B524071C971A774A82140778192020B1E5640EB6E9EEA90694D4050A8A78FC0773540AE484C50C337EE3F804754A86E08454062307F85CC274E40C3482F6AF7575840412E71E481C80F40A41CCC26C07855409B1E1494A2154140F60CE19865B14D4013286211C3845440541C075E2D5140403A234A7B83B3374024D1CB28960D4A40B9AAECBB22095240E59997C3EE1B254078D1579066BC4040809A5AB6D6C1454084D4EDEC2BDF10407C9BFEEC474456402F19C748F6A554403FC571E0D56A2540C5C551B98984554054FF2092216F3E403602F1BA7E854740B0A9F3A8F87552407C98BD6C3BCD3E409FCA694FC98256400CC85EEFFE0E4A4042D0D1AA96D41840EFC682C2A08431402E7590D7835E5140A9893E1F65D41B4078D503E621FB2840E48233F8FB134F4096CB46E7FC203240348463963D891240541D7233DC85504068CEFA9463E4554010751F80D45E5440594E42E90B9F454028D53E1D8FF93140261C7A8B87C14540828B153598444F403F389F3A56F34340217365506D344A403F74417DCB703040BA2D910BCEDF55400F62670A9D514B40E7E104A6D31241404985B18520674E40882B67EF8C6C4140A6B5696CAF5D4C4073BED87BF1A14540B1F84D61A5F632403D450E11379753408195438B6CF75440D0B359F5B96A4140A1F5F065A25A49408179C8940F114B405D50DF32A76955407349D57613DC3440FCC56CC9AA183540D42B6519E2D353401F4AB4E4F1264F404F0306499FCA3F40AC3B16DBA41951401711C5E40D282540AA8251499D004D402F34D769A4693D409082A7902B5D53404510E7E104A632405B99F04BFD5C314044882B67EFAD5140BB9D7DE5415E38406A4E5E640242354054E0641BB8E33840771211FE451653401F86562767A3534093AB58FCA6B0F73FDCDAC2F352CF43407217618A72B34A402AE620E8688056409AB1683A3B7530406551D845D1B95640CFD8976C3CA03A40CE8DE9094B835540D9EDB3CA4C613D401FBC7669C3C74540530438BD8B34554069519FE40E8B2D4075B0FECF61FB5640E5637781929E49401BD654168506564029EACC3D24EC5440E3FDB8FDF2205840D1048A58C47011409752978C63E40D403CA3AD4A22075640C1A90F24EFD44F40AAF413CE6E6B5140AD84EE9238BF35404EF1B8A8166D56404A7A185A9DC03640D02A33A5F52F384059A2B3CC220E4640AE9CBD33DA6E3D40FB3BDBA3378C14408C2C996379A7174054742497FF503D407218CC5F215D5340310917F208355140034356B77AC253407E01BD70E7A75240B66455849B343240F27A30293EDE4B40454AB3791CC25740DA38622D3EF35140ACA8C1340C4F1D4082035ABA82954A409B5AB6D6172E5540C50089265038404087C091408323564012FB04508C265140705E9CF86A07FE3F6ADE718A8E143B400283A44FAB902A4087E0B88C9B2A54402A55A2EC2DBB5640F5BBB0355BCB4340C93EC8B26036414086747808E30330407C992842EA3A42408ECBB8A9810E3640427BF5F1D0DE554028D3687231D84A4079CA6ABA9E065840EA20AF07935356403CF88903E833364046B247A819E55540B0FECF61BEAC2F4060234910AE415440DA3BA3AD4A4551407AC7293A92134640AB59677C5F3A4740A8C64B37891D4140282D5C566133DD3F90F7AA95098F4140A530EF71A6DF42405C1FD61BB5F65840E2AE5E4546B732406D1FF296AB345540BB0A293FA90C5340F6B704E09F2E4540431A1538D99E5640E2AC889AE8FB464099F04BFDBC1D4E40E294B9F9463830408E7747C66A134740F086342A70B22540B37DC85BAE6449400CAEB9A3FF1B5240901491611566554023F3C81F0CC031402288F37002DB44405D328E91EC0A5340F12C414640774B40D57ABFD18E305340D89AADBCE4E94440BF0D315EF3FE55408B19E1ED4178264026AAB706B69A2540A7CAF78C44044E401B12F758FAAD51402C7FBE2D5857534034BC5983F71A5540069CA564399D454081423D7D04464D400F7D772B4B003E400D1AFA27B89D554067D47C957C4C1340D4D17135B21F3340F7216FB9FA7144409B58E02BBA0D4B4084D6C39789CF55401844A4A65DF6584038BF61A241A6314072158BDF147A4240DC9BDF30D15C4A404EB51666A1734A4062DA37F7574F3340C3482F6AF76B34401E8B6D52D1E65340967840D9948B00400611A96917F344409F3C2CD49A8A49407444BE4BA9005440D671FC50690750407BA4C16D6D805740512E8D5F78413A40B9AB5791D1513740334E4354E1C952402FA3586E69951840D74CBED9E62E2A40609335EA21D7544049F60835437A16403F373465A77F21404301DBC1880E5740D7135D177E524740D55DD90583873F407EFD101B2C98544042942F6821BB5640DD2230D637C017408C135FED284356407EC6850321C34B40001C7BF65C6B55403ACB2C42B1355240DB368C82E06B5140C3F01131253204409E3F6D54A7154940C1FEEBDCB48D3440DDEC0F94DB523940A0DCB6EF51FB53407C0DC171199B4C40A7E9B303AED54E40812381069B5A1540BD5301F73C375040016DAB59679C034082531F48DE965340E71890BDDEA5574086C8E9EBF9475040B404190115084040685A6265349651408DB5BFB33D6041402A8D98D9E78B51405133A48AE2185440F3C7B4368DE9384047FFCBB5687140409D121093703C5440FA43334FAE2B4F40CF4A5AF10D0D37407E6E68CA4E31414076AA7CCF485426405D19541B9C6258400DC347C4944C5840522CB7B41AA44840B1170AD80E0F5440BADC60A8C3724340D787F546AD684C4006F357C85C493B40ADA415DF506040409E7C7A6CCBB84440C11DA8531EEA55403B6D8D08C6BA55402F698CD651854F407CBABA63B1AF4F402750C42286BB5740B4E73235099E2A406ABDDF68C7FB4540FB95CE8767F052403DF0315871363E40B5FB5580EF2C4F40FD2E6CCD56DE5140A359D93EE4E856409C86A8C29FF14040BBB88D06F05249408C497F2F856B3D40DE7536E49FB74E40A9F7544E7B0A1740FE45D09849E24340FD2FD7A205BA57403E42CD902AEA1340DAAB8F87BE015240BFD364C6DB8E4C40B83A00E2AE765640E02F664B562B464066DB696B4400434093E00D6954BB51404E9CDCEF502A4C406F2EFEB627DC5840AFEE586C93EF5440F30181CEA44756400F46EC13406D4940C8073D9B555B3940FC5580EF36133140F60D4C6E141E574049BE124889A14540691A14CD03081440AAD6C22CB42D4A40F5BBB0355BF91640A038807EDF534140EA4141295A11404033897AC1A7C1244071AC8BDB682B5140CB129D6516F94C40CDEA1D6E8758504058E6ADBA0E474240E449D23593554840118B187618105240B3CEF8BEB81A55400EBC5AEECCA04A40D3A23EC91D862840B5F97FD591ED5840B9DFA128D05D4A4017BCE82B48FD4840A5F9635A9BCE4240BD8A8C0E48C22A40276728EE781F40407A50508A56EC43408CDB68006F011640384E0AF31ED7554083C13577F4BFFC3F4069A85148A23640F168E388B5D81040A5BBEB6CC82D56401CD13DEB1A634D403FE257ACE1745140C39FE1CD1A32494014AE47E17AF40B40DB32E02C259F534070CFF3A78D5C5740C631923D422855407A1A3048FA1834403A1F9E25C8981F40C233A14962DD3D406B48DC63E9F9444027158DB5BF4F34408E3BA583F54F4240BDA772DA53DC564091B8C7D287AA4340D578E92631A45840BD378600E0E843408A01124DA08A4B40C2A2224E27934F408C9DF0129CDA5840CD3AE3FBE2521C4007616EF772BB574031CD74AF9315554032923D42CD4C44409240834D9D9B4E403D2AFEEF88E63C40AF93FAB2B403534022FE614B8FED57406C938AC6DAE33B402A3BFDA02EB63B404F9143C4CD7F49407EC85BAE7E325140613596B036505840DD3F16A243E01540397D3D5FB3BE44403BE2900DA48735405DC30C8D272A58401900AAB871932F401538D906EE9640403BC43F6CE9EB4E4052499D80260C4040EE974F560C773B40E84D452A8C9D36405D8C81751CEE54403E40F7E5CCC84740D15966118A3537408DD13AAA9A5D5640CAC0012D5DED5040085740A19EED5140925D6919A9071140E529ABE97AFD5540429770E82D8E15400EBBEF181E1B0040F59F353FFE5A434062F6B2EDB4D51F4068075C57CCD245400C957F2DAFF42940C233A14962A450400AA359D93E355240EDB776A224D411407689EAAD813C53402F698CD6515B454085B18520075E51406CCD565EF25941405DFDD8243F5554407F87A2409FF15740A7E8482EFF813E40971FB8CA13655140205D6C5A296C3E4055F833BC596147407FF5B86FB5CEEE3F0E677E3507035040E25817B7D1943D40B8AE9811DEA25140906AD8EF89F94140CB9F6F0B964A4740139D6516A11058405BEB8B84B6A05340F8544E7B4AE626406C223317B8144B4003603C8386125740AA66D65240BD544043554CA59F095340D5B2B5BE483C3A401D740987DEF647406F2EFEB627675340511212691B2350404DDBBFB2D29C25404206F2ECF25B55409752978C63CE4340B70A62A06B3954404AD235936F85554031276893C3BB4040A8380EBC5A204340B5C4CA68E4E34540037B4CA4341B3040D13DEB1A2DD14040187D0569C6A20D4068B0A9F3A88851404E7ADFF8DAEB4840F96A47718EAE574001A3CB9BC3E952401A36CAFACD9C4E40D4F19881CA78E53FBA30D28BDA3D544026C5C72764E33440AA656B7D91E551408FC2F5285CB145408D2958E36CCA30402BA6D24F38534140677C5F5CAA621B401BF67B629DFF5840E73922DFA5025740DCD6169E97344B408B71FE2614921F40AA29C93A1C4F474078962023A02211401EC3633F8BE532403012DA722E2744409A43520B25294740E7374C3448AD4D40C6353E93FD385640C9AEB48CD4D85540AB5FE97C78C2314023F3C81F0CB4434066C1C41F45694740FF3F4E9830DA014084D6C39789A04A408D2441B8023B57408D976E12837848406ABDDF68C75347404293C49272BB46408997A77345825740D82E6D382CF75340C170AE61861C4540E8667FA0DCE61640F6ECB94C4D1A3440CF15A5846001544034D769A4A5D21E40147AFD497CD23D40C37FBA81029A54405D6C5A2904BF5040D311C0CDE2194C40E3DEFC868978544049D74CBED93640404D124BCADD1A5640F3565D876A2E4C40C0B4A84F72B956407369FCC22B7538405FB69DB6465648408FE1B19FC55953401A170E84645B4040B537F8C2642A3C40F855B950F9433D402CD8463CD96F4C401F9F909DB743434056664AEB6F09ED3FB3EA73B515174B40653733FAD1905640BF6378EC677107403620425C395C554037FFAF3A7234194047AD307DAF3B53406EF9484A7AC4464027327381CBE33140486C770FD02653400E4FAF9465F456404F965AEF374B5540A7203F1BB9AE5240D1967329AE42554054008C67D0A04640F27B9BFEEC0C57403D1059A4892716408B170B43E42C5640E2218C9FC62D4A40FCFF3861C24E4F40873254C554284240B1FA230C035A534037A8FDD64E535140276BD44334165440C689AF761481474086C613419C8F5240C3D7D7BAD43241407BD80B056CE700407099D36531225240B003E78C287D2B40A774B0FECFBB49403ACD02ED0E685340218FE046CAE84A40419AB1683A16504054AA44D95BA352403BFDA02E525026402AA73D25E7BA4040A86F99D365F12F403DB7D095086E494018946934B9B0254092CEC0C8CB5E504042D13C8045A45240BE13B35E0CE5054093FC885FB17E4B401C96067E54725140CDCD37A27B863D40E9B81AD995CC5440611C5C3AE6B64C4082FFAD64C76641408672A25D85DE58409ECF807A332F52406CD102B4ADAF5340C91EA16648EE5340198D7C5EF1E04340397CD28904895540825660C8EA824E401570CFF3A71B5240F2608BDD3E2B5240EA7B0DC1713B5440E0F76F5E9C103D40B5C6A013426B5240EF8CB62A89F8404089B5F81400D952405704FF5BC9BC4240F5DBD781732C4340645930F147D74B40352A70B20DA642400919C8B3CB8652409F05A1BC8F065840F7B0170AD8145440FF5C34643C525640A80183A44F245840153B1A87FA2D4D400892770E65D825405C1C959BA80744408D7C5EF1D4BF354080F44D9A062F4E407A1D71C8069E5440F88BD99255D946409566F3380C02434054AC1A84B9FF4940F31C91EF52EAD43F527DE717252829408A1F63EE5A084340B6DB2E34D7F14840300E2E1D737C514004392861A63356404F3E3DB6658015405F0A0F9A5D454140BF61A2410A9E923F31D3F6AFAC905840FD69A33A1DB95540A3B08BA2071A3C404298DBBDDC6B4B4089B7CEBF5DA15340242BBF0CC66E50403B70CE88D28E254064027E8D24193E40BFBB95253A1F5540DE91B1DAFC2B53409ED2C1FA3F634B40087250C24CD75240AC1919E42E8D5540761893FE5E3F52404D4C1762F5D952404A46CEC29E8A3440BF654E97C59C4E402E573F36C9AB4140999A046F483952406F0D6C95602B51403DF19C2D20184C40484F9143C4D3454045BC75FEEDF2184078431A1538554040C7BDF90D13093E403067B62BF4DF4140CC9BC3B5DAEB4E402E1EDE7360B343408692C9A99DF95040A0C1A6CEA3FA2B403F00A94D9C095340861C5BCF108B55401EA7E8482EA142406D37C1374DDF0F40225514AFB2004640E57D1CCD91ED5640BB99D18F869B2B4043ACFE08C3802A4038F6ECB94C6D3F40C9022670EBA24A40740987DEE25536409E5DBEF5619147403FE3C28190243840F7578FFB56E74B40ECF99AE5B2F54840A6B6D4415E354E40F871344756EC5640EB8D5A61FA9A4F40978E39CFD81058403DB83B6BB7113040C823B891B25E5240BFEE74E789AF3540DE3CD52137714C40AF22A303921C35409A0645F300784A409677D503E61858409B3924B550BC56402C67EF8CB6B35540C1E10511A9DF4040F25D4A5D32135240F3AACE6A81FD134009FA0B3D626A4B40CFF8BEB854A51E40E17D552E54844C40F19BC24A05C14A4001FBE8D495F05340C18EFF0241704640E38BF678217E51404A46CEC29EAC5640B0592E1B9DCF3140C23060C9551C334039D6C56D3422484003232F6B624D48404CC5C6BC8EC352404034F3E49A015340E12538F581503540171230BABC9D4A4022895E46B1CA4B40265646239FA65540986E1283C09A52409F58A7CAF7564840D0F0660DDE7B3F400AA2EE0390264740D61C2098A3EF2540B39602D2FEE332401EFB592C456444406D3656629EED5540E603029D49EF4340AFD2DD7536185340524832AB770153403317B83CD6BA4E40D68BA19C685B414095287B4B394B3E401A3048FAB46F5340CE50DCF1265557402387889B53E55040064A0A2C801B524099620E828E275640DA73999A041B46404513286211E34A40C93CF20703C45440344DD87E32784F4030BC92E4B99E33403CC093162EB33A40F0879FFF1E81544098F738D384505540632827DA55281B408693347F4CE95040439259BDC3852A4045D7851F9C135340F88903E8F7B1584090BB085394A94E40E2AE5E4546614F40E2CD1ABCAF3758403A3B191C25DF2440E8667FA0DC523940ACAB02B518783F40F4A78DEA741554405DDF878384DE53401A1A4F04716E1E40CD5CE0F258773E401C7E37DDB21B5440823B50A73CD646404AB3791C06194B408C2FDAE3853753401DE4F560526C26400BB3D0CE692E3940A87004A914FA5440259529E620A24D40EB1A2D077AD0464091F3FE3F4E5817402975C93846922540AE7E6C921FBD4A4018231285964B4140D2544FE61FDF474098309A95ED5544405AD427B9C3323140B1FCF9B660E05840CC5EB69DB69E4740207F69519FAF584055682096CDE0334005DF347D76E6564034F790F0BDFC53404303B16CE654474025766D6FB74C2D40282CF180B2A530404BAFCDC64AD44D40BCE9961DE21D4A4033DDEBA4BE1A4F40446D1B46411A5340919C4CDC2A2350400B26FE28EA9240406F0D6C9560A5544097AB1F9BE40C5840C7B94DB8577B5640185A9D9CA1D552401F680586ACA24E4025917D90653F40404B92E7FA3EB42A40E99B340D8AE63C408542041C427A53406F826F9A3E0252407FBE2D58AACB254005F86EF3C6434E4012BF620D17F14D400FB8AE98119EFD3FF241CF66D5671440E42D573F36D54A407FDC7EF964A742409BADBCE47FC55140D68D7747C6324240B5334C6DA9D7334093C83EC8B21829407C992842EA9A494053CBD6FA226544409E961FB8CA2558407C6308008E2F42404243FF0417525540E0D8B3E7327D33407235B22B2D6B2840BFB854A52DD04E4020B3B3E89D1C48402FF7C951807B53409AB4A9BA47404E40AEF36F97FDE05340975643E21E2C55402A8F6E84457940403CA1D79FC4F757404F24986A66915440E7DF2EFB758F464040FCFCF7E0FF4940DD4598A25C9A2940A67D737FF5E245403691990B5C3D534062BF27D6A9F845409CDB847B6510524088D51F6118A02A40166BB8C83D1F4140D9EDB3CA4CC147404529215855CF1140EBC5504EB47F444068976F7D58DB48400B992B836AA74340A438471D1DF1444045662E7079EC2E4034F3E49A025D5540E90DF7915BEF3E40CCED5EEE932454403604C765DCF04B40D9B45208E4385240213D450E116E58405B0A48FB1FE258406B459BE3DCEA56400ED8D5E429614B403ECE3461FBCD5540C780ECF5EE9B3940E01115AA9BC55040A950DD5CFC5855403ECBF3E0EE964840CA6E66F4A3474C40B1A4DC7D8ED956408B1A4CC3F06D41402F698CD6514540406138D73043173040643F8BA5480B514069E1B20A9BF556403E59315C1DA00E40BA6587F887FD2040959BA8A5B9954A40FCC7427408F858402DCF83BBB3362340768A5583302F224052EFA99CF66A57408F54DFF945991B40AF9811DE1EE422400D8D278238E14B40217365506D3C434006F7031E18B55740EA5C514A082A4D4058A835CD3B4C484003CFBD874BED5540ADC090D5ADC23740EA4141295A2458404DC0AF91249A5140179D2CB5DE0732400C3ECDC98B1A5040F14BFDBCA9F818404A7F2F8507EE5440E7374C34480955409E961FB8CAED5440789ACC785BCB4E4071C806D2C53E5140AED51EF642513E40C284D1AC6CD14940A9A3E36A64B748409E5F94A0BF4C364087E123624ADC51405262D7F676715340DB31755776C14B409A0AF148BC004A4023F8DF4A768424400FB8AE98111A474093E00D6954203140CBD93BA3ADD152409D6516A1D8A2404080F0A1444B9A454079E8BB5B595E4D407288B83995B42540BE1589096A5C3240FCA6B052417C5440460BD0B69A794B406551D845D17D58407CB779E3A4943F4057772CB649C55640E04BE141B31146403E079623649958404182E2C798BB3B40242713B70A8B5340E10B93A982D12B40CFBEF2203DC93940D905836BEEC2434063450DA66198234012C0CDE2C5545740C328081EDFBE3940295C8FC2F5E81C40BE4C1421757B074008556AF6408F4E40B114C95702C65740A5DDE8633EBE404009F9A067B3823A407192E68F69534D406F9EEA909BB3494016359886E1C65640AD1402B9C4B34D4012A1116C5C0B58409E961FB8CA814C40D542C9E4D42634408BA4DDE863204D40FF976BD1023D5240C38366D7BDA7574020CF2EDFFA445240BB99D18F869740403255302AA9E34440B39AAE27BA263D40FA0B3D62F4FA4840AB75E272BC14444040A6B5696CEF20405E66D828EBF85040A514747B49DE5440CC0BB08F4EB15340F911BF620D645340537765170CFA4C40132D793C2D9943402461DF4E2218494020EBA9D557371640E1D39CBCC839504058703FE0815152403B3AAE4676775440C173EFE192DA564069705B5B78384B40C45DBD8A8C80544048C0E8F2E66E41400EDB16653646534081D07AF832354740D3F544D7853F0340AB08371955124940B2D7BB3FDEABDB3F58E71890BDCE504011514CDE00B31A40C0D02346CFFB4840895DDBDB2D5742403E93FDF334F82E40C03E3A75E57056407BBC900E0FA1F73F5A457F68E6E74340D40D147827695640CF6740BD19D35240FF942A51F6004E40A58636001BE01C40E8DEC325C7AF564046990D32C9AC3B40D2E3F736FDBB4A4014E97E4E41425340DC2E34D7695439405C55F65D117B5040841266DAFE95D93F5B5D4E0988F25140145CACA8C1DE524010069E7B0F0F2F40183F8D7BF39B1640E107E753C7884B4093A8177C9ADF4D40D1949D7E50B746400E10CCD1E32F36401D91EF52EA1A38401F12BEF7374D504035D252793B522740F697DD9387C500406729594E42C7524032755776C1A449405454FD4AE7532F4090BB085394974D4029B4ACFBC7CC51404A61DEE34C805840699082A7902F3C4050E27327D81B4B4044FB58C16FAB4540A5F8F884ECC758402313F06B244B4240EB73B515FB0B2B409624CFF57D9C46400DFD135CACBC55404E9D47C5FFAD1440573F36C98FA5544033C170AE612E5640BE88B663EACA51402B86AB032082394002B9C49107F350409529E620E85A5640FC5069C4CC424040DC9BDF30D14F50405303CDE7DCC340405FB35C363AB55740BB61DBA2CCDA5740D5B32094F7E3444053CDACA580E43840E1085229763C57409FCC3FFA26F35840C3A04CA3C90F5840A81ABD1AA0E425407A1A3048FAE035408E075BECF6013240D3DD7536E4133A4061C1FD80072E3F405AD5928E721A40403FE3C28190A256405C566133C0751340B5C6A01342CB3440E25817B7D1503A407A724D81CCB2464089EB18575CED544054707841447755407C613255307447405D18E945EDE65240E3FE23D3A1A74640D712F241CF004340D1AFAD9FFE3304408C4CC0AF91F25040E84D452A8C9D2540B05417F032532540D029C8CF46E44B400B2593533B975340942EFD4B526D45402D78D15790B6214054AA44D95B863C40FB90B75CFDCA4B40EEE9EA8EC54552402DB1321AF9E255401E6B4606B9735240D53F8864C82B48403B18B14F00214C40223317B83C784A404F90D8EE1E882E40A51133FB3CD44A4053CBD6FA22A13E40C7F65AD07B255240B169A510C8C35040D4D688601CF842401F300F99F22B50402504ABEAE5971540D102B4AD66EC5540836E2F698CD6184025E82FF488B6514098309A95EDD9414097ADF545428144406C787AA52CD31540AA9A20EA3E4245403CDEE4B7E8C24B4053927538BAB84140EA3E00A94DD83540D8F15F20085B574033A6608DB3E1524036AFEAAC1681514055A69883A09F3440161747E526FE4E40704221020E314C408A3A730F093F3740B491EBA6946258407BF83251840050409C6F44F7AC59464049DBF81395D54D403315E29178091F406F10AD156D1451404EF1B8A816611D40C53D963E74AD5240B5503239B5FD4840F06E6589CE863C40F22895F084D63140C2DCEEE53E5F5740111B2C9CA4274E400971E5EC9D445240718E3A3AAEE61040128942CBBAAB4C40DBC4C9FD0E8D4840240F441669F22640B2DAFCBFEA481D4000C5C892391A52405DC47762D645464074EE76BD34ED40409A7D1EA33C9D5840C767B27F9ECA3540FC5069C4CCAA5540EACBD24ECD6554403D81B053AC52424083893F8A3A385540E88711C2A3F155402AC423F1F2A75740AC730CC85EF33C409FE74F1BD5495240FF08C380255F284053B0C6D974B64F405837DE1D19694C40747D1F0E12E456401E6FF25B74F44C400B7BDAE1AFFC5240E4A3C519C3A1524075E61E12BEF72A4043E55FCB2BF73040992A1895D4B65440E6AF90B9325813400A1346B3B20C5740D6E6FF5547BF53407C0A80F10C2756400A4D124BCAC934408AB0E1E995AC4A403659A31EA20531408F1B7E37DD9E57408F368E588BF651406D020CCB9F8F3F40FE2B2B4D4A711F40B1C1C2499A2A53402750C422868B51406956B60F79473A40F5A10BEA5B7E48409085E81038565740AC70CB47525C4540C99063EB19D353407BD80B056C874340E4141DC9E5954C405F0D501A6AF65740C3B645990D1848404E7ADFF8DA5F4B400BCF4BC5C69C564039B69E211C37544044A852B3076A45408FDE701FB9514540C93D5DDDB1DD534002D9EBDD1F0B4840A323B9FC87224540BAF770C9717A5540FBB2B45373535840F2406491263F58406F1283C0CA7B5140425A63D0097D4D40D0251C7A8B1F4240029B73F04CE02B40795DBF6037684440C66B5ED559E14E40BA6B09F9A00957400820B58993894640853E58C686AA3E401E1B81785D9B33400BD0B69A756E2740ACE63922DF4F574036B05582C54F5240F1D8CF6229C84340AF5DDA70588633404606B98B30C51040992A1895D4853C4039ED293927B23440E7012CF2EBFF344044FB58C16FAD5740BF7FF3E2C48E58402AFD84B35B9D40408D0A9C6C03D75740541C075E2D7F44404B901150E1B64C403A2009FB76F3574064ADA1D45E2F52402C6684B7074858406AC18BBE824831404B06802A6EC42B409293895B051943405E656D533CB45040552E54FEB52B5140F8174163267A52400B0DC4B2995B474098F90E7EE2C64E401D5BCF108E8948401D1D5723BB4E55401827BEDA51584C402CF4C132362A4440FB40F2CEA1FE5640EC18575C1C852640C4EC65DB69FD4740C2DA183BE1413440D13FC1C58AB44040F5D555815A1840400AF4893C4902314067EE21E17BBD50402976340EF56D4C40F6083543AAF04040FE0FB056EDAE57405610035DFB8443402B6D718DCF542940CB13083BC5C55640DA01D71533385640AF40F4A44C804E40C2340C1F1160574047904AB1A3711540386BF0BE2A155440AC8E1CE90CA84640DE59BBED4261534018CFA0A17F222F401F4AB4E4F1B415406687F8872DD74140A0336953754B48408D26176360594C407D04FEF0F3FF0340833463D174025840EE27637C986549406DCA15DEE5F15840D89DEE3CF134254060C9552C7E1F3840AA807B9E3F8F4D403929CC7B9CD94140C689AF76149552408750A5660F8E4D405A9E077767CD2E40C1E61C3C131E3640656D533C2E484E40F888981249683D40952C27A1F4B94940A7B1BD16F4123840DE550F9887DC374076A565A4DE995540C5A9D6C22CA24340F357C85C19803D40971B0C75587D3940BDAB1E300FF13940E4BB94BA64843740EE4108C897385840C1C9367007623540B9A5D590B8A71940EA5E27F5658E58401C430070EC915740A14CA3C9C5E84340384888F205ED3D409A97C3EE3BB255407157AF22A3754A40D461855B3E57544042AF3F89CFDD35403CA06CCA15FE534056478E7406B5554096CD1C925A60324089EB18575C055140FE8172DBBECF4E40ACFE08C3805946407496598462374B406D6FB724074E414074417DCB9C3A3A406F66F4A3E18B5540E43098BF424E33407A50508A565644401A19E42EC22E4E4011001C7BF6BE514025CADE52CE1B534025CFF57D38A056404BCD1E68054A4540E198654F0240514069368FC360D6414063416150A6F251400FF10F5B7AF03C408D60E3FA7794554027F73B1405F157400F9D9E77631D48404CFC51D49981544003E962D34AAB4D40DA01D71533CC474057CF49EF1BF738401E520C9068E9504061FF756EDA855840C74961DEE37839408121AB5B3DDB474036069D103ABE4A40888384285F50324086562767285C4440FD2FD7A205905740D28F8653E6B62C4020D3DA34B6873140F46C567DAEB6EA3F266E15C44057E33F46274BADF78B1D40DA1CE736E1C245401C9AB2D30FD24140AF5FB01BB61E5140C5538F34B8AB4F40FC8C0B0742F15340904FC8CEDB681040E04A766C047D5040ACE46377812A2940CD58349D9DC25540E67805A227CE5440737FF5B86F8D3B40D8F4A0A014C75740533E0455A3D55040404B57B08D284440501DAB949E355740ED9925016A0C5140B62DCA6C906356401FA2D11DC4523440AF5B04C6FAC852407094BC3AC73C3940321D3A3DEF6E43408AE6012CF2EB1440C63027689383F43F3C32569BFFCF54406D59BE2EC3D851405B5B785E2AF624406EA301BC05FA26406DAB59677CCF1240DFA5D425E3F81240C0AE264F59EB4F40A69883A0A3694F402F87DD770C9758400937195586C538407E71A94A5BAA5040BD6DA6423CDE324039B5334C6D55584081CCCEA2771E424089230F4416E13D401233FB3C46493C4081D1E5CDE1C84240FEB5BC72BD354840AD3594DA8BF5584017BA1281EABF104061FE0A992B473A401DE6CB0BB0AD4E405567B5C01EB655402079E75086B754403143E389207E1D40B5C6A013424A5140F775E09C112152401310937021DD4940A661F88898D632407A17EFC7ED2B45400EA0DFF76F223340C251F2EA1CD34440AEEFC34142244D4034492C2977774940F415A4198B1A54406F7EC344839354409E0B23BDA8894040397EA83462F857401DE90C8CBCD658407E52EDD3F1304D4078978BF84EEC4F40D2FE0758AB7C48409599D2FA5BE23940CFD8976C3C165640E816BA1281663E406DC9AA083788534079E57ADB4C8D3840737FF5B86F9500405798BED710B03D4004CAA65CE13D09406A15FDA199F45840A8A624EB707A55400CE9F010C66358405131CEDF8482534003CFBD874BD23C407D94111780F44840AF7B2B1213924E409EEFA7C64BDF2F40E08442041C5632407786A92D75E43440F279C5538F10324027C0B0FCF9D84540C498F4F7529A4140721AA20A7FB35640CB863595456747406FBC3B3256FF5140693BA6EECAC453402844C021549B5840A12E52280B6D4F4044DB317557075540C5E74EB0FFEE4C404CC5C6BC8EB8FA3F726A6798DA264640BD512B4CDF8B2840051555BFD2B12C40CEC7B5A1622052405B069CA564B45040096F0F4240AE54402AAC545051034B408B6D52D158D349406133C005D9255240FFB1101D02AF2D4025E99AC937733F40B5F97FD591C3094064CC5D4BC8B95040BF61A2410A995140CA6B257497040840B728B34126813040A7AFE76B96EB20402C9E7AA4C18B42405A0D897B2C33414088635DDC464D44405280289831015440250516C094A7404062855B3E923E414071395E81E8C452404F24986A66493A4082E7DEC325C73B4002BA2F67B6D752400D1B65FD66A75740F624B03907A542408ACA8635958F46406B990CC7F3F9204051A1BAB9F8485740D26F5F07CED74F40CBBC55D7A19B50401FB935E9B6564E406954E0641B984C407920B24813AF454014268C6665FB0140EB1A2D077A5355408C6665FB90775340B42094F7719D55400D6C9560717755401409A69A59855040EBA86A82A86F394001A4367172185740EC134031B224F93F815B77F354F4574039F24064917849401B2B31CF4A5A0840008C67D0D0C852403DEE5BAD13673F402FFA0AD28C8C5340F75B3B5112365240B0045262D7D04A4016FC36C4781D3740EEEBC039230E3440DB5031CEDFF84940C6C4E6E3DA4352407289230F449E3C408194D8B5BD3C564086E810381292494029CE5147C72B5840B76114048FF34840DC0F786000DD494026FDBD141EF8514097AE601BF1F95440098A1F63EE163A4012312592E805544087FC3383F8FC3240378E588B4FC3494002A08A1BB7FC424003D2FE0758E54940E7FC14C781B14640D15AD1E63868574062F4DC4257B35840C669882AFC674A40ECA529029C9851407AE40F069E4C534078EC67B1148B4640EE2422FC8B8E4B40365B79C9FF51574010E6762FF7191140C634D3BD4E6041403AE63C635FA2414043AD69DE71C636400D384BC9725A2E40865968E7342B31403D49BA66F2C52140E5F21FD26F3157400470B378B1B0FF3F2654707841E35840043DD4B661B43B409B8F6B43C5575340A8C4758C2BD23F407D76C075C5115740629D2ADF33135340766F456282263C40051A6CEA3C884A40F871344756AA3740C861307F85F647407E8FFAEB151C5540DFA4695034B143406D0377A04E2D3140580229B16B31494060C8EA56CFB91F40D4F19881CADA564089D349B6BA58384010070951BEF6474051A04FE449BE514053CC41D0D1745740BBF2599E07D71C40A794D74AE8B85740514B732B84BC5640EAEC6470946E4440018750A566734D4073D9E89C9FA64940CE6C57E883254C40946C753925FA43407171546EA2063940B0AD9FFEB30D52408C9DF0129C6E4C40C7B94DB857A6564052499D80260156402C616D8C9D8B5640E659492BBEB13A40F96871C630E54F402BA6D24F38985640C0779B374EE35040878C47A984BA5040AA0B789961B345405308E41247EE2840E883656CE87E5340016A6AD95A9F1E40E6AE25E483D64E408C101E6D1C4B5840B3976DA7AD434440EDBB22F8DFBE4A400856D5CBEFF64A409E280989B4065740C30E63D2DFCB4A4011E0F42EDEE755400CCC0A45BA5357400B9755D80CC03140D865F84F37605840C9AA083719653E401747E5266A54564065506D7022305340CD785BE9B5EA56406743FE99413552400EBDC5C37BAC5340B7EEE6A90E853E4076A4FACE2F1755405E6743FE99D15340609335EA218A584031D0B52FA00C51401361C3D32B1C5440185DDE1CAEB35640FC8C0B0742B651405C8FC2F5288A4C4047CA1649BBF13B409772BED87B71E83F6C088ECBB87B4940840EBA84432F27403FA88B14CA9557401B2D077AA8D54C409C16BCE82B6818400C790437525A3B405ED6C4025F0B41400D8AE6012CD85440D828EB3713545240CA87A06AF4324E405B99F04BFD442B40DCF4673F52024440904DF2237E45F93F598638D6C5B14140BA9EE8BAF0D549407102D369DD225140EA04341136F84640A22424D236FE4F40412B306475FB28401E3526C45CC84A40BEA4315A470D2C4062F6B2EDB4A257406B2920ED7F84464061FC34EECDEB3340F94A2025765755406A12BC218D2A2C405EA0A4C0023A4E4052D2C3D0EA6A5140C861307F85DC1340FD851E317AEE52400D8CBCAC892A534070B1A206D3703540ED45B41D534B3240A0FD4811193E26405B0A48FB1F275840828E56B5A46F3440129F3BC1FE9F54405C55F65D11F25140A20DC00644415040AE0E80B8AB6F5140B000A60C1C265440BFB513252179514027A089B0E1DD35400D350A4966BD43401E4E603AADB5474098DBBDDC274D51400C789961A3143E40E8F86871C6524240D7F84CF6CF731A405E9F39EB53084040C2120F289BF44C405017299485E5574002486DE2E4204840AB06616EF7085240F4F8BD4D7F5F53407765170CAEF74A40D7F7E120218A1C40F4531C075E8D0640276893C327713940CAC16C020C7F5840B70C384BC96634401D21037976FE53403A90F5D4EAE7404019E25817B7ED3F4073F38DE89E2B4A401EFB592C45EA3140DB34B6D7829C4C4092CCEA1D6E49554034492C2977C054405A8121AB5BAD474073672618CE354840D3F4D901D79135404451A04FE4A91E40F71E2E39EEA843406C2409C215BB514031B1F9B836443540D50968226CA4334050FBAD9D289D34408A9466F3386250407AA52C431CD75840705E9CF86A1A574096CD1C925AE80D40494BE5ED084B504071E2AB1DC55051405B94D920932030400D6C9560719820406325E65949DF4940D46531B1F9ED52403BE3FBE252085740ED0E290648FC4940C7D8092FC1F74D4026FF93BF7B7734407E01BD70E7C64B4097C79A9141B856401E6CB1DB676B4540AA61BF27D60F4140EE2422FC8B801A40F46DC1525DF55240F44D9A0645CD4240902DCBD765FE5240FEB8FDF2C9D24F40C0CB0C1B659D32404CC11A67D391F93F5114E81379A21140D10836AE7F715340B3B6291E177744405743E21E4B414E407A008BFCFAFD5740CB9F6F0B962A3B40E0BC38F1D57F5440249A40118B00234027C286A757C23D4055A69883A0FA50408F6D1970964A33400F4757E9EE3F5740E6CAA0DAE04C4E401D39D21918BF544089247A19C5