module {
  llvm.func @malloc(i64) -> !llvm.ptr
  llvm.mlir.global private constant @__constant_100x100xf64(dense<"0xD4F02DAC1BEFE03F76FC170802E4E23F65170CAEB923EE3F72FE261422E0D83FF31E679AB0FD943F14E97E4E41FEEC3FDD7BB8E4B853ED3F4A9BAA7B6473D13F67D2A6EA1ED9E53FCD5B751DAA29DC3F50A912656F29C53F2FC4EA8F300CC43F3FC8B260E20FE13F8313D1AFAD1FE03F0E492D944C4EC13F08910C39B69ED73FB3412619390B8B3F1D59F9653046E33F465F419AB168BE3FCBBC55D7A19A623FF2ED5D83BEF4C23FF9872D3D9A6AE73FA3EA573A1F9EE13F8A1EF818AC38D03F240B98C0ADBBB93F3CA41820D104D33F4ED1915CFE43E03FC4961E4DF564B23F9CA564390925E13F3E3F8C101EEDE13F58AD4CF8A5FEE53F3CBF28417FA1A73FA9DE1AD82AC1BA3FF44E05DCF37CE33FBC2363B5F97FD73FD1967329AE2AC93FA0A696ADF545AA3F0490DAC4C9FDD23F486E4DBA2D91B73F999EB0C403CAD33F9488F02F82C6C03F232D95B7239CE33F3A03232F6B62DE3FF8FD9B1727BED63FF986C267EB60E73F2499D53BDC0ED23FA6B5696CAF05DC3FBE13B35E0C65ED3FE1D1C6116BF1DE3FBBEEAD484C50DB3F9160AA99B514E33FD8800871E5ECD63F7FF6234564D8E53FBDFDB968C8F8EE3FA1BDFA78E8BBDD3FEF3A1BF2CF0CE03F02D9EBDD1F6FE63F00C63368E89FD13F5C92037635F9EB3F58C7F143A511D73F7FD93D7958A8EC3F8F52094FE8F5BB3F93C49272F7B9E53FE3C4573B8A73E33FC381902C6002EB3F06F52D73BA2CB63FDB32E02C254BE43F438CD7BCAAB3D53FB2A19BFD81729B3FFE7C5BB05417EA3F202A8D98D9E7D63F622F14B01D8CE13F0E2C47C8401EE53F36E84B6F7FAEE43F545227A089B0E13F4D874ECFBBB1B83FF0C000C28712EC3FCFF9298E03AF763FE7E3DA5031CECB3FF81C588E9081C83F809BC58B8521E43F13B69F8CF1E1EE3F37DDB243FC43E73F4B75012F336CCE3F800F5EBBB4E1903F55A4C2D84210EE3FF30181CEA4CDE63F336DFFCA4A93923F59FAD005F52DE33FFF976BD102B4DF3F821B295B246DED3FEA95B20C71ACED3F5DC0CB0C1BE5EF3F51F52B9D0FCFCE3F25B1A4DC7D8ED23FBA10AB3FC2B0E33FECA2E8818FC1DD3F6C425A63D009D53F05DF347D7640E83FBF6378EC67B1D43F5A12A0A696ADE83FBDE0D39CBCC8D63F828B15359886ED3FDAC534D3BD4EE53F2942EA76F695DB3FAA61BF27D6A9E73F5915E126A34AE53F53E751F17F47B03F278925E5EE73DE3F1B4982700514D53F11FE45D098C9E03F0EA14ACD1E68ED3FF06B2409C215C43F4C5299620E82E53F5B40683D7C99E73FA4A833F790F0EF3FFAD4B14AE999C03F0DA5F622DA8EE33FFB777DE6AC4FEB3F6F29E78BBD17E53F1CB28174B169DD3F6FB88FDC9A74CF3F14234BE658DE853F579753026292E73F938D075BEC76E83F2DB308C556D0EF3F5665DF15C1FFB63FDA5548F949B5E23F5D88D51F6118903F8DD0CFD4EB96E43F5F7F129F3BC1E03F9C6C0377A04EA93F01DBC1887D82E43F328FFCC1C073D23F9DD843FB58C1E03F78094E7D2079E83F9755D80C70C1ED3F0C056C0723F6EB3F8445459C4EB2953F2CD7DB662AC4DD3F8D5F7825C973CB3F9BE61DA7E848EF3F649291B3B0A7E03F9A5FCD0182B9E03F5C1FD61BB5C2C43FABE97AA2EB42E43FADC3D155BABBC03F5A9F724C16F7D53F897AC1A73979C93F8369183E22A6C43FFC1873D71272E23F787FBC57ADCCEC3F66834C327296EE3F4B3E76172829E53F2713B70A62A0E23F09FEB7921D1B913F635E471CB281D83FD9B0A6B2286CEB3F9E95B4E21B8AEC3FB7989F1B9A32ED3F3F7100FDBE7FDA3F1938A0A52BD8E73FB935E9B6442EA83FBC3B32569BFF873F8B34F10EF0A4B53FC216BB7D5699DB3FDA3BA3AD4A22D93FA5DB12B9E08CED3F87C5A86BED7DD73FAD174339D1AEEC3FBE840A0E2F88D63F4512BD8C62B9953F04E3E0D23167E13F30F5F3A62295E03FD61C2098A347E43F5E0F26C5C7A7EA3F081D740987DEE23FEA25C632FD12DF3F44A67C08AA46DE3FCCED5EEE93A3C43FF29881CAF8F7A13FFFCF61BEBC00A33F53CDACA58034E13F61C3D32B6519CC3F0D0055DCB8C59C3F9276A38FF980EA3F81CD39782634DE3F08CBD8D0CDFEE33F840D4FAF94E5E83FD5592DB0C744E73F86E63A8DB454E13FAC3C81B0532CE13FEB1A2D077AA8CF3F643A747ADE8DED3FC1ADBB79AA43BA3F397F130A1170D93FFC53AA44D95BE63F47E4BB94BAE4ED3F12F6ED2422FCE73F1CD0D2156C239E3F0D8CBCAC8905D33FD8B79388F0AFEE3F08AEF204C24EDF3F1FDB32E02CA5E93F55682096CD1CE83FE57E87A2409FD63F92AD2EA704C4E73FF94CF6CFD300E83F487023658BA4C93F4D486B0C3A21B43FCDC820771126EA3F3929CC7B9C69E83F1C5DA5BBEB6CCC3F346953758FECE63F26E0D7481284C73F8A05BEA25BAFA13F2E7590D78349E03F8F899466F338BC3FBFF04A92E7FA8E3FD95DA0A4C082EF3FEB56CF49EF9BEA3F8F1A13622EA9DF3FAE2990D95974E03F1E6CB1DB6795A93FF03504C7655CEC3FCF49EF1B5F7BD13FAD872F134548EE3FCEA623809BC5CF3FD52137C30DF8C63FA88E554ACF74EB3F73A25D85949FB83FC971A774B0FEB33F6D5853591476DE3F99F1B6D26BB3E23F62F54718062CEC3F06465ED6C402D03F8192020B60CAD03FB1E1E995B20CA93FB03907CF8426E23FFDBFEAC891CEEB3F8C1535988661E73F1B649291B330EE3F95490D6D0036A83FC76471FF9169EC3FBE874B8E3BA5C33FF54C2F3196E9DC3F59C345EEE9EA9E3F817687140324E93FDE72F563937CEB3F8E3C1059A489DB3F36CCD0782288DB3F17F549EEB089EF3F6495D233BDC4D23F4FE78A5242B0ED3F25034015376EE43FA04FE449D2B5E43FD255BABBCE86EB3F0EBF9B6ED921D93F3866D993C0E67C3F16F71F990E9DED3F2CF015DD7A4DEE3F1DE4F560527CDA3F3C889D2974DEE93F27874F3A9160DF3F0A4AD1CABDC0D03F69A8514832ABE53F6808C72C7B12EE3FB306EFAB72A1E43F5A63D009A103ED3F670C73823639C63F520C90680245E33F65FB90B75CFDB83FD94125AE635CE43F24473A03232FD53F33FD12F1D6F9D33FFF40B96DDF23EB3F7DD0B359F539E13F8A5A9A5B212CE73F34A0DE8C9A2FE83FA5DC7D8E8F16E33F55302AA913D0CC3F5470784144EAE43F05A568E55E60E83F3579CA6ABA9EB03F9F9273620F6DE43FE030D120054FEB3FAFEC82C135F7EA3FE2395B4068BDE33F7364E597C118E83F906B43C5387F633FCBA2B08BA207CA3F0FB8AE98115EEE3FCF68AB92C8BEEB3F942EFD4B5299D63F95F0845E7F12DC3F9EEC66463F1AE43F41BAD8B45288ED3F250516C09401ED3FCBBDC0AC50A4BF3FCB8635954561EB3F15A930B610E4D53F11548D5E0D50E33FE658DE550F98EC3F30B95164ADA1D63F439259BDC3EDC23F8C6665FB9037E23FA87345292158D83F645A9BC6F65AE83FFA4509FA0BBDEB3F8E76DCF0BBE9E13FDC0F786000E1ED3F95F25A09DDA5E03F6B9E23F25DCAE03F0E130D52F014DC3FE0DA89929048E73FDC7F643A747AC23FC5C9FD0E4501EE3FA25F5B3FFD67CB3FC91CCBBBEA01D33F7BD976DA1A11E03F8AE8D7D64FFFD63FD3307C444C89DA3F0211E2CAD93BE23FFAB7CB7EDD69EA3FF7B182DF8618C53F88F546AD307DC73F621399B9C065EF3F814067D2A66AEB3FCD74AF93FA32EC3F62F71DC3633FC93FFD6838656E3EEF3FDD408177F2E9E33F6A12BC218D8AEB3F9FAA4203B16CE53FF7AFAC342985E53F3620425C397BD53F28BA2EFCE07CC23FE2067C7E18A1E83FA7052FFA0AD2E93F39D1AE42CA4FDB3F354580D3BB78E03FAF25E4839ECDD93FBB61DBA2CC06D93F632992AF0452E13F6825ADF88642E03F672B2FF99FFCE33F53B3075A8121AB3F4E7CB5A33847D03FA73B4F3C670BC83FDD79E2395BC0EB3F76711B0DE0ADE93FFB592C45F295E83FB4CC22145B41D03F1EFB592C45F2653F1EF98381E75EEF3FCBF6216FB9FAED3FF73AA92F4B3BCF3FF0DC7BB8E4B8BB3FB8CB7EDDE9CECB3F73124A5F08B9E23F8BAA5FE97C78DD3FEF71A609DB4FE33FE0641BB80375D13FFD82DDB06D51CC3F4F3E3DB665C0B93F03098A1F63EEC83FF98381E7DEC3D43FDEAB5626FC52EE3F6F4A79AD84EED73F73BA2C26361FEF3F17299485AFAFD83F973AC8EBC1A4983FB554DE8E705AE33FEFC682C2A04CE33FA8C64B3789C1E63FE61E12BEF737D33FCD21A98592C9EC3FDD0720B58993C73F4F2157EA5910E03F9D9D0C8E92D7E43F5089EB18575CBC3F83A3E4D53906DF3F0DA9A27895B5D73FF58079C8948FE23F2BC1E270E657E03F6901DA56B3CEC03FDBA337DC476EDF3F7D5A457F68E6E23F17B83CD68C8CE13FA0C211A452ECC43F414640852348CD3FD00EB8AE98117E3FE5B512BA4B62E23F83143C855CA9E33F9B38B9DFA128A03FABECBB22F8DFD33F79AC1919E42EEA3F29780AB952CFEA3F247F30F0DC7BCC3FB1F7E28BF6F8E53FDF8C9AAF928FD93FBC218D0A9C6CEB3F9775FF58880EE03F676325E65949E73F70B4E386DFCDE73FA438471D1D57CD3F87191A4F0471D53F0266BE839F38E93F43A9BD88B6E3E03F3E3DB665C059D43FAE9CBD33DAAAD13FBE50C0763062DB3F93AB58FCA630E23F1D8EAED2DD75E13F4A5F0839EFFFC93FF6EFFACC599FC63F3D9CC0745AB7EF3FE75608ABB184EB3F499EEBFB7090E83FEDBAB7223141BD3F7B1343723271EE3FF209D9791B9BD43F87DF4DB7EC90EA3FDE5850189469C63FEDB94C4D8237DE3FA33B889D2974D43FB62BF4C13236D53F8350DEC7D11CE93FE23D079623E4EC3F7B6649809A5AD93FAF7C96E7C1DDD03F59FB3BDBA337ED3F842C0B26FE28C03FC154336B2920E13F3B8C497F2F85CF3F7B4CA4349BC7DE3F53EA92718C64AF3F87FE092E56D4D43F302C7FBE2D58EC3F17B6662B2F79EB3F68E6C93505B2E63FC6353E93FDF3DD3F5930F14751E7EE3F6D37C1374D9FC33F50172994852FEF3FF96871C63027A03F2B6D718DCF64B33F66A032FE7D46E43FC5C72764E7EDE83FA6D24F38BBB5C03F062AE3DF675CC83F7FA65EB7088CDF3F5C8DEC4ACBC8E23FA4880CAB78A3E83FF209D9791B9BC53F624CFA7B293CD93F89CE328B506CD93F5891D10149D8D43FC3B645990D32A13F880FECF82F10DD3F80F10C1AFA27D23FE84F1BD5E940C03F46D3D9C9E028EC3FD07D39B35D21E33F062AE3DF67DCE03F06F1811DFF05DC3F3E5B07077B93E03F0FD6FF39CC97E63FF08975AA7CCFE93FCC086F0F4240AE3F4030478FDFDBEE3F7F69519FE48EED3FA583F57F0EF3E43FE3DF675C3890EE3FBE67244223D8A83FE90AB6114F76DF3F4818062CB98AC33FAE0CAA0D4E44DE3F0FD1E80E62E7EC3FF65E7CD11E2FD23F6B662D05A4FDE43F38D73043E309EA3FB9A981E673EECE3FB003E78C28EDC53FDE3B6A4C8839EB3F3F53AF5B04C6D73F42D13C8045FEE03FA9DDAF027CB7CF3F2BD9B11188D7E43F5663096B63ECD13F1633C2DB8310E93FA4AB74779D8DE63FB0726891EDFCE43F0D17B9A7AB3BD83F11C30E63D25FEA3F183E22A64412D53FEAB12D03CE52E33FE6CFB7054B75E83FD7C056091687E33F4DD6A88768F4ED3F9180D1E5CDE1D23F2367614F3BFCE13FF855B950F9D7E13F1BBAD91F28B7E63F99D9E731CAB3EA3F27327381CB63DE3F5776C1E09ABBED3FEB54F99E9108DD3F8942CBBA7FACE03FF67B629D2ADFED3F12DBDD03745FB63FDEAE97A60870D73F535DC0CB0C1BD63F2979758E01D9C13F17D34CF73AA9EF3F4AD235936F36EA3FCD0182397AFCE73FD192C7D3F203C53F28B517D1764CDB3F08944DB9C2BBD93F642310AFEB17E93FC4961E4DF5E4E73F37894160E550EB3FB0E8D66B7A50CA3F00A8E2C62D66ED3F2A3927F6D03EE13FAAF23D23111AC53FA4E36A6457DAE13FAE8218E8DA17DB3FBF9B6ED921FED33F959D7E501729C63FB77F65A54929CE3F1399B9C0E5B1E63FDD990986730DDF3FC1E61C3C139AEB3F2FA52E19C7C8E23FD07B6308008EB53F802DAF5C6F9BD13F6E50FBAD9D28EC3FD0EFFB372F4EE83FA087DA368C02E03F693A3B191C25E23FB54FC76306AAE13F357A354069A8CB3F996725ADF886D53F793D98141F1FE73F11C7BAB88D06D73FC539EAE8B81AEB3FB130444E5FCF773FCBF8F719178EE43FE09F5225CADE923FC5E74EB0FFBAE73F630AD6389B8ECA3F40BD19355F25E93FC3BCC79926ECEA3F8AADA0698915EE3F5A9C31CC095AE53FB7B75B920376E13FDC4944F81741DA3FB6BE4868CBB9C83F5FB87361A497EC3FE3C798BB9690E33F9EB12FD978B0DE3F25C9737D1F0EDB3FC64E78094EFDE03FFC8BA0319328E83F67D311C0CDE2E63F6138D73043E3C33F723447567E19D73F998235CEA6A3E13F9E23F25D4A5D923F9C8C2AC3B81BE43F9E0C8E9257E7DA3F67BAD7497D59D43F3737A6272CF1D83FBF4351A04F64EF3FEE5A423EE8D9C43FA0FCDD3B6A4CEC3F431F2C634337E73F9888B7CEBF5DE23FBABF7ADCB75AEC3F5F99B7EA3AD4EB3F4E8061F9F36DEF3F9A95ED43DEF2E33F1092054CE0D6D43F4BE9995E62ACE93F43FE99417C60CB3FFC8F4C874E4FEF3F33C4B12E6EA3E03F0455A3570394DC3F2EC55565DF15D33FDF8B2FDAE385843F062E8F352383E23FC2C2499A3FA6E33FD42CD0EE9062A03F60E4654D2CF0DB3FD769A4A5F2F6E23F9E7939ECBE63CE3FB1524145D52FE03FE8120EBDC5C3D53F85CC9541B5C1E53F09C4EBFA053BEB3F5019FF3EE3C2E03FB343FCC3961EE23FC4B46FEEAF1EED3F3CF54883DBDADB3FCD5A0A48FB1FD33F643DB5FAEAAAB83F76FF58880E01E43F1D1F2DCE18E6EB3FF9F719170E04EE3F354069A85148C23FBEA1F0D93AB8EF3FACA92C0ABB28E33FD8B79388F02FA23F6D1E87C1FC15D53F2499D53BDC0EE83F13D731AEB8B8EA3FCCF10A444FCAD43F4DD87E32C687D03F360186E5CFB7D43F437573F1B7BDE43FE5417A8A1C22EC3FC4EE3B86C77EDC3F34F6251B0FB6D43F75E789E76C01E73F352A70B20DDCDB3F57B5A4A31CCCE13F7940D9942B3CEC3F252191B6F127E53F70952710760AEC3FDF5339ED2939D43F66A208A9DBD9E23FC5E74EB0FF3AC33FB4041901158EEF3F3FC91D369199D23F28452BF702B3D83F6403E962D34AD73F4C6E14596B28D23FC8EF6DFAB31FC53FF0FD0DDAAB8FD53F9032E202D028D63FF7EAE3A1EF6EE53FAB92C83EC832E43F399A232BBF8CE83F22382EE3A606D63F9126DE019EB4E73FC9AD49B72572E73FB340BB438A81EE3FD17AF8325104E43F7CD11E2FA443E13F5437177FDB93E93FE030D120054FE23F292158552F3FEB3F9067976F7DD8EB3F26DF6C73637AE93F259012BBB637EF3F77871403241AE63F0EDB16653648ED3FF0332E1C08C9C23F6744696FF085BD3F29B2D6506AAFE63FF450DB865110E23F19C91EA166C8E53F3D997FF44D9AE03F209738F24064C53F7E52EDD3F118E33F295B24ED461FC53F986C3CD862B7AF3F1F4C8A8F4FC8D13F9BC937DBDC18E03FEEB435221887E43F05DD5ED218ADD13FAF40F4A44CEAE33F7973B8567BD8D63F382F4E7CB5A3E03FCFBBB1A03028E13F971B0C7558E1DD3FA99F3715A930C03F677DCA3159DCB73F020D36751E15AF3F22C500892650E03FD2E0B6B6F0BCB03F29081EDFDEB5EE3F7670B0373124EA3FFF59F3E32F2DD13F240F44166962E53F096B63EC8497903F5721E527D53ECF3F2F6D382C0DFCD43F5C3E92921E86BA3F6D904946CEC2D53FC153C8957A16E03F791F477364E5BF3F9DF6949C137BE63F03249A40118BD33F802DAF5C6F9BD83FE9B985AE44A0DA3FFF21FDF675E06C3F3352EFA99CF6AC3F419FC893A46BA63F7B12D89C8367E33FF969DC9BDFB0E13FDC80CF0F2304E23F9088299144AFE23F7BC03C64CA87C03F371C96067E54D13F4D4BAC8C463ED73FD717096D3917E63F4CC2853C821BC33FE5805D4D9EB2DD3FE10A28D4D347A03FE9EE3A1BF2CFCA3F448A01124DA0C23F486AA164726AD93F6728EE7893DFBE3FA46FD234289ACD3FDDEC0F94DBF6EC3F78CF81E50819CE3F289EB3058456E43FD7DCD1FF72ADE03FC07630629F00E33F13F06B240942E73FA019C40776FCBB3FFC1C1F2DCE18E83FC5ABAC6D8A47E63FECDB4944F817E33F4B77D7D9907FC43FE0DBF4673FD2EB3FB4AF3C484F91AB3FBC3B32569BFFC13F30293E3E213BC53FC8EBC1A4F8F8D23FFD2FD7A20568EE3F06836BEEE87FD13F52465C001A25E33FAEF02E17F11DE33F65C8B1F50CE1E03FFEB7921D1B81EE3F4E0AF31E679ACE3F4D1421753BFBD63FCB10C7BAB88DBA3F60CB2BD7DB66DA3FC39D0B23BD28E83FA4FD0FB056EDE03F3A24B5503239EC3F74B2D47ABFD1E53FE8BCC62E51BDB93FC1ADBB79AA43E73F80F277EFA8B1E93FF16261889CBED63F15E0BBCD1B27EF3F990E9D9E7763BD3FCBF6216FB9FAED3FCD5B751DAA29C73FB58828266F80E73FF1F5B52E3542D13F7D3D5FB35C36ED3F3F70952710F6EF3F9F7422C15433EE3F06137F1475E6DE3F111E6D1CB116C13F653909A52F84D03FE04DB7EC10FFD03FFF04172B6A30EF3F60C9552C7E53E93FD8BAD408FDCCE53F55FB743C6620E23F3FE5982CEE3FC23F56BC9179E48FE63F3C33C170AE61E73FC11C3D7E6FD3ED3F69739CDB847BB53FD0B4C4CA68E4DA3F354580D3BB789F3FFC8C0B0742B2A03F44A33B889D29943F83A10E2BDCF2713F39984D8061F9BF3F118FC4CBD3B9D13F884A2366F679E73F9085E8103892E63F217365506DF0E13FEF01BA2F67B6D53FDD442DCDAD10CE3FF19BC24A0515E53F91D10149D8B7C73FC21550A8A70FE63F8B34F10EF0A4DA3FA852B3075A81E63FFBCE2F4AD0DFEA3F4565C39ACAA2903F205ED72FD80DEB3FE02A4F20EC14B73F9FE6E44526E0A73F29AF95D05D92E43F7009C03FA5CAE53F2AC6F99B5088D83F57D0B4C4CAE8EF3F62669FC728CFE13FFCFB8C0B0742E23F5FF0694E5E64BA3F365B79C9FFE4DA3F6EDFA3FE7A05E03FC79FA86C58D3E93F19AA622AFD84DF3FF6285C8FC275E33F5323F433F5BAD63F83DDB06D5166DD3FC8D2872EA86FA93F9301A08A1BB7E53F89B2B794F3C5E53FD9976C3CD862EB3F18416326512FDB3F1C5E10919A76C13F61545227A089D13F8FAB915D6919EA3F60AE450BD0B6BE3F9B70AFCC5B75D73F5839B4C876BED73FC30C8D278238E53FFB027AE1CE85E53FB5DD04DF347DD83F8066101FD8F1DA3F90F8156BB8C8E23F4AB20E4757E9D43F37A968ACFD9DCF3F31D28BDAFD2AE43FBE8575E3DD11E83FBFD53A71395EDE3FB1DB67959952E03FCBBF9657AE37E63F676325E65949C93F9FCC3FFA264DEE3F1EC022BF7E88E93FC139234A7B83D63FECA694D74AE8D33F5ED89AADBC64E73F2A029CDEC5FBCB3F022B8716D9CECB3FA3B1F677B6C7E43FE338F06AB933ED3FB9FAB1497EC4D63F629D2ADF3312E83FCE37A27BD635EB3F4BCD1E680506EB3F168733BF9A03DB3F5A80B6D5AC33D43F77103B53E83CE83F2600FF942AD1EA3FFAF02C4146C0E23F664AEB6F09C0EA3F6682E15CC30CC93F66C1C41F459DDA3F13F1D6F9B7CBBA3F3A24B5503239B13FB130444E5FCFD73FF4DDAD2CD159CE3F3A07CF842689D53F9E616A4B1DE4E03FEC504D49D6E1CE3F7A17EFC7ED97E53FAE635C7171D4ED3F2F34D769A4A5DD3F9F94490D6D00B63F3AAE4676A565DD3F596B28B517D1DE3FC1C8CB9A58E0DD3F0A2E56D4601ADD3F23F433F5BA45EC3F1DAB949EE925E73F0AA018593247EB3F41118B187618D73F315F5E807D74BA3F9E978A8D791DC13FDD990986730DDB3FA29A92ACC3D1853F396403E96253EE3FC5AC174339D1B63F768BC058DFC0D73F9A7B48F8DE5FE23FD68C0C721761BA3FD4449F8F32E2C63FA3224E27D9EAEE3F6571FF91E9D0BD3F6D567DAEB662BF3FDD24068195C3E33F7BDAE1AFC91AC33F52465C001AA5AB3FF59F353FFE52E43FBA15C26A2C61B53F5C3D27BD6F7CC53F7E8CB96B0979EA3F1D3BA8C4758CA33F180B43E4F475EE3FA6457D923B6CC03FB03C484F91C3E53F732CEFAA07CCE63F55DFF94509FAE23F27A435069D90E13FB4E55C8AABCAD63F5649641F6459C03F5AD8D30E7F4DED3FD61EF64201DBBD3FCE35CCD07822D63F89EC832C0B26D33FD2C265153683EE3F48C0E8F2E6F0EE3F3DB9A64066E7E33F3E3F8C101E6DEF3FEA9106B7B585E03F0C3CF71E2E39CE3FF5D72B2CB81FE03F0C772E8CF422E83F1F4DF564FED1E73F9E62D520CC6DE03F3ECBF3E0EEACBD3F4A09C1AA7A79E43F9CC24A051555B73F9ACE4E0647C9C73F645B069CA564E23F03B2D7BB3FDEA33F50508A56EE05D93F6EBF7CB262B8AA3F5FB69DB64684EF3F32CC09DAE4F0DF3F70B20DDC813ACF3F8692C9A99D61D63FCBBBEA01F310EE3F520DFB3DB14EC73F4FB16A10E676CB3F3F6F2A52616CC13F4BADF71BEDB8D83F0874266DAA6EE73F21037976F956E33F83C0CAA14536E63FA5BC56427749E83F43AB93331477D13FE94999D4D006D23F300F99F221A8CE3F87DEE2E13D07A63F249D81919735C93FD1CDFE40B96D8F3F68E7340BB43BD13FE9263108AC9CE83F62D9CC21A985EE3F34DAAA24B28FE03FAE6708C72C7BDA3FD0D03FC1C58AD43F26A60BB1FA23E83FC07B478D0931D93FA75B76887FD8AA3F9CFC169D2C35EA3F4CDE0033DFC1ED3F257A19C5724BE93F34F5BA4560ACE83F08E3A7716F7EEB3FA12FBDFDB968D13F0C93A9825149EE3F180B43E4F475EC3FB3B3E89D0AB8E83F57B26323102FE83F3881E9B46E83D13FD09B8A54185BD23FF88C4468041BCB3FFF59F3E32FADEB3F611C5C3AE6BCE83F6EA12B11A87EEA3F016C4084B872DA3FD593F947DFA4EC3FD2E0B6B6F03CEC3F5C59A2B3CC22D63FADBF2500FF14E63F23D8B8FE5D9FEA3FD8B628B341A6E33F59A31EA2D11DEA3F8200193A7650E73F147AFD497CEEDD3FC51F459DB987C63FFCFB8C0B0742ED3FD90A9A965819EE3F49BE1248895D9B3FF7E80DF7915BD33F922408574021EF3F287FF78E1A13ED3F3E5E48878730DD3FE7A7380EBC5AC63FC9FFE4EFDED1EE3F8F183DB7D095ED3FC345EEE9EA8EB93FF7CC920035B5A43FCB83F4143944D03FCE1B2785798FE23F95BBCFF1D1E2EF3F1AC40776FC17BC3F68CD8FBFB4A8C33F352A70B20DDCE53F38F3AB394030A73F488B33863941DD3F2B6C06B8205BC63F5FF0694E5E64E13FC634D3BD4EEAEA3F5DA8FC6B79E5C63F46B247A81952E73F5D8B16A06D359B3FD6C8AEB48CD4D73F7B82C476F700D93F0BB5A679C729DE3F5665DF15C1FFD33F2C11A8FE4124DE3F38842A357BA0853F9FAEEE586C93C63F94128255F5F2AB3F7DB262B83A00D53FB7990AF148BCC23FB16CE690D4C2EF3F90662C9ACE4ECE3F0A698D412784E33FD80E46EC13C0E03F325706D50627EE3FB83B6BB75DE8E93F3BE0BA624678B33FE48409A35959EA3F4298DBBDDCA7EC3F4F3BFC3559A3D13FE43098BF42E6E23F9B8F6B43C538DA3FB16EBC3B32D6E13F5456D3F54457E73F013274ECA012D53F4182E2C798BBCC3F2E1A321EA512D53FB0E600C11C3DDA3FA6ED5F5969D2E43FD34CF73AA92FE53FF418E59997C3DF3F3B1BF2CF0CE2D93F22533E0455A3773FE96514CB2DADC43F3A5794128255D03F2219726C3D43DD3F3332C85D8429D53F22C154336B29E63F0932022A1CC1E33FFF2268CC246AE53F8A8F4FC8CEDBCC3F7311DF89592FBA3F4F029B73F04CDF3F55C2137AFD49A43F0DC68844A165EB3F0ABDFE243E77D13F9032E202D028ED3F34677DCA3159DB3FF8713447567EEB3FB9A981E6736EE93F06103E9468C9AB3F5B41D3122B23E53F942EFD4B5299EE3FFD4E93196F2BE73FA5A2B1F67736EE3FE50AEF7211DFD63FA0C37C7901F6D33F86C8E9EBF91AE23F774EB340BB43D13FA1F48590F37EE53FCD74AF93FA32E93FA9143B1A877AE93FC1E44691B586E13F76DEC666472AEB3FC2F7FE06EDD5E03FE0826C59BE2EE33FC28A53AD8559C03FA88FC01F7EFEEC3F144031B2648EEB3F41481630815BEA3F47AE9B525E2BC53FF964C5707500D53F86E63A8DB4D4E13F87BF266BD443E63FFD497CEE04FBE73F6BD619DF1717E33F1EE1B4E0455FD43F0E6ABFB51325D33F9225732CEF2AE73FA8C5E061DA37E83F13F06B2409C2DB3FF9BA0CFFE906B63F7C60C77F8120E53FF0315871AAB5C63F268C6665FB10ED3F27BC04A73E90CA3FC2A4F8F884ECD63F66F50EB743C3C63F0F0F61FC346EE13F8C12F4177AC4CE3F08CC43A67C08D73FA41820D1048ABC3FA1F5F065A288E33FD49810734955E13FD865F84F3750EC3F7670B0373124DD3F850662D9CC21DD3F91EF52EA9271D53F5340DAFF00EBE93F897E6DFDF49FB53F7098689082A7DE3F19AA622AFD04EA3F1CF0F96184F0E13F96EA025E66D8983F8940F50F2219E53F58E6ADBA0E55E43FE23E726BD26DC13F7DD0B359F5B9DF3F151BF33AE290DD3F17D9CEF75363E53F815B77F35487D03FF3AE7AC03C64E83FAF93FAB2B453D83FA7CF0EB8AE98E23F37C64E78094EE13FC99063EB19C2E43FEFFE78AF5A99E23F23145B41D312E93F69C70DBF9B6EDE3F02637D03939BED3F9FCC3FFA264DE53FE9482EFF21FDAE3F7EC6850321D9E73F2236583849F3C93FCC7F48BF7D1DB83FEEED96E4805DE73F90831266DAFEB53F2E54FEB5BCF2E23F61A417B5FBD5E93FBDAB1E300F99E23F7A6D3656629ECF3F151A88653387E73F23D74D29AF95D03FD3DB9F8B868CDF3F8D4127840EBAB83F890CAB7823F3A03F7172BF4351A0CB3F575D876A4AB2E23F24B550323935E93F534145D5AF74EB3FD28E1B7E375DE13F4759BF9998AEEC3FE7FBA9F1D24DD83F0AF7CABC55D7E23FA0FA07910CB9E23FF67EA31D37FCE43F57ED9A90D618E03F54A703594F2DEF3F24B550323935EB3F5F7D3CF4DD2DEA3FC119FCFD62B6E03FA54929E8F692EC3F670E492D944CEE3F18B325AB22DCD03FAB984A3FE1ECE43F9F8EC70C5446E73F362383DC4598ED3F4850FC1873D7DC3F0586AC6EF59CE63FFFCA4A9352D0E53F15AB06616EF7EB3FCE18E6046D72B43F8DEE2076A6D0A13FB1C403CAA65CD83F020EA14ACD1EDB3F5AF44E05DCF3C03FCA8AE1EA0088CF3F6743FE99417CD13F82C8224DBC03EE3F02F390291F02E73F8EB1135E8253DE3FABCFD556EC2FC33F713AC9569753CA3F8D7A88467710BB3F37C1374D9F9DE53FCF656A12BCA1E53F7BF486FBC8ADD83F3126FDBD141EDD3F85419946938BCB3F2DB4739A055AE73FFA2AF9D85DA0C63F09522976348EEE3FAF7C96E7C15DEE3FED28CE514747E03FF1D7648D7A88E53FDE3AFF76D92FE13F699082A790ABEE3FF913950D6B2ADB3FE4310395F1EFD63FB01EF7ADD689DC3FCEFFAB8E1CE9B43F59DE550F9887CA3F5AF3E32F2DEA733FA8E2C62DE6E7DB3F4F948444DA46EE3F27A089B0E1E9D93FD82E6D382C8DE53F083A5AD5928EB63F7EFE7BF0DAA5DF3F9D11A5BDC117D83F4AECDADE6E49E83FAE0FEB8D5A61D43FD993C0E61C3CC73F97900F7A36ABDB3F70B20DDC813AE13F5E66D828EB37DA3F79EBFCDB65BFBA3FF661BD512B4CED3FC5387F130A91EA3F9EEBFB709090E43FD9B5BDDD929CE73FE1421EC18D94AD3F3CDEE4B7E864EC3F40A6B5696CAFC53F2A36E675C4A1E53F12A0A696ADF5D03FAA0EB9196EC0D93F53B0C6D97404C43F548B8862F206C83FB7D3D688609CE43FF793313ECC5EE73F13656F29E78BE13FE8F7FD9B1727D33F6E895C7006FFEB3FE5B512BA4BE2CC3FB6114F763323E33F1D740987DE62E63FBF44BC75FEEDE63F6EE00ED4298FBE3FF702B34291EEE13F4E0CC9C9C4ADD13F4432E4D87A86DB3FECA17DACE0B7D03F6B6116DA39CDBA3F603B18B14F80E43F1268B0A9F3A8D83F3DBB7CEBC37AC93FBDE47FF277EFE53FCA4E3FA88B94E23F74982F2FC0BEE93FA4C16D6DE179E13F1E4E603AAD5BE53F9D67EC4B369EEE3FABB4C5353E93D43FAA0EB9196EC0BF3F7D21E4BCFF8FC93F5B272EC72B90ED3F9FE40E9BC8CCEC3F821C9430D376E13F639B5434D6FED73F3F1A4E999B6FCE3F1A34F44F7031E33F289CDD5A2643E63F32CC09DAE4F0DD3F2AFEEF880A55E53F1EFAEE5696E89C3F0E130D52F014DE3F44696FF085C9D93F29E8F692C668E83F6116DA39CD02D23F8E01D9EBDD1FC13FD34F38BBB5CCE63F6153E751F17F973F11A62897C62FA43FABCFD556ECAFEC3F4BEA04341136D73F60AB048BC3997F3F0E6954E0649BE83F85B2F0F5B52ED93F4BE9995E622CDF3FA181583673C8E93FD11E2FA4C343B83F76AA7CCF4804E13FE94317D4B74CEF3F69C9E369F901EC3F327216F6B443E23F4EB9C2BB5CC4AF3FF06AB933130CE03F5586713788D6CA3F81D07AF83251C43F6B990CC7F319C63FD76839D0436D5B3FFD8348861CDBE53F4E44BFB67E7AEC3F5628D2FD9C82E63FE223624A24D1DE3F6BF294D574BDEC3F5F07CE1951DAC53F6475ABE7A4F7BD3F041E1840F8D0E93F732CEFAA074CE23F5D328E91EC11E03F5A48C0E8F2E6CA3F871403249A40E93F3221E692AAEDBA3FD714C8EC2C7AEE3F29AF95D05D12C13F2AC6F99B5088C43F4CFA7B293C68D03F82C476F700DDD13F79AF5A99F04BE83FB4C70BE9F090EB3FE2E7BF07AF5DCE3F31ED9BFBABC7D53FAC1919E42EC2EE3F2EAEF199EC9FDA3F3B8F8AFF3B22EB3FE44BA8E0F082E43F6153E751F1FFEB3FA8531EDD088BEA3F18213CDA3862EC3F76FD82DDB06D713F1C5F7B664980D33F526518778368E03F3FADA23F34F3C23F87BF266BD443E83F425F7AFB73D1C63F274C18CDCAF6E83FA0E238F06A39E93F9128B4ACFBC7E83F4D69FD2D01F8D03FC1A739799109DC3F7D24253D0CADD53F0BEBC6BB23E3E03FF27C06D49B51D93FB28174B16925E63F7731CD74AF93E53F0E4A9869FB57DC3FC2BE9D44847FD93F726BD26D895CEB3FDE03745FCE6CAF3FF18288D4B48BD93F9C36E3344415EF3FA8E507AEF204DD3FF9D687F546ADA03FF52D73BA2C26D03F0CAF2479AEEFC93FF65E7CD11EAFEB3F1FD7868A71FEDF3F03D0285DFA97D73F22533E045523E23FC4D0EAE40CC5DB3FB2D826158DB5DD3F56293DD34B0CE93F503750E09DFCE23FA54E401361C3A33F00732D5A80B6A53F86C77E164B91E13F3E3F8C101E6DBC3F5D876A4AB20EEF3F0EBE30992A18E03FF4C473B680D0E93F7381CB63CD48E33F28637C98BD6CC13F99A0866F61DDD93F80608E1EBF37EC3FCA349A5C8C81DB3FD0EFFB372F4EB83F08E6E8F17B9BCC3FB42094F77134DC3F416150A6D164E53FDE8FDB2F9FACCC3F6C79E57ADBCCE43F99620E828E56B53F6473D53C47E4C13F91990B5C1E6BDE3FEDF483BA48A19C3FEFC7ED974F56D93F3D821B295B24DC3F234C512E8D5FD33F8908FF22684CEB3FC2A1B77878CF913FE883656CE866D93FC0E95DBC1FB7DC3F9DF529C764F1E53F95B7239C163CEE3FE55FCB2BD7DBE03F878A71FE2614923F033E3F8C101EED3FFF1F274C18CDD13F7F4E417E3672C53F1686C8E9EBF9E23FA48B4D2B8540DE3F5C57CC086F0FAA3FDE205A2BDA1CE83F406CE9D1544FED3FED9C66817687E33F5D3123BC3D08E53FC74CA25EF0E9E23FEE5BAD1397E3A53F6403E962D34A913F09DE904605CEE63F3D0AD7A370BDE83F03965CC5E237C93FCAC16C020C4BE63FA48CB800344ADE3FFF2268CC24EAA53FB6813B50A73CC23F56116E32AA8CE03F79CBD58F4DF2E43FF6D37FD6FCF8D53F3A3DEFC682C2E23F94FB1D8A027DBE3FA583F57F0EF3C93F60AB048BC319E23FB5A679C7293AA23F31D0B52FA017EA3FE1B4E0455F41D13F342F87DD770CBB3F844BC79C67ECEE3F2C9ACE4E0647D43FF2D24D621058A93F3B3602F1BAFEE13F1EDE73603942D83F1ADF1797AAB4953F56D80C7041B6CC3FFB73D190F128CB3F74081C0934D8D93F19726C3D4338EA3FA4C343183F8DA33FD34A21904B1CEB3F75012F336C14EB3F925A28999CDAD93FA9177C9A9317B93F0B0A83328DA6E93F1D75745C8D6CE23F656D533C2EAAE13F49490F43AB13E53F2D27A1F48590CD3FC440D7BE805ED93FF64201DBC188DE3FC93B873254C5A43F9CA564390925EB3F3755F7C8E6AAB53F73F6CE68AB92E83FB2D5E5948098DD3F5DFC6D4F90D8D83FDBDE6E490E58E13F1FF46C567DAEE73FD0B69A75C6F7D93F94F59B89E9C2E83FE0490B9755D8DD3F2750C422861DE93FE0A0BDFA78E8E63F0D349F73B7EBD93F32B08EE3874ACB3F483140A20994E83F03250516C014E13F5F0839EFFFE3C03F2769FE98D6A6813F3B376DC66908E13F1BF5108DEE20E23F07CE1951DA9BE73F290648348122DB3F5A0D897B2C7DCE3F772CB6494563B13FF35A09DD25F1EB3F46EBA86A82A8EE3FC0232A543717E23F9BE61DA7E848DD3F3CBF28417FA1D73FFCC6D79E5992EF3F5FB2F1608B5DE03F8B8862F20698C93FAC00DF6DDEB8EF3FCD785BE9B5D9B83F05C24EB16A90E43FC5CBD3B9A214EF3FCB82893F8A3AA33FB41CE8A1B60DE53FD4F02DAC1BEFBA3FF10F5B7A34D5E83FA3B08BA2073ED43F1442075DC221EB3F0F09DFFB1BB4E83FF660527C7C42EA3F5EBC1FB75F3EA93FFA0E7EE200FACD3F3AAFB14B546FAD3FCFF6E80DF711E63F9D6516A1D88AE03F82C7B7770DFAEB3F2174D0251C7AE23F6C4084B872F6EE3F9605137F1475DD3F62F4DC4257A2E03F70438CD7BCAAD03FCDE847C32973D93FAA9CF6949C93E43F289EB30584D6EB3F6F0F4240BE04EA3FF0880AD5CDC5BB3F4818062CB98AE43F7429AE2AFBAED23F2272FA7ABE66E23FDA722EC55565DB3FB2632310AF6BED3F90149161156FE43FAFB2B6291E17E43F8C4CC0AF91A4E73FDE1E84807C09D53F753DD175E107DD3FCADE52CE177BE23FDA1EBDE13EF2E43F2A53CC41D0D1D03FE5B512BA4BE2D63FE08442041C42B93F624ED026874FC23FD5CA845FEA67E33FADC1FBAA5CA8D73FAE2EA704C424C43F14200A664CC1C63F810A47904AB1D83F0B43E4F4F5FCE13F34F44F70B1A2DE3F410B09185DDED13F1E4E603AADDBB03FA3AD4A22FB20D83F605AD427B9C3CA3FAAD381ACA7D6E83FB98D06F01648E63FEDB776A22424E33F556D37C1374DC93F88A1D5C9190AE13F0A0F9A5DF7D6E63FC460FE0A992BDA3F06499F56D11FD53F950F41D5E8D5DA3F00ADF9F19716E43F4963B48EAAA6E23F0F80B8AB5791E33F22C32ADEC83CED3F450F7C0C569CD53FCB8635954561DC3F9D47C5FF1D51913F83177D0569C6D83F5B5CE333D93FDD3F4B00FE2955A2D13FC097C28366D7CD3FBBD6DEA7AA50E33FDE3CD52137C3B93F0CCC0A45BA9FE53F0C03965CC562E13F92B1DAFCBF6AE33F558671378856E33F957F2DAF5C6FE03F07793D98141FE93F6A334E4354E1C13F488C9E5BE8CAE03FB2BE81C98DA2ED3F959BA8A5B915E43FD8D30E7F4DD6D83F0B2769FE98D6D23F69E55E6056A8ED3F029B73F04C68C23F8F554ACFF492EC3F9F71E1404896EC3F1EC3633F8B25EF3F2426A8E15B58CD3F8429CAA5F10BCF3F001E51A1BA39E93FB24813EF00CFED3F5743E21E4B1FD43FC07ADCB75A27C83FF20C1AFA27B8D83FC11A67D311C0CF3F8C65FA25E2ADCF3F3F00A94D9C5CED3F6D54A70359CFEE3F618BDD3EABCCD83FB58AFED0CC93AB3FD6C56D348037E03FB933130CE71ADE3FF1BDBF417BF5DF3FDEE34C13B69FA43FCA6B257497C4E93F8D2AC3B81BC4E93F2829B000A60C3C3F60747973B856E03F72361D01DC2CD83F94F8DC09F65FD43F35EF38454772CF3F2FA699EE75D2ED3F7D772B4B7416E83FC40B2252D32EC23FE99B340D8AE6E53FDD06B5DFDA09E63F23A46E675F79E03F6A4C88B9A46AC93F9E996038D730A33F6EDE3829CC7BAC3F37C64E78094EED3F56629E95B4E2BF3FBF7FF3E2C4578B3FB0E2546B6116E33F473A03232F6BE93F7AA86DC32808D23F6DFE5F75E448CD3F350D8AE6012CD63F3A0664AF777FD53FBBEF181EFB59E13F6058FE7C5B30E63F7BBB25396057CF3FE2218C9FC6BDEA3F46D26EF4311FD03FE08618AF7955AF3F0C06D7DCD1FFD33F70E998F38C7DED3F01FC53AA44D9E23FEECD6F986810EF3F5A4A969350FAD33F4D4BAC8C463EC93F7F2F8507CDAEED3F0B5EF415A499ED3FC80C54C6BFCFD63F0795B88E71C5E03F97C62FBC9264E13FCA332F87DD77AC3F598B4F01301EE23F97C79A9141EEED3FAE8218E8DA97E03F4BCB48BDA772D93F81ECF5EE8FF7B23FCCEB88433690DC3FCFDC43C2F7FED73FCEFA9463B238E73F7D923B6C22B3E43FB5FF01D6AA5D633F577A6D365662CC3F61FC34EECD6FD43F8CF4A276BF8AEF3F971E4DF564FEDB3F5C3AE63C63DFEA3FA3CC069964E4CA3FD95F764F1E16AA3FEBA7FFACF9F1E73F18CE35CCD078AA3F056B9C4D4700D83F1C0B0A83320DED3FD8D47954FC5FE13FEF1F0BD12170EC3FE23D079623E4E33FA296E65608ABCB3FCB83F4143944D83FAEBA0ED59464D83F3D62F4DC4257DB3F2C280CCA341AED3F14CB2DAD86C4D53F6B2DCC423B27E33FAC55BB26A435A63F8D2441B8020AC33FC22FF5F3A622DA3FAB21718FA50FC33FCF49EF1B5FFBE63F9126DE019EB4C63F16DA39CD02EDD93FCB4DD4D2DC0AE93FE6AE25E4839EC93F5EBEF561BDD1EA3F101FD8F15FA0EF3FAF415F7AFB73E23FC345EEE9EA8EEC3F726DA818E76FDD3F9EEFA7C64B37CD3F50FF59F3E32FDD3F512D228AC99BE83FA930B610E4A0B83FC537143E5B87E03FC1AC50A4FB39E83FCA703C9F01F5EE3FFA0B3D62F4DCED3FB344679945A8E43F87342A70B20DC83F77BF0AF0DDE6EF3F61C5A9D6C22CD33F62BCE6559D55EF3F8F1CE90C8C3CE83F68B27F9E060CEA3FA7C98CB795DEE53F3ACC9717601FDF3F70EEAF1EF72DED3F0DAB7823F3C8C53FE95F92CA1473E83FD636C5E3A2DAE43F46274BADF71BCD3F26016A6AD95AA73F3FC6DCB5847C803FAA81E673EE76E43FA3E6ABE46377D63FEFE4D3635B06C63FFAB31F2922C3E73F84BA48A12C7CED3F520DFB3DB1CEEB3FDF6FB4E386DFD43FA46DFC89CA86853FB70BCD751AE9E43F802BD9B11188CD3FC2DEC4909C4CE03F4E7FF6234564C83F8AADA0698995CD3F876BB587BD50D73FD7D9907F6610D23FBD1B0B0A8332EA3F85EAE6E26F7BD33FB1DB67959952ED3FC712D6C6D809DA3FA22424D2367EE43F80D8D2A3A99ED63F8F899466F338B43FF5BC1B0B0A03EE3F5E2F4D11E074E83FD40CA9A27895CD3F8C81751C3FD4EA3FBAC0E5B16664DE3F0EA2B5A2CD71D43FEECEDA6D179AEA3F1EFD2FD7A205EA3F5890662C9ACEE83F45460724615FE53FAE6708C72CFBE33FB519A721AA70EC3F5E2C0C91D3D7B73FCEE0EF17B325C93F0F9BC8CC052ED03F3370404B5730E33F7B4FE5B4A7E4E13F973B33C170AEE83F789B374E0AF3D33F9EEA909BE106C83F50C422861DC6E93F23DA8EA9BBB2E93F4390831266DAA63FB30B06D7DCD1E23F944C4EED0C53B33F787E5182FE42AF3FC63368E89FE0E33F53211E8997A7833F2C0C91D3D7F3B53F723788D68AB6ED3F9E7C7A6CCB80C93FC9FFE4EFDE51B33FAC38D55A9805E43F46239F573CF5A83FC652245F09A4D23F5C381092054CEC3FE411DC48D922EA3F4568041BD7BFAB3F95641D8EAE52EB3F6DE690D442C9C43FD3F544D7851FD43F001FBC7669C3D13FFFEA71DF6A9DED3F207C28D19247E63F0A664CC11A67E93F67D7BD158909E13F65FF3C0D1824C53FC9ACDEE17668C43FC748F6083543D73F36221807978EA93F501BD5E940D6EB3FEA76F69507E9E63FF91400E31934DC3F65726A6798DADB3FBA1457957D57C63FC1E3DBBB067DD43F3868AF3E1EFAA63F95287B4B395F9C3F10EB8D5A617AE63F27F8A6E9B303D63F730F09DFFB1B843FFDBFEAC8914EE83FA4005130638AEF3F6150A6D1E462CC3F73F38DE89E75A53FA25EF0694EDEEC3F51C1E10511A9A93FEB8D5A61FA5ECF3F5BE9B5D95809EB3FC87BD5CA845FE13FD97745F0BF15E73F3546EBA86A82E13F06BB61DBA24CE43FEF91CD55F31CCF3F16A1D80A9A96E83F430246973787C73FA245B6F3FDD4D23F60234910AE00E53FAFEE586C938AE93FB5C2F4BD8660ED3F848252B472AFE13FFC36C478CDABC63FE59A02999DC5E73F43FF04172B6AC63FFAD346753A90D23FD52137C30DF8E43F1E6B4606B98BB43FCAC16C020CCBDB3F7A36AB3E575BBD3FB5C01E1329CDCE3FF94D61A5828AD83F41D5E8D50025E53F317898F6CDFDA53F812381069BBAE93FC2BF081A3309E23F69E388B5F894EA3FC898BB96908FE33F8BA6B393C151EF3FF72004E44BA8EE3F33E202D0285DD03F8236397CD209E53F9ECF807A336AB63FC765DCD440F3CF3FC9E4D4CE30B5EB3F178046E9D23FEF3F8A39083A5AD5B63FBC5983F755B9CA3F64027E8D2441A83F511553E9279CCB3F3EAE0D15E3FCDD3FC0CDE2C5C290E63FC8B260E28FA2D93FAB3E575BB1BFE03FAE9AE7887C17E23F4C4F58E20165ED3F3C66A032FEFDEE3F5E82531F48DED83FE5B33C0FEECEB63F412D060FD3BED93FBDE2A9471A5CE33F6F8445459C4EC23FB003E78C28EDC93FA9328CBB41B4D43F02A08A1BB798BB3FCD9541B5C109E53F6DFE5F75E448D33FD89AADBCE47FB23F261DE5603681EE3F05FA449E245DD63FE868554B3ACAEC3F118FC4CBD3B9EB3F0EBBEF181EFBD03F1059A4897700EF3F2BC24D469561DE3FE338F06AB933433F9128B4ACFBC7E53F997E8978EBFCEF3F0F80B8AB5791E23FBB99D18F8653EF3F00E31934F4CFEB3F207D93A641D1E63F31B610E4A084ED3F6D205D6C5A29D83F43FF04172B6AC83F6214048F6FEF6A3F90BE49D3A068D03F46EBA86A82A8CB3F3C8386FE092EE03F6EF9484A7A18CA3FFCDEA63FFB91D73FDD2230D63730E63F32AF230ED940C63FC97553CA6B25CE3FABD0402C9B39D73FD73043E38920EC3F8F368E588B4FE23FE8D9ACFA5C6DE03FBC218D0A9C6CB33FCFBC1C76DF31D83FD1402C9B39A4E83FF5F23B4D66BCD73F809E060C923EAD3FFB5DD89AADBCD93F8ACC5CE0F258833FFE9AAC510FD1C43F581CCEFC6A0EEA3F8657923CD7F7D53F16889E94490DED3F81AFE8D66B7ACE3F52431B800D88A03FFBEAAA402D06DF3F34492C29779FE93F18CFA0A17F82D63F3909A52F849CD13FEAE74D452A0CEB3FA7936C7539A5E63F7A1C06F357C8E83F1B81785DBFE0E53FD384ED2763FCEC3FA5DC7D8E8F16E03F5E807D74EACABB3F18B0E42A163FE03F60CB2BD7DB66DF3FC19140834D9DE23F0553CDACA500EB3FB515FBCBEEC9E93F92955F066344D23F6F826F9A3E3BEA3F465F419AB168DD3FD6A9F23D2311EC3F656EBE11DDB3D23F0CE6AF90B932D93F960A2AAA7E25E33FB83CD68C0C72E13F3999B8551083E23FF75B3B511212EF3F0113B875374FBD3F925852EE3EC7D53FD331E719FB92E13F11346612F582DB3FA226FA7C9411E63FF9BD4D7FF6A3ED3F49F4328AE596CA3F8E942D9276A3DE3F5ED72FD80D5BE33F414640852348C13F98141F9F909DCB3FCA181F662F5BE83FE2033BFE0B84E43FCB80B3942C27E53F4EB4AB90F293DE3F76E272BC02D1EA3FEBA7FFACF9F1D23FB9718BF9B921EA3F566133C005D9EC3FCE531D7233DCCE3FA3C9C5185847EA3F7B849A215514AF3F5ABC581822A7B33FDD9A745B2297E33FD8D7BAD408FD9C3F47ACC5A70018BB3F406B7EFCA545C93FC9C9C4AD8298EF3F115663096BE3E33F919DB7B1D991CA3FDFC5FB71FBE5D13FA19FA9D72D02BB3F5182FE428F18AD3F664CC11A67D3EA3FFC1D8A027DA2EE3FEC8502B68311DD3F6551D845D183EF3F0EDDEC0F945BEE3FF778211D1E42E93F39B9DFA128D0EC3F261AA4E029E4E23FE6AF90B93228E63F4C8BFA2477D8A43FA321E3512AE1C93F5DA96741286FE03FF209D9791B9BDC3F9F56D11F9A79E63FA77686A92D75903F7AFF1F274C98EB3F5C3E92921E86DE3FDE3EABCC9456E63F299831056B1CE73F959EE925C632D43F69C70DBF9BEEE63F08CA6DFB1EF5B73FAE2B6684B707D43F3ACD02ED0E29AE3FD769A4A5F2F6E43F7653CA6B2574EB3F5116BEBED6A5EE3F76C1E09A3BFAE23F1B6327BC04A7B63FB282DF86182FE23FE7A8A3E36AE4EA3FD99942E73576E93F349E08E23C9CC43F51BF0B5BB395DB3FA6EF3504C7E5E03FDA3BA3AD4A22D43F0EBC5AEECC04B33F3A7AFCDEA63FD33F2524D236FE44EA3FAFD172A087DADF3FFD3218231285DB3F354069A851C8EA3F744529215855DB3F2A52616C21C8D13FD7A3703D0AD7C93FB306EFAB72A1DA3F83A7902BF52CE23F0150C58D5BCCDE3F185C7347FFCBD33F280CCA349A5CD53FB7D26BB3B112CB3F261C7A8B8777E43F1077F52A323AD83F257A19C5724BC53F93C83EC8B260D43F8C2D043928E1EF3F7C9BFEEC470AE83F80D6FCF84B8BE73F3126FDBD149EEA3F249A40118B18E43F2159C0046EDDCB3F613255302A29E33F1762F5471806DB3F5166834C32F2ED3F1F10E84CDA548D3F46990D32C9C8DB3F5E6397A8DE1AC23FF46E2C280CCAEA3F72DEFFC70913DA3F44E048A0C1A6B23FA6D590B8C7D2CF3F6440F67AF7C7EF3FF8C43A55BE67E13FF06E6589CE32B33FF0DE516342CCD73F54AD85596867EC3FC1C760C5A9D6D43FEA094B3CA06CE13FAF601BF16437DD3F9BADBCE47F72EC3FF08AE07F2B59E03F7AFCDEA63FFBBD3F0F643DB5FAEAC63FC8B5A1629CBFE93FF8E3F6CB272BE83F06BAF605F4C2E43F5E9D6340F67ADC3F145B41D3122BDD3F43AB933314F7E83F37C7B94DB8D7EE3F7767EDB60B4DEA3F8A592F8672A2E33FD7187442E8A0A33F685DA3E5408FE93F21020EA14ACDD13F806264C91CCBE63FBABA63B14D2AD03F08228B34F10EDD3F62F5471806ACE23F17450F7C0C56DA3F882AFC19DEACA93FFDC0559E40D8CF3F6494675E0EBBEE3F2366F6798CF2E63F0133DFC14F1CB43F49A0C1A6CE23EE3FE3AAB2EF8AE0C73FA2444B1E4F4BE53FE36F7B82C476C93FEF0390DAC4C9CF3F7C98BD6C3B6DBD3FEF1B5F7B66C9ED3FFC3559A31EA2DD3F16139B8F6B43EC3F2FBE688F17D2E73FE8BD310400C7DC3F76FEEDB25F77E43FE0DA89929048EF3FEBFEB1101D82EC3F7ADE8D0585C1E53FCFBBB1A03028C53F537AA697184BE83FDE1FEF552B93E23FF224E99AC937E33F4C1762F54798E03F32AB77B81D1AE53F543541D47D00E33F3750E09D7C7AD73F6B64575A46EAC73FC0266BD44334D83FC9E9EBF99A65E63F795C548B8862DF3F80B9162D405BE93FA2410A9E42AEDC3FFDF675E09C91E53F1AC39CA04D0ED33FAD6D8AC74535EC3FFAD346753A90E53FE84CDA54DD23BB3FF225547078C1E63F01DD9733DB15C23F213CDA38622DD03FA038807EDFBFDE3FBF9B6ED9217EED3F73309B00C3F2D83FDCF4673F52C4EF3F4AB4E4F1B47CE23F519FE40E9BC8E73FEEAF1EF7AD56E03F9737876BB507EB3F0684D6C39789E73F6C76A4FACE2FA23F7E71A94A5BDCEB3F7CD3F4D90157E23FD88349F1F189EF3F4B917C259012BB3F1492CCEA1DEEED3FE4486760E465B13F971DE21FB6F4D63FD9B45208E412E73FDB8651103C3EEC3FDEAAEB504D49B63FDA3BA3AD4A22C33F342F87DD770CAF3FC32ADEC83CF2CB3F593332C85D84BD3F999D45EF54C0DD3FCD203EB0E33FEA3F3D9B559FABADEB3F7381CB63CDC8EB3F2E8D5F7825C9AB3FC5AC174339D1CC3F897B2C7DE882D93F2026E1421EC1E13F309DD66D50FBB93FAA49F086342AEA3F90D959F44E05DE3F1E15FF774485E63F1F2C634337FBDE3FF209D9791B9BE83F789CA223B9FCEF3F6116DA39CD02C73FEDB8E177D3ADE43F68976F7D58EFED3F39B9DFA128D0ED3F147AFD497CEEC23F2EAEF199EC9FCB3F357EE195244FE93F331B649291B3DD3F30B8E68EFE97D23F9FAA4203B16CDC3F92E86514CB2DEC3FFE463B6EF8DDB83FEE77280AF409EA3F9207228B3471E13FE4F736FDD98F643FB51A12F758FA803F26DF6C73637AD93F64B2B8FFC874DB3F2D0B26FE28EAE83FE486DF4DB76CE63FFCA6B05241C5E53F9010E50B5A48DF3F7DE71725E82FCC3F575C1C959BA8E93F2060ADDA3521C13F416326512FF8E83FA54929E8F692D23F118AADA06909E53F7B2FBE688F17B63F80D3BB783FEEEB3F00A94D9CDCEFB43F1FD61BB5C274E73F79043752B648D23FB51666A19D53E43F62F888981249DF3F3D7D04FEF0F3D23F5FB4C70BE9F0D43F1AF7E6374C34EE3F8410902FA182B33F7CD3F4D901D7E23F2A5778978B78E03F520E66136058CE3FB64B1B0E4B03BF3FE71725E82FF4D43F6FA0C03BF9F4DD3F4AED45B41D53DC3F349E08E23C9CEB3F1A6B7F677BF4EB3FE294B9F94674E63F8C9E5BE84A04C83F6D1ADB6B41EFD53FE3C4573B8A73943F5C02F04FA912EF3FE277D32D3BC4DD3F9296CADB114ED13F75E95F92CA14EE3F452C62D8614CDB3F3352EFA99C76E53F41BB438A0112DE3F0EF450DB8651CE3F2C47C8409E5DBE3F944C4EED0C53D43F5A2A6F47382DE13FC5538F34B8AD9D3FD1950854FF20EB3FA2276552431BCA3FF5143944DC1CE93F711DE38A8BA3ED3F21054F21576AED3F07793D98141FEC3F8046E9D2BF24E03F23F77475C762DD3FB14F00C5C812E23F2E742502D53FDE3F0E65A88AA9F4E43F8BE255D63645E93F7A8A1C226E4EE03FAF264F594DD7633FD34ECDE506C3E53FCD5A0A48FB1FEF3F5D33F9669B1BE53F5D6F9BA9108FDE3F7898F6CDFDD5DB3F5BD1E638B709D73F5776C1E09ABBE93F978E39CFD897B83FF986C267EBE0E93F53978C63247BD93F929735B1C057B43F3D484F9143C4D13F4B766C04E275E53F2907B309302CD13F3AB01C210379DA3FF08B4B55DAE2C03F2D3E05C07806EF3F658A39083A5AED3F85CD001764CBC43F8670CCB22781EF3F5B608F899466D33F4CA59F70766BB13F42CC2555DB4DD33FB62C5F97E13FC53FA2F14410E761EF3F34D769A4A572E13F20990E9D9E77D93F2157EA59104AE03FDAE731CA332FB73F6D73637AC292E03FE0DA899290C8E63F19CBF44BC45BE73FED80EB8A19E1A53F9E7B0F971C77DF3F93FDF3346090C43FD5CE30B5A58EED3F639813B4C9E1E73F91EEE714E467E83F80D6FCF84B0BED3F55682096CD1CED3F23111AC1C675E03F3883BF5FCC96D53FDC114E0B5EF4C33FCE70033E3F8CD53F64ADA1D45E44BF3F9BAC510FD168E03F5E4D9EB29AAED53F704221020EA1E63FEF3A1BF2CF8CE63F234910AE8042E83F4C1B0E4B033FDF3F31957EC2D92DED3F25E7C41EDAC7DF3F22DFA5D425E3883FD0D38041D2A7E83F32FFE89B348DEA3FF0A7C64B3709EA3F65E3C116BB7DE23F378E588B4F81EE3FE71BD13DEB1AC33F212235ED629AE73FD102B4AD661DED3F74D2FBC6D71EEA3F43723271AB20D83FD5928E72309BE63FD027F224E91AE03F1A87FA5DD81AEC3F6B6281AFE8D6DA3F360186E5CFB7C73F14E7A8A3E36AEA3F828C800A4790BA3F425DA450163EE93FDA756F456202EF3FC2A2224E27D9C83F7BF486FBC8ADE33FEBC9FCA36FD2D43F6022DE3AFF76EA3F87C3D2C08F6AE23FBEDEFDF15EB5DE3F04013274ECA0E23F4DDBBFB2D224E73F132C0E677EB5EA3F643BDF4F8D97C23FDB6D179AEBB4E43FAA0D4E44BFB6E23F251FBB0B9414983F8AE5965643E2E23F38143E5B0707D73FD6E429ABE97AD33F44149337C0CCC73F63B66455841BED3F15E126A3CA30D53F8962F20698F9DC3FF18288D4B48BCD3F0798F90E7EE2D63FAAD216D7F84CE83FDAE385747808E93F33315D88D59FEF3F085740A19E3ED03F48FB1F60ADDADC3F4E9B711AA20AC53F36CEA623809BB93F75745C8DEC4AEA3FAFB321FFCC20DC3F4852D2C3D0EAC03FE3FDB8FDF249E23FAFB48CD47BAAE93F5F0A0F9A5DF7963F725303CDE7DCDF3F37363B527D67E33F63B83A00E2AEDD3F5F0CE544BB0AE93FD105F52D733AEF3F1C7E37DDB243ED3F6C41EF8D2100E83F1E4FCB0F5C65EE3FBF29AC5450D1EE3FD2FBC6D79ED9E53F265646239FD7EE3F5682C5E1CCAFDB3F508A56EE0566C53FB5FB5580EFB6ED3F3A5794128255E03F221B48179BD6EB3FB45549641F64E73F1CCF6740BD19D33FEDF2AD0FEB8D9A3FD3122BA391CFB73FC93B873254C5E53F87F9F202ECA3933F9E616A4B1DE4D43F5A2A6F47382DEC3F4DBC033C69E1CC3FD47D00529BB8E73F9A5E622CD32F913F27BC04A73E90B83F1A33897AC1A7893F151BF33AE210E63FD7135D177EF0EB3F3D601E32E5C3EB3F2578431A1538D53FBB9866BAD7C9E13FA9A3E36A6457EB3F8ACDC7B5A162D63F19A9F7544E7BEA3F4B1E4FCB0F5CD23F2FA704C4245CEA3F22AB5B3D27BDC93FA0C4E74EB0FFBA3F4D66BCADF4DAEE3F378C82E0F1EDDA3FA6BA80971936DA3FD6E6FF55478EE43F19AC38D55A18E93F174850FC1873E13FC37FBA8102EFE33FF2B6D26BB3B1C83F630B410E4A98E43F82380F27309DD83F96EB6D3315E2A93FAA7D3A1E33D0E63F193DB7D09588E03F93E00D6954E0D63F037AE1CE8591D43F55849B8C2AC3C83F78280AF489BCE93F882B67EF8CB6C23F4D4D8237A451D13F247B849A2155E83FA60D87A5819FE63F2E76FBAC3253BE3F66136058FE7CDA3FBFEFDFBC38F1DF3F1B2B31CF4ADAE33FA9A3E36A6457E63F51A4FB3905F9C13F613596B036C6DD3FF5673F524486D33F28B517D1764CD43FF8FD9B17273EE93FBBB4E1B034F0CD3F0839EFFFE304E43F6A4DF38E5374C83F06BAF605F4C2C53F4B5CC7B8E2E2BC3F6403E962D3CAE13F1A8A3BDEE4B7DD3F48C49448A297CD3F7863416150A6E93FFF03AC55BBA6E43FFE2B2B4D4AC1E83FF816D68D77C7E83F8E8F16670C73EA3F8D9C853DEDF0DC3F304CA60A4625B53F8201840F25DAE23F01A260C614ACD83F15C78157CB1DEF3FD3D9C9E02879D73FDB334B02D4D4AA3F848252B472AFEF3FE469F981AB3CC53F6DFE5F75E448CD3FCDE847C329F3EC3F30F65E7CD19EE93F172EABB019E0E13F9AE95E27F565EA3F4C8BFA247758E43FC440D7BE80DEE93FD7BD158909EAEF3FA393A5D6FB8DC83F118C834BC71CE73F0ADB4FC6F830CF3FC5A9D6C22CB4D03F014F5AB8ACC2E93F64B14D2A1A6BEA3F855B3E92921ED83FD34D62105839C83FB4E4F1B4FC40E63FFB912232ACE2D43F82E49D4319AADE3FEC6CC83F3388AF3FAABA4736574DED3FA29927D714C8CE3FA20DC0064488EA3F105CE509849DD73F34BE2F2E5569CF3F62F54718062CB13FD313967840D9643F2DCC423BA759D93F2B6EDC627E6EE53F91B8C7D2872ECC3F49BA66F2CD36E13F08C72C7B12D8E33F5187156EF948D93FB3B794F3C5DEED3F982F2FC03EBAEF3FBEDEFDF15EB5AA3F390D51853F43EE3F5C0531D0B52FE73F03965CC5E237EE3F5EA27A6B60ABEF3FE8C1DD59BB6DE23F39D2191879D9EF3F7BF7C77BD5CAE43FA59F70766B99C83F3602F1BA7EC1D13FA30392B06F27813F37A79201A00AE93F7CB8E4B8533AEA3F2026E1421E41EB3FF870C971A7F4E83F91D3D7F335CBC53FA2629CBF0985E03F90BB085394CBEA3FD6390664AF77DC3FD6A9F23D23118A3F3160C9552C7EDF3FB3EF8AE07F2BD53FBED87BF1457BC23F2AA73D25E7C4E83FF4BF5C8B16A0BD3F34F5BA45602CE93F973C9E961FB8E93FAEB7CD548847D73F53910A630B41EA3F7D94111780C6EA3FEBAD81AD12ACE13F89EFC4AC17C3E33F5E9D6340F67ACD3F284701A260C6E33F58207A5226B5E03FEECF4543C6A3B43F8C852172FAFAED3F9A25016A6A59E83FC4961E4DF564D53FE469F981AB3CD63F5C0531D0B52FD53F485167EE21E1E43F2F88484DBB98C63F5038BBB54C86CF3FBF2B82FFAD64EA3F6CEBA7FFACF9EA3F0B9C6C0377A0BA3F93E52494BE10D13F755AB741ED37E23FBB0A293FA9F6E93FE2E82ADD5DE7E43FDFFAB0DEA815CC3F64062AE3DFE7EF3FB77D8FFAEB95E23F21CEC3094C27EE3FE5B33C0FEECEEA3F5D8C81751C3FAC3FD87F9D9B3663E33FFA9AE5B2D139C13FEDBAB72231C1E93FA39410ACAA97E03FBA8784EFFD0DEA3FD00A0C59DDEABD3FCE3978263449ED3F22FC8BA03193EC3F26C808A87004CF3F4C89247A19C5E83FBC218D0A9C6CD43FE21FB6F468AADB3F0F99F221A81AD93F4BCD1E680586EE3F3674B33F506ED73FF834272F3281E43F8C3045B934FEE43FEF1B5F7B6649A83F2AE27492ADAEE43FB325AB22DC64D23F683D7C992842EB3FB950F9D7F2CADB3F5E2C0C91D3D7ED3F27DD96C80567D83F2CBCCB457C27B23F8B16A06D35EBB03F779D0DF96706E73F6A334E4354E1DF3F228C9FC6BDF9E43FE49F19C40776ED3F05A227655243CD3FF163CC5D4B48E33F6F7F2E1A321EAD3FA8A9656B7D91C83F2619390B7BDADD3FF9F6AE415F7ACB3FCBD6FA22A12DC13FAF5C6F9BA990ED3F643F8BA5483EE73F9EEE3CF19CADE03F354580D3BB78C53F50E09D7C7A6CDD3F776A2E3718EAEE3F8B187618937EEF3F2D27A1F48590C73F3123BC3D0801EA3FBDFBE3BD6AE5E33F91B41B7DCC07DD3F1FF30181CEA4B53F19E3C3EC65DB993FB682A62556C6E53FFF774485EA66ED3F9C33A2B437F8C63F7F130A117008C33F00AB23473A03E93F452DCDAD1056CD3F49DA8D3EE603AA3F3A765089EB18CB3FE2783E03EACDED3FF5DA6CACC43C9B3F9529E620E868C73F98BF42E6CAA0BA3F7E54C37E4FACC73FA98592C9A99DE63FFA0967B79649ED3F990E9D9E7763DF3F1F2FA4C34318E03FCBF27519FE53E73F193A765089EBEF3F07D0EFFB372FDD3F8944A165DD3F963F35D252793BC2EB3F18096D3997E2D63F5A0D897B2C7DB03FB60F79CBD58FE13F14048F6FEF1ABC3F0400C79E3D97E93F94FB1D8A027DDD3FF163CC5D4BC8E93FBBB54C86E3F9DD3FA723809BC50BE73FACFF73982F2FD23F7EA7C98CB715EA3F97C4591135D1CD3F2C82FFAD64C7B63FCDAB3AAB05F6D83F3BAA9A20EA3EC43FF65CA626C11BC23F8E075BECF659953F10CCD1E3F7B6E93FD07CCEDDAE97D03FEFCB99ED0A7DD03F5F27F56569A7EB3F6A6D1ADB6B41E63FE21DE0490B97EC3FD7C056091687E23FB8CB7EDDE9CE733F1D39D2191879CD3F0AA2EE03905AE83F4F22C2BF081ADC3F5DF92CCF83BBE33F1BD47E6B274AEF3F3F8C101E6D1CDA3F5ED6C4025F51E13FC13BF9F4D896E53F2EE23B31EBC5C63FD42AFA4333CFE33FF67F0EF3E505DD3F341477BCC9EFE03F9E40D829560DE43F7D3ECA880B40933F0B462575021AE23FAC72A1F2AFE5CF3F1F477364E597D83F020CCB9F6F8BE43FFF5A5EB9DE36EA3FF8C610001CFBE03F0AA2EE0390DAE93F2385B2F0F5B5C83F2CBAF59A1E94ED3F611BF1643733E33FE71C3C139AA4E33F268FA7E507AED23F3ECBF3E0EE2CE13F7A6D3656621EEA3FFA7ABE66B96CAC3FDD0C37E0F343E73FBCAE5FB01BB6B53F3D1059A489F7E43F5586713788D6BE3F5114E8137912E73F6F0ED76A0F7BC33FE84D452A8CADE63F20274C18CDCAC23F69C9E369F901E23FC362D4B5F63EEC3FD0285DFA97A4B63F615111A7936CEA3F30BC92E4B9BED23F2DEBFEB1109DE43FA306D3307C44C63F2D5BEB8B8436E43F21904B1C7920D13FBE6A65C22F75E13F0647C9AB730CE13F2E56D4601A86DF3FE4688EACFC32EC3F2B8716D9CEF7EB3FC8EF6DFAB31FD73F52D66F26A60BC53F4A24D1CB2896E83FF2CF0CE2033BD03F78B988EFC4ACD43F8CBD175FB4C7AB3FF9C08EFF0241C43FDFDC5F3DEE5BD83F69520ABABDA4E53F793E03EACDA8E53FCD052E8F3523C33FF437A1100187B83F0AF31E679A30E43FB8770DFAD2DBC73F77499C155113DD3F4223D8B8FEDDE03F1689096AF816E93F1A6A1492CCEADF3FA777F17EDC7ED93F02F4FBFECD8BCB3FCEC47421567FDB3F658D7A884677B03F75E95F92CA94E63F44C362D4B5F6E73FBE11DDB3AED1A23F9B70AFCC5BF5E03FF22213F06B24E63F12312592E865D03F984D8061F9F3C33FE94482A966D6EF3FF17EDC7EF964C93FF4A78DEA74A0EF3F9A266C3F19E3E13FFC89CA863595D03F8578245E9ECEB53FE44A3D0B4279DD3FB37A87DBA1E1E13FF911BF620D17A93F1C446B459BE3E23F0C76C3B64599D13F65A9F57EA39DE23F906B43C5387FE63FD7BD158909EAEA3FD252793BC269D03FC1745AB741EDDD3F699082A7902BD83F5DC47762D60BE43F804754A86E2EDB3F1CD2A8C0C936D83F72C0AE264F59C73F23BE13B35E0CEF3F2592E86514CBDD3F5E66D828EB37C13F1092054CE0D6C73F27DD96C805E7E33F5D34643C4A25DD3F9BADBCE47FF2DF3FB64AB0389CF9E03FD66F26A60B31E13F2C8194D8B5BDD13F6A1492CCEA9DE33FCE16105A0F5FEE3F386A85E97B0DD63F75745C8DEC4AE53F9C19FD683865EB3FF83768AF3E1E8A3F54E3A59BC420D73FB96C74CE4F71D33FD68F4DF2237EC33F9946938B31B0DF3F8C0FB3976DA7CF3FE57FF277EF28E43F8315A75A0BB3903FB8054B7501AFE63F849A2155142FED3FFA25E2ADF36FB33F2C103D29931AD53F0BB43BA418A0E13F1975ADBD4F55D83F76A73B4F3C67D63FF44F70B1A206EC3FCA32C4B12E6EB73F9CFBABC77DABE33F67B8019F1F46C23F37DDB243FC43E33F149337C0CCF7E23FA5828AAA5FE9EA3F99B8551003DDEF3F7235B22B2D23D73FC39FE1CD1A3CE93F3C2EAA4544B1EB3FA01A2FDD2406D73F9AB51490F63FC83F08C72C7B12D8A43F07077B134372DB3F34A1496249B9DE3FD8EF8975AA7CE73FF3FFAA23473AD33F0C3A2174D025D53F9EB12FD978B0EF3F664CC11A67D3113F8046E9D2BF24B53FAED85F764F9EE33F76A6D0798D5DEB3F365CE49EAE6EE43F8D08C6C1A563E43F320395F1EF33C83F22E17B7F8376E03F499EEBFB7010EF3FB8E7F9D34675CE3FC005D9B27C5DD63F76DD5B9198A0DB3F51BD35B05582DB3F9EF0129CFAC0ED3FFF243E7782FD973F234A7B832F4CCA3FDFFAB0DEA815E73FF2ECF2AD0F6BED3F0B42791F47F3EF3FA04FE449D235D03F876BB587BD50D03FEFC7ED974F56DD3FE606431D56B8D63F2A6F47382D78EE3F90D959F44E05D53F01E0D8B3E732CB3F5CACA8C1340CEB3F7A1B9B1DA9BED83FF62686E464E2D63FA3073E062B4EDE3F4D66BCADF4DAAC3FA1BFD02346CFEB3FC617EDF142BAE43F6B6281AFE8D6E53FD3A414747B49E63FCDCAF6216F39E93F3C69E1B20A1BE33FDC80CF0F2304E83F73F38DE89EF5EE3F410E4A98697BE73F38DA71C3EFA69B3F04594FADBE3AE93FA758350873BBE13F26DF6C73637AD63F99D36531B1F9E03FA96C58535914BE3F6F6589CE328BCE3F1630815B7773E23F9D83674293C4E63F36035C902DCBE33FDFFDF15EB532D53FA87004A914BBE93FD4D4B2B5BEC8E63FFB761211FEC5EC3F95D74AE82E89EC3F4FE5B4A7E41CED3F31ED9BFBAB47E53F83FC6CE4BAA9E33F919A7631CD74EB3F698D4127840EA23F6D718DCF647FEE3F371B2B31CF4AEE3FF56569A7E672D13F00FF942A51F6BA3FF2D077B7B244D03F2C836A831351EA3FC5C9FD0E4501ED3F771211FE4550E73FA6F27684D382BF3F2EC896E5EB32E23FEB6F09C03F25E23FD1031F8315A7D03FEE7C3F355EBADA3FA4C343183F8DD03F151C5E10919ABA3FD4B837BF6122E63F37AAD381AC27E03FC190D5AD9E93BA3F191D90847D3BEB3FEB71DF6A9D38E83FC0232A543717CB3F541A31B3CF63DF3FEE79FEB4511DEA3F193C4CFBE6FED83FF9A067B3EA73C93F5BB4006DAB59DA3F1C7920B24893E43FF8FF71C28451E13FA06CCA15DEE5C23F29CDE671184CED3F7C444C89247AA13F887FD8D2A329E13F67D5E76A2BF6773F32E4D87A8670CA3F8995D1C8E715E73FD7A19A92ACC3E33FE6AF90B932A8D63FB988EFC4AC97E63F9C5088804328E43FC2DB8310902FE63FC2C1DEC4909CC63F35EECD6F9868A03F734A404CC2858C3F60730E9E094DEB3FFA7FD591239DE13F3621AD31E804E73FEFACDD76A1B9DA3F0ADB4FC6F8B0E23FFAD2DB9F8B86C83F588FFB56EBC4D23FB421FFCC203EE03F2E20B41EBECCE33F6BF3FFAA2347E13F67F3380CE6AFE33F55C2137AFD49E63FAF08FEB7921D6B3F6A85E97B0DC1DF3F16889E94490DE53F0398327040CBE33F483481221631C03FFB20CB82893FCE3F850662D9CCA1E03FC9AD49B72572DA3F68B0A9F3A8F8BB3FD3BF249529E6D63FBABA63B14D2AE03F8A7780272D5CDA3F3D2AFEEF880AC73F2600FF942A51C43F05508C2C9963C93F9624CFF57DB8EA3F6B274A42226DD73F5D35CF11F92EEB3F083A5AD5928EDE3F6DFFCA4A9352E73FB0027CB779E3B83F27DA5548F9C9ED3F9D8026C28627E93F431A1538D906E63FDD5F3DEE5BADBB3F0DC4B2994352D73FBC77D4981073B13FB35C363AE727E23F6C41EF8D2100E83FD34F38BBB5CCEA3F5C3D27BD6F7CD63FF581E49D4399E53F1AC39CA04D0ED83FCD9541B5C189D83F5839B4C8763EE63FCDB051D66FA6E93FB1A371A8DF85D93FD449B6BA9C12603F99B9C0E5B1E6EC3F4A5F0839EFFFDF3FA2444B1E4FCBDC3F2E55698B6BFCEE3F8F6FEF1AF425EA3F5ABDC3EDD030ED3F85D1AC6C1FF2D73FF850A2258F27EA3FBE33DAAA2432EE3F47AB5AD2518EEF3FEA07759142D9EA3F0DC68844A165C13FE44D7E8B4E16EA3F6FBC3B32561BEF3F57B08D78B29BD13FF2086EA46C91843F04C8D0B1834AE63FA2EC2DE57CB1EF3FBF0AF0DDE68DE03F711B0DE02D90903FC921E2E65432E73F7023658BA45DE73FE063B0E2546BE63FDC48D9226937C23FAC1A84B9DDCBDE3F09FA0B3D6274E93FDFA46950340FED3FA67F492A53CCD73FB9AB5791D101BD3F901150E10852EE3F548CF337A190EF3F759483D90498E13F91477023658BD93F4D1421753BFBC83F3E5C72DC291DC03F3196E99788B7E03FD82AC1E270E6D83F90BDDEFDF15EE53FED65DB696B44E23FB5FE9600FC53BE3F59350873BB97DB3FFD2E6CCD56DEE33F92AD2EA704C4CE3F939048DBF813D93F6C5B94D92093E73F0A4966F50EB7DD3F1FD95C35CF11E13F3A58FFE7305F8E3F54C8957A1604E33FBEDBBC715298C93F362383DC4518EC3F3126FDBD141ED93F8109DCBA9BA7D23FE8A1B60DA320A03F89D2DEE00B93EA3FB6BDDD921C30E43F0ABC934F8F6D793F6803B00111E2EB3FE56377819202D03FA6272CF18032E73F5001309E4143D63F5B40683D7C99E43FE8A04B38F496E23FB1C22D1F4949E93FEB1A2D077AA8E53F4ED2FC31AD4DA33FF0879FFF1EBCED3F04013274ECA0EF3FBE175FB4C78BE43F7CF0DAA50D87C73F97749483D904D13F183E22A64412DB3FBB438A01124DC83F800F5EBBB4E1903F9758198D7C5ED73FC5FEB27BF2B0D33F72E0D5726726E13F64247B849AA1E23F24473A03232FB33F4F1F813FFC7CE03F4D31074147ABDA3F38143E5B0707EC3FA16AF46A8052EC3F66136058FE7CE53F7B15191D9084E33F97E65608ABB1BC3F2C2B4D4A41B7E73F2A38BC202235E53F0C7904375236E53F5B9885764EB3C43F35B742588D25E33F91F3FE3F4E98CE3FF3AFE595EB6DED3F9A3FA6B5696CC33FAC527AA69718DB3F9AB51490F6BFE23F2D5E2C0C91D3DF3F242A543717FFE43F0667F0F78BD9D63F6B990CC7F399E73F7495EEAEB321C33FA1478C9E5BE8E13F0CAEB9A3FFE5DE3FD72FD80DDB16D83FDD257156444DDB3F97395D16131BE53F417E3672DD14E13FCCD0782288F3BC3F29B2D6506A2FDD3FF7729F1C0588D93F1AC39CA04D0EE43FC74B37894160D63F36CD3B4ED111E23FDB4C8578245EDE3F5871AAB5300BE03FADDBA0F65B3BE83F1E882CD2C4BBE33FEE60C43E0114E23FFCC56CC9AA08E63F76374F75C84DE43FD8F50B76C3B6E73F115663096B63EF3FEC1516DC0F78C43F0EBBEF181EFBED3FD1419770E82DD03FC4AF58C345EECB3F871A8524B3FAEF3FA51133FB3CC6EF3F0B992B836A83D73F593332C85D84EC3FFB57569A9482E63F1BF67B629D2AD93FAEF02E17F19DD83F423EE8D9ACFAE23FA3CD716E13EEE43FB64AB0389CF9D83FA038807EDFBFD63F00C63368E89FC03F43CBBA7F2C44D33FA06EA0C03BF9CA3F3E3E213B6F63D03F42791F477364E93FD07EA4880CABBC3FB760A92EE065CC3F40DAFF006BD5EF3F2905DD5ED218E03F79E57ADB4C05EC3FBEFA78E8BB5BDA3F2C47C8409E5DEB3F77499C155113AD3F9D9CA1B8E34DC43FC669882AFC19CA3FAFEAAC16D863EB3F73A1F2AFE595E43F0D198F52094FB83F149337C0CCF7E63F0F5F268A90BACF3F95B54DF1B8A8DC3F3BC3D4963AC8DF3FB3976DA7AD11D53FB900344A977EEE3FF8F9EFC16B17E23F68CBB9145795ED3F721AA20A7F06E53FD8D825AAB706E23F60048D9944BDD53F662D05A4FD8FEB3FD9B5BDDD921CC83FAC71361D015CE23F0C74ED0BE805E33F1973D712F241BB3F4CC5C6BC8E38D53F0EF450DB8651CE3FE2B19FC55224D63F0C022B8716D9EA3FC91CCBBBEA81E03F425BCEA5B8AAE23F3EAF78EA9106D03F3677F4BF5C8BEC3F0856D5CBEFB4E73F53CC41D0D1AAB23F6211C30E6352E73FA9DDAF027CB7DE3F5395B6B8C667D13F97546D37C137EE3FD653ABAFAE0AC63FD522A298BC01E43FC00303081F4AD33F6B459BE3DCA6E13F98141F9F909DED3FC879FF1F274CD93FA14CA3C9C518EB3FF94CF6CFD300E63F807D74EACA67ED3FEC134031B264EE3FE71725E82F74EE3FC0B0FCF9B660BD3F1D3C139A2496D53FF4A44C6A6803E93F38876BB587BDD83F999D45EF54C0E03FD9EE1EA0FB72EE3F97033DD4B6E1E53F03EB387EA834D73F18EB1B98DC28DC3FA5828AAA5F69E03F11A8FE4124C3E83FD74E948444DAE83F48FAB48AFE50E53FE92ADD5D6743AE3F12A1116C5CFFB23F8F386403E962C93F7E552E54FE35ED3F0CCB9F6F0B96B23FDBC35E28603BC03FE2E47E87A2C0EA3F0FD3BEB9BFFAEB3F529ACDE33098DE3FF20703CFBD07EF3FE90B21E7FD7FDD3F0F61FC34EECDC33F87A4164A2627EC3FD2C77C40A033A93F3752B648DA8DCE3FA79196CADB11E83FF05014E81379D73F535DC0CB0C1BD13F349D9D0C8E12EC3F616BB6F292FFC93F0726378AACB5EF3F2B155454FD4AE43FB493C151F26AEB3F8446B071FDBBDE3FD1CE691668F7E13F2158552FBFD3B83F0518963FDF16C03F4EF1B8A81611D53FEA5E27F56569EF3F96ED43DE7275E53FF70489EDEE01D33F03603C8386FEB13F8258367348EAEB3FBADA8AFD65F7B43F6E861BF0F9E1EC3F522AE109BDFEEB3FFFCEF6E80DF7E23FDB4E5B238271B83F22DE3AFF76D9E63FDE21C5008926A83FD2AA96749483E53FF50EB743C362943F5DFE43FAEDEBD13F26C3F17C06D4D63F569A94826EAFE13F8657923CD7F7BD3F3E7B2E5393E0EA3F4EF04DD36787EB3F60066344A2D0D03F5322895E46B1E83F4C361E6CB1DBD33FA6D3BA0D6ABFB93FA4E36A6457DAEA3FED9DD1562591B93F707841446ADAE53F6798DA520779DE3F6458C51B99479E3F42D2A755F487CE3F902FA182C30BE33FE8D9ACFA5C6DE43F006F8104C50FE53F8E95986725ADEA3F5ABDC3EDD0B0C83FADC1FBAA5C28E43FE4F4F57CCD72E13F4EF04DD36787E43FC7DADFD91EBDC53FE1CE85915ED4E13F63F19BC24A05C53FE0BA6246787B903F3CBD5296218ED93F663387A4164A963F1B683EE76ED7CF3F54E23AC61517C53FA4349BC76130DF3F670E492D944CEF3F6A4FC939B187D83FAB0837195586EE3F876F61DD78F7E73FDAC70A7E1BE2EB3F0475CAA31B61813FD9EA724A404CD23FE19BA6CF0EB8E03FCF6740BD1935C73F92CF2B9E7AA4BD3F1C9AB2D30F6AE83F0FB6D8EDB3CAC83FA663CE33F625CD3F60AFB0E07E40E53F4051D9B0A6B2B43F1781B1BE8149EE3FCAE1934E2418ED3F8E8F16670C73923FC2A2224E27D9D03F47B071FDBB3ED33F95B88E71C545E43F158E20956247EA3F56F146E6913FCC3F74620FED6305B33FFA6184F068E3A03F3D81B053AC1A943FA8902BF52C88E93FE0F2583332C87D3FE0DA899290C8EE3F91EF52EA92F1E43F778368AD6873E83F2DAF5C6F9BA9DE3F417DCB9C2E0BE93F8907944DB9C2C73FBFB513252191DD3FE9D1544FE61FDE3F7BA4C16D6DE1D23FCFA10C553195DF3F1135D1E7A38CE53FC9AD49B72572CB3F6F9EEA909BE1D83FB87878CF81E5C63FB130444E5FCFB33FB491EBA694D7D93F5CC7B8E2E228E33F392BA226FA7CCA3FDD41EC4CA173E63FA2EE0390DAC4EB3FAAF413CE6EADE83F0C923EADA23FDC3F9BE8F351465CEF3F68B27F9E060CD73F2460747973B8E73FA4FB3905F9D9EB3FFBB2B45373B9B13F3C855CA96741D83F7DCA3159DC7FDD3FF6EB4E779E78AE3F910A630B410ED93FC87E164B91FCEE3F25B20FB22C98B83F15E29178793AC73F2C6519E25817D33F621399B9C0E5C93F93E34EE960FDC13FD34B8C65FA25E83F0B9C6C037720EB3F4B06802A6EDCDC3F9E4319AA62AAE33F98A59D9ACB0DDD3FD734EF3845C7E23FF29A5775560B9C3F514D49D6E1E8AA3FD2AC6C1FF296EF3F8DD31055F833D13FDB148F8B6A11CF3F29E961687572CC3F57CF49EF1B5FE13F396403E962D3C63F427BF5F1D077EC3FFDA36FD23428CA3FA1698995D148E43F1AE1ED4108C8673F9335EA211ADDEB3F056B9C4D4700E03FAE2D3C2F151BD33F97C62FBC92E4C73F83FC6CE4BA29D13FA305685BCD3ADC3F4128EFE3688ED23F27BD6F7CED99D73F90BFB4A84F72D33F8F52094FE875EC3FE8A38CB800B4EF3FA1664815C5ABDD3FC68A1A4CC3F0B53F78978BF84E4CE93FD3669C86A8C2DB3F94675E0EBBEFDE3FEA7AA2EBC28FE63F1AA375543541C43F5C548B8862F2CE3FAE11C138B8F4E03FDA740470B378E03F1D1D5723BBD2C03FB9718BF9B9A1E83F3FC91D369199B73FCC7EDDE9CE13AF3F5A9F724C16F7D73F28F4FA93F8DCEB3F1FA2D11DC44EE23F5FB87361A417CB3F50ABE80FCD3CE03FD6AC33BE2F2EEC3F00E2AE5E4546C73F4E452A8C2D84EC3FD73043E38920DA3FA585CB2A6C06D83F12BD8C62B9A5A53FD5E76A2BF697E83FFD851E317A6EEC3F5393E00D6954C23FF2CF0CE2033BE43F1807978E39CF783FE773EE76BD34EC3F486AA164726AED3FBEF90D130D52A83F0C74ED0BE805E03F0CCA349A5C8CCD3F320395F1EF33D53FF949B54FC763A63F79EBFCDB65BFE83F0C8FFD2C9622B53FBFB67EFACF1AE93F8CDB68006F81E63F6E50FBAD9D28BD3FC93B873254C5E93FF73DEAAF5758D73FA1832EE1D05BE63F19710168942EED3F180B43E4F4F59C3FD68BA19C6857EA3F5E0F26C5C7A7E13F06F357C85C19C43F9A40118B1876EC3F43FE99417C60CD3FAF230ED940BAA03F118B18761813E03F8C82E0F1ED5DC73F122F4FE78A52D43F0B0DC4B29943DB3F5B23827170E9B83FFC8EE1B19FC5D93F8E075BECF659C33FEF02250516C0943F78431A1538D9BE3F83A44FABE80FB13FFE7BF0DAA50DCD3F87DBA16131EAA23FE9B6442E3883AF3FE04735ECF7C4E03FD7506A2FA26DE83F54E41071732AE83F355F251FBB0BE03F5AD427B9C326C83F8E041A6CEA3CD23F06F52D73BAACE53F2F4FE78A52C2EF3FAF27BA2EFCE0CC3F8F52094FE875EF3FB6BC72BD6DA6D93F57056A317898ED3F6666666666E6E63FCB4BFE277FF7E33FDD0720B58993D83F2FDFFAB0DEA8853FF911BF620D17CB3FAEF36F97FDBAE73F98A773452921E53FEED11BEE2337EF3F412AC58EC621EA3F236B0DA5F622D53FE4DC26DC2BF3763F5B087250C24C7B3F97C80567F0F7D33F1A4E999B6F44D63FC2DA183BE1A5E23F5E81E84999D4E43F29B16B7BBBA5E53F6CAF05BD3786EB3FDF516342CC25BD3F9FC728CFBC1CEB3F4CC3F01131A5EF3F555051F52B1DE53F27A25F5B3FFD973F93020B60CAC0E73FBCADF4DA6CACA43FC687D9CBB6D3D73F6ADC9BDF30D1B43F6589CE328BD0E73FDDB5847CD0B3BD3FF8FF71C284D1AC3F2CA0504F1F819F3FDFA46950340FD53F69520ABABDA4D63FFD3383F8C08EE73FECA353573ECBE33F8194D8B5BDDDEE3F3659A31EA2D1EF3FC824236761CFEF3F0BD5CDC5DFF6B83FA2B437F8C2E4EF3F4832AB77B81DBA3FBA85AE44A0FAE83F04E275FD82DDDB3FE6CE4C309CEBE63FB5F97FD59123AD3FCD237F30F0DC9B3F7E703E75AC52D33FFA5FAE450BD0BA3F0F0D8B51D7DAD83F4A61DEE34C13D23F118FC4CBD3B9D63FD3F6AFAC3429DB3FA298BC0166BED33F0344C18C29D8EC3F6C0A647616BDDD3FF0181EFB59ACED3F228D0A9C6C03DE3F69FCC22B491EEC3FB94F8E024441EE3FB4588AE42B81943FCDACA580B4FFC93F226DE34F5436D73FD8D47954FCDFD83F990CC7F319D0E33F83DDB06D5166D53F84BC1E4C8A0FE43FF6EE8FF7AA15E83FD673D2FBC6D7E53F5ED89AADBC64E63F33C170AE6186E33FD8BCAAB35A60DE3F26E318C91E21ED3FF46BEBA7FFACD03FBBB9F8DB9EA0EA3FCAA8328CBB41CE3F0723F609A018E53F874ECFBBB1A0D63F3C4ED1915C7EED3F378AAC3594DAC73F90C18A53AD85E03F9DBE9EAF592EE23F9B73F04C6892EB3FC576F700DD97D93FA5DC7D8E8F16973F9677D503E621A33F171230BABC39D33F698A00A77771E23F1F662FDB4EDBE73F76DEC66647AAD73F7ADFF8DA33CBE63F9BC937DBDC18EA3FE71A66683C11B43F2BDA1CE736E1E43F1FD7868A71FEC83F93020B60CAC0BD3F7A8CF2CCCB61E53FF511F8C3CF7FCB3F36AD1402B9C4EF3F809F71E14048EA3FF3734353767AE73F5A492BBEA1F0E63FF35487DC0C37E03F23861DC6A43FED3FC6BE64E3C116AB3F0BB8E7F9D3C6EC3FC3D66CE525FFC33FB98AC56F0A2BCD3F300F99F221A8D83F92B1DAFCBF6AE13F289B728577B9C03F53CDACA580B4EE3F1A5245F12AEBE53F55A181583673E83F4221020EA14AC73F5AF3E32F2DEABB3F43AB93331477E53F9293895B0531D93FC24F1C40BFEFD23FAB048BC399DFE13F6F2F698CD651EE3F80F277EFA831D73F857AFA08FCE1DB3FAF21382EE326E73F492D944C4E6DEC3F8E075BECF659A53FC30E63D2DF4BD33FF3599E0777E7E53FBFBB95253ACBD93FF06DFAB31F29C83FEE940ED6FF39EF3F13D21A834E08CD3F055262D7F676C33FD1031F8315A7E13F8BDD3EABCC94C83F321F10E84CDAD03F33E202D028DDED3F79AD84EE9238D23FABD1AB014A43E83FB0E2546B6116D43F1763601DC70FD63F122EE411DC48CF3F9A3E3BE0BA62E53F2A3BFDA02E52D63F3B3602F1BA7EEC3FCF4C309C6B98EE3F6F4A79AD84EEE83FB03DB324404DA53F11E2CAD93BA3E83FFCE25295B6B8E03F01FC53AA44D9CD3F56293DD34B8CDA3FECA4BE2CEDD4E73F86E810381268EC3FFAD2DB9F8B86E13F8693347F4C6BCB3F5891D10149D8AF3FC02500FF942AE83FAB93331477BCE43F0B7BDAE1AFC97A3F4AB54FC76306D23F61A5828AAADFE43F9757AEB7CDD4EC3F40F850A2258F973FD7C397892224EB3F412D060FD3BEE43F0B0E2F88484D8B3F3C4A253CA1D7BB3F8351499D8026D83F4580D3BB78BFE13FA33EC91D3691EA3FD461855B3E12E83FD107CBD8D0CDCA3FF04FA912656FDE3F4C33DDEBA4BEDA3F3599F1B6D26BBF3FB75F3E59315CE83FF853E3A59BC4D03F4E637B2DE83DE33FB8CCE9B29858E93F0DC51D6FF25BD83FD064FF3C0D18E53F0F46EC134031EB3FA5F3E159828CDA3F99F38C7DC9C6DC3F202A8D98D9E7BD3F4F948444DAC6E93F56B950F9D7F2B23FFF78AF5A99F0DF3F9BAA7B6473D5E53FF052EA92710CE73F4EB4AB90F293C23F11A7936C7539E63FFB40F2CEA10CE33F6326512FF834DB3F57ED9A90D618D83F0070ECD97319E73F61FF756EDA8CEE3FD55A9885764EDC3F08CDAE7B2B12D83FDE57E542E55FE33F9F91088D60E3ED3F782AE09EE7CFEE3F48FE60E0B9F7D83F833122516859D23F98C3EE3B86C7E03F782975C93846CE3FCFBC1C76DF31EB3FC11BD2A8C0C9D43F897D02284696B03F07B13385CEEBEF3F48FB1F60ADDAE83FA0504F1F813FD53F8CF337A11001A73F81423D7D04FEDF3F6AA2CF4719F1EB3F96404AECDADECC3FC993A46B265FE23FB4E7323509DEE13F8B8BA37213B5C03F86764EB340BBDC3FA12FBDFDB968A03F580394861A85D93FE4F560527CFCE93F9E7AA4C16D6DE33FD106600322C4D93FED815660C86AEE3FFFB27BF2B050C13F5DC47762D68BDA3F656EBE11DDB3D33F37C7B94DB857BA3FAEBB79AA436EE63FD28E1B7E37DDED3F87C43D963E74DB3F5D3123BC3D88E83FB22FD978B0C5D43F40F850A2258FEA3F172EABB019E0DE3F38F6ECB94CCDE63FC66E9F55664AEF3F06A051BAF4AFEA3FB403AE2B6684E83FC4245CC823B8613FFFB0A547533DD33FB18A37328FFCD83F26529ACDE3B0E63F5D34643C4A25C63F05C24EB16A10AE3FEC6D3315E291EA3F5B28999CDA19E43F713AC95697D3EF3FDF4E22C2BF08CC3F6C98A1F14410D93FCA1B60E63BF8DB3F253E7782FDD7B93FEB8F300C5872AD3F5BD07B630880E13F689604A8A9E5E23FE6E61BD13DEBAA3FF032C346593FE73FBD6DA6423C12D23F2C9CA4F963DAE03F310C5872158BE83F0664AF777F3CE63F5308E412471EDE3F6DFE5F75E448ED3F44520B259353E13FD61D8B6D52D1DC3F00FDBE7FF362EC3FDEE7F86871C6D13F035B25581C4EE23F89D2DEE00B13EB3F6327BC04A7BEE03F84F23E8EE6C8E63FA0FF1EBC7669DE3FD4BA0D6ABF35E43F08ABB184B5B1E93FB98C9B1A683EBB3F16DEE522BE13E13F95D40968226CD13F60AC6F607223E93F9C69C2F693B1E73F2D077AA86D43E23F93533BC3D496D43F815EB8736124EB3FC3A04CA3C9C5EF3F904FC8CEDBD8EF3FCC79C6BE64E3D73FEAE74D452A8CE03F6ADC9BDF30D1A83F522CB7B41A12CB3F4B732B84D5D8E63FCA349A5C8C81DF3F77103B53E8BCE83FA22424D2367EE83F50C763062AE3E83FD655815A0C1EE93F357EE195244FE03F3BAB05F698C8E03F8449F1F109D9CD3F8315A75A0BB3EF3F001C7BF65CA6ED3F9F008A912573DD3F87DD770C8FFDA43FE5D3635B069CD93FA5A14621C9ACDC3F3946B247A819CE3F9F58A7CAF78CD13FE3FC4D2844C0DA3F96AFCBF09F6ED73FF5F6E7A221E3813FC498F4F75278E13F17D34CF73AA9E33F3C31EBC5504ED93F132D793C2D3FD03F1E4E603AADDBB43FE8BD310400C7D43FB2497EC4AF58D33F15E46723D74DC93F65DEAAEB50CDE83F1422E010AAD4E23FB3B5BE48684BE33FF19BC24A0515D93FC7F0D8CF6229E83F37C7B94DB8D7EB3FD40FEA2285B2E93F56116E32AA0CAB3FA06CCA15DEE5DA3F1094DBF63DEAE03FA33B889D2974E33F5B41D3122B23E63FE17D552E54FED33F9E98F5622827D93FFAEE5696E82CC13F7D073F7100FDAE3F309DD66D50FBB13FB07092E68F69DC3FD386C3D2C00FEA3F05F86EF3C649CF3F3C50A73CBA11D43F213CDA38622DD33FFCFB8C0B0742E13F1A6CEA3C2AFECB3FF296AB1F9B64EA3F27158DB5BFB3B93F0AB952CF8250EE3F30F5F3A62215D03FD00D4DD9E987E83FF392FFC9DFBDD03F103CBEBD6BD0BF3FE1D231E719FBDA3F7F4E417E3672EB3F4277499C1551833F7F6C921FF12BE73F100533A6608DC13FAFD172A087DAD03F54C37E4FAC53D63FB612BA4BE2ACC03F1EDE736039C2EE3FDA907F66101FE73F68E7340BB43BC83FFC8F4C874ECFE23F1AA4E029E44AD63FEBC726F911BFCE3F8DD2A57F492AE63F69723106D671E13F2E1A321EA512EC3F785F950B95FFEA3FBFF38B12F417DB3FEE43DE72F563E83FD28F8653E6E6D63F91477023658BE83F21567F8461C0E13FBBF2599E07F7E23FECC20FCEA78EEA3F2864E76D6C76D43F384BC97212CAE43F8237A4518193EB3FD93D7958A835DF3F77F69507E929DD3F394206F2EC72EA3FCEFC6A0E104CEC3FC00985083884D73F630B410E4A98DE3F86CABF9657AECB3F5743E21E4B1FA23F4FADBEBA2A50ED3FFE0B04013274B43F789961A3ACDFC63FF4A78DEA7420DE3F4792205C0105E23FC0E95DBC1FB7DA3F533C2EAA4544DC3FA6608DB3E988EA3FC93EC8B260E2D13F37DDB243FCC3D83F83A10E2BDCF2B13FA67C08AA46AFD53F5A9D9CA1B8E3E53F9F05A1BC8FA3CF3F3222516859F7DD3F3C2EAA454431EA3FD218ADA3AA09DB3F6743FE99417CDC3FF163CC5D4BC8D23F3D9D2B4A09C1E63FE5805D4D9E32E73FE065868DB27EE73F1D39D2191879D73F36CCD0782208E73F85EE92382BA2E53FFB93F8DC09F6DB3FB972F6CE682BE83FB134F0A31AF6C33F792288F37002BB3F4A26A77686A99D3F051901158EA0E33FEACF7EA4880CDE3F89CE328B506CB13FACE63922DFA5A43F27A1F48590F3DB3F6649809A5A36E33F4D66BCADF4DABC3FA4703D0AD723E63F30D461855BBEE33FF70489EDEE01E53F75914259F8FADD3F102043C70E2ADD3F18B5FB55806FE13FF8C3CF7F0F5ED13FA7CCCD37A27BE43F01DF6DDE3829E43F251FBB0B9414EE3F969350FA42C8C33F0A12DBDD03F4EE3F4E98309A95EDD63FF12C41464085C33FA1BAB9F8DB1EE43FD6E594809804EB3FF3565D876A4AB63FA70705A568E5A63F52431B800D88E43F2B6A300DC347EB3F593673486A21E53F1155F833BC59E13F779FE3A3C519EF3F45F5D6C05609D13FEE7C3F355EBACB3FA11342075D42EB3F7F4C6BD3D85EDB3F1572A59E0521E03F54C37E4FAC53E13F0F7EE200FAFDE83F239F573CF5C8E43F15FDA19927D7C63FE90FCD3CB9A6DF3FCC09DAE4F049DE3F3885950A2AAAE33FE620E868554BC23FBC7A15191D90DA3F2A70B20DDC81ED3F1F65C405A0D1EC3FDDEF5014E893E83FE36F7B82C476D33F2D40DB6AD699EA3F07616EF7729FD83FA8514832ABF7ED3FF4F928232E00EC3F465ED6C4025FC33F87DF4DB7EC10D43F349F73B7EBA5EC3F11514CDE0033CD3F5B25581CCEFCD53FD34D62105839D23F2ECBD765F8CFE53F9E78CE16105AED3F2975C93846B2AF3F1AFD6838656ED73F889E94490DEDE63F6D1FF296AB9FE33F147B681F2BF8DC3FF0E0270EA0DFDD3F062E8F3523837C3FCCB73EAC376AD03FB7D0950854FFED3F814067D2A6EAD73FBED9E6C6F484D93F7592AD2EA784E23F17670C738236E03FF3E505D847A7E73F753C66A032FEC13F548B8862F286E03F1FDB32E02C25A33F7FFACF9A1FFFEC3FD4BB783F6EBFE13F8B37328FFCC1D53F0F48C2BE9DC4E33F71395E81E849B13F7689EAAD81AD623FCDAD10566309C13F1BD47E6B274ADC3FE1D05B3CBCE7D73FFCC6D79E5912DF3F7D957CEC2ED0E73FD7187442E8A0CF3F5BB6D617096DE83FF38FBE49D3A0D23FCF4C309C6B98C93FB68311FB0450D43F0E881057CEDEC33F630AD6389B8E903F0A2B155454FDE03F757632384A5ED03F244223D8B8FEE73F45BB0A293FA9EF3F72C5C551B989D23F344DD87E32C6E13F86AB0320EEEAE93FBDA8DDAF027CCF3F2330D63730B9D13F80272D5C56E1EE3FDB19A6B6D441DD3FDCF4673F52C4E13F107A36AB3E57ED3FB68311FB04D0E13F4FCE50DCF1A6E83F492C29779FE3E93FD0D2156C239EDD3FE86A2BF697DDD83F444C89247A19E43FFBEAAA402D06DD3F67B96C74CE4FDA3FBA4A77D7D990DD3FC70DBF9B6ED9A93F841266DAFE95CD3FC85C19541B9CE93F3F1BB96E4A79EA3FBE67244223D8E53FAA9ECC3FFAA6E73F354069A85148BA3FDD7D8E8F16E7ED3FAA60545227A0D33FC8D3F2035779E93F38BC202235EDBA3FAC1C5A643BDFDB3FEFC8586DFE5FD73F4C1B0E4B033FEA3F986DA7AD11C1D83F5D5320B3B3E8EA3F2315C616821CEA3F03D2FE0758ABEE3F0D51853FC31BEA3F638044132862D63FDDEC0F94DBF6E33F8BE255D63645E03F438CD7BCAA33E03FF1B8A81611C5C03F8F1CE90C8CBCC23F94861A852433EB3F747973B8567BE83F04E44BA8E070EB3F15747B4963B4DE3FB3976DA7AD91ED3F5A1135D1E7A3EA3F19710168942EC13FC367EBE0606FCA3FC7BAB88D0670E13F5FD1ADD7F420E73FA41820D1048AC23F1ADD41EC4CA1D03F785E2A36E675C83F5D37A5BC56C2ED3F6765FB90B7DCE93F520E66136058EE3F78094E7D2079CF3FAD50A4FB3905A13FE8F7FD9B1727E83FC26B97361C96EF3F33C005D9B27CAD3F9DBE9EAF592ED23F6E30D461855BD23FE063B0E2546BD73F39D55A9885F6EF3F664CC11A67D3A13FE04BE141B3EBEE3FDA56B3CEF8BEC23F80F277EFA831D63FD8D2A3A99E4CE33FCE3461FBC998E33F77A1B94E232DD53F9FCDAACFD556B03FB43A394371C7D33F5073F22213F0E73F83F8C08EFF02EC3FE198654F029BD33FB1DD3D40F7E5C63FBFB513252111EA3F59315C1D00F1E33FA3B08BA2073EE43F8D800A47904ADB3F13BA4BE2AC08E23F0953944BE317D03F861DC6A4BF97C83F429946938BB1EF3FAEBCE47FF277E43F10255AF2785AA63FF14927124C35D33FA4FD0FB056EDE93FD02B9E7AA4C1D03F130CE71A6668E53F55849B8C2A43E83FABB4C5353E93E03FFF4124438EADE53F626534F279C5E53FF7CB272B86ABD73FB6847CD0B359EA3FE675C4211B48EE3FCFBBB1A03028C53F3620425C39FBE03FF415A4198B26E93FB7D09508547FEC3FF583BA48A12CC03FF96871C63027D93F28EFE3688E2CEA3F17821C9430D3D03FE294B9F94674D73F71E316F37343E73F8F386403E962EC3F3604C765DC54E73FC4245CC823B8C73FBABA63B14D2AED3F5F7CD11E2FA4D73F17B83CD68C0CDE3FFE99417C6047E13F8080B56AD784943F34BE2F2E55E9E73FDCD781734614E33FF73AA92F4BBBED3F691CEA77616BDD3FA62BD8463CD9E83FC3F011312592C43F24473A03232FD83F022D5DC136E2CB3F234BE658DE55D43F187C9A931799C83FB56CAD2F12DADA3F81D1E5CDE15ADC3F204432E4D87ADD3F187B2FBE688FB73FC03FA54A94BDE03F7638BA4A7757E63F71AAB5300BEDD13F2BA1BB24CE8AD73F037AE1CE8511E83FC6DD205A2BDAB83F62F6B2EDB435E63F0BD1217024D0D33F5DC0CB0C1BE5E43F3198BF42E6CAE13FACE5CE4C309CC13F78B81D1A1623EF3F2B172AFF5A5ED03F7BDB4C857824AE3F37A6272CF180EB3F7FA0DCB6EF51C73F7B6649809A5AB23FCF68AB92C83EE63FE9F2E670ADF6EA3F25AFCE31207BD83F5BB56B425A63C23FB3B112F3ACA4EF3F02A08A1BB798C13F1D3BA8C4758CE63F8FC70C54C63FE13FEC6CC83F3388ED3F93020B60CAC0D23F0A302C7FBE2DA83FDC9DB5DB2E34E93F47382D78D157E23F9B8F6B43C538E73FB2F50CE198E5E93F687A89B14C3FEB3F8DD13AAA9A20D23FB0E42A16BF29D33FDDB3AED172A0E73F616BB6F2927FEE3F34D93F4F0306DF3F1FA1664815C5E93F4B3ACAC16C82E93F12A27C410B09E23F056EDDCD531DD23F0B630B410E4AC23F037976F9D687C13F261B0FB6D8EDDB3FE8F9D34675BAE43F522AE109BDFED63FBE2F2E55698BE73F6022DE3AFF76D63F289D4830D5CCE83FA73B4F3C670BE73F16C0948103DAEC3F952BBCCB457CB33FD23AAA9A206AEA3F959EE925C632E53FE9EDCF4543C6E33F5E2BA1BB24CEB23F664D2CF015DDCA3F272F3201BF46D23FBFD18E1B7E37D53FF4FA93F8DC89E63FF2B1BB404981C93F5307793D9814E73F19E76F422102AE3F34F3E49A0299EA3F16359886E123D13F020D36751E15B73FB8B1D991EA3BC33F0876FC170802B03FA52F849CF7FFEE3F8ACBF10A444FA23F91EF52EA9271D53F3F56F0DB1063E43F605AD427B943E33FA67F492A534CE43FCE1C925A2899D23F354580D3BB789F3F4EB7EC10FFB0D53F6B9DB81CAF40E83F4FB16A10E676E03F003620425C39D03F6E4F90D8EE9EE53F5053CBD6FAA2ED3F0F441669E21DEC3FA0E062450DA6DA3F1C412AC58EC6DE3F9FC728CFBC9CE73FC8CF46AE9B52CC3FB9196EC0E787BD3FD845D1031F03EB3F083BC5AA4198C53FC6C37B0E2C47DD3FA6D3BA0D6ABFEE3F003620425C39EB3F710168942EFDE33F704221020EA1D93FD15CA79196CAE43FADA1D45E44DB913F6ABC74931804BE3F0C923EADA2BFEB3F7100FDBE7FF3B23F28D4D347E00FEE3F098D60E3FA77E93F6B0C3A217450EA3F08AEF204C24EE63F397B67B45549C43F317898F6CDFDE83F51F69672BED8E63FCA3159DC7FE4EC3F55DE8E705AF0A23F89CE328B506CEB3FD15966118AADE33FB003E78C28EDC93FCF6916687748DF3F5F251FBB0B14EA3FCEFE40B96D5FEB3FCA703C9F01F5D53FBF4692205C01D33F3C2EAA4544B1E93F83DBDAC2F3D2E93FABCDFFAB8E1CE13FD784B4C6A013AA3F0518963FDF96E53F7F69519FE40EDF3F836BEEE87F39EA3F8CA2073E062BCA3FD3F71A82E3B2EA3F927A4FE5B4A7D93F1AA4E029E44ABD3F8202EFE4D363E53F8143A852B387E43F1CEE23B726DDC43F7E198C118942EA3FE5D4CE30B5A5E73F863DEDF0D764B53F622EA9DA6E82E73F56B60F79CBD5D13FFB93F8DC09F6D13F75AC527AA617E23FF1D93A38D89BC83F522B4CDF6B08BA3F5E9CF86A4771E93F04E8F7FD9B97E93F2593533BC3D4B63F34F3E49A0299ED3F87C0914083CDE33F4DD6A8876874DF3FB89388F02F82CE3F459DB987846FE03F1BF33AE2900DD33F3A1F9E25C808EF3F9F1C05888219C53FE8BB5B59A2B3E53F2FC4EA8F300CE73F596E693524EEE73FB7F0BC546CCCE73F6F8099EFE027D33F2DD0EE906200EB3FAEF199EC9FA7E13F964220973872E63F806264C91CCBDC3F1092054CE0D6D83F309DD66D507BED3FEB3A54539275DE3F7C478D093197DE3FA089B0E1E915E83F3411363CBDD2E93FACC95356D3F5B43F4374081C09B4E83F08C90226706BEC3F236B0DA5F6A2E33FFDBD141E34BBBE3FD9B0A6B228ECB63F9DD5027B4CA4B43FCDE49B6D6E4CB73FF22554707841E83FB0E595EB6D33E13F139CFA40F2CECD3FB8020AF5F411EC3F8E210038F66CEB3F49BE1248895DD83FE5D4CE30B5A5D93FFDF675E09C11D63F6667D13B15F0E13FC32CB4739A05D83F5CAFE9414129D23F12FA997ADD22E53F34BC5983F755E73F0BCF4BC5C6BCD73FFD6B79E57ADBE63FF0164850FC98E83FA054FB743C66C63F006F8104C50FE43FF241CF66D5E7CE3F6EA7AD11C1B8ED3F8BC404357C0BEF3F6072A3C85A43D83FDA8D3EE60302D53FFBAF73D3669CD43F990D32C9C859C43FE84B6F7F2E9AEF3F10E9B7AF03E7D03F130F289B7285D53F6F826F9A3E3BED3F297AE063B0E2AC3FF88DAF3DB324E83FE90FCD3CB9A6903F2EAA454431F9E53F3997E2AAB26FED3F00E2AE5E4546B33FD74B530438BDD63FF910548D5E0DA83F5C74B2D47ABFEC3F8864C8B1F50CDA3F882D3D9AEAC9E33F89EDEE01BA2FD23F1D386744696FA03F59BF99982EC4E23FDE1D19ABCDFFE13F85CE6BEC12D5DA3F23BE13B35E0CD93FB519A721AAF0973F71917BBABA63E43F6A50340F6011EE3F9432A9A10D40E13FC689AF7614E7DD3FF5B9DA8AFD65BB3F17838769DFDCDC3FC7BAB88D06F0963FE4F736FDD98FD43F76C4211B4817EE3F037976F9D687E93F5664744012F6DA3F982F2FC03E3AD73F6AF981AB3C81DF3F331B649291B3E33F390A100533A6ED3F92088D60E37AE13F6268757286E2DA3FE71A66683C11D03F9B8D95986725DB3F9BCB0D863AACDF3F7349D576137CBB3F06A051BAF42FC33F126C5CFFAECFE43FAFB2B6291E97EE3F3D61890794CDEE3F1EA9BEF38B12EC3F77137CD3F4D9BD3F0C5872158BDFE33FC1745AB7416DE63F01A5A14621C9D93FCBBC55D7A19A823F7A6CCB80B394EF3FE371512D228ADC3F94DBF63DEAAFDA3FA3AD4A22FB20DA3FA9DC442DCDADC23F412D060FD3BEEA3F88BCE5EAC7A6EC3F9DBAF2599E87EF3F5BEF37DA71C3EE3FE38A8BA37213E23F08E412471E08EB3F5AF44E05DCF3B43F4A7EC4AF58C3C33F9279E40F069EAB3F07B5DFDA8992D43F5307793D9814EE3F31410DDFC2BADB3F7F30F0DC7BB8CC3F130D52F01472C33FC7BB2363B5F99F3FE02EFB75A73BB33FD36BB3B11273E83F211D1EC2F869C03F041BD7BFEB33EC3FD21918795913D53F7C6308008E3DAB3F9373620FED63EB3FBE1589096A78E43F8AAC3594DA8BCC3FF81BEDB8E177CF3F0B0BEE073CB0EA3FC6A354C2137AEE3F048E041A6C6AE33FC9AD49B72572DA3F88F2052D2460943F787AA52C431CE63F13B9E00CFE7ECB3F64E94317D437E43F0B5D8940F50FDA3F22DE3AFF76D9E73FBC3E73D6A71C733F529E7939ECBEC33FCF8767093202C03F9D685721E5A7E53F3E9468C9E3E9E13FB9C5FCDCD014EC3F664B5645B849E73FDA01D7153342E93FD95A5F24B465E93F552FBFD364C6E03F0F971C774A07EC3F4A0D6D003620CE3F5340DAFF006BCF3F388600E0D8B3DD3F226E4E250340D33F8F554ACFF412D83F016DAB59677CA73F27A1F48590F38E3FC72B103D2993E73F68E90AB611CFE43FE259828C800AC13FB5FCC0559E40E73FF0A31AF67B62DA3FD4D51D8B6DD2E43F100533A6608DEC3F3946B247A819C23F7192E68F696D8A3F249C16BCE82BD33F98689082A790C73FECFB709010E5E43F72A8DF85AD59E73FA31EA2D11D44EA3F4837C2A2224EE23FDD06B5DFDA89D13F753A90F5D46AE93FD2FC31AD4DE3EF3F8B89CDC7B5A1C83FA9893E1F65C4DF3FB7088CF50DCCE63F05A73E90BCF3EE3FC7629B5434D6E43F37A79201A00AE83FB9A81611C5E4D23FBB7F2C4487C0E63F83F6EAE3A1EFE13FF2D1E28C614EB03F32AEB8382A37E23F6364C91CCBBBBA3F6B813D26529AD13FBF81C98D226BEE3F6C5B94D92013E23F963E74417D4BEE3FA2F0D93A3858EB3FAE80423D7D04EC3F4B1E4FCB0F5CCB3F022A1C412AC5CC3F4C6BD3D85E0BB23F8692C9A99D61DE3FDD239BABE639CE3FA4C7EF6DFA33E53F98F8A3A833F7A83F88687407B133D23FBC7A15191D90D13F021077F52AB2E33FAD872F1345C8EC3F7138F3AB39C0E13F4AB54FC76306DC3F0306499F5651E23FC631923D42CDCC3FA0A52BD8463CD43F26AAB706B64AD93F9D6340F67A77E83F3D0FEECEDA6DA73F6F1283C0CAA1D13F60048D9944BDE53F83A5BA809719E13F9B58E02BBAF5E93FE6E61BD13D6BE43F94DBF63DEAAFD13FD6E1E82ADD5DEC3F6A2FA2ED983AEC3F0C5C1E6B4606E53F8429CAA5F10BD23F8FC6A17E17B6B63F9D2E8B89CDC7DB3FB81E85EB5138EA3F221CB3EC4960DE3F4A287D21E4BCEC3FEDD808C4EBFAC93FC74ACCB39256C63F897C9752978CE13FC6DE8B2FDAE3AD3F79AEEFC34142DB3F098D60E3FAF7EE3FE31B0A9FAD83DA3F4BCCB392567CE53FDAE731CA332FE13FCB2BD7DB662AEB3F80828B153598D33F789CA223B97CE63F8331225168D9EC3F967840D9942BED3FAE9FFEB3E647EB3FC992399677D5CD3FF19D98F562A8EB3F63EC8497E0D4C13F3788D68A36C7CD3F761A69A9BC1DC13FDB6CACC43C2BCB3FFB912232ACE2E13F9FCBD4247843E13FCBF8F719170ED13F130EBDC5C37BE63F5E143DF03158E43FFEF334609074EC3FD90759164CFCB93F15C440D7BE80CC3F5A65A6B4FE96E13FF9D9C87553CAED3F9F3E027FF8F9E53F1ADB6B41EF8DE23F16BF29AC5450D63F0CB265F9BA0CE53F2A73F38DE89ED43FBC067DE9EDCFC33F5E64027E8D24EF3FCA8D226B0D25E63F34BA83D89942E43FE621533E04D5EC3F293E3E213B6FC53F20D099B4A9BAD63F93C5FD47A643EF3F7EC85BAE7E6CBA3F809D9B36E334E63FEEB25F77BAF3DB3F5FEE93A30051D03FCBF8F719170ED73F2F6CCD565EF2D23FD26F5F07CE99EE3F922232ACE28DD93F912749D74CBED43F86376BF0BEAAEF3FA0FA07910C39B23FF12C41464085933FC39E76F86BB2E13FA5F8F884EC3CEF3FA3ACDF4C4C17CA3F1E6CB1DB6795E53F04CB113290E7EF3F419AB1683A3BE23F394206F2ECF2ED3F63EFC517EDF1CC3F84F4143944DCC23FB5A338471D1DE23F3ACC9717601FDC3F5C9203763579E03F0AF7CABC55D7DF3F45F30016F9F5DA3FFF3EE3C28190EF3F632AFD84B35BD83FCD069964E42CE33FD27135B22BADE83F9C69C2F69331D93F9BFEEC478A48E33FD0B359F5B9DAA23FC74ACCB392D6EC3F0E15E3FC4D28D13F7786A92D7590E03FDFF8DA334B02EC3F0E2DB29DEF27EB3F09522976340EBD3FA515DF50F86C5D3F616BB6F292FFCB3F4AB4E4F1B4FCEA3F137F1475E61EE83F594FADBEBA2AD03FB77EFACF9A1FC53F520E66136058B23F89981249F4B2E43F2194F7713447EC3F20B6F468AA27C73F936E4BE48233D53FF65FE7A6CD38E43F3E5A9C31CC89E73F1920D1048A58D23F0D1AFA27B858D63FD2890453CDACEB3F9FCDAACFD5D6EC3F6D020CCB9FEFEE3F4FCE50DCF1A6E53FB29B19FD6838CF3FB5E1B034F0A3CC3F4FE5B4A7E41CEB3FA6B6D4415E8FE63F183F8D7BF31BE43F03965CC5E237D63F670DDE57E542CF3FB58CD47B2AA7E23FBF9EAF592E1BE23F1CCEFC6A0E90E33FC7D8092FC129E93FA94E07B29E5AEA3F7A8F334DD87EC03F3A94A12AA6D29F3F543A58FFE7B0E13FCF81E5081948EC3F8351499D8026D93FA60C1CD0D215CC3F36C824236761DD3F5000C5C89239E23FE43098BF42E6CA3F344B02D4D4B2D33F994528B68226E83FD5CE30B5A50EE43FE5805D4D9EB2AA3F520C90680245C43F9BE271512D22EC3FFA298E03AF96E13F69A85148322BE73F700A2B155454D83F82ACA7565FDDE93FB91798158A74E23FB05758703F60EA3F583CF548835BE63F9E7DE5417A8ADF3FCB67791EDC1DE53F658C0FB3976DD03F0740DCD5ABC8A03FAEF204C24E31E83F8CD8278062E4E43F5F0839EFFFE3E33FF1D93A38D81BEF3FE3DEFC868986E13F6327BC04A73EE23F79B29B19FD68B43FE1B54B1B0ECBEE3F6C921FF12BD6E03F9A40118B1876DB3FBB2A508BC1C3E33FC170AE6186C6D63FE3FBE25295B6D23F1BF2CF0CE203E43FF23FF9BB77D4E33F575D876A4AB2EC3F1FF46C567DAED53F153AAFB14B54D43F9CDB847B655EE73FA52DAEF199ECC13F7EAB75E272BCE43F492EFF21FDF6DA3FC3BCC799266CD53FA4C519C39C20E33F0B0BEE073C30BC3F86E464E25641D03F28F1B913ECBFDA3FC6DB4AAFCD46EF3FEA03C93B8732C03F170E84640193EA3FCFA10C553195CE3F44A33B889D29D23F1F317A6EA1ABEF3F0D8AE6012C72EF3F1650A8A78FC0EA3F2A3A92CB7F48C33FD0B359F5B9DADD3F97E4805D4D9ED53F9E978A8D791DD63F80D591239D01EF3FD597A59D9ACBEA3F1F80D4264EEEED3FA708707A17EFCF3FBD3AC780ECF5E43FC2A4F8F8846CEA3FEECF4543C6A3E33F7EFFE6C589AFD93F734A404CC285D63FD95A5F24B4E5DF3F59C4B0C398F4D83FA5BDC11726D3E03F906AD8EF89F5E63F44696FF085C9D73F40F850A2250FE63FB75ED38382D2EA3FD7135D177E70B23FBB0B94145800C93F5EF1D4230D6EDD3F8600E0D8B3E7B23F9A9658198D7CE23F81221631EC30DF3F1A19E42EC214DA3F5D34643C4AA5EB3FDB8827BB99D1BF3F99D4D0066003CE3F876EF607CA6DB73FCE8DE9094BBCEF3F3D7C992842EAC43F50A8A78FC09FE43FCC7D7214200AEE3FB18A37328FFCD73FF19BC24A0515E63FB20E4757E9EEE53FCE1951DA1BFCE83F213D450E1137BB3F0A83328D2617C93F5E82531F48DEEE3F999CDA19A6B6D53F9012BBB6B75BD43FDBA50D87A581D53F83A7902BF52CE93F45F5D6C05689E03F52D4997B48F8C63FDDEEE53E398AE83F22382EE3A606E13FDC48D9226937EB3FA8A9656B7D11E23F33DC80CF0F23DE3F772E8CF4A276D33F58A9A0A2EA57C63F6E1805C1E3DBE43F56B60F79CB55E43F170CAEB9A3FFCB3F3DB83B6BB75DD63F6687F8872D3DDB3F1C9947FE6060E73F6D020CCB9F6FD23F0A12DBDD0374A73F5760C8EA56CFDD3FC02154A9D983EE3FDCB75A272E47E83F2C836A8313D1BF3F452DCDAD1056EC3F94162EABB019D43F18963FDF16ACE03F3B342C465D6BD73FD38558FD1106E23F1844A4A65D4CC93F9C6ED921FE61EB3F834D9D47C5FFB93F50AA7D3A1EB3ED3F03081F4AB4E4E73F321EA5129ED0C73F753DD175E187E43FABCFD556ECAFED3F22895E46B1DCB63F1938A0A52BD8EC3FBBB54C86E3F9E73F580229B16BFBEC3F7B67B4554964C53FDC9C4A06802AC23F94895B0531D0D93FA0A86C585359D13F3753211E8997E73F5C1FD61BB542EF3F59F8FA5A979AEE3F2502D53F88E4E73F1EDE73603942EC3FE2EA0088BB7AD93FA4FACE2F4AD07F3FD66EBBD05CA7E93F3C2F151BF33AE03F81971936CAFAD63F139B8F6B4345E93FB2D7BB3FDEABB23FB8955E9B8D95983F2D25CB49287DB53FE2067C7E1821E53FB77D8FFAEB15BE3F6C054D4BAC8CB63F19726C3D43B8EA3F6A4C88B9A46AD33FFF428F183D37E53F61A5828AAA5FE13FC2BE9D4484FFE53F6ADD06B5DFDADB3FCD77F01307D0E43F14EAE923F087D03F2657B1F84D61E73FE6AC4F39268BE43FCBDB114E0B5E943FB58D3F51D9B0E73F45813E912749E93F912A8A5759DBB83F71CB4752D2C3C23FB66801DA56B3D43FB16EBC3B3256EC3F69C4CC3E8F51E13F84B70721205FCE3F6B9E23F25D4AB53FEB1C03B2D7BBE73F247EC51A2E72D93F158E20956247C93F81CEA44DD53D923F53EA92718CE4EE3F61E3FA777DE6DA3F8F54DFF94509B63FD3A0681EC0A2EC3F560F98874CF9403FCB2BD7DB662AE13F14AFB2B6291ED03FB62E35423F53E53F9DD5027B4CA4D33FD7C1C1DEC490D23F226DE34F54B6E63F83A279008BFCC63FCEC47421567FC63F562DE92807B3C73FB2F50CE19865D83FADF71BEDB8E1E93F4CFC51D4997BA83F24B9FC87F4DBD03F992EC4EA8F30E93FBCCFF1D1E28C913F9F56D11F9A79A23F9206B7B585E7D73FB48EAA2688BAD93FF99D2633DE56DF3F5B0C1EA67D73E03FE04DB7EC10FFD03F8672A25D8594E93F30BC92E4B9BED93F925ED4EE5701CA3F8FFB56EBC4E5CA3FCC0A45BA9FD3E23F13B70A62A06BE03F3B394371C79BDF3FE96514CB2DADE43FC25087156EF9D13F624D6551D8C5E93F21E527D53E1DCB3FEA5A7B9FAAC2E83FC7116BF12900E13F18B14F00C5C8CE3F04392861A6EDCF3F35D3BD4EEA4BE83FB20E4757E96EED3F3ECE3461FBC9983F0AD80E46EC13B83FDD0720B58913EC3F390A10053326E53F5439ED2939A7E43F041DAD6A4947E03F40DAFF006BD5C23FBB6246787B10BA3F4DF6CFD38041B23F2E742502D5BFE93F40BD19355F25D73F344B02D4D432E03FD61D8B6D52D1DE3FDFA5D425E398E03F0D6FD6E07D55DB3F36AFEAAC16D8C33FCD3FFA264D83E43FE606431D56B8DD3FE09D7C7A6C4BED3F93A7ACA6EB89D63F4451A04FE449DF3FB58B69A67B9DCC3FF48AA71E69F0E33FF778211D1E42E33F6ADFDC5F3D6EE83F4B3D0B42799FE93F5FB87361A417EE3FC93846B24728E53F15AB06616EF7DF3F24F0879FFF1EC63F9A5FCD0182B9E13FA228D027F224DA3FC3499A3FA6B5EE3F62855B3E9212EC3F888043A852B3D43F16A243E048A0DF3F9D67EC4B361EC23FBBB9F8DB9EA0EB3F2FBE688F17D2CB3FCEDF8442041CEA3F2F36AD140239E83F45813E912749E33FC347C49448A2D53F7A36AB3E575BDA3F9BFF571D3952E53F4084B872F64EE03F130EBDC5C37BB23F10CB660E492DBC3FD6E429ABE97ADB3FCCEEC9C3422DE23F037976F9D687D63FDE3B6A4C88B9D33FAEF4DA6CACC4D63FDDD26A48DC63D13FCBBBEA01F390B53FE76ED74B5304C83FB37DC85BAE7EC23F87191A4F0471EA3FB0FF3A376DC6BD3FF1845E7F129FC53FA5F9635A9BC6D13FD6AC33BE2F2EE53FD1031F8315A7D63F1E4E603AADDBCE3F321EA5129ED0E53F925D6919A9F7DF3F3E5A9C31CC89E13F6BB8C83D5D5DE03F700B96EA025EC63FD40B3ECDC90BE03FBA69334E43D4EB3F7E3A1E335019CD3F94895B0531D0E63F8F6CAE9AE788EE3F30D978B0C56EC33FA439B2F2CB60D83F2594BE1072DED03F5BD2510E6613A03F639B5434D6FEE73F51D845D1031FD83FCDE7DCED7AE9EF3FEA5DBC1FB75FD93FA5DDE8633E20E03F47E5266A696ECF3FC7F5EFFACC59CF3FE126A3CA30EEEF3F319A95ED435EE93F62DBA2CC0699E93FBDDF68C70D3FE13FF2D1E28C614EB43F1C7920B24813C53FC8091346B3B2D23F6ADAC534D33DE03F0A4CA7751BD4D23F7216F6B4C35F733F18CFA0A17F82E23FC6A2E9EC6470CE3F87DF4DB7EC10B33FC64E78094E7DDD3FF8FE06EDD5C7EF3F4FE61F7D9326E23FCEC29E76F86BC43FF7C8E6AA798EE63F30B8E68EFE17ED3FC382FB010F8CE63FC6866EF607CAE93FDF6C73637A42E93F4C6DA983BC1EC63FF1457BBC908EEC3F09336DFFCA4AE43F4C5299620E82CE3FBD3AC780EC75E83FFE0C6FD6E07DD13FFF428F183DB7DF3FC8091346B3B2EC3F8733BF9A0384E83F452A8C2D04B9EA3F377007EA9447C53F942F682101A3AB3F87E0B88C9B9AE43F22C7D6338463EF3FD1E80E62670AB53FBF1072DEFFC7C53FB58CD47B2A27E73FA4FB3905F9D9D83F0FB8AE9811DEE33F8524B37A87DBC93FD1CB28965B5AD93F22A98592C9A9EF3F7D3CF4DDAD2CE33FF0F8F6AE415FE33F42959A3DD00AB43F7632384A5E9DA33FFD4CBD6E1198E43FBC94BA641C23893FA0353FFED2A2D13F5E2F4D11E0F4C43F2A3A92CB7F48DF3F739CDB847B65D33FB5A7E49CD843ED3F4F5B238271F0E23F1C08C9022670EF3FF1BBE9961D62E03F000341800C1DC53FEEE9EA8EC536EB3FFFCD8B135FEDD73F566133C005D9E03FF67B629D2ADF833F02BC0512143FD43F8A00A777F17EEB3F9F909DB7B159E53F0168942EFD4BE93FA06F0B96EA028E3F88DA368C82E0E93F0E32C9C859D8B33F2E71E481C822B93F723788D68A36CB3F2140868E1DD4EB3F9198A0866F61E43FC1745AB741EDD33F03ED0E2906C8E93F596DFE5F75E4983FF56393FC885FDE3F4582A966D652EA3FCF9F36AAD301E73F66BB421F2C63E33F7EFCA5457D12E43F1711C5E40DB0E13FA6D425E31849E73FE2AB1DC539EAE23F043DD4B66194EC3FD40B3ECDC90BE53F4D69FD2D01F8C33F90847D3B8908DC3F9CFBABC77DABEB3FB6696CAF053DEF3F4DD6A8876874C33F569929ADBFA5EA3F3E4162BB7B80E23FA8FDD64E9484DC3FD2C265153683E33F71732A19002AE93F6FBBD05CA791C23F82AAD1AB014AE63FEB36A8FDD64ED83F1A14CD0358E4BB3F98C1189128B4D93F20EC14AB06E1E03FC364AA605452D53F83143C855CA9D73F849ECDAACFD5DE3F7DCB9C2E8B89A53F51BB5F05F86EDA3F0EDDEC0F94DBCE3FA54DD53DB2B9EC3F5EB9DE365321EC3F2E8F352383DCDA3F23BDA8DDAF02DF3F39622D3E0540E43F5298F738D304E03FD20149D8B713E43F4FB0FF3A376DEF3FFA43334FAE29DF3F50A912656F29E93FF7915B936ECBE13FBDDF68C70D3FE93F76A73B4F3CE7E03F990E9D9E77E3EC3F9B3BFA5FAE45D23F52B81E85EB51EC3F529B38B9DF21E43FD6E429ABE9FAEB3F47AB5AD2510EA63FB4ACFBC74274D03F40DF162CD505C63FC7D45DD90583C53FDB6D179AEBB4E83FE509849D62D5A83FE84A04AA7F10DE3F7653CA6B2574B33F7461A417B5FBEC3FCF85915ED4EE873F1D1F2DCE18E6943F88BEBB95253ADB3F86E5CFB7054BB93F06651A4D2E46E73F85B01A4B581BE63F670FB4024356D73F8FC70C54C6BFD13FCCECF318E599D33F76FD82DDB06DC53FA3C9C51858C7D33FFEB627486C77B73F24F0879FFF1EDF3F5551BCCADAA6B43FF67AF7C77BD5EA3F2B85402E71E4D23F5891D10149D8A73F7F4FAC53E5FBE23FCE716E13EE95BD3F8C14CAC2D7D7D63F5F251FBB0B94C63F0729780AB952E33F7BBB25396057DB3F1B62BCE6559DDF3F0B2769FE98D6D53FDE7536E49F19EE3F5E2A36E675C4C93F85285FD04202C03F82919735B1C0D63F2DCF83BBB376DF3FCEE15AED612FC03F04E44BA8E0F0D33FC974E8F4BC1BC13FD881734694F6EB3FA22424D236FEE53F8EEBDFF59933EE3F9E62D520CCEDEB3F47AB5AD2518EE63FB30B06D7DCD1D43F4D840D4FAF14EF3F0EA14ACD1E68C53FECDB4944F817E33FF015DD7A4D0FE63F75CB0EF10F5BE83F68E6C9350532DA3FFD497CEE04FBD53F8386FE092ED6EA3F4837C2A222CEE93F1536035C90ADE33F85CE6BEC1255EB3FD272A087DA36E93FEBC37AA35618E23F8942CBBA7F2CCA3FE78A5242B0AAD93FA38FF98040E7ED3FC9AB730CC85ED53F1021AE9CBD33DE3F3E75AC527A26EC3F4ACE893DB48FDF3F852348A5D8D1E53F15580053068EE53FC85BAE7E6C92E23FA453573ECB73EF3F8B36C7B94DB8DD3FF5BD86E0B80CEB3F492C29779F63E33FC95A43A9BD08E23FCC272B86AB03E63F0876FC170802E63F0FD594641D8EE13F57CC086F0F42D93F1118EB1B98DCE63F58ACE122F774EA3FD41055F833BC793F7E384888F205D13FDFE00B93A902EF3F9831056B9C4DDD3FC98FF8156BB8CE3F8F72309B00C3ED3F3D433866D993EE3FD4B66114048FEB3F2A73F38DE89EE63F297B4B395FECD53F1B2D077AA86DDA3F8FFCC1C073EFE33F9C50888043A8E63FF04E3E3DB665A83F59F78F85E810E53F16DD7A4D0F0AED3F95B6B8C66732EC3FE6ADBA0ED514EE3FCB83F4143944AC3FFA4674CFBAC6EC3F7EE5417A8A1CC63F1CEDB8E177D3EC3FA8ACA6EB89AEE23F807D74EACA67B13F1D774A07EB7FEC3FDFDE35E84B6FEE3FD2E0B6B6F0BCD33F89EDEE01BA2FE73F5A626534F2F9E83FF5DA6CACC43CD13FAA7EA5F3E159EB3FF5108DEE2076EE3F1E54E23AC615B73FA9A5B915C26AD93F88F37002D369E43F50FD8348861CCD3F5516855D14BDE63FA81DFE9AAC51E63FEE23B726DD96BC3F01F73C7FDA28E13F5F43705CC64DBD3F22C32ADEC83CDF3F05C1E3DBBB06C93F54C6BFCFB8F0ED3FA379008BFCFA913F1CD2A8C0C936EB3F9566F3380C66E03F31957EC2D9ADDC3FF6436CB07012EC3F862172FA7A3EEB3F2D0B26FE28EAD53FE063B0E2546BD33FA1496249B9FBD83F83C2A04CA3C9E13F5EF415A4198BC43F1956F146E691C33FEC6CC83F3388E33FBE326FD575A8DD3F200A664CC11AE53F80D4264EEE77B83F91F2936A9F0EED3F925A28999CDAEE3F527DE71725E8D93FB62FA017EE5CC43F710168942EFDDA3F36CAFACDC4F4EF3FF4C308E1D146EC3FB323D5777ED1EC3F05F86EF3C649C53F0AF5F411F8C3CD3FB87361A41735EA3FC4D2C08F6A58E03FCCB392567C43CF3F98A59D9ACB0DC23F35255987A3ABDC3FE4F560527C7C923FFC56EBC4E5F8E93F52448655BC11EF3FAB77B81D1A16D23FF1845E7F121FE13F946A9F8EC78CEB3F655419C6DD20CA3F7C7F83F6EAE3E03F6495D233BDC4E43F5BEECC04C3B9EF3FCADE52CE177BC33F83DF8618AF79B13FFAEE5696E82CD33FC6A4BF97C283E73F19FF3EE3C281E23F810871E5EC9DD33FF7562426A861EE3F0C21E7FD7F9CD33F6D1CB1169F02E03F505260014C19E73F41D47D00521BE53FCFA44DD53DB2DC3F7235B22B2D23DB3F44F982161230D13FE9D500A5A146CB3FBDA772DA5372D13F98BF42E6CAA0C03F7B4CA4349BC7E93F3E5A9C31CC09E03F5AF3E32F2DEAE83F552FBFD36446E63F5CE7DF2EFBF5E43F2810768A5583DE3F41102043C70ED03FBE6BD097DEFE9C3F81ECF5EE8FF7CC3FBCE9961DE29FED3FBFF4F6E7A221E43FA2276552431BDA3F37E15E99B7EABE3F3EB2B96A9EA3E93F95F0845E7F12EE3FA1F2AFE5956BE13FBE13B35E0CE5DE3F4145D5AF74BEE13FF25B74B2D4FAE93FF29A5775560BB43FDAC87553CA6BE03F255D33F9669B7B3FF6EE8FF7AA95E33FB9A81611C5E4D43FE5B67D8FFAEB653FF3AB39403047B33FD3A57F492AD3E93FFA25E2ADF36FD43F54C554FA0967BF3F064CE0D6DD3CED3F08AF5DDA70D8E43F5C76887FD8D2DA3FCF83BBB3765BE83F7192E68F69EDEC3FBD8E386403E9E53FCA54C1A8A44EEA3F0ABABDA4315ADC3FB01F62838593D63F0DE02D90A0F8C53FA41B615111A7E03F2CB64945636DE73FC0EC9E3C2CD4AA3F89450C3B8CC9EA3F9ED2C1FA3F87DD3F26A8E15B5837E63FCC4065FCFB8CC13FE04A766C0462E93FBC24CE8AA889D63F04C765DCD440C93FBE1589096AF8D23F605B3FFD67CDE43FF75B3B511212B13FEEB3CA4C697DEE3F904946CEC29EDB3F7E37DDB243FCD83FBEBD6BD097DECC3F37C5E3A25AC4E13F1F4C8A8F4F48E73FF31DFCC40174E83FF86BB2463D44D73F27874F3A9160EF3F9D64ABCB2901DF3FE1CFF0660DDED13FCA15DEE522BEEB3F5C7347FFCBB5E23F0FEF39B01C21D03F0892770E6528E53FB1355B79C9FFC63F38328FFCC1C0DC3FB39597FC4F7EED3F15747B496334EC3F4A0C022B8716CF3F335184D4ED6CE13F55A181583673CC3F9D82FC6CE4BACD3F4C1B0E4B033FD73FC18C2958E36CE03FC6A86BED7DAAEA3F96B036C64E78EC3F0A302C7FBEADE03FE4486760E465EC3F4303B16CE610ED3F522635B401D8D23FE63BF88903E8DA3FE066F16261887C3F0281CEA44D55E43FC72DE6E786A6D83FB62FA017EE5CE83FBDFBE3BD6A65E03F69A9BC1DE1B4B83FE883656CE8E6E73F520B2593533B933FA835CD3B4ED1E33F10AFEB17EC06EB3FFC7266BB421FAC3FB804E09F52A5E03F1DC9E53FA4DFC63F7592AD2EA704DB3F0BF0DDE68D93DA3FD8F15F200890EE3F2B172AFF5ADEEE3FA532C51C041DB53F064834812216D83F2BDEC83CF287EB3FB1355B79C9FFE03F836DC493DDCCEE3FC39CA04D0E9FED3F03ECA353573EEF3FA0A52BD846BCE93F1F813FFCFC77EB3F7E02284696CCD83F954737C2A2A2EF3FA648BE124889E33F49D8B79388F0EF3F8E2095624763E03F3C4F3C670B08DF3F4F58E20165D3E23F32755776C1E0D43F6326512FF834DC3FD8BB3FDEABD6EB3FC93846B24728EB3FDD60A8C30AB7CA3F59198D7C5EF1843F4AB4E4F1B4FCEA3FA359D93EE4ADE63FFFE89B340D8AEC3F1E3526C45C52C53FA855F487669EEA3F11DF89592F86CC3FCD203EB0E3BFBC3FFDF675E09C11AD3F0987DEE2E13DCD3FB0E600C11C3DD13F07280D350A49D43F91D442C9E454E83F156F641EF983B53F66A3737E8A63EE3FA7B1BD16F4DEC23F8DF161F6B2EDC23FE3FBE25295B6EF3F61545227A009EF3FA14CA3C9C518D93FF33AE2900DA4EC3F3DEFC682C2A0D03F9FCDAACFD556ED3F21E4BCFF8F13EA3F46B1DCD26A48E23F1AA721AAF067C83FFC6D4F90D8EED83F3E0455A35703AC3FB16EBC3B3256CF3FBB2BBB60704DE63F0D36751E15FFC73F897E6DFDF49FCF3F0D52F0147225E13F6954E0641BB8D73FBB0A293FA976E23F6DE690D44249E03FD670917BBA3AED3F8EEBDFF599B3A63F1CD3139678C0E43F7F6ABC749318E23F2B2FF99FFCDDA33F876A4AB20EC7EB3FC443183F8D7BD83FCB1132906717E53FB85851836998EB3FFD497CEE04FBE13F1EC2F869DC9BD43FBA4C4D8237A4EE3F84656CE8667FD23F29AE2AFBAE08D83FCD3CB9A640E6E43F8D7F9F71E140E73F620FED6305BFEE3FC6F99B508800EA3F7DCC07043A13EB3FA437DC476E4DE63FE1D1C6116BF1A13F73F4F8BD4D7FDB3F4EB51666A11DE33F9293895B0531D83F3A2009FB7612B53F787C7BD7A02FE93F83F92B64AE0CD83FEF01BA2F67B6EA3F357F4C6BD3D8B63FDB17D00B772EEC3F1E6B4606B98B903F4E7FF6234564C83F815D4D9EB29AEC3FC8B4368DED35EC3F910BCEE0EF97E53FAB5B3D27BD6FEB3F5BECF65965A6CA3FB98AC56F0A2BD33FC24CDBBFB2D2AC3FC4B304190195E83FA12C7C7DAD4BCD3FA4FD0FB056EDA23F6E14596B2835E93FAB7823F3C81FDC3F92CA14731074D13F82E2C798BB96BC3F57410C74ED0BC43FA3409FC893A4C53FC576F700DD97AB3F435376FA41DDE23F1B2C9CA4F9E3EF3F34677DCA3159EB3FFB73D190F128CB3FF88903E8F77DE83F541B9C887EEDE33FCB0F5CE50984CF3F98F8A3A833F7DE3F67F0F78BD912ED3F6A17D34CF73ADB3FB7CF2A33A5F5ED3F91B41B7DCC07D53F693BA6EECA2ED43F7DEA58A5F4CCE33FBF81C98D226BE73F739CDB847B65EF3F3AE97DE36B4FE43F48F8DEDFA0BDDD3F9FAC18AE0E00E63F637B2DE8BDB1E13F083A5AD5928ED23FF7E978CC40E5E03F65ABCB290131D03F124A5F0839EFDB3F54E3A59BC420DE3F04ADC090D52DE93F63B323D577FEE53F8C9FC6BDF90DE53FBFF2203D458EEE3FB686527B116DD33F3FC4060B27E9E03FAD69DE718A8ED83FDC8310902FA1C23F9D2D20B41EBEC43F8011346612F5E03F87F8872D3D9AA23FDD9A745B2297E03F8524B37A87DBDF3FBCB20B06D7DCEB3F77D66EBBD0DCEE3F158BDF14562A983F63D520CCEDDEEF3F105A0F5F268AB83F35272F3201BFE43F766C04E275FDA23F44DD0720B509EE3FDFC325C79DD2B13F94C0E61C3C93EB3FA8C30AB77C24DE3FDA0242EBE1CBD13FF88DAF3DB324B03FDA03ADC09055E63F4225AE635C71E03FB91AD9959611E53F47020D36751E753F50E3DEFC8689D93F61E0B9F77049E73F6A1327F73B14D83FB7D100DE0209BA3F4D486B0C3A21E93F3C4CFBE6FE6AE03FE9D2BF2495A9E93F520ABABDA4B1EA3F9FE6E4452660EA3F4FAF94658863EF3F3F3BE0BA6246D93FC6A52A6D718DC53FC4D0EAE40CC5DD3F86AA984A3F61E73F85949F54FBF4E13F0AF2B391EBA6EF3F07616EF7729FD83FCD04C3B98699EE3FEF3B86C77E16ED3F938AC6DADF59E33FF8A92A3410CBE23FF7949C137B68AF3F284696CCB1BCC93F3BE12538F581C83F183F8D7BF31BE83F997E8978EB7CE13FC26856B60FF9E23F30630AD6389BE23FB3CD8DE909CBEE3FBB7CEBC37A23E83F2BF9D85DA0A4C63F4182E2C798BBDA3FA417B5FB5580C13F560DC2DCEE65EF3FFD169D2CB5DEDB3F7FC00303081FDB3F7616BD530177EB3F13437232712BE73F273108AC1CDAEF3F19E25817B7D1B03F0C21E7FD7F9CED3FB1DEA815A6EFDF3FABB35A608F89843F57EC2FBB270FEC3F868F88299144CD3F2E573F36C98FC03F61C1FD800786E53F9221C7D63384CF3F94DA8B683BA6CA3F16BEBED6A546983F1555BFD2F970ED3FCDAB3AAB05F6EE3FA8C30AB77C24E63F5EF1D4230D6ED23F1CCEFC6A0E10DC3F55151A886533DF3F9E7B0F971C77D63F48895DDBDB2DE73F9430D3F6AFACC43F4AEF1B5F7BE6E43FC28A53AD8559BC3F882CD2C43BC0AB3FA35698BED710EA3F3BFF76D9AF3BDD3FEC4CA1F31ABBDF3F24438EAD6708EB3FC478CDAB3AABD53F776A2E37186AEF3FA56ABB09BEE9E53F26DF6C73637AE33F72C45A7C0A80CB3F5C5A0D897B2CDF3FFED478E926B1E73F7B681F2BF86DCE3F8236397CD289DA3F5167EE21E17BC53F486B0C3A21F4E23F4E7E8B4E965ACB3FA3586E693524E03F49A297512CB7DA3F33DFC14F1CC0ED3FF1BC546CCC6BE43FB22FD978B0C5C43F6150A6D1E462E63F546EA296E656983FC11DA8531EDDCC3FA83462669F47ED3FBAF94674CFBAA63F6BD784B4C6A0733F22C495B37746E83FA8380EBC5AEEEA3FE6797077D66ED73F441669E21D60E83F18B14F00C5C8EA3F4225AE635C71D93F4FEACBD24E4DE53F999B6F44F7ACCF3F11A62897C62FE03F9F9273620FEDE53F179E978A8DF9E83F6C223317B8BCEA3F111AC1C6F56FEF3FD97745F0BF95B83F8AE76C01A1F5DC3FBB7CEBC37A23E43FA2D45E44DB31EB3FE97DE36BCFACED3F7500C45DBD8AD03FA73B4F3C678BEE3FABCFD556EC2FE13F05871744A426E63F2E1D739EB12FE73F2A0307B47485EC3F0821205F4205A73FCA1649BBD1C7D93F20F12BD67091C13F72E140481630EE3F3D7FDAA84E07823F5F984C158C4AD43FC70E2A711DE3D33F8CDCD3D51D0BE23FF0F96184F068E23F1344DD072035E03F8BC22E8A1EF8C83FB91B446B459B933FF1F274AE2825C83F3AB187F6B182CB3F4F5DF92CCF03ED3F414AECDADE6EDE3FE124CD1FD3DADB3F8F334DD87E32A63F4981053065E0C83FB1C403CAA6DCE83FC347C49448A2D33FE48409A35959E23F300F99F221A8DE3FC74CA25EF0E9E53F6FD6E07D552EED3F7497C45911B5E83F880E81238186E23FA56950340F60CD3F13F06B2409C2CF3F8B34F10EF0A4C93FE2E7BF07AFDDEC3FF853E3A59BC4E93F098849B89047E03F6A882AFC195EE13F8B6CE7FBA9F1BE3FD48041D2A755DC3F40C1C58A1ACCE03F425DA450163EE83F10CAFB389A23D43F3B8E1F2A8D18E73F452DCDAD10D6E73F7B82C476F780E23F4C1C7920B248B73F4AED45B41D53D93F61DEE34C1336EA3F5801BEDBBCF1E53F0E130D52F014CC3F5A65A6B4FE96EB3F7A7077D66EBBEF3FFB2136583849DA3FCD91955F0663C63F707D586FD40AB33F64E76D6C7624EA3F53D0ED258D51E43FB4588AE42B81CA3FC7A01342075DDE3FF5F75278D0ECD73F419FC893A46BBE3FBF64E3C116BBEE3F6284F068E388CB3F28D4D347E00FDB3F9CC420B07268B13FEC33677DCA31E23F05FC1A498270B93F9DB81CAF40F4B43F34D8D47954FCE33F9E7DE5417A8ABC3F2FC4EA8F300CDD3F9E9ACB0D863AB43F331823128596A53F3F390A100533BA3F59DB148F8B6AEA3FA98427F4FA93D93F8CBE823463D1D03F71ADF6B0170AEC3F7A7077D66EBBE93F82E49D43192AE43F2499D53BDC0EE23FB1C05774EB35EE3F3DB7D0950854BB3F2BDA1CE736E1D83FD2AC6C1FF296C93F01E0D8B3E732EE3F19E8DA17D00BE23F9C6ED921FEE1E73FA33B889D29F4E13F0D6E6B0BCF4BE43F240C03965CC5C43FCEC29E76F86BD03F9CFD8172DBBEBB3FA35A441493B7E23F4356B77A4E7AE73F3E062B4EB516D33FC2137AFD497CE93F04E275FD82DDB03F7903CC7C07BFE33F087767EDB60BEB3FD26EF4311F10ED3F4CA7751BD47ED43F0B98C0ADBB79B63F55C1A8A44E40DE3FC1ABE5CE4CB0EF3FA69D9ACB0D86E93F9DD9AED007CBD63FCC41D0D1AA96C83FBE4D7FF62345B43FEFC8586DFE5FB93F1D8F19A88CFFE43F2F3196E99708E33F8A592F867222E93F145FED28CE51E33FD25625917D10EE3F944A7842AF3FC53FB45549641F64DE3FD99596917ACFE53FA06CCA15DEE5AA3F514EB4AB90F2E23FBD19355F251FD63F41BCAE5FB01BE23FE811A3E716BAD63F8C4D2B85402ED53F7383A10E2B5CEE3FDEC83CF20703E93FBC9179E40F06C23F5FD4EE5701BEE83FF46E2C280CCAD73FE2934E24986AED3F6FBDA60705A5CA3F36AD1402B944E93FF88903E8F77DE93F96404AECDA5EEF3F4FB0FF3A376DC23FD3D9C9E02879E93FC364AA605452EF3F76DF313CF6B3DB3F3CDBA337DC47E03F3A07CF842689D83FDDD26A48DC63E73F6D91B41B7DCCE73FF790F0BDBF41E13F71E2AB1DC539D23FCAFD0E4581BEE33F6D7022FAB575E93F9FCBD4247843E93F6762BA10AB3FEF3F01193A765089DF3FAAEFFCA204FDDF3FE7340BB43BA4D83FD13B1570CFF3CD3FD1402C9B3924E73F05A568E55E60963F691CEA77616BEA3F5073F22213F0B33F0DC51D6FF25BB03FD7FA22A12DE7C03FC79DD2C1FABFE73F31B1F9B83654E43F9031772D211FD13FFD15325706D5DB3F728C648F50B3E83F64B14D2A1AEBE43F0DFD135CACA8EE3FDDEF5014E813B13F596C938AC6DAE73F54A703594FAD8E3FAF5C6F9BA910D93F274F594DD713E03FD1747632384AEA3F54FF20922147EB3FC9772975C938E13F4ACE893DB48FC13FDDB243FCC396ED3FECBFCE4D9B71C83F7845F0BF95ECA83F59DE550F9887D73F6D8C9DF0129CC03F92205C01857AE33F7F6ABC749318C83FC3482F6AF72BE23F37363B527DE7E53F7D96E7C1DD59ED3FD5CA845FEAE7E63F62D9CC21A905E43F37C478CDAB3AB33FF69672BED87BD03FAED85F764F9EE33FD5EB1681B13EE03F094E7D2079E7EA3F16A6EF3504C7E33F751DAA29C9BAEC3F9B745B22171CE43FCA367007EA94ED3FD712F241CFE6E53F21C9ACDEE176983F645B069CA5E4E43FA3ACDF4C4C17D83F26016A6AD9DAEC3F3E0455A35703E83F255D33F9669BE93F726C3D433866D63F1CB5C2F4BD86E03F76887FD8D2A3DB3F952C27A1F485B83F865AD3BCE3148D3F7A5567B5C09EE73FF60B76C3B6C5EA3FBF2B82FFAD64C73F13B875374F75D43F2D5BEB8B84B6D03F802A6EDC627EE73F24473A03232FC93FB83CD68C0CF2E73F053411363CBDD73F842D76FBAC32C53F335184D4EDECD43F62D8614CFA7BC13FC24CDBBFB252E93F33DE567A6D36DD3F15FE0C6FD6E0E83F0A4B3CA06CCAC73F2EC72B103D29D93F184339D1AE42B23F930035B56CADC33F2C0E677E3507CC3FE54350357A35B43F29B000A60C1CCC3F31CEDF844204E63F32C687D9CBB6BB3FE658DE550F98E13F01309E41437FEC3F21938C9C853DED3F0DAB7823F3C89F3FFDD98F149161D13F4B7842AF3F89D63F2A1E17D522A2B43F5245F12A6B1BE53FFDDD3B6A4C88D03F191F662FDB4EDE3FB3F0F5B52EB5EE3FAB798EC877A9EA3F2DD15966110AEA3F9949D40B3E4DEB3F73F22213F0EBEE3FF1129CFA4072E53F3A05F9D9C875BF3FE2AE5E454607AC3FD8BAD408FDCCE63FAB251DE56036BD3F3657CD7344BEED3F70EF1AF4A537EE3F0E65A88AA9F4E13F2E01F8A75489DE3F717495EEAEB3EA3FAA0F24EF1CCAD93F7E7214200A66E83F0CAD4ECE505CE33F69705B5B785EE23FE1D40792778EE63F1E1A16A3AEB5D23FD7A02FBDFDB9E63F37E3344415FEDF3F02D9EBDD1FEFDE3F8CDAFD2AC077DF3FA29A92ACC3D1C33F137F1475E61EE33FA532C51C049DE63F861BF0F96104E53F56D636C5E3A2B23F4DBD6E1118EBEF3F2DEBFEB1101DBA3F6EC1525DC04BE13F8D7F9F71E1C0E13FDF37BEF6CC92EE3F1137A79201A0A23F68041BD7BFEBD43F83A7902BF52C983FD26EF4311F90E73F128942CBBAFFED3FD446753A90F5E13F7BF7C77BD54AEC3FB77F65A54929DD3FD1AE42CA4FAAEE3F9032E202D028CB3F82ACA7565F5DC73F57957D5704FFCD3F569929ADBFA5ED3FD368723106D6BD3F8F56B5A4A39CE63F13D55B035BA5E33FC0CDE2C5C290E63F5E81E84999D4BC3F484E266E1544EC3FB55373B9C150E43FEE43DE72F563EF3FE085ADD9CA4BEA3F16DBA4A2B1F6E23F81D1E5CDE15ADD3F6BD26D895C70DC3F11A96917D34CCF3FAB048BC3995FC73F8CDCD3D51D8BEE3FB41F2922C32AC63FAA2D7590D783EC3FCD7344BE4B29EC3F126745D4449FAF3FAC0320EEEA55C63F933A014D840DE23F19E25817B7D1D83F61C26856B60FE03F0514EAE92370EA3FD50451F70148CB3FEE7C3F355EBACB3FB43A39437147EE3FADFBC7427488E33F999B6F44F7ACCD3F6A6798DA5207DD3F3FAA61BF2756E23FC554FA096737E13F028063CF9ECBA43F363CBD529621E13FC573B680D07A983FF4C308E1D146EF3FF6EFFACC599FD83F8BFB8F4C874EE53F736891ED7CBFEA3FB2A19BFD8172E23F0BB8E7F9D346CB3F2750C422861DEF3F53B0C6D97404D73F8CD651D50451E13FFBE6FEEA71DFDC3F03EE79FEB4D1E13F41118B187618DD3F4B732B84D558AA3FF9D7F2CAF536E53F1EC18D942D92CE3F16342DB1321AE33FF584251E5036C73F6D6FB724076CE93FBC218D0A9C6CDA3F5393E00D69D4E83FCB811E6ADB30D13F93FDF3346010E23FED647094BC3ADB3F3C855CA96741E93FF67D384888F2DC3F4031B2648E65E83FFAB5F5D37FD6DF3F51A5660FB482EC3FD1AE42CA4FAAEF3FBAF770C97127E83FF2608BDD3EABDE3FF81C588E9081EF3FE371512D228AEA3F922232ACE28DC83FBB7F2C448740E83F4F90D8EE1E20E93F9411178046E9E63F396403E96253E93FD027F224E91AE73F0E130D52F094EE3F97CADB114E8BE73FAEF02E17F11DE33F4DDA54DD239BB73F7D3CF4DDAD2CE43F68CF656A12BCD83FB8239C16BCE8EA3F23111AC1C6F5CD3FD2C43BC09316EF3F84A0A3552DE9CC3F6DAB59677C5FED3FE96168757286D33FAF3F89CF9D60C13F1F2C634337FBEC3F7EE36BCF2C89E63F800EF3E505D8E73FF7949C137BE8E43F681F2BF86D88DE3FE4A1EF6E6509EF3F764F1E166A4DB73FB950F9D7F2CAE03F4CFE277FF70EEF3FCE88D2DEE00B933F18D2E1218C9FE73FABE80FCD3C39EE3F1B66683C1144EF3F09F9A067B36AE13FB8AD2D3C2F15E23F43C5387F130AB93F793BC269C10BEB3F30BDFDB968C8C23F750470B37831EF3FAB96749483D9D73F6A12BC218D0ADB3F07B64AB0389CD03F526342CC25D5ED3F5FD3838252B4E23FE413B2F33636D13F4E9A0645F300ED3FFF08C38025D7E43FC6353E93FDF3E83F95B7239C16BCD13F804413286211DE3FCDACA580B4FFDF3FBDFC4E93196FC93FE068C70DBF9BE63F43E55FCB2BD78B3F2A38BC2022B5E33FCAE2FE23D321E83FE7DF2EFB75A7DB3F5CAFE9414129D33F9EB12FD978B0C13FF836FDD98F14A13F28D192C7D372ED3F78D498107349E93F5AB741EDB776D23F9487855AD3BCC93FBFD18E1B7E37CD3FCF86FC3383F8C83FC5ABAC6D8A47E43F1D8F19A88C7FC73F7D03931B45D6D53FCAC4AD8218E8E23F44C18C2958E3D23FBB99D18F8653963FA723809BC58BE63F130D52F01472D43FA0C552245F09943F705B5B785EAAE23F1024EF1CCAD0EA3F5D35CF11F92EE73F8C6A11514C5EEF3F910C39B69E21CC3F29E9616875F2EC3F5567B5C01E13D33F3FA7203F1BB9D93F33C170AE6186D33F973C9E961FB8D43FD784B4C6A093EA3FDF6B088ECBB8DE3F5E6397A8DE1A983FB8019F1F4688ED3F4D9EB29AAEA7E73FFF976BD102B4CB3F05C3B986191AC33FEE073C3080F0B93FB1DCD26A48DCB73F5A12A0A6962DEC3F917D9065C1C4E63FAEB8382A37D1EE3FB5183C4CFB66E03F15C78157CB9DC33F7555A0168307E43FA60EF27A30A9E53F55BFD2F9F0ACE03F838593347FCCE73FFEB5BC72BD6DDE3F73637AC2128FE43FE15D2EE23B31A33F12842BA0504FE73F4606B98B3045D83F1633C2DB8390E73F7EC34483143CE73FD74E948444DAC83FE8305F5E80FDE93F713B342C465DE33F0CCEE0EF1733EB3FB6662B2FF99FD83F2481069B3A0FE63F5036E50AEF72E73FF0FD0DDAAB0FE63FA0C4E74EB0FFEE3FF372D87DC7F0E43F94A3005130E3E03FFB3C4679E6E5D73F95826E2F698CC63FB85851836918C23F8D5E0D501A6AC83F0B26FE28EA4CE03F9CC420B07268D83F7CB60E0EF626D63F79E57ADB4C05EC3F65C405A051BAD43F0D349F73B7EBB53FBC934F8F6D99EF3F93C49272F7B9E43FDF89592F8672EE3FF7729F1C0508E53F4E417E3672DDD03FFD3218231285CA3FF19C2D20B49EE73F53AEF02E17F1EE3F51BD35B05582DF3F6C5D6A847EA6E03F5F97E13FDDC0EB3F50C8CEDBD8ECD23FAC1A84B9DD4BE63F8DEF8B4B55DACE3FE43098BF4266EF3FC28A53AD8559A83FAAB706B64AB0B83F52B7B3AF3C48D13F2444F9821612E53F6CEC12D55B03E93FE3E13D079623D93F5F99B7EA3A54AB3F8F183DB7D095EC3F4A42226DE34FDA3F03E962D34A21D03F7BF99D2633DED03F69C878944A78C83FEACBD24ECDE5D03FB267CF656A12EF3F0B462575029ACE3F23BBD23252EFD73FF12BD670917BB63FC652245F09A4B03FA54A94BDA51CEE3FBA675DA3E5C0E63FD8EF8975AA7CE73FB4E55C8AABCAD33F62670A9DD7D8EE3F9BE5B2D1393FDE3FF7C8E6AA790EE43F0A100533A660E03F40F9BB77D498C83F176536C82423CD3FD655815A0C1ECC3FFB7953910A63DF3F698A00A777F1EF3F03EB387EA8B4E43F8B8D791D71C8BE3FA110018750A5DB3F1F10E84CDA54B53F2D228AC91B60EE3FF0C3414294AFEC3FF86F5E9CF86AAF3F2ECA6C904946DC3FA5D93C0E83F9D83F5CCCCF0D4D59E33FC3482F6AF7ABD03FB30C71AC8B5BE23FF3CAF5B6990AC53F874ECFBBB120E23FE2C80391451AE43F0E4FAF946588933F9016670C7382DE3FCD3E8F519EF9E03FEB909BE1067CE13FF8510DFB3DB1B23F9EB7B1D9916AE03FA741D13C8045EE3F075C57CC086FD43F94BDA59C2FF6D83F0CACE3F8A1D2C23F9012BBB6B75BB23F938B31B08E63EB3F23A46E675F79D93F6F675F79909EE33FC07971E2AB1DEA3F087250C24CDBCF3FE42D573F36C9E53FBB46CB811E6AE33F4FCB0F5CE509B43FB6F7A92A3410C93FFDA02E52280BE53F849CF7FF71C2C03F16BEBED6A5C6E43F30A182C30BA2EA3F4ED4D2DC0AE1EF3F2BBF0CC68844DD3FFD2E6CCD565EE03F045779026127EB3FFED137691A94E53FABE7A4F78D2FE43F6D567DAEB662C53F9DA1B8E34D7EBB3FC748F60835C3EB3F06A1BC8FA339E83F0D5531957EC2D63F9E23F25D4A5DE63F897C9752978CCD3F17F549EEB089A43F03EACDA8F92AB53F658F5033A48AE23FA721AAF06778C93F9EB30584D6C3C13FB58CD47B2A27E43F809D9B36E3B4E43FEE3D5C72DCA9E03FE0675C381092ED3FCEC7B5A1629CD43FD95A5F24B465E83F5B5CE333D93FD13F3B8A73D4D171E73F087250C24CDBE23F840F255AF278E13F3C32569BFF57D63FFC8C0B0742B2D93FBE16F4DE1802903F1E8D43FD2E6CD93FB8AE9811DE9EE93FAF0B3F389F3AD73F37AAD381ACA7763FD21A834E089DEE3F8BFA2477D844DF3FB875374F7548E53FA25D85949FD4E13FEB1C03B2D7BBEA3F7EFFE6C5892FE33FDBC01DA8531EE93F514CDE0033DFE63FDFC325C79DD2EE3F23827170E998AB3F904946CEC29EAE3FB64B1B0E4B83E43F8F8AFF3BA242EC3FFED30D147827BB3F349E08E23C9CB83F567DAEB6627F993F6B274A42226DE23F7E18213CDA38923F3F00A94D9CDCC73F2E1F49490FC3E73F709692E52494EE3FABCC94D6DF12DD3F063065E080969E3F289B728577B9C03FF92EA52E19C7BC3F048D9944BDE0E93F39D1AE42CACFE13F94BE1072DE7FEA3FFAEFC16B9736CC3F7BD80B056C07DB3FC58F31772D21EF3F2FC03E3A75E5933F03B68311FB84E33F1BDA006C4004E83F6E68CA4E3FA8DB3F73A087DA368C923F5BB05417F0B2EF3F95D8B5BDDD922C3F897D02284696DA3F091B9E5E29CBEE3F1669E21DE049E53F3D0FEECEDA6DA73FF9669B1BD393EB3FDC0F78600061EF3F861C5BCF108EC33F3274ECA01257E33F58E2016553AEED3FD3A57F492AD3E53F5F4205871744DA3FE3FC4D2844C0D33FF6B4C35F93B5EA3F784485EAE662E43F0DC1711937B5E03FDBDB2DC901BBD93F6E85B01A4BD8EF3F994A3FE1ECD6EC3F917F66101FD8D33F6094A0BFD023C43F92E7FA3E1C24E13FBC02D19332A9E33F1618B2BAD573EF3F6B2C616D8C9DB43F8ACC5CE0F2D8E03F986E1283C0CAB53F6F46CD57C947E13F3C6C223317B8C03F1A4F04711ECEE93F1AA54BFF9254EE3F6118B0E42A16E63FD6E07D552ED4EE3F027E8D2441B8AA3F999CDA19A636EF3F98512CB7B41ADA3F728BF9B9A1A9E03FAA27F38FBE49EA3F664CC11A67D3EC3F018750A5668FE03F327216F6B4C3E83FFB592C45F295EE3FA8363811FD5AE23F51A5660FB482E43FB519A721AAF0C13FDAC70A7E1BE2E73F57EA5910CAFBE03F5F5E807D74EAC83F69FCC22B499EB73FE5417A8A1C22D93FA5828AAA5F69EF3F96B1A19BFD81EF3F26E5EE737CB4D23FB554DE8E705AB03F8A56EE056685D33F0C5872158BDFED3FD89FC4E74EB0D13F213B6F63B323E23F3D2828452B77EC3FB4722F302B14B13F3E40F7E5CC76EC3FFEB7921D1B81B43F3F8F519E7939BC3F707B82C476F7E93FC4CC3E8F511EEE3F7C8159A148F7BF3F56478E740646BA3F05871744A4A6C13F185DDE1CAED5AE3FB01F62838593C43FD76839D0436DE33F9869FB57569A943F159161156F64D93F999EB0C403CACE3FA29A92ACC3D1EB3FA56950340F60C93FD7F9B7CB7E5DEE3F4D309C6B9821E43F2B4D4A41B797E23F6B494739984DDA3FBD35B05582C5BD3FFB027AE1CE05EE3F3FE603029DC9E43F22E2E6543280E73F630D17B9A7ABEB3FF20C1AFA2738ED3F299485AFAF75E13F32E36DA5D766CB3FFE65F7E461A1E43FC93846B247A8E73FB9DE3653219EE33F79AF5A99F0CBE83F029D499BAA7BE13F3A03232F6B62DB3F5F0A0F9A5DF7D13F2E1A321EA512EB3F99D9E731CAB3EF3FA75B76887FD8CA3F16DC0F786000D43F1AA721AAF0E7ED3F5BEF37DA7143E13F29ECA2E8818F