module {
  llvm.func @malloc(i64) -> !llvm.ptr
  llvm.mlir.global private constant @__constant_101xindex_0(dense<"0x000000000000000026000000000000002600000000000000510000000000000051000000000000007C000000000000007C00000000000000AB00000000000000AB00000000000000CC00000000000000CC00000000000000F400000000000000F4000000000000001B010000000000001B0100000000000047010000000000004701000000000000690100000000000069010000000000008F010000000000008F01000000000000B801000000000000B801000000000000E401000000000000E4010000000000000A020000000000000A020000000000002F020000000000002F02000000000000540200000000000054020000000000007D020000000000007D02000000000000A302000000000000A302000000000000CF02000000000000CF02000000000000FB02000000000000FB0200000000000021030000000000002103000000000000440300000000000044030000000000006803000000000000680300000000000091030000000000009103000000000000B903000000000000B903000000000000E403000000000000E4030000000000000D040000000000000D04000000000000340400000000000034040000000000005D040000000000005D0400000000000084040000000000008404000000000000AA04000000000000AA04000000000000D604000000000000D604000000000000FF04000000000000FF040000000000002B050000000000002B05000000000000520500000000000052050000000000007F050000000000007F05000000000000AB05000000000000AB05000000000000D505000000000000D505000000000000FA05000000000000FA050000000000001A060000000000001A06000000000000410600000000000041060000000000006E060000000000006E0600000000000099060000000000009906000000000000C106000000000000C106000000000000EC06000000000000EC0600000000000015070000000000001507000000000000390700000000000039070000000000006107000000000000610700000000000085070000000000008507000000000000AB07000000000000AB07000000000000CF07000000000000CF07000000000000"> : tensor<101xindex>) {addr_space = 0 : i32, alignment = 64 : i64} : !llvm.array<101 x i64>
  llvm.mlir.global private constant @__constant_1999xindex_0(dense<"0x00000000000000000200000000000000040000000000000006000000000000000E000000000000001000000000000000140000000000000016000000000000001C000000000000001E00000000000000220000000000000028000000000000002A000000000000002C000000000000002E000000000000003200000000000000360000000000000038000000000000003A000000000000003C00000000000000400000000000000042000000000000004400000000000000460000000000000048000000000000004A000000000000004C000000000000004E00000000000000500000000000000052000000000000005400000000000000560000000000000058000000000000005A000000000000005C000000000000005E000000000000006000000000000000620000000000000000000000000000000200000000000000040000000000000006000000000000000A000000000000000C000000000000000E0000000000000012000000000000001400000000000000160000000000000018000000000000001A000000000000001C000000000000001E00000000000000200000000000000022000000000000002400000000000000260000000000000028000000000000002A000000000000002C000000000000002E000000000000003200000000000000340000000000000036000000000000003A000000000000003C000000000000003E0000000000000040000000000000004200000000000000440000000000000048000000000000004A000000000000004C000000000000004E000000000000005000000000000000540000000000000056000000000000005A000000000000005C000000000000005E000000000000006000000000000000620000000000000000000000000000000400000000000000060000000000000008000000000000000A000000000000000C000000000000000E00000000000000100000000000000012000000000000001400000000000000160000000000000018000000000000001A000000000000001E00000000000000200000000000000022000000000000002400000000000000260000000000000028000000000000002A000000000000002C00000000000000300000000000000032000000000000003400000000000000360000000000000038000000000000003A000000000000003C000000000000003E000000000000004000000000000000420000000000000044000000000000004C000000000000004E0000000000000050000000000000005200000000000000560000000000000058000000000000005A000000000000005C000000000000005E0000000000000060000000000000006200000000000000000000000000000002000000000000000400000000000000060000000000000008000000000000000A000000000000000C000000000000000E00000000000000100000000000000012000000000000001400000000000000160000000000000018000000000000001A000000000000001C000000000000001E00000000000000200000000000000022000000000000002400000000000000260000000000000028000000000000002C000000000000002E0000000000000030000000000000003200000000000000340000000000000036000000000000003A000000000000003C000000000000003E0000000000000040000000000000004200000000000000460000000000000048000000000000004A000000000000004C000000000000004E00000000000000500000000000000052000000000000005400000000000000560000000000000058000000000000005A000000000000005C000000000000005E000000000000006000000000000000620000000000000000000000000000000400000000000000060000000000000008000000000000000A000000000000000C000000000000000E00000000000000100000000000000012000000000000001A000000000000001C000000000000001E00000000000000200000000000000022000000000000002A0000000000000030000000000000003200000000000000360000000000000038000000000000003A000000000000004000000000000000420000000000000046000000000000004A000000000000004C000000000000004E0000000000000050000000000000005200000000000000540000000000000058000000000000005C000000000000005E00000000000000600000000000000000000000000000000200000000000000040000000000000006000000000000000A000000000000000C0000000000000010000000000000001200000000000000140000000000000018000000000000001A000000000000001C000000000000001E000000000000002000000000000000260000000000000028000000000000002C00000000000000300000000000000032000000000000003400000000000000360000000000000038000000000000003A000000000000003C000000000000003E00000000000000400000000000000042000000000000004400000000000000460000000000000048000000000000004A000000000000004C000000000000004E00000000000000500000000000000052000000000000005400000000000000560000000000000058000000000000005A0000000000000062000000000000000000000000000000020000000000000006000000000000000A000000000000000C000000000000000E00000000000000100000000000000012000000000000001400000000000000160000000000000018000000000000001A00000000000000200000000000000022000000000000002400000000000000260000000000000028000000000000002A000000000000002C000000000000002E00000000000000300000000000000032000000000000003400000000000000360000000000000038000000000000003E0000000000000040000000000000004200000000000000460000000000000048000000000000004C00000000000000500000000000000052000000000000005400000000000000560000000000000058000000000000005A000000000000005E00000000000000600000000000000000000000000000000200000000000000060000000000000008000000000000000A000000000000000E00000000000000100000000000000012000000000000001400000000000000160000000000000018000000000000001A000000000000001C000000000000001E00000000000000200000000000000022000000000000002400000000000000260000000000000028000000000000002A000000000000002C000000000000002E0000000000000030000000000000003200000000000000340000000000000036000000000000003A000000000000003C000000000000003E0000000000000042000000000000004400000000000000460000000000000048000000000000004A000000000000004C000000000000004E000000000000005000000000000000520000000000000054000000000000005A000000000000005C000000000000005E000000000000006000000000000000620000000000000000000000000000000400000000000000060000000000000008000000000000000A000000000000000C000000000000000E00000000000000100000000000000014000000000000001A000000000000001C000000000000001E00000000000000200000000000000026000000000000002C000000000000002E00000000000000300000000000000032000000000000003400000000000000360000000000000038000000000000003C000000000000003E000000000000004000000000000000420000000000000044000000000000004E0000000000000050000000000000005200000000000000540000000000000056000000000000005A0000000000000060000000000000006200000000000000000000000000000002000000000000000400000000000000060000000000000008000000000000000A00000000000000100000000000000012000000000000001400000000000000160000000000000018000000000000001A000000000000001C000000000000001E0000000000000020000000000000002200000000000000240000000000000026000000000000002C000000000000002E000000000000003000000000000000320000000000000038000000000000003C000000000000003E00000000000000400000000000000042000000000000004400000000000000460000000000000048000000000000004A000000000000004E000000000000005000000000000000540000000000000058000000000000005E0000000000000060000000000000006200000000000000000000000000000002000000000000000A000000000000000C000000000000000E00000000000000100000000000000012000000000000001400000000000000160000000000000018000000000000001C000000000000001E00000000000000200000000000000022000000000000002400000000000000260000000000000028000000000000002A000000000000002C0000000000000030000000000000003200000000000000340000000000000036000000000000003A000000000000003C000000000000003E00000000000000400000000000000042000000000000004400000000000000460000000000000048000000000000004A000000000000004C000000000000004E000000000000005000000000000000520000000000000054000000000000005A000000000000005C000000000000005E0000000000000062000000000000000200000000000000040000000000000006000000000000000A000000000000000C000000000000000E00000000000000100000000000000012000000000000001400000000000000160000000000000018000000000000001A000000000000001C000000000000001E00000000000000200000000000000022000000000000002400000000000000260000000000000028000000000000002A000000000000002C000000000000002E00000000000000300000000000000032000000000000003400000000000000360000000000000038000000000000003A000000000000003C000000000000003E0000000000000040000000000000004200000000000000440000000000000046000000000000004A000000000000004C00000000000000500000000000000052000000000000005400000000000000560000000000000058000000000000005C000000000000006000000000000000620000000000000000000000000000000200000000000000040000000000000006000000000000000C000000000000000E0000000000000010000000000000001200000000000000140000000000000016000000000000001A0000000000000020000000000000002200000000000000240000000000000028000000000000002A000000000000002C000000000000002E0000000000000032000000000000003400000000000000360000000000000038000000000000003A000000000000003E0000000000000042000000000000004400000000000000460000000000000048000000000000004A000000000000004C00000000000000500000000000000052000000000000005400000000000000560000000000000058000000000000005A000000000000005E000000000000006200000000000000000000000000000002000000000000000400000000000000060000000000000008000000000000000A000000000000000E00000000000000120000000000000014000000000000001A000000000000001C000000000000001E00000000000000200000000000000022000000000000002400000000000000260000000000000028000000000000002A000000000000002E00000000000000300000000000000032000000000000003400000000000000360000000000000038000000000000003A000000000000003E00000000000000420000000000000046000000000000004A000000000000004C00000000000000500000000000000052000000000000005400000000000000560000000000000058000000000000005C000000000000006000000000000000000000000000000002000000000000000400000000000000060000000000000008000000000000000A00000000000000100000000000000012000000000000001400000000000000160000000000000018000000000000001C000000000000001E000000000000002000000000000000260000000000000028000000000000002A000000000000002E0000000000000030000000000000003200000000000000340000000000000038000000000000003A000000000000003C000000000000004000000000000000440000000000000048000000000000004A000000000000004C000000000000004E0000000000000050000000000000005200000000000000540000000000000058000000000000005A000000000000006000000000000000620000000000000000000000000000000200000000000000060000000000000008000000000000000A000000000000000C000000000000000E0000000000000010000000000000001200000000000000160000000000000018000000000000001C0000000000000020000000000000002200000000000000240000000000000028000000000000002A000000000000002C0000000000000032000000000000003400000000000000360000000000000038000000000000003C000000000000003E00000000000000400000000000000042000000000000004400000000000000460000000000000048000000000000004A000000000000004C000000000000004E0000000000000050000000000000005400000000000000560000000000000058000000000000005A000000000000005C000000000000005E0000000000000060000000000000006200000000000000000000000000000002000000000000000400000000000000060000000000000008000000000000000C0000000000000010000000000000001200000000000000140000000000000018000000000000001A000000000000001C000000000000001E0000000000000020000000000000002400000000000000260000000000000028000000000000002C000000000000002E0000000000000030000000000000003400000000000000360000000000000038000000000000003A000000000000003C0000000000000040000000000000004200000000000000460000000000000048000000000000004A000000000000004C000000000000004E000000000000005000000000000000540000000000000058000000000000005A000000000000005E000000000000006200000000000000000000000000000002000000000000000400000000000000060000000000000008000000000000000A000000000000000C000000000000000E00000000000000100000000000000012000000000000001400000000000000160000000000000018000000000000001C000000000000001E0000000000000020000000000000002400000000000000260000000000000028000000000000002A0000000000000030000000000000003200000000000000340000000000000038000000000000003A000000000000003C000000000000003E00000000000000400000000000000042000000000000004400000000000000460000000000000048000000000000004A000000000000004C000000000000004E0000000000000050000000000000005400000000000000560000000000000058000000000000005A000000000000005C000000000000005E00000000000000600000000000000062000000000000000200000000000000040000000000000008000000000000000A000000000000000E000000000000001000000000000000120000000000000014000000000000001A000000000000001C000000000000001E00000000000000200000000000000022000000000000002400000000000000260000000000000028000000000000002A000000000000002C000000000000002E00000000000000300000000000000032000000000000003400000000000000360000000000000038000000000000003A000000000000003C000000000000003E00000000000000400000000000000042000000000000004400000000000000460000000000000048000000000000004A000000000000004C000000000000004E00000000000000500000000000000052000000000000005400000000000000560000000000000058000000000000005A000000000000005C000000000000005E00000000000000620000000000000000000000000000000200000000000000040000000000000008000000000000000A000000000000000C000000000000000E0000000000000010000000000000001400000000000000160000000000000018000000000000001C000000000000002000000000000000220000000000000028000000000000002A000000000000002C0000000000000030000000000000003200000000000000340000000000000038000000000000003A000000000000003C00000000000000400000000000000042000000000000004400000000000000460000000000000048000000000000004C000000000000004E000000000000005000000000000000520000000000000056000000000000005A000000000000005C000000000000005E000000000000006000000000000000620000000000000000000000000000000200000000000000040000000000000006000000000000000A000000000000000C000000000000000E00000000000000100000000000000018000000000000001C000000000000001E000000000000002000000000000000220000000000000028000000000000002C000000000000002E0000000000000030000000000000003200000000000000360000000000000038000000000000003A000000000000003C000000000000003E000000000000004200000000000000440000000000000048000000000000004C000000000000004E0000000000000050000000000000005400000000000000560000000000000058000000000000005A000000000000005C00000000000000620000000000000002000000000000000400000000000000060000000000000008000000000000000A000000000000001000000000000000120000000000000016000000000000001A000000000000001E00000000000000200000000000000022000000000000002400000000000000260000000000000028000000000000002A000000000000002C000000000000002E000000000000003200000000000000340000000000000038000000000000003A000000000000003C000000000000003E0000000000000042000000000000004400000000000000460000000000000048000000000000004C000000000000004E0000000000000050000000000000005200000000000000540000000000000058000000000000005C000000000000005E0000000000000000000000000000000400000000000000060000000000000008000000000000000C000000000000000E0000000000000010000000000000001200000000000000140000000000000016000000000000001A000000000000001C000000000000001E00000000000000200000000000000022000000000000002400000000000000260000000000000028000000000000002C00000000000000300000000000000032000000000000003400000000000000360000000000000038000000000000003A000000000000003C000000000000003E000000000000004000000000000000440000000000000046000000000000004A000000000000004C000000000000004E0000000000000050000000000000005400000000000000560000000000000058000000000000005A000000000000005C000000000000005E00000000000000620000000000000002000000000000000400000000000000060000000000000008000000000000000C000000000000000E00000000000000100000000000000012000000000000001400000000000000160000000000000018000000000000001A000000000000001C000000000000001E00000000000000200000000000000022000000000000002400000000000000260000000000000028000000000000002A000000000000002C000000000000002E00000000000000300000000000000034000000000000003A000000000000003C000000000000003E0000000000000040000000000000004200000000000000440000000000000046000000000000004A000000000000004E0000000000000050000000000000005400000000000000560000000000000058000000000000005E0000000000000060000000000000006200000000000000000000000000000002000000000000000400000000000000060000000000000008000000000000000A000000000000000E00000000000000100000000000000012000000000000001400000000000000160000000000000018000000000000001A000000000000001C000000000000001E000000000000002000000000000000220000000000000026000000000000002A000000000000002C0000000000000030000000000000003200000000000000340000000000000038000000000000003C000000000000003E00000000000000400000000000000042000000000000004400000000000000460000000000000048000000000000004A000000000000004C000000000000004E0000000000000050000000000000005200000000000000560000000000000058000000000000005A000000000000005C000000000000005E0000000000000060000000000000006200000000000000000000000000000002000000000000000400000000000000060000000000000008000000000000000A000000000000000C000000000000000E000000000000001000000000000000140000000000000016000000000000001A000000000000001E0000000000000022000000000000002400000000000000260000000000000028000000000000002A000000000000002C000000000000002E0000000000000030000000000000003400000000000000360000000000000038000000000000003A000000000000003C0000000000000040000000000000004200000000000000460000000000000048000000000000004A000000000000004C0000000000000052000000000000005400000000000000560000000000000058000000000000005A000000000000005C000000000000005E0000000000000060000000000000006200000000000000060000000000000008000000000000000A000000000000000C000000000000000E00000000000000100000000000000012000000000000001400000000000000160000000000000018000000000000001A000000000000001E00000000000000200000000000000022000000000000002400000000000000260000000000000028000000000000002A000000000000002C000000000000002E000000000000003000000000000000340000000000000036000000000000003A000000000000003C000000000000003E0000000000000042000000000000004400000000000000460000000000000048000000000000004A000000000000004E0000000000000050000000000000005200000000000000560000000000000058000000000000005A000000000000005C00000000000000620000000000000000000000000000000200000000000000040000000000000008000000000000000A000000000000000C000000000000000E00000000000000100000000000000012000000000000001400000000000000160000000000000018000000000000002000000000000000240000000000000028000000000000002A000000000000002C000000000000002E000000000000003200000000000000340000000000000036000000000000003A000000000000003C000000000000003E0000000000000040000000000000004200000000000000440000000000000048000000000000004A000000000000004C000000000000004E00000000000000500000000000000052000000000000005400000000000000560000000000000058000000000000005A000000000000005C000000000000005E000000000000006000000000000000620000000000000000000000000000000200000000000000040000000000000006000000000000000A000000000000000C000000000000000E000000000000001000000000000000140000000000000016000000000000001A000000000000001E000000000000002000000000000000220000000000000028000000000000002A000000000000002C000000000000002E00000000000000320000000000000036000000000000003A000000000000003C000000000000003E00000000000000400000000000000042000000000000004400000000000000460000000000000048000000000000004A000000000000004C000000000000004E000000000000005000000000000000520000000000000058000000000000005A000000000000005C000000000000005E00000000000000600000000000000062000000000000000200000000000000060000000000000008000000000000000A000000000000000C000000000000000E000000000000001000000000000000160000000000000018000000000000001C000000000000001E000000000000002000000000000000220000000000000024000000000000002A000000000000002C0000000000000030000000000000003400000000000000360000000000000038000000000000003A000000000000003C0000000000000040000000000000004200000000000000460000000000000048000000000000004A000000000000004C000000000000004E00000000000000500000000000000052000000000000005400000000000000560000000000000058000000000000005C000000000000005E000000000000006000000000000000620000000000000000000000000000000200000000000000040000000000000008000000000000000A000000000000000E000000000000001200000000000000140000000000000018000000000000001A000000000000001C000000000000001E00000000000000200000000000000022000000000000002400000000000000260000000000000028000000000000002A000000000000002C000000000000002E00000000000000300000000000000032000000000000003400000000000000360000000000000038000000000000003A000000000000003E00000000000000400000000000000042000000000000004400000000000000460000000000000048000000000000004A000000000000004C000000000000004E0000000000000050000000000000005200000000000000540000000000000056000000000000005A000000000000005C000000000000005E000000000000006000000000000000620000000000000000000000000000000200000000000000040000000000000006000000000000000C000000000000000E0000000000000010000000000000001200000000000000140000000000000016000000000000001C00000000000000200000000000000022000000000000002400000000000000260000000000000028000000000000002A000000000000002C000000000000002E00000000000000300000000000000032000000000000003400000000000000360000000000000038000000000000003A000000000000003C000000000000003E00000000000000400000000000000042000000000000004400000000000000460000000000000048000000000000004A000000000000004C000000000000004E000000000000005000000000000000560000000000000058000000000000005C000000000000005E000000000000006200000000000000000000000000000002000000000000000400000000000000060000000000000008000000000000000C000000000000000E00000000000000100000000000000012000000000000001400000000000000160000000000000018000000000000001A000000000000001C000000000000001E00000000000000200000000000000022000000000000002400000000000000260000000000000028000000000000002A000000000000002C000000000000003000000000000000340000000000000038000000000000003A000000000000003C000000000000003E00000000000000400000000000000042000000000000004400000000000000460000000000000048000000000000004A000000000000004C000000000000004E00000000000000500000000000000052000000000000005400000000000000560000000000000058000000000000005C0000000000000060000000000000006200000000000000000000000000000006000000000000000A000000000000000C000000000000000E000000000000001200000000000000140000000000000016000000000000001A000000000000001C000000000000001E0000000000000020000000000000002400000000000000260000000000000028000000000000002A000000000000002C000000000000002E000000000000003000000000000000320000000000000036000000000000003A000000000000003C0000000000000040000000000000004200000000000000460000000000000048000000000000004A000000000000004C000000000000004E00000000000000500000000000000052000000000000005400000000000000560000000000000058000000000000005A000000000000005E000000000000006000000000000000620000000000000000000000000000000200000000000000060000000000000008000000000000000A000000000000000C000000000000000E0000000000000010000000000000001200000000000000140000000000000016000000000000001A000000000000001C000000000000001E0000000000000020000000000000002200000000000000240000000000000026000000000000002A000000000000002C000000000000002E00000000000000300000000000000032000000000000003400000000000000360000000000000038000000000000003A000000000000003E00000000000000400000000000000042000000000000004400000000000000460000000000000048000000000000004A000000000000004C000000000000004E0000000000000050000000000000005200000000000000540000000000000058000000000000005A000000000000005C000000000000005E0000000000000060000000000000006200000000000000000000000000000002000000000000000400000000000000060000000000000008000000000000000A000000000000000C000000000000000E000000000000001200000000000000160000000000000018000000000000001A000000000000001C000000000000001E00000000000000200000000000000022000000000000002400000000000000260000000000000028000000000000002A000000000000002C000000000000002E00000000000000300000000000000032000000000000003400000000000000360000000000000038000000000000003A000000000000003C000000000000003E0000000000000042000000000000004400000000000000460000000000000048000000000000004A000000000000004C000000000000004E00000000000000500000000000000052000000000000005400000000000000560000000000000058000000000000005E00000000000000620000000000000000000000000000000200000000000000040000000000000008000000000000000C000000000000000E0000000000000010000000000000001200000000000000160000000000000018000000000000001A000000000000001C000000000000001E000000000000002000000000000000240000000000000026000000000000002A000000000000002C000000000000002E0000000000000030000000000000003200000000000000340000000000000036000000000000003A000000000000003C000000000000003E0000000000000040000000000000004200000000000000460000000000000048000000000000004A000000000000004C000000000000004E00000000000000500000000000000052000000000000005400000000000000560000000000000058000000000000005A000000000000005C000000000000005E00000000000000620000000000000006000000000000000A000000000000000C000000000000000E000000000000001200000000000000140000000000000016000000000000001A000000000000001C000000000000001E00000000000000200000000000000022000000000000002400000000000000260000000000000028000000000000002A000000000000002E00000000000000300000000000000032000000000000003400000000000000360000000000000038000000000000003A000000000000003C000000000000003E0000000000000040000000000000004200000000000000460000000000000048000000000000004A000000000000004E0000000000000056000000000000005A000000000000005C000000000000005E000000000000006000000000000000620000000000000000000000000000000200000000000000040000000000000006000000000000000A000000000000000C000000000000000E000000000000001000000000000000140000000000000018000000000000001E0000000000000020000000000000002200000000000000240000000000000026000000000000002C000000000000002E000000000000003000000000000000320000000000000034000000000000003600000000000000400000000000000044000000000000004C000000000000004E000000000000005200000000000000540000000000000058000000000000005A000000000000005E000000000000006000000000000000620000000000000000000000000000000200000000000000040000000000000006000000000000000A000000000000000E0000000000000010000000000000001200000000000000160000000000000018000000000000001A000000000000001C000000000000001E00000000000000200000000000000022000000000000002400000000000000260000000000000028000000000000002A000000000000002C000000000000002E0000000000000032000000000000003400000000000000360000000000000038000000000000003A000000000000003C000000000000003E0000000000000040000000000000004200000000000000440000000000000048000000000000004A000000000000004C000000000000004E00000000000000500000000000000056000000000000005C000000000000006000000000000000000000000000000002000000000000000400000000000000060000000000000008000000000000000A000000000000000C000000000000000E0000000000000010000000000000001200000000000000140000000000000018000000000000001A000000000000001C00000000000000200000000000000022000000000000002400000000000000260000000000000028000000000000002A000000000000002C00000000000000300000000000000032000000000000003400000000000000360000000000000038000000000000003A000000000000003C000000000000003E00000000000000400000000000000042000000000000004400000000000000460000000000000048000000000000004A000000000000004C0000000000000050000000000000005200000000000000540000000000000058000000000000005A000000000000005C000000000000005E000000000000006000000000000000620000000000000000000000000000000200000000000000040000000000000006000000000000000A000000000000000C000000000000000E00000000000000100000000000000012000000000000001400000000000000160000000000000018000000000000001A000000000000001C000000000000001E0000000000000020000000000000002200000000000000240000000000000026000000000000002A000000000000002C0000000000000030000000000000003200000000000000340000000000000036000000000000003A000000000000003C000000000000003E00000000000000400000000000000042000000000000004400000000000000460000000000000048000000000000004A000000000000004E0000000000000050000000000000005400000000000000560000000000000058000000000000005A000000000000005E0000000000000060000000000000006200000000000000000000000000000002000000000000000400000000000000060000000000000008000000000000000A000000000000000C000000000000000E0000000000000010000000000000001200000000000000140000000000000016000000000000001A000000000000001C00000000000000220000000000000028000000000000002A000000000000002C000000000000002E00000000000000300000000000000032000000000000003400000000000000360000000000000038000000000000003A000000000000003E0000000000000040000000000000004200000000000000460000000000000048000000000000004A000000000000004C000000000000004E0000000000000050000000000000005200000000000000560000000000000058000000000000005E0000000000000060000000000000006200000000000000000000000000000002000000000000000400000000000000060000000000000008000000000000000A000000000000000E0000000000000010000000000000001400000000000000160000000000000018000000000000001A000000000000001E0000000000000020000000000000002200000000000000260000000000000028000000000000002A000000000000002C000000000000002E0000000000000032000000000000003400000000000000360000000000000038000000000000003C000000000000003E0000000000000040000000000000004200000000000000440000000000000046000000000000004A000000000000004C000000000000004E00000000000000500000000000000052000000000000005400000000000000560000000000000058000000000000005A000000000000005C000000000000005E000000000000006000000000000000620000000000000000000000000000000400000000000000060000000000000008000000000000000A000000000000000C0000000000000010000000000000001200000000000000160000000000000018000000000000001A000000000000001C000000000000001E000000000000002200000000000000260000000000000028000000000000002A000000000000002C000000000000002E00000000000000300000000000000032000000000000003400000000000000360000000000000038000000000000003A000000000000003C00000000000000400000000000000042000000000000004400000000000000460000000000000048000000000000004E0000000000000052000000000000005400000000000000560000000000000058000000000000005A000000000000005C000000000000005E00000000000000600000000000000062000000000000000000000000000000040000000000000008000000000000000C000000000000001000000000000000140000000000000018000000000000001A000000000000001C000000000000001E0000000000000020000000000000002200000000000000260000000000000028000000000000002A000000000000002E00000000000000320000000000000038000000000000003A000000000000003C000000000000003E0000000000000040000000000000004200000000000000440000000000000048000000000000004A000000000000004C000000000000004E00000000000000500000000000000052000000000000005400000000000000560000000000000058000000000000005C000000000000005E000000000000006200000000000000020000000000000006000000000000000C000000000000000E000000000000001200000000000000140000000000000016000000000000001A000000000000001C000000000000001E00000000000000200000000000000022000000000000002400000000000000260000000000000028000000000000002A000000000000002C000000000000002E0000000000000032000000000000003400000000000000360000000000000038000000000000003A000000000000003C00000000000000400000000000000042000000000000004400000000000000460000000000000048000000000000004A000000000000004C000000000000004E0000000000000050000000000000005400000000000000560000000000000058000000000000005A000000000000005C0000000000000060000000000000006200000000000000000000000000000002000000000000000A000000000000000C000000000000000E000000000000001000000000000000140000000000000016000000000000001A000000000000001C000000000000001E00000000000000200000000000000022000000000000002400000000000000260000000000000028000000000000002A000000000000002E000000000000003400000000000000360000000000000038000000000000003A000000000000003C0000000000000040000000000000004200000000000000440000000000000048000000000000004A0000000000000050000000000000005200000000000000540000000000000056000000000000005A000000000000005E000000000000006000000000000000620000000000000000000000000000000200000000000000060000000000000008000000000000000A000000000000000C000000000000000E0000000000000010000000000000001400000000000000160000000000000018000000000000001C000000000000001E0000000000000020000000000000002200000000000000240000000000000028000000000000002A000000000000002C00000000000000320000000000000034000000000000003A000000000000003E00000000000000400000000000000042000000000000004400000000000000460000000000000048000000000000004A000000000000004E0000000000000052000000000000005400000000000000560000000000000058000000000000005A000000000000005C000000000000005E00000000000000620000000000000000000000000000000200000000000000040000000000000006000000000000000A00000000000000100000000000000012000000000000001E00000000000000200000000000000022000000000000002400000000000000260000000000000028000000000000002E000000000000003000000000000000320000000000000038000000000000003A000000000000003C000000000000003E00000000000000400000000000000042000000000000004400000000000000460000000000000048000000000000004A00000000000000500000000000000052000000000000005400000000000000560000000000000058000000000000005A000000000000005C000000000000005E0000000000000060000000000000006200000000000000"> : tensor<1999xindex>) {addr_space = 0 : i32, alignment = 64 : i64} : !llvm.array<1999 x i64>
  llvm.mlir.global private constant @__constant_1999xf64_0(dense<"0x2DB4739A057A0D4044FAEDEBC0190440ED116A8654511440A051BAF42F6900404698A25C1AAF1040F4FC69A33ABD10406E6B0BCF4B1517409355116E32D22040F04FA912650F0E4010786000E1131D4075745C8DECAA1040BB270F0BB5761E40E36BCF2C0950F03F39EFFFE384B92340AC8E1CE90C2C1A40279F1EDB32482240D578E9263188E43F07EE409DF228F53F87FE092E56B40240D2E28C614E401B40A1F65B3B51920240F9C08EFF02C118405116BEBED6051740359A5C8C81950C40EFC682C2A04CFF3F624D6551D84522406FF085C9546120403C873254C5D41540F33AE2900DA411406A8995D1C8270D4094F947DFA4B123406687F8872DCD11402EC72B103D4917402C6684B707C11B40BA13ECBFCE4D1B4048E00F3FFF7D0640F0DDE68D9382F93FCDE847C329F3E83FFC1BB4571F67234056EF703B34EC1F4027840EBA840B2140B937BF61A2E108409067976F7DC81440BD5301F73C6F2140DA571EA4A7A02340D40FEA228522134019FED30D145816408D2AC3B81B9C2340849CF7FF7182FB3F946B0A64761622406F2A52616C41114068791EDC9D150D401F317A6EA1EB1540709692E5248411403BC8EBC1A4380140E736E15E99B7CC3F7D21E4BCFFCFFA3F1C959BA8A5F910405DFE43FAEDCB21409818CBF44B94174008E929728838164004CB11329027214038BF61A241CA0A4066A3737E8AF31B40159161156F541E40FF93BF7B4775234095F3C5DE8B7F11407555A01683F71640D525E318C9AE1440344A97FE25D918408A5B0531D09D204059DFC0E44671124070ED444948B419404679E6E5B09B0F409A5C8C81755CF93F0E32C9C859681340B03DB324401D10404C1C7920B2E81340BFD6A546E8A7F53FA185048C2EAF1D40A92F4B3B35A71E40A8C64B3789610D4011E2CAD93BDB23403EB48F15FC7611400647C9AB739C1E4004E78C28EDBD14407E350708E640234096236420CF2EBF3F5CC7B8E2E22020409752978C63241240037AE1CE857119407FBC57AD4CB020402D9622F94A20EB3F878BDCD3D55DFD3F397B67B455B915400ED8D5E4290B0840F240649126462240DFFE5C34647CF33F06D49B51F3051640DA8CD31055581E40E99D0AB8E7A91E40948444DAC6EF1E40177E703E75BC194007CE1951DA2B1B40FCA9F1D24DB21D4032ACE28DCCEB2340C0B2D2A414241840422619390B3BFF3F753E3C4B904921403672DD94F2422140257A19C572732240A3B08BA2073EFD3FE773EE76BD540140E42CEC6987CF1D4034B91803EBF022406E6C76A4FAC62340D6E3BED53A310140BDC282FB017F2240DC2BF3565DC7FF3F7235B22B2D831540FD1186014BAEF63FFB75A73B4F3C2140EBE40CC51D1F1F40338CBB41B45613403FE1ECD632991640D26F5F07CE012040F19E03CB11F2214019FED30D1478E93F4432E4D87A06EC3F0B9B012EC816EC3FE84A04AA7FC01340E411DC48D9AA2040F1475167EEA104407C9BFEEC47CA18409A42E735760919401A5245F12A4B2040DB19A6B6D4F120402429E96168651C405514AFB2B6A9FE3F9C3237DF880E1440834E081D74D91F4013656F29E70BFA3FE88711C2A3CD08405B7C0A80F10CF73FAC02B5183CAC1E40202A8D98D9E7D63FC992399677D519402C0DFCA886FD17408E5BCCCF0DCDFF3FBD55D7A19A0220406C0723F609801C40075C57CC08EF0940A228D027F204224028EE7893DFC21A40E76F422102EE0A401C7DCC07040A1040A33F34F3E49AE23FA9BC1DE1B4D01F40ABD1AB014A9311402E90A0F831E6D53FE659492BBE711840D1CC936B0A641C402FC1A90F248720404D4EED0C535B1840C007AF5DDAC015409351651877032040F015DD7A4D6F0940CD565EF23F790D403196E99788D703408F1CE90C8C9C19403ACB2C42B1BD234049DA8D3EE69314404087F9F2026CFE3FBA15C26A2C21064026DF6C73633A2240611C5C3AE63CB33F6404543882D4F23F6494675E0E4B1240FA804067D2A61F40EDB8E177D30D18404051D9B0A6E22040DA91EA3BBF28B13F04ABEAE5772A184055849B8C2AC3DB3FCFDC43C2F7562240EE409DF2E8C6E83FF9DC09F65FF71240F18288D4B45B1340E3AAB2EF8AE0154028F4FA93F88C204016F6B4C35F93FC3F24B4E55C8A8B01406808C72C7BC22040F30357790221F53FE318C91EA18E204069E55E605628FB3F93382BA2261A234066BB421F2C931240BE1589096AC02140C2C1DEC490DC0F408940F50F22F9134060C9552C7EC31B403E07962364A0FB3F2F35423F53EF0C40261B0FB6D8A52240EC4CA1F31AFB1E40D2AA9674943317404E27D9EA720A2240240A2DEBFED10E408D2AC3B81B341240E0A0BDFA78D81A40A96C58535914C23F161747E5260A134098C1189128340640FB1EF5D72BFC1D4069520ABABDC41D4002B7EEE6A92E1340AD86C43D969E02402D5E2C0C91530F40BEDD921CB0432040D32EA699EE0517402BDF3312A1611D40A6D425E3184904409FAA4203B1DC1E40A647533D997FE63FC3499A3FA6B5DD3F029D499BAA0B18407BF65CA626B12040FAD005F52D330E402844C02154090740E89FE062458DE83F768D96033D9419402EAD86C43D16EB3FCADE52CE176B1B40D8D825AAB786FD3F2639605793371C400E4C6E14597B1940B0E76B96CB16144070D05E7D3C241840B114C95702E9F73FDE7536E49FB91840F209D9791B4B1340BC07E8BE9CD9FA3FA8902BF52CF812400E4E44BFB6E62140DC9E20B1DD6D1340F33D23111AC1F53F14E7A8A3E3DA1E403B70CE88D20E1F4092088D60E3AA1540D1915CFE437222405FB35C363A371840C9FFE4EFDE111740EBC726F911FF204080F44D9A06251C40BC02D19332392340F9BF232A544719400FD4298F6EE40A400D535BEA20AF973F718DCF64FFDC164002F22554708021409415C3D5019004403929CC7B9CB915401F4C8A8F4F382340309FAC18AEA62240EED0B01875CD0040FF5D9F39EBDB224035D1E7A38C8817405F61C1FD805F2240CB2F833122D1EB3F46EC134031822340E62329E961F815409EEE3CF19CAD1140F549EEB0894C1140D7C3978922841F400395F1EF334E2040C5A9D6C22CD4234010B22C98F86302401E34BBEEADA80640AA285E656D53CC3FD120054F21E716403BC43F6CE9B10D40E8D9ACFA5C2D0040F758FAD005D51840268BFB8F4C971D4035B8AD2D3C5F1140C2189128B47C1B402DCF83BBB336F73FFB5B02F04F712340DE5A26C3F13C20405396218E75B11E405453927538FAFE3F70B4E386DF4DC33F17838769DF1C174048E2E5E95C011A4024986A662D450040AF93FAB2B4C317402E55698B6B2C164017D34CF73A690E4025B1A4DC7D3E124077DCF0BBE976154052280B5F5FEBFF3FC636A968AC9D1F40EE5D83BEF4F61C406F48A302279B19400AA359D93EA4F03FE23C9CC074CA194048A81952453106405EF7562426C81D40DE74CB0EF10FED3F69C6A2E9ECA4FA3FA41AF67B62CD1D40284696CCB19C064089EDEE01BAEF1240E3361AC05BD01340FA980F08741616409EEBFB709090F03F69FF03AC55BBEC3F2577D844665E1E40D881734694160B4015AC71361DC1F43FE469F981ABDC0F4062D8614CFABB1340EBE0606F6248D33F7E384888F2C5F93F643BDF4F8DE7194012F758FAD0A50940ECA012D731AEEF3FCE52B29C84320840D427B9C3263A214030B95164ADE1104047E6913F187021407F5017299485E13F342C465D6B8F0E40DC9C4A06809A234093C83EC8B240164028EE7893DF521A40AAD381ACA7D6E43FDFA815A6EFB5EB3F053411363C952240696E85B01A4B1840A759A0DD21151F40D17AF83251341A408CD8278062441B407D7A6CCB80D31C4036EA211ADDF1184054E3A59BC420004008AF5DDA705022409E44847F1144234028D53E1D8F591C40BC9179E40FA60F40EBFEB1101D121B40FE7E315BB2AAFE3FF778211D1E42E53FDD41EC4CA1E319404FCE50DCF1D616404F95EF19893019401E32E54350150E40DF3312A1117C1B40FB761211FE151C4060B1868BDCB309407E022846966C1D40137F1475E65EFD3F96CE87670932D13F5455682096CDCC3FA88E554ACF541740FE7C5BB054770540B20E4757E96E1940BD512B4CDFEBE33FB8019F1F46C8F13FE7ABE46377511940711B0DE02D900C40CE16105A0F4F21409AE95E27F58510404B1E4FCB0FCC1C4086E28E37F92D1C401BBE8575E35D0540FF25A94C31E7234052B5DD04DFB4F03F1C0A9FAD83E3194017467A51BB7F1F40632B685A6265F73F1DCA501553E9C93FFCFCF7E0B54B1C40E2B19FC552840C400A664CC11A57224028D4D347E0BF1740F20A444FCA840440185B087250322340556AF6402BB0F43F4913EF004FDAEA3FDE3EABCC94361F40A12DE7525C051940B8CCE9B298B82240C68B852172BA2140594FADBEBAAA174036E84B6F7FD6234008CC43A67CC8FF3F89981249F4920A40D6E5948098849B3F2D793C2D3F70FA3FDE205A2BDA1CF13F6B10E6762FA72140F65E7CD11E2F1D407FBDC282FB010840FFB0A54753AD2140AA44D95BCAF9FC3F8E791D71C806C43F2C29779FE323F53FEF552B137EE90C4017105A0F5FA6E13FD55A9885765E1640F146E6913F781440A4A833F790B01740F486FBC8AD49F53FB2F50CE198B51A403946B247A8B91C403411363CBDA21D4050C24CDBBF9219400E6ABFB51325FF3F730F09DFFB5BFA3F5F44DB3175871D40CA6FD1C952D3204053AEF02E17B1F03F226FB9FAB189FA3FBB421F2C6363034031EC3026FDBDE23FCA4FAA7D3A9E1D4038F7578FFB56C53FB14E95EF1989F23F6DFFCA4A9352DD3F7DB262B83AF01A40826F9A3E3B8010402AFD84B35B8B1E40B554DE8E70DA01402F698CD651F50840ABB184B531061A40753FA7203F9B0640441669E21D7021401021AE9CBDB3E93FFC8D76DCF03BFB3F7F4FAC53E58B2140C9ACDEE176E81D404B395FECBD181140AC3AAB05F618ED3F8B70935165681240BD1E4C8A8FAF1D406A6AD95A5FA418406346787B10E207409AB51490F6FF23401ADB6B41EF2D1C404F90D8EE1E7011408E3C1059A4290840088F368E582B1A40151A886533871A40E5417A8A1C9219401DE5603601D620406D59BE2EC3FF13408CF50D4C6E14B53FE0F258333208FB3FA67D737FF5F81840E692AAED26F8DA3FFE9B1727BE8221401AF8510DFBC522405393E00D69940A4022A81ABD1A200F40772FF7C951901440B83D4162BBFB0940AC53E57B46A2E33F0070ECD97399F53FFF5BC98E8D600740349F73B7EBA5E73F4DD9E90775512040F92EA52E19B71540787AA52C438C1E40ED6305BF0D5111402DCF83BBB376BB3F682096CD1CB205404ACFF41263912340A245B6F3FDD4124080F44D9A066D2040E02BBAF59AFE0540F3FFAA23473AD53FA5F78DAF3D43124076A73B4F3CBF22401DC70F95462C0C406DFDF49F352F1C40F086342A70F2FE3F689599D2FAEB194053B4722F304B23407651F4C0C70002406C76A4FACEAF1740C3802557B1581C40E82E89B3223A1540F7B182DF86481C40A0A9D72D02B31340F816D68D77471140096F0F424066224037FE4465C3FA1540E09F5225CACE2340923EADA23F54054063F20698F9662340A30392B06FE70040B4E7323509FE09404DA3C9C518D8FB3F4EF1B8A8166118405704FF5BC96E0740525F96766A1E1F40E7E099D024B10F40ACE63922DFFD2240126C5CFFAE5F1D4058552FBFD384204003780B2428FEED3F3927F6D03E761840E338F06AB9330E40E65C8AABCA6E1A4015731074B49A1B40E275FD82DDF022406000E14389161240C634D3BD4E1A11407C0A80F10C6A1E401E6FF25B74B2B03F707CED9925692240CB4BFE277FF71A409FE6E44526982140B1F9B83654542040876EF607CA2DF73F50560C5707800F400953944BE3D719400A4CA7751B1415400ED8D5E42933204085EB51B81E852140EDD286C3D2C011402C634337FB430A404772F90FE9C720400B410E4A98991A4048895DDBDB4D1C405186AA984A3F1E40593673486AD117406ADE718A8E5413401822A7AFE7AB13404209336DFFCAE13F087767EDB6DB16409207228B346123409163EB19C2611540D600A5A14691234069C537143E7B194086C8E9EBF9DAF13F492D944C4E2DFA3F87FE092E566C21403108AC1C5A440A40390D51853FFB2240A8514832AB072240469A780778120A40841266DAFE150140967840D9940B0240B282DF86184F17406B65C22FF5531B40E7E26F7B82141F4031D0B52FA0871E4079B130444E6F23407C2C7DE8823A13400C06D7DCD14F1F4040C39B35789F0740FA9AE5B2D1E916400B9C6C0377801240CAA65CE15DEE1640FB1EF5D72BACEA3F2BBEA1F0D92A1F4023F8DF4A76EC0D40F73AA92F4B432040C59272F7393E0B407AE2395B40481340AC90F2936A9FF03F990F0874267D124046B247A819C2174044F7AC6BB4DCFB3FD234289A07001340D4B5F63E55E51F4035971B0C751021401074B4AA251DE43FBD546CCCEB08EA3F36902E36ADA41340E014562AA8B81D404D83A27900FB1040990E9D9E77C3204043E1B37570382140751F80D426AE2040BB0CFFE906FA1940AC71361D016C194099F38C7DC9461540E736E15E99F702401C0A9FAD83331440FC7266BB42C723403B70CE88D22E23403B3AAE46767514407AFF1F274CF80940AFE94141292A114001158E20952210402481069B3ADF10408FE1B19FC532024046CF2D7425A21B40F8FC304278740640CAC2D7D7BAF400404FEB36A8FD56F13F8789062978FA1C402383DC459862F83FC6FA0626378A1240923CD7F7E1C00140BEA4315A47A51340A47213B53477FB3F3B342C465D7B1A40EAE923F087672140A2EC2DE57C71F03FE7FF55478EB4FB3F581B6327BCC41040FDF84B8BFAD41940C173EFE192DB2040B83B6BB75D48014022C154336BE1204009FF2268CC241540DCB8C5FCDCA8214053758F6CAE5A2340C3633F8BA5C8F43FA8531EDD081B1940CA6DFB1EF5B718408AE942ACFE0809405000C5C892190D40B151D66F2616174074EB353D28D82340BFBA2A508BC1C93F060FD3BEB93F1740C347C4944862F63F17105A0F5FA61440D53E1D8F19981940DCB930D28B5AEF3F59A7CAF78CB41C40F2B4FCC0559EF93FB66801DA56EB2340965E9B8D952819404AB54FC763660140DE03745FCE6C1340EF53556820E617403CDEE4B7E87C22404BCADDE7F8C805409D1210937031204028B517D1768CF83F4DDA54DD23EB1A40A375543541D41340941799805FE3F03FAC1BEF8E8C65164097C4591135811F402AC93A1C5D451D40187B2FBE688FC93F3E25E7C41EAA2140C0B0FCF9B6C009403B8908FF22581D40F7CC920035351E400A302C7FBE5D1B40D6C8AEB48C140240E6AE25E483CE1140919A7631CD841D40253FE257AC111F409D4A06802A6ED93FAF7C96E7C13D1F405E2D776682A11940030B60CAC0112040EE940ED6FFC91040579753026292FD3FDDEA39E97DE3F63F1FDB32E02CBD22404A79AD84EEA21140643E20D099B42340B5DC99098673F33FF94CF6CFD3D01540A88AA9F4134EF03F28D6A9F23DE30540519FE40E9B6811409DBB5D2F4D611440FE62B6645504ED3F676490BB0853E13F4AECDADE6E01234031EBC5504E140F40B8CB7EDDE94E0E40EF5696E82C8319405F0CE544BBA22140B0743E3C4B90D73FEBFF1CE6CB3B2340696E85B01A8B1A40EA77616BB62221404513286211C39E3FDD28B2D6504A1B40B5DFDA8992D00840EF6FD05E7DFC0F4088670932024A054031EA5A7B9F8A104024473A0323F720403143E38920CEC33F94F6065F98142040F0FACC599F421740A8514832ABF7164074266DAAEE611240FE2B2B4D4AE119404BB0389CF9950040B7ED7BD45F6F07402619390B7B6A13405323F433F57A1C4011902FA182831E4004FF5BC98EAD04402788BA0F40D223407495EEAEB3792140723271AB20D62340062B4EB516161240D7A546E86792234032755776C1A01F40618A7269FC6A2240CB82893F8ABAEE3FA4A833F790B002403A1F9E25C848F33FBC92E4B9BE4F1B403EB2B96A9EE301405E4BC8073D9B1E40F9A3A833F718224062122EE4113C0440D0285DFA9704174061FC34EECD0F1E400C957F2DAFEC1A406C96CB46E774204092E68F696DBA03403E963E74417DE63F91D3D7F335EB1C4024B9FC87F4DB873FF52EDE8FDBDF11401500E31934B40D40A9BF5E61C1DD1C40BF6378EC67711240286552431BB0154074417DCB9C2ECF3F2F35423F530F1B40E08096AE607B1D4013286211C3DE204091291F82AA9111407F85CC9541D50B40E621533E04551A404B94BDA59C8F0D409335EA211ACD2340F3CCCB61F71DFB3FDBFCBFEAC8910A4098A25C1ABFF0EB3FC85EEFFE788F1540AE8383BD8931104034BC5983F7551D4082FE428F18F52240390EBC5AEE2C21405CE49EAEEE380C40F627F1B9136CFF3F77F35487DCCC144009E1D1C6111B1540537B116DC734204021205F4205371640069D103AE812C83FC171193735601F40B9AAECBB22F8F13F111C97715383184096D05D1267151140CB30EE06D15AE33F7D5C1B2AC679E43F4D840D4FAF1409400C906802454C0D4065170CAEB963F03FE94999D4D02E23408E9257E718700140D9B27C5D867F0540DC65BFEE7427F83FAFB0E07EC0631A4060E811A3E796E73F9AB1683A3B19F23F66A032FE7DC6C13F8E942D9276D32140F0FACC599F72174022895E46B1FC0E402DEDD45C6E30CE3F7AA9D898D7D1FD3FE36C3A02B859FB3F2DD15966111A114001892650C4D22340D619DF1797AAD73F5089EB1857FC1240E813799274CDDB3FDCBC7152989F22405307793D98342140637FD93D7958A03F2028B7ED7BA41F40126C5CFFAE9F174066118AADA0A12340DC0E0D8B51971A40AE49B72572C1E23FC4CC3E8F517E0A40B9A5D590B807FE3FD19332A9A16D124023A0C211A4C220406EE00ED429AF1D401024EF1CCA50AD3F1EC18D942D32154026FE28EACC9D064053910A630BC1EA3FA583F57F0EF3D63F82902C60022F2240BFB5132521D1FB3FAE64C74620DE02407B8505F7039EF43F3F55850662990A40FE4465C39A8A034058AEB7CD5448FC3F499F56D11F5222401F477364E5971C4060C9552C7ED3FC3FBABBCE86FCB3E33FB153AC1A847907402EAC1BEF8E0C1A40A019C407767CF73F19AF795567C51040FA5FAE450BC01A40103CBEBD6B602140D53DB2B96A2E1D40994A3FE1EC8E2340397B67B4558907402F35423F530F1F404A7B832F4C060340D828EB371353034051853FC39B7D23406901DA56B37E2240F9484A7A18DA07405FB69DB646B4194098DF6932E3CD12405793A7ACA62B0240707841446A5AF23FE4310395F17F1440CD3CB9A6405611409FC9FE791A701640E15F048D996415406555849B8CAAEB3FD55A988576EE21403A933655F76810404582A966D66A234001A436717217224054FEB5BC721D02401E6D1CB1169F20407D94111780F61140ACE3F8A1D2882340D2393FC571C01040A3E6ABE463B71C40A26131EA5ABB14408CBFED09122B2340645C717154EE0940C3BB5CC4773222406C5CFFAECF9C0C408080B56AD704FD3F2ECA6C9049561640CB845FEAE7AD134018B0E42A161F084026E0D74812240F400262122EE4510940CEAACFD5565C1A402D0ABB287AD823401503249A40A9224062DA37F757FF1F409CFC169D2CB51D40CCB56801DAF61540C7F143A511831940BE86E0B88C6B1A4032B08EE3873A15404D86E3F90C28E03F0727A25F5BBF2240A75B76887FA818403A22DFA5D425DD3F75C93846B27F20409DD497A59DBA23406808C72C7B7A2040F20A444FCA441C402BC3B81B446BD93F4356B77A4EAA1140BEF90D130DCA204076525F96760A0B402EC72B103DB91D40FA0967B796991F400EF8FC30429021405FEB5223F473FA3F9AEB34D252F9E43F7BBDFBE3BD2221404A29E8F6922E2340151F9F909D07154094C0E61C3CD30D403831242713971540D04719710168F83FB39AAE27BA2E00402B1213D4F0A523405B96AFCBF09FFF3FEB8B84B69C0B20400490DAC4C9452140A2B5A2CD71DE2340ACE3F8A1D2F020402733DE567AFD20400C5C1E6B46660F407F4B00FE2995F03F892991442F8B2340E5D53906649F2040511212691B0F1C40745FCE6C57E8ED3FAEBA0ED594241B40B01EF7ADD6C9FE3FB9C1508715BE16403BFF76D9AF3BF93F0E12A27C414B1E409692E524947E1F4092B1DAFCBF32234073A1F2AFE5F50240276C3F19E3EB20407497C4591135B13F34F44F70B1122140AF43352559471D405F268A90BA3D0F400BB77C2425BDEE3F7F164B917C2509406F2EFEB6276823406EC493DDCC28FD3F63B9A5D590180940D8D2A3A99EFC214015E29178790A1740A6D0798D5DA2F63F3AEB538EC9E20740ED10FFB0A5C71440AE9D280989740940FE7C5BB054E72140AD4CF8A57EDE114048A5D8D138E41F40739F1C0588122340C2BD326FD575F73F4D4BAC8C469E0740823CBB7CEB03F43FF8359204E13222404EF1B8A816B1234097395D1613932040C381902C60021640016DAB5967F421409B3C65355D6F1340132C0E677E35FD3FFCA6B05241DD23405A46EA3D9553F23F01C0B167CFF52140734BAB2171AF1A4027BD6F7CED1901406EA12B11A89E114090847D3B899817406C04E275FD221D4033880FECF8BF124038A0A52BD8061C400D17B9A7AB7B1F403B6F63B32365164029ED0DBE30F900400D6C95607138D63F7BD976DA1A310740EB71DF6A9D68214072F8A41309D61E409C69C2F69331F73F98F738D384EDE53F6380441328021A40E9B6442E38830940BD70E7C2481F13400B7A6F0C01A01940AC1E300F99920940D36C1E87C19C02409CFBABC77D2B014061AA99B514E01440219221C7D6C31E403849F3C7B4262140A837A3E6AB741040D13B1570CF53114074D3669C86A81940558A1D8D435D10409ECE15A584400840834C327216F6234075E95F92CA14D33FD862B7CF2A73FE3F268A90BA9DFDE73F51BCCADAA6081A40FD169D2CB56E20403A22DFA5D4450E40463F1A4E999BE63F664D2CF0154D1540A14D0E9F7422E53F488787307E9AE43FABB4C5353EB32140317898F6CD3D204071AB2006BA761B40ABCE6A813D460E4079CC4065FC3B0E407C7F83F6EAE3DB3F40DEAB56267CF53F4510E7E104A6B33F72FBE59315C3AD3F3602F1BA7E692140378B170B4364E93F14EB54F99E9100405247C7D5C8EE1C40C8EE0225059619401E166A4DF3AE0A408237A45181031340825660C8EAB618409F211CB3ECC91740601E32E54330194018963FDF164C1D401631EC30261D1940B9895A9A5B610840FAF02C4146301A400EBE30992A082240BC92E4B9BEAF204037C30DF8FC9013409D2ADF3312811B40E2218C9FC6AD1840603C8386FED12240B6D9588979461740D15CA791960A07405514AFB2B66907408DD5E6FF55A71640A75D4C33DDEB1E403B72A43330320140F38FBE49D3F010406B0C3A2174D00040488B338639511F40BF0D315EF3C22040109546CCECF31B40BFF4F6E7A2211940026553AEF0CE06400A80F10C1ABA1040116E32AA0C631540ACAB02B5185C1E4085B4C6A013620E40185E49F25CC72240FAEE5696E8F42240AA27F38FBEE90C40F9BB77D4989822402975C93846121640E78BBD175F4C21409DA1B8E34D4E1240DE59BBED42231B400B5EF415A4092340933655F7C846234065A6B4FE96401D4043209738F2C00B40AA99B51490360A4088D51F6118F0F93F3A3DEFC682A21640EE27637C98FDFC3F45BB0A293F69F43F20F12BD670B109401C7DCC0704AA1940941117804669F23FBD6E1118EBDBF63F4D9F1D705D8114401AFCFD62B6241340327381CB63AD07409D12109370492240CAFD0E45813E2240CE8E54DFF9E51D409B8E006E164F1F40527FBDC282F32340CAC51858C7D102401A87FA5DD85A2240740CC85EEFDE15405C3E92921E5E2340E1CE85915E8414400569C6A2E9AC024076C1E09A3B9A2240B03DB32440FD1B40EA79371614460F40A417B5FB5500ED3FC3BCC79926DC1B400F43AB93337C2240874F3A9160EAF33FA4A5F27684132340BEBED6A546E8E53F2A58E36C3A82E93F994528B682461E40384BC97212122040E2E47E87A2E8214054E1CFF0662D16403D0CAD4ECE9020405F0839EFFFA31B402E3A596ABD1F0440AC730CC85E7F23406ABE4A3E76972140E17D552E54DE0B40E59D4319AAA21D403733FAD170422140309DD66D503321407D3F355EBA79194037397CD289842340AAB5300BEDC423400F26C5C727E4FE3FAF3F89CF9DA00240102219726C6D1C408D08C6C1A5531F40DE3D40F7E59C14400E68E90AB6611F40213EB0E3BFC0F83F6EDC627E6E880440CA181F662FDB0B40F8C264AA6054D13F132D793C2D3F02405FD0420246871D407FC00303089FF93F3E4162BB7B101840A4C4AEEDED4615400EA320787C5B1240026729594E42DB3F0EBBEF181E4B1F400F0C207C28B11F40505436ACA90C164071917BBABA131B40CA1649BBD12709400936AE7FD7171E40895FB1868B9CF43F37363B527D07084031D120054F0111407A36AB3E57DBEA3FD2A6EA1ED93C0B404485EAE6E28F1B40897C9752978C13408FC6A17E17F615402577D844666EFD3F889E94490DBD154094A46B26DFBC1140CB9E0436E760EB3F4703780B24581E40B0A9F3A8F89F09403E3DB665C0091540FFEC478AC8601340494BE5ED08871340AAEFFCA2040D18407C7E18213C2A1C403145B9347ED1124088BA0F406AC319400BB3D0CE690621408C69A67B9D54F83F83A7902BF5CC1740DD274701A2000F402810768A5543F53F7171546EA2D61D4053E8BCC62E311140361D01DC2C1E0840D107CBD8D0BD1A4028D6A9F23DE30E40B39943520B25D43F0D5531957E321640965CC5E2377D21407F85CC9541E5224097715303CD672140BBECD79DEE9C1D40D21C59F965301E40A31F0DA7CC4DED3FF2ED5D83BE241040354415FE0C0F0F40E6C93505323BAB3FBBB4E1B034302040118AADA069992240A9F7544E7B4AF43F8A1F63EE5A42A63F965B5A0D895B1D40EB3BBF28412F1340DD989EB0C4431A40C80BE9F010A61B40F20698F90E1E0740B858518369980D40DE3AFF76D9AF1640853E58C686DE1440E6E95C514A6020409BC8CC052E4F114080828B15352020403E95D39E9273ED3F95D233BDC43816405D328E91EC51FF3F8C834BC79CC71D40DA38622D3E45FD3F8A73D4D1716522408AE42B8194F80340881057CEDE691140745C8DEC4AAB0B405053CBD6FAAA22407E6FD39FFDD81340EA92718C648F1340685E0EBBEF282140A912656F2927FA3F10CEA78E554AD53F4436902E360D074087A2409FC8330040E92ADD5D67932240541A31B3CF830D409203763579222240DD79E2395B40B43FBF2A172AFF422340BA11161571022340F35487DC0C3F21401763601DC7CF1340EF8FF7AA95692140D15966118ACD1940A08A1BB7985FF63FE28FA2CEDC6311406D3CD862B7872140DF3312A1110C01402429E96168C51940C8940F41D5481B407EA83462669FC13F0BD0B69A752623406F8099EFE06720409A779CA223F91040F06B2409C215A03F3AE63C635FD22040991249F4329A1B40B37DC85BAE7E134062307F85CC55FB3F03B16CE690E41740BA10AB3FC25820401FBDE13E725B234041834D9D47E50F4002124DA088D520402C4487C091A82340581CCEFC6ADE1C4023BA675DA3E5D43F30A182C30B7220402B6C06B8201B0140AFB2B6291E17D73FCE16105A0F5FC23FBE326FD5750811406B63EC8497601840C763062AE34F1C40A98427F4FA4B23403483F8C08E5F1840F52EDE8FDB9F1F40CAC2D7D7BA14FF3F3E26529ACDA31C40779D0DF967D61840982F2FC03E7AFE3F9B73F04C68221B40F1A1444B1E2F0940F853E3A59B642240876D8B321B541C403CBCE7C072F41C40E3E13D0796A321402BF697DD9347F03F88670932025A1E4049A0C1A6CE73234094BDA59C2FB602408C2B2E8ECA0D0E4055BDFC4E93D92140B9E2E2A8DC640B402CBB6070CD4D1240CFBBB1A030F8124041F163CC5DFB224029ED0DBE30F91140D26EF4311F10F03F17D34CF73AD92040FD4AE7C3B34408409EB30584D6430640F6EE8FF7AA851D40FD84B35BCBFC2240F8A41309A61AE83F5FB532E197FAA93F3719558671F70D402750C42286952240A301BC0512B42240A9674128EF830D40FA25E2ADF3BF174056D636C5E3A2C23F8C683BA6EE2A0640FBE769C020290040C3D7D7BAD4088D3FA4880CAB7833104003983270400320401C5E10919A461D402028B7ED7B64104079E75086AA98F43FB98D06F01608F33F62855B3E92921D402C499EEBFB70B43FA857CA32C44922401AA721AAF0671240E065868DB20E1C4012178046E9320C40AE9CBD33DA5A1640EFFE78AF5A6923405E11FC6F25BB22405532005471731C407024D06053271A408DF161F6B26DF23F09707A17EFC7C73F53EBFD463B1E1E404E417E3672DDFF3F8AAE0B3F384F1540EF7211DF89390940C251F2EA1C931C4026732CEFAA071B408BFED0CC930B034050FC1873D7E21D40946DE00ED4F9104080B8AB579151FF3FC0CFB8702064F73F0E66136058BE0940ED9BFBABC7A521406005F86EF3A60D40E2395B40681D17406058FE7C5BB01C40FDDB65BFEE941F40D906EE409DF223403659A31EA2F11140A5129ED0EB4FCE3FE083D72E6DF021400AD9791B9B5D1940187C9A9317D9184030F2B2261658014003B16CE690541240897D022846B62240621399B9C0E5F83FF052EA92715C1A402CEFAA07CC731D405CC98E8D40BCFB3FF33977BB5EDA0A40CE88D2DEE04BF73F78F01307D07F1740A4897780274D1040F6436CB070D2F33F583CF54883AB124005E10A28D4930640BAD91F28B7A521403012DA722E251B404BCADDE7F8E8F03FCBF8F719178E124009C03FA54A14FD3FC5C551B9892A1E40F35487DC0CE72040C51C041DADAAF53F876A4AB20EC7F13F228C9FC6BDF9EA3F639CBF0985880540D238D4EFC246134030A017EE5CF81C4067B62BF4C1B2FA3F600322C495E323406D3A02B859DC2140A8C30AB77CB4144040DEAB5626FC0C40BCE7C072848CEF3FE318C91EA1361440FCA886FD9EF80540CA6C9049465E16407C0E2C47C8600240E3C3EC65DB490940FD6B79E57A13224040852348A5D020403B70CE88D24E1740595018946934C93F63601DC70FB50840A45181936DE0EA3FACC77DAB7592104088821953B0060140F964C57075C0FB3F9FCBD42478931F40077AA86DC3A8184016FBCBEEC99318407769C36169E0DA3F91D0967329EEFE3F21567F846100FE3F2385B2F0F51501402E008DD2A5BF1940CE6F986890A21F40946DE00ED4E90C40601DC70F956613406420CF2EDFFAF03FE9D7D64FFF990440452C62D8611C1740E659492BBE4113406F46CD57C9A72040E73922DFA5D4ED3FE7559DD502BBF73F42959A3DD09A1C4090DC9A745BD21340263ACB2C42B1FD3F6E52D158FB3BE23F488B338639F92140A67B9DD497E51D40E5B33C0FEECE1140658A39083A5AC33FCC96AC8A7063194083143C855C891940630E828E561504404510E7E104E6F93FB41EBE4C14711A4088635DDC46C3FA3FF4160FEF39B01840C59107228BB4124059F78F85E8D0F03F266E15C4403706404D840D4FAF5411403E5DDDB1D8A602408C31B08EE3670640319A95ED437E1040F3E7DB82A5622240FF9254A698C323402C6684B707A11540C44142942FA819403A78263449C4234042CEFBFF38E12340C3D66CE5257F064027D9EA724AC0FC3F0ED940BAD8942340DFE2E13D07160240D503E621537E0B4016139B8F6BF31940BA9EE8BAF0A3114081423D7D04FE1840E9D66B7A50B822401CB5C2F4BDE619404E452A8C2D441440A9D898D71107E33FE20511A9699F23407E1EA33CF372CE3F02F1BA7EC1D6204010AE80423D3D0C405D8940F50FB21E403D433866D9E31F40C6DCB5847C900E4031B5A50EF22A1F408DEC4ACB48BDEA3FC11E1329CD362140624CFA7B29CC1E40AF3F89CF9D9018408DF0F62004A40B403849F3C7B4261340021077F52A7A2140D3A414747B312140E413B2F336B61840F85278D0EC3AE73F8463963D098C0040B81E85EB518821404791B58652DB1C40B48F15FC36641740DD5CFC6D4F801B40B01C21037916014078EE3D5C726C1D40D4449F8F32921B40BBB54C86E399214090BE49D3A068E03F9CA223B9FC5715403315E29178191E40DAC534D3BDBE1440FEBAD39D277E0B40340EF5BBB04D22402367614F3BFC1840D102B4AD669D0840D2DF4BE141E31F40103FFF3D78AD224087156EF948AA1D4011FFB0A547B30C400C40A374E95F004018946934B998104024B5503239B523403F58C6866E36FE3F774CDD955DB01F402DE92807B3D919403E079623649015406DFFCA4A93720540B48F15FC36D41840A208A9DBD9D71E408AAC3594DA8BD13F6BF294D574AD1740DB15FA60196B1240A9A44E4013411740077C7E1821BCEA3FB9A5D590B887FE3F6D003620429CFB3FB91B446B451B144002840F255A1220409835B1C057B4014050FF59F3E38F0040E222F77475C70740DC291DACFFDB20406F83DA6FED44E03FAA45443179431240FC71FBE59395134067D47C957CB420402EC901BB9ABC0A40ABCE6A813D7E22406EC2BD326F4511409C3061342B5B0440F566D47C95FC1E40249A40118B081740CC26C0B0FCD90D40B2BAD573D2FBCC3F26A77686A92DF53F373465A71FE42340C7F65AD07B83164017105A0F5FA60040BCE7C072849C1A400684D6C397A91D40952710768AFD2140153B1A87FAAD1F407CD45FAFB0101840D7187442E8E020401F662FDB4EDBFF3FA22AA6D24FB818402B6EDC627EEE1F409DD5027B4C141540E50E9BC8CC05024001A1F5F065420C40E8154F3DD26003403CD9CD8C7E741A4014CD0358E4170940BE688F17D2212340965E9B8D95A8134055A4C2D84210F03F0BD5CDC5DFB609402F3201BF46721E40B01D8CD827601740C171193735B00840E8DCED7A69AA1C40452FA3586EF91F402332ACE28D0421406F0F4240BE4C23404E7CB5A338271440778368AD68531F40FF5C34643C7A1F40B3EBDE8AC4E40840F2B4FCC055762040CE001764CBB2F33FAC376A85E99B0A407D0569C6A2091840D0D6C1C1DEC41540BA313D6189C723407EAB75E2725C0A4054C90050C5BD16406B0C3A2174B003407FF8F9EFC1CB0A402E02637D03C32340ADFC321823F21D40FDC1C073EFB9214077D844662EC017400A4B3CA06CEA03400D6D003620221040A29A92ACC3A12240F3CCCB61F7A523401B9FC9FE79BA04408C2FDAE385341640E71725E82FAC23400B462575021AEC3FB5C6A0134207DA3F3C16DBA4A231E73F3D9CC0745AA71040E2CCAFE600711E40E33785950A6A1F4099BC0166BEA30C402DD0EE906280D53F5C59A2B3CC922040C5591135D1270B406D1D1CEC4D6C1F401F49490F436B1E40CEE33098BFF2174001344A97FE9521408B170B43E4F40340B74604E3E0C21640B62E35423FA31F40B56FEEAF1ED70240D449B6BA9C12C43F6F2A52616C111640F390291F824A1940ECDFF599B3BE1F40D65757056A710340D42B6519E2102240A915A6EF35141A4097AAB4C5359E024035EB8CEF8B8B054090F5D4EAAB1B154094A0BFD023460F400454388254AA0C4096CCB1BCABDEFD3F726DA818E7DF22402C0C91D3D7F3004042CEFBFF38010340DD0C37E0F3430A4099F56228277A1D40408864C8B1451D40DA71C3EFA64B1B4061E124CD1FA31140E97DE36BCFEC0E4026C3F17C06141A403961C26856B6D43F9067976F7D58D43FBF61A2410AF62340376E313F3734953F116DC7D45DD12340DC10E335AF6221402C82FFAD643718406EFC89CA86F50640B282DF8618EF1C40ABCFD556ECFF1040F8F9EFC16B57FB3FE449D23593CF05401AF8510DFBFDFD3F0E881057CEAE1E40FB5C6DC5FE6A204074B680D07A38FE3F8597E0D407F223407FDC7EF964551040D61BB5C2F4FD1F40F9F4D896013F214061E124CD1F031140B324404D2D6B1240FA6184F068C30C40948444DAC69FEB3FD784B4C6A0D3F03F984C158C4A0222409604A8A9656B1F40B54E5C8E57200E405AF2785A7E4007403691990B5CBE0140499C1551135D1B4047E9D2BF24151040512D228AC95BF23F1BD82AC1E2E02240A648BE124889214027DA5548F9B91F40B98AC56F0A232340199128B4AC2B1540C59272F739EE224092AE997CB32D0B40AB764D486BAC1B406404543882D4EE3F492D944C4E3D1D400D71AC8BDBD81F406E13EE95796BF43F8EB27E33319D1540726E13EE959902406D567DAEB63A204098C3EE3B860704400261A758358821409F3D97A94970F53FF3CB608C488420405BB56B425A33194008E8BE9CD9362240868E1D54E25A1B403C139A24966C20400C91D3D7F3551840541F48DE39A41F407364E597C1982340395FECBDF8E2F53F96404AECDACE16408FE3874A236611405262D7F676EB1F4029CE5147C7150A408C6A11514CDEEA3F2FC1A90F24DF20400F812381063B1B401938A0A52B380E40F584251E509609401E705D3123FC1F403B8908FF22C818405453927538BA06407F68E6C9351517405F402FDCB9601640C51C041DAD2AF03F9B374E0AF39E1E40EB353D282835104080828B15359805403483F8C08E6F1540B1DCD26A48DC1B40689599D2FAAB1140ACFF73982F3F15402C0C91D3D7E31540F1D58EE21CF5F73FDF6C73637AC2D33F45D7851F9C2F0740B37A87DBA1811940484F9143C4CD0840747973B8564B1640D2AA96749453104095B6B8C667321A405F0CE544BBCAF43F2E1F49490F932340D311C0CDE2650240BDAB1E300F191B409FAD8383BD290E40C7D79E5912E0084006F4C29D0BC309407A6F0C01C021144074266DAAEE5116400397C79A91E10440F5143944DCDCFE3FD960E124CDCF224049D74CBED966FD3F80B56AD784641D40DC9F8B868CE70F405DFE43FAED0B0E409BAC510FD1080140E413B2F336A619400E12A27C41DB22402EFEB62748DC2240853FC39B35B02240D3872EA86F291640795A7EE02AC721400322C495B3A72040FFEA71DF6AAD23405114E813798222403ECDC98B4C301840990F0874263D214080F277EFA87121400A86730D33C42340753C66A0327E114007EDD5C743E7204056D7A19A924C0640F819170E849C2340022D5DC136E2BD3F591822A7AF571A401C959BA8A5691540629F008A91D51E406FF59CF4BE792040FE614B8FA6BA2340D350A3906456DF3F1E6FF25B74621640F92EA52E195F224076C4211B48071C40567DAEB662FF20402AC423F1F2241840F836FDD98FBC2340DB4E5B238261164015747B4963641840C4279D4830B51940AE8218E8DAC714402C4833164D67D43FE20511A96957F93F70287CB60EDE1C4018D00B772EEC124033198EE733B01A402F36AD1402F9F63FED116A8654611F400B9B012EC816E53FB401D88008B1FA3F7E8CB96B09B9014024B4E55C8A2BFC3FFD82DDB06D312040C007AF5DDA601E40E124CD1FD3BA044083FB010F0CE01140486B0C3A2174FE3FD906EE409DE21A40C845B58828C615407575C7629B341E40A41820D1049A12407A8D5DA27AEB0140CDE7DCED7A0120406EA7AD11C1681F40BBB6B75B92F32140642310AFEB0719407D5A457F68561640D88349F1F1E1214062122EE411FC15405D18E945EDFEFB3F1C0934D8D4F9EB3F4D672783A3941840508C2C9963D90F400740DCD5ABF81A401077F52A32CA12404A42226DE3A720403DB9A6406627F63F07EA944737C2923F836DC493DD5C1740C6FD47A643F7134001DE02098ABF1E4084D89942E7E51B4045F12A6B9BE2F33FD7FA22A12D670E40CAFCA36FD2C41140DA1EBDE13E5A214065DEAAEB50E5224064C91CCBBB1A15409204E10A2874014058E1968FA4640E408CF337A110B92340035B25581C2E1B4053CA6B2574771D40E90E62670ACD11405F0A0F9A5D57064074452921582513405915E126A3CA1940A9DBD9571E44034008228B34F1762340C6151747E566F43F79AF5A99F02B1E4018B49080D1051A40E7C2482F6A6722406AF981AB3CA10F40DECCE847C3F91040CF108E59F6F4204068B27F9E068C1640B09124085740CB3F7A6EA12B1128EC3F31D120054F61F63F378C82E0F175224064027E8D24D9224036221807979E1A40C4CC3E8F519E0E40D0B7054B75E11B40DE718A8EE4821640D503E621537EFF3F4E9D47C5FFBD084098F8A3A833F720409DB81CAF40441140FC523F6F2A8219407FBE2D58AA6B224064B14D2A1AABFD3F21E9D32AFA832240A2444B1E4F0B1940B1BFEC9E3C2CDD3FB8CA13083BC51E40F279C5538F941D40933655F7C8A616401762F5471876154067B4554964AF2040E0D8B3E7321519405F5D15A8C5B021408658FD1186311040CF2D7425029D214070D234289AC70D405587DC0C37E0A33F28EE7893DF020F408EB27E333135234079758E01D9AB0A403AB187F6B182C93F1A170E8464B117407B4963B48E4A2340153944DC9C0A0740B2834A5CC7681E40D6ABC8E880DC2140C1C41F459DF917402101A3CB9B43E23F9DA04D0E9F540B40984D8061F9F3E43FC74B37894160A53F9D499BAA7BB41340501A6A14928CF93FC4279D483015F13FBB0A293FA9661E4016DC0F7860B01D400A302C7FBEDD1740F88A6EBDA6C70340F1129CFA407211400A2C802903DF2140429946938B71024067EF8CB62A09FC3FA38FF98040171E40B6813B50A7DC1440C5591135D167F03F191BBAD91FA8F23F5CCB64389EEF03401BA19FA9D74D1740346612F5824FD83FA036AAD3812C0C40C9E6AA798E080D400E83F92B64AEEE3F52B9895A9A3B0540A59E05A1BCC7234000A8E2C62D260C40558A1D8D431D1A4034D8D479543CFF3FDEC9A7C7B67C1E4025CE8AA8898E21403830B95164ADE03F355EBA490C8213401230BABC392C134078B6476FB8FF16406EFC89CA8635DD3F19AC38D55A102340F16778B306EFDC3FF3E2C4573B1A18405BB05417F0520940C5E23785954A0140D2A92B9FE5390540990CC7F31990F63FAF5DDA70587A1C4015C78157CBCD104030833122511813403AAFB14B54BF174084D89942E7D51140F7031E1840881A40E1D05B3CBC172140EBFEB1101D2213402062838593B4F83F76FF58880E311C40D76B7A5050422040933655F7C8061E4024D1CB2896DB1640C74B378941E0084016F9F5436CC021406AA4A5F27604E63F7D3D5FB35C76F33F4149810530A5FB3F812381069B7A19405E4BC8073D9B0C40C16ED8B62863154024F25D4A5D72144021B1DD3D40071B402AC6F99B50681C40155454FD4AA7034034677DCA31791340C61858C7F14309400CEA5BE674C917401215AA9B8B0F14403BE3FBE2521D204032E54350357A0C40A01518B2BAC51A40809C3061346BFC3FBD395CAB3DDC1F40ED82C13577F4C53F47E867EA754BF53F8C683BA6EE0AF73F3DBB7CEBC3FA204013EE9579AB9E234055BDFC4E93F913404E469561DC2D1C40F4FE3F4E980022400AF4893C492A124047718E3A3A8E09407847C66AF3DF0D40A1F48590F37E0A40A723809BC50B1F40B53522180797EC3F4225AE635C310740B1C22D1F4949D43FB03731242713F03FE9B6442E380313402FDD240681151840726E13EE95F12240596C938AC65A1140FBAE08FEB7822040EE5D83BEF41616406EDC627E6EE82240F99E91088D80034031CD74AF937AEB3F2046088F36BE1340F2785A7EE04A1340853E58C6867E1E403FE603029D691240C616821C94F0F03F2864E76D6C76EA3F8BC3995FCD610440BDAAB35A600FFC3FD46531B1F9A814409AEC9FA7011310406D5512D9078914401CCF6740BDB91940AB5D13D21A630240FA97A432C59CE73FE90C8CBCAC591640975643E21E4B1D4011A7936C75B9F83FE3C281902CC01F40D3BEB9BF7A2C1C4067B4554964EF23403D0AD7A370DD23403F58C6866EDE23402A00C6336828F03F3929CC7B9C290A40C1FF56B263430C401766A19DD3AC17404E2844C021D40040BC7669C361691A4065389ECF800222406B28B517D176E33F695721E527FD224061342BDB877CF53F357D76C075951540938E72309B2020405F42058717641240950ED6FF39BC1A402384471B47EC1040A86F99D365B12140C51C041DADAA1E405E4BC8073D9BEB3FA565A4DE53512240162F1686C889214053978C63244B1C405E82531F4816224069E4F38AA7DE024078431A1538B915406B8313D1AFFD1B404F1F813FFC2C1E4012DE1E8480642040147651F4C0C712404C546F0D6C751040BB7D5699297D17403CF88903E8970340"> : tensor<1999xf64>) {addr_space = 0 : i32, alignment = 64 : i64} : !llvm.array<1999 x f64>
  llvm.mlir.global private constant @__constant_101xindex(dense<"0x0000000000000000190000000000000033000000000000004A000000000000005A000000000000006B0000000000000085000000000000009B00000000000000AD00000000000000BF00000000000000D700000000000000F5000000000000000601000000000000130100000000000029010000000000003D010000000000005101000000000000630100000000000072010000000000007E010000000000009501000000000000AA01000000000000BD01000000000000CB01000000000000E801000000000000FB010000000000001002000000000000240200000000000036020000000000004A020000000000005B020000000000006B020000000000007F020000000000009A02000000000000B002000000000000BF02000000000000D402000000000000E702000000000000F802000000000000090300000000000020030000000000003503000000000000440300000000000055030000000000006A030000000000007B030000000000009303000000000000A703000000000000BB03000000000000CB03000000000000E803000000000000FE0300000000000014040000000000002404000000000000390400000000000045040000000000005E04000000000000770400000000000087040000000000009D04000000000000AF04000000000000C304000000000000D804000000000000EC0400000000000002050000000000001A0500000000000033050000000000004D050000000000006105000000000000740500000000000085050000000000009805000000000000A705000000000000BA05000000000000CD05000000000000E805000000000000FB05000000000000040600000000000019060000000000002A060000000000003C0600000000000048060000000000005906000000000000700600000000000084060000000000009E06000000000000B506000000000000C306000000000000D806000000000000E706000000000000FB060000000000000D07000000000000240700000000000038070000000000004F07000000000000680700000000000078070000000000008C07000000000000A107000000000000BB07000000000000CF07000000000000"> : tensor<101xindex>) {addr_space = 0 : i32, alignment = 64 : i64} : !llvm.array<101 x i64>
  llvm.mlir.global private constant @__constant_1999xindex(dense<"0x0200000000000000050000000000000009000000000000000E000000000000000F00000000000000140000000000000018000000000000001C000000000000001D00000000000000240000000000000026000000000000002700000000000000280000000000000029000000000000002D00000000000000300000000000000035000000000000003D000000000000004B000000000000004C000000000000004D000000000000004E0000000000000050000000000000005D00000000000000620000000000000000000000000000000400000000000000070000000000000009000000000000000A00000000000000130000000000000014000000000000001D000000000000001E0000000000000020000000000000002600000000000000270000000000000029000000000000002A000000000000002D000000000000002E0000000000000031000000000000003F00000000000000440000000000000048000000000000004C000000000000005300000000000000560000000000000057000000000000005F00000000000000630000000000000000000000000000000400000000000000050000000000000007000000000000000D0000000000000010000000000000001700000000000000200000000000000027000000000000002A000000000000002D000000000000002E0000000000000033000000000000003C00000000000000430000000000000048000000000000004B000000000000004E000000000000004F00000000000000550000000000000059000000000000005C000000000000005E0000000000000004000000000000000E000000000000001100000000000000140000000000000017000000000000001A000000000000001B00000000000000220000000000000027000000000000002F000000000000004A000000000000004B0000000000000051000000000000005B000000000000006000000000000000620000000000000000000000000000000100000000000000020000000000000007000000000000000E000000000000002100000000000000240000000000000031000000000000003200000000000000480000000000000049000000000000004B000000000000004C00000000000000520000000000000055000000000000005E00000000000000620000000000000004000000000000000A000000000000000D00000000000000140000000000000018000000000000001F00000000000000270000000000000028000000000000002A000000000000002B000000000000002C000000000000003100000000000000340000000000000036000000000000003C000000000000004300000000000000460000000000000051000000000000005200000000000000530000000000000054000000000000005D000000000000005E000000000000005F000000000000006100000000000000630000000000000007000000000000000C000000000000001100000000000000120000000000000015000000000000001B000000000000001D00000000000000220000000000000029000000000000002A000000000000003300000000000000340000000000000035000000000000003C000000000000004100000000000000420000000000000044000000000000004B000000000000005C000000000000005D000000000000005E000000000000006000000000000000030000000000000007000000000000001000000000000000150000000000000016000000000000001D00000000000000240000000000000028000000000000003000000000000000380000000000000039000000000000003B000000000000003C0000000000000040000000000000004B0000000000000052000000000000005600000000000000570000000000000002000000000000000D000000000000000F000000000000001200000000000000170000000000000021000000000000002E0000000000000031000000000000003E000000000000004400000000000000460000000000000048000000000000004A000000000000004B000000000000005100000000000000530000000000000057000000000000005A00000000000000020000000000000004000000000000001100000000000000120000000000000013000000000000001D0000000000000027000000000000002C000000000000002D000000000000002E000000000000002F000000000000003100000000000000330000000000000038000000000000004200000000000000450000000000000046000000000000004E00000000000000500000000000000051000000000000005A000000000000005D0000000000000061000000000000006200000000000000060000000000000008000000000000000A000000000000001000000000000000160000000000000019000000000000001C000000000000001E000000000000002200000000000000270000000000000028000000000000002A000000000000002C000000000000002E000000000000003100000000000000370000000000000039000000000000003B000000000000003C0000000000000041000000000000004300000000000000460000000000000050000000000000005300000000000000560000000000000058000000000000005B000000000000005D000000000000005E00000000000000630000000000000007000000000000000B000000000000001F000000000000002100000000000000260000000000000027000000000000002A000000000000002F000000000000003100000000000000380000000000000040000000000000004800000000000000560000000000000057000000000000005B000000000000005E000000000000006100000000000000010000000000000003000000000000001B000000000000003900000000000000400000000000000043000000000000004400000000000000470000000000000054000000000000005A000000000000005B000000000000005C000000000000006200000000000000040000000000000006000000000000000A000000000000000B000000000000001B000000000000001E0000000000000025000000000000002B000000000000002C000000000000002E000000000000002F00000000000000300000000000000037000000000000003B00000000000000440000000000000045000000000000004900000000000000520000000000000057000000000000005E00000000000000600000000000000063000000000000000D0000000000000012000000000000001600000000000000220000000000000029000000000000002A0000000000000030000000000000003200000000000000330000000000000035000000000000003600000000000000460000000000000047000000000000004F000000000000005300000000000000550000000000000058000000000000005C0000000000000062000000000000006300000000000000020000000000000009000000000000000A000000000000000F0000000000000017000000000000001F000000000000002B000000000000002D000000000000002F000000000000003100000000000000340000000000000035000000000000003B000000000000003E000000000000003F000000000000004300000000000000480000000000000049000000000000004D000000000000005300000000000000060000000000000009000000000000000A000000000000000B0000000000000014000000000000001B000000000000001D0000000000000028000000000000002C000000000000003E000000000000003F00000000000000420000000000000043000000000000004500000000000000470000000000000055000000000000005D00000000000000630000000000000002000000000000000A000000000000001200000000000000170000000000000019000000000000001B000000000000002700000000000000300000000000000036000000000000004100000000000000460000000000000058000000000000005D000000000000005F000000000000006300000000000000020000000000000009000000000000000F00000000000000210000000000000033000000000000003800000000000000400000000000000042000000000000004300000000000000470000000000000056000000000000005F00000000000000000000000000000008000000000000000E000000000000000F00000000000000110000000000000012000000000000001C00000000000000210000000000000022000000000000002F00000000000000310000000000000036000000000000003B000000000000004000000000000000410000000000000042000000000000004600000000000000470000000000000049000000000000004F0000000000000056000000000000005800000000000000620000000000000003000000000000000F00000000000000150000000000000016000000000000001E00000000000000220000000000000029000000000000002C000000000000003000000000000000380000000000000039000000000000003B000000000000003F00000000000000410000000000000048000000000000004E0000000000000051000000000000005700000000000000580000000000000059000000000000005B000000000000000300000000000000070000000000000012000000000000001300000000000000140000000000000016000000000000001B000000000000001C000000000000001E0000000000000020000000000000002400000000000000260000000000000032000000000000003600000000000000370000000000000038000000000000003C0000000000000040000000000000004900000000000000010000000000000020000000000000002A000000000000002D0000000000000037000000000000003B000000000000003E000000000000004000000000000000450000000000000047000000000000005000000000000000580000000000000059000000000000005D00000000000000000000000000000002000000000000000400000000000000080000000000000009000000000000000B000000000000000D0000000000000018000000000000001B000000000000001C000000000000001D00000000000000200000000000000027000000000000002C000000000000003000000000000000340000000000000035000000000000003F00000000000000480000000000000049000000000000004B000000000000004C00000000000000540000000000000059000000000000005C000000000000005D0000000000000060000000000000006100000000000000620000000000000000000000000000000100000000000000070000000000000008000000000000000900000000000000130000000000000015000000000000001F000000000000002500000000000000260000000000000029000000000000002B000000000000002C000000000000003600000000000000410000000000000049000000000000004D0000000000000055000000000000006100000000000000010000000000000006000000000000000A000000000000000E00000000000000140000000000000015000000000000001800000000000000230000000000000024000000000000002500000000000000280000000000000031000000000000003B0000000000000041000000000000004400000000000000460000000000000052000000000000005400000000000000550000000000000062000000000000006300000000000000050000000000000008000000000000000D000000000000000E000000000000001100000000000000170000000000000019000000000000001A000000000000002000000000000000220000000000000023000000000000002700000000000000350000000000000036000000000000004200000000000000480000000000000049000000000000004C000000000000005000000000000000610000000000000009000000000000001000000000000000160000000000000018000000000000001A000000000000002600000000000000270000000000000032000000000000003700000000000000460000000000000047000000000000004C000000000000004E000000000000004F000000000000005400000000000000560000000000000057000000000000005A000000000000000C00000000000000140000000000000018000000000000002300000000000000240000000000000029000000000000002F00000000000000300000000000000036000000000000003E000000000000004300000000000000470000000000000048000000000000004B000000000000004C000000000000004E00000000000000540000000000000059000000000000005E000000000000006000000000000000010000000000000006000000000000000F0000000000000012000000000000001700000000000000260000000000000028000000000000002A000000000000002B000000000000003500000000000000380000000000000044000000000000004D00000000000000580000000000000059000000000000005B000000000000005D00000000000000080000000000000017000000000000001A000000000000001B000000000000001C000000000000001D000000000000001E0000000000000024000000000000003A00000000000000410000000000000043000000000000004C000000000000005A000000000000005B000000000000005C00000000000000630000000000000003000000000000000D000000000000001400000000000000160000000000000017000000000000001B000000000000002600000000000000270000000000000029000000000000002A00000000000000410000000000000043000000000000004A000000000000005400000000000000560000000000000057000000000000005A000000000000005B000000000000005C000000000000006000000000000000040000000000000007000000000000001000000000000000150000000000000016000000000000001700000000000000180000000000000019000000000000001A000000000000001B000000000000001D0000000000000020000000000000002400000000000000260000000000000027000000000000002800000000000000310000000000000037000000000000003900000000000000460000000000000051000000000000005200000000000000530000000000000055000000000000005A000000000000005E000000000000005F0000000000000010000000000000001500000000000000170000000000000019000000000000001A000000000000001C000000000000002400000000000000260000000000000029000000000000002D000000000000002E000000000000003200000000000000350000000000000036000000000000003B000000000000003C00000000000000450000000000000049000000000000004A0000000000000055000000000000005E0000000000000060000000000000000300000000000000070000000000000009000000000000000E00000000000000150000000000000017000000000000001A00000000000000220000000000000031000000000000003200000000000000360000000000000038000000000000004D000000000000004F000000000000005900000000000000040000000000000009000000000000000D00000000000000100000000000000014000000000000001B000000000000001E0000000000000022000000000000002A000000000000002D000000000000002E00000000000000300000000000000034000000000000003E000000000000003F000000000000004C000000000000004D00000000000000520000000000000059000000000000005E00000000000000630000000000000002000000000000000600000000000000070000000000000008000000000000001800000000000000220000000000000023000000000000002A000000000000002F000000000000003A000000000000003E0000000000000043000000000000004500000000000000460000000000000047000000000000004C00000000000000540000000000000059000000000000005B000000000000000400000000000000060000000000000009000000000000000C000000000000000E0000000000000012000000000000001E0000000000000025000000000000003F00000000000000400000000000000044000000000000004E0000000000000055000000000000005B000000000000005C000000000000006000000000000000610000000000000005000000000000000F000000000000001100000000000000120000000000000022000000000000002D000000000000002F000000000000003100000000000000320000000000000035000000000000003600000000000000420000000000000047000000000000004A000000000000004B0000000000000060000000000000006300000000000000000000000000000009000000000000001F00000000000000210000000000000023000000000000002A000000000000002D00000000000000300000000000000037000000000000003A000000000000003B000000000000003C000000000000003D000000000000003E000000000000004200000000000000510000000000000052000000000000005400000000000000550000000000000059000000000000005B000000000000005F0000000000000061000000000000000000000000000000070000000000000008000000000000000F0000000000000011000000000000001700000000000000220000000000000027000000000000002A0000000000000031000000000000003C0000000000000044000000000000004A000000000000004B000000000000004C000000000000004E0000000000000053000000000000005B000000000000005C000000000000005F0000000000000061000000000000000A000000000000000F000000000000001200000000000000150000000000000018000000000000001A00000000000000230000000000000026000000000000002D00000000000000310000000000000032000000000000003B000000000000004B0000000000000054000000000000005600000000000000000000000000000005000000000000000E000000000000000F000000000000001300000000000000150000000000000018000000000000001F0000000000000021000000000000002D000000000000003000000000000000330000000000000037000000000000003D00000000000000440000000000000055000000000000005D0000000000000005000000000000000A000000000000000B000000000000001100000000000000150000000000000018000000000000002200000000000000260000000000000029000000000000002A0000000000000031000000000000004100000000000000460000000000000047000000000000004A000000000000004B000000000000004D000000000000004F0000000000000053000000000000006000000000000000610000000000000006000000000000000B000000000000000F0000000000000015000000000000001E000000000000002100000000000000250000000000000029000000000000002B0000000000000041000000000000004B0000000000000050000000000000005100000000000000550000000000000057000000000000005900000000000000620000000000000002000000000000000D000000000000000F00000000000000170000000000000018000000000000001C000000000000001E000000000000001F000000000000002100000000000000220000000000000028000000000000002C000000000000002F00000000000000300000000000000031000000000000003500000000000000370000000000000043000000000000004500000000000000520000000000000056000000000000005C000000000000005D000000000000005F000000000000000200000000000000030000000000000009000000000000000A0000000000000013000000000000001D0000000000000027000000000000002B000000000000002D00000000000000330000000000000037000000000000003C0000000000000040000000000000004200000000000000460000000000000047000000000000004D0000000000000051000000000000005C000000000000005E0000000000000009000000000000000C000000000000000E00000000000000140000000000000018000000000000001A000000000000001B000000000000001F000000000000002300000000000000260000000000000029000000000000002E000000000000003F000000000000004300000000000000460000000000000048000000000000004F000000000000005A000000000000005B000000000000005D0000000000000008000000000000000B0000000000000013000000000000001D000000000000002200000000000000260000000000000028000000000000002E0000000000000032000000000000003B000000000000004100000000000000430000000000000048000000000000004900000000000000560000000000000063000000000000000300000000000000070000000000000009000000000000000A000000000000000C000000000000001300000000000000150000000000000024000000000000002B000000000000002D000000000000002E0000000000000030000000000000003100000000000000320000000000000034000000000000003600000000000000370000000000000038000000000000003A000000000000004000000000000000430000000000000045000000000000004A000000000000004F00000000000000580000000000000059000000000000005C000000000000006200000000000000630000000000000000000000000000000300000000000000130000000000000016000000000000001A000000000000001B0000000000000025000000000000002B000000000000002E000000000000003400000000000000360000000000000037000000000000003A000000000000004200000000000000430000000000000044000000000000004E0000000000000050000000000000005100000000000000530000000000000058000000000000005E000000000000000200000000000000060000000000000008000000000000000C000000000000000E00000000000000160000000000000027000000000000002C000000000000002F0000000000000035000000000000003A000000000000003B000000000000003F000000000000004100000000000000440000000000000048000000000000005500000000000000580000000000000059000000000000005A000000000000005E000000000000005F0000000000000001000000000000000E00000000000000110000000000000019000000000000001A000000000000001E000000000000002E00000000000000320000000000000035000000000000004000000000000000410000000000000043000000000000004C000000000000005900000000000000600000000000000063000000000000000300000000000000050000000000000007000000000000000F0000000000000014000000000000001C000000000000001E0000000000000025000000000000003300000000000000360000000000000037000000000000003F0000000000000049000000000000004C00000000000000510000000000000052000000000000005400000000000000560000000000000059000000000000005D000000000000005E0000000000000001000000000000000600000000000000220000000000000027000000000000002800000000000000290000000000000035000000000000003C000000000000004C0000000000000054000000000000005F000000000000006300000000000000000000000000000002000000000000000D000000000000001500000000000000170000000000000018000000000000001A000000000000001B0000000000000021000000000000002600000000000000270000000000000029000000000000002B000000000000002C00000000000000310000000000000038000000000000003A00000000000000400000000000000044000000000000004D000000000000005600000000000000570000000000000058000000000000005A000000000000005B000000000000000100000000000000020000000000000006000000000000000B000000000000000C000000000000000D00000000000000150000000000000016000000000000001A000000000000001D00000000000000230000000000000025000000000000003200000000000000330000000000000036000000000000003F000000000000004100000000000000420000000000000049000000000000005A000000000000005D000000000000005F000000000000006000000000000000610000000000000063000000000000000100000000000000020000000000000003000000000000000A000000000000001400000000000000180000000000000019000000000000002B0000000000000037000000000000003A000000000000003F00000000000000460000000000000049000000000000004E00000000000000530000000000000063000000000000000000000000000000050000000000000006000000000000000C0000000000000016000000000000001700000000000000180000000000000019000000000000001F00000000000000200000000000000028000000000000002C000000000000002E0000000000000037000000000000003900000000000000400000000000000049000000000000004D000000000000004F0000000000000057000000000000005E0000000000000061000000000000000100000000000000050000000000000007000000000000000A000000000000001A000000000000002200000000000000270000000000000032000000000000003D000000000000004000000000000000410000000000000046000000000000004C000000000000004D000000000000005100000000000000520000000000000061000000000000006200000000000000000000000000000009000000000000000D00000000000000160000000000000017000000000000001A0000000000000023000000000000002B000000000000003000000000000000340000000000000038000000000000003B000000000000003E000000000000004100000000000000440000000000000048000000000000004F00000000000000520000000000000060000000000000006300000000000000030000000000000006000000000000000B000000000000000C00000000000000100000000000000011000000000000001600000000000000170000000000000018000000000000001B0000000000000028000000000000003D000000000000004000000000000000420000000000000043000000000000004E00000000000000510000000000000058000000000000005A000000000000005F00000000000000600000000000000006000000000000000C0000000000000018000000000000001A000000000000002A000000000000002B00000000000000300000000000000032000000000000003600000000000000370000000000000038000000000000003A000000000000003B0000000000000041000000000000004300000000000000440000000000000046000000000000004B00000000000000510000000000000056000000000000000400000000000000050000000000000008000000000000000A000000000000001100000000000000120000000000000018000000000000001B000000000000001F00000000000000270000000000000028000000000000002B000000000000002E0000000000000036000000000000003B0000000000000042000000000000004900000000000000500000000000000051000000000000005B000000000000005F0000000000000062000000000000000B000000000000000D000000000000000F0000000000000017000000000000001900000000000000240000000000000028000000000000002F00000000000000300000000000000032000000000000003400000000000000370000000000000039000000000000003A000000000000003E000000000000003F00000000000000430000000000000045000000000000004600000000000000470000000000000050000000000000005100000000000000520000000000000057000000000000000100000000000000030000000000000007000000000000000800000000000000090000000000000018000000000000001B0000000000000024000000000000002500000000000000260000000000000028000000000000002D000000000000002F000000000000003B000000000000004200000000000000440000000000000047000000000000004B000000000000004E000000000000005200000000000000580000000000000059000000000000005A000000000000005E000000000000005F00000000000000020000000000000004000000000000000C000000000000000E0000000000000010000000000000001500000000000000160000000000000018000000000000001C000000000000001E000000000000002000000000000000230000000000000028000000000000002B000000000000002D000000000000002E000000000000003300000000000000360000000000000037000000000000003B000000000000003C0000000000000049000000000000004C00000000000000510000000000000058000000000000005D00000000000000030000000000000006000000000000000800000000000000100000000000000019000000000000002100000000000000220000000000000027000000000000002C000000000000003100000000000000320000000000000034000000000000003E0000000000000048000000000000004A000000000000004B00000000000000500000000000000055000000000000005700000000000000620000000000000003000000000000000600000000000000080000000000000012000000000000001300000000000000170000000000000019000000000000001D0000000000000020000000000000002A0000000000000035000000000000003F00000000000000400000000000000044000000000000004D000000000000005000000000000000550000000000000059000000000000005A00000000000000030000000000000012000000000000001700000000000000180000000000000023000000000000002D00000000000000320000000000000033000000000000003400000000000000350000000000000039000000000000003D0000000000000047000000000000004B0000000000000056000000000000005E000000000000005F000000000000000000000000000000030000000000000008000000000000000C00000000000000120000000000000018000000000000001C000000000000002D000000000000003100000000000000350000000000000037000000000000003F0000000000000041000000000000004A000000000000004C0000000000000050000000000000005200000000000000560000000000000061000000000000000000000000000000040000000000000005000000000000001100000000000000120000000000000018000000000000001C000000000000002C000000000000003100000000000000340000000000000037000000000000005A000000000000006000000000000000610000000000000062000000000000000300000000000000070000000000000009000000000000000E00000000000000130000000000000014000000000000001B000000000000001D0000000000000034000000000000003600000000000000370000000000000047000000000000004A000000000000004D00000000000000560000000000000057000000000000005A000000000000005E000000000000006100000000000000000000000000000008000000000000000F0000000000000010000000000000002600000000000000280000000000000029000000000000002D000000000000002F0000000000000031000000000000003200000000000000360000000000000037000000000000003A000000000000003B00000000000000440000000000000050000000000000005F0000000000000061000000000000000200000000000000040000000000000005000000000000000D000000000000001500000000000000210000000000000027000000000000002A000000000000002C000000000000002F000000000000003200000000000000330000000000000037000000000000003A000000000000003D0000000000000042000000000000004300000000000000460000000000000047000000000000004A000000000000004B0000000000000051000000000000005200000000000000550000000000000056000000000000005E00000000000000610000000000000003000000000000000D0000000000000011000000000000001200000000000000130000000000000016000000000000001E0000000000000028000000000000002C000000000000002E000000000000003200000000000000360000000000000038000000000000004600000000000000550000000000000057000000000000005B000000000000005F000000000000006100000000000000110000000000000014000000000000001A0000000000000034000000000000003F0000000000000051000000000000005A000000000000005C0000000000000060000000000000000200000000000000030000000000000005000000000000000600000000000000070000000000000018000000000000001B0000000000000025000000000000002600000000000000280000000000000029000000000000003100000000000000340000000000000037000000000000003D000000000000004200000000000000430000000000000044000000000000004800000000000000500000000000000052000000000000000B00000000000000120000000000000019000000000000001D00000000000000260000000000000029000000000000002C000000000000002F00000000000000370000000000000039000000000000003D000000000000003E000000000000003F0000000000000043000000000000004E000000000000004F0000000000000058000000000000000200000000000000050000000000000007000000000000000D0000000000000014000000000000001500000000000000230000000000000025000000000000002F00000000000000300000000000000037000000000000003800000000000000480000000000000050000000000000005100000000000000540000000000000058000000000000005B000000000000001500000000000000170000000000000018000000000000002600000000000000380000000000000044000000000000004500000000000000460000000000000047000000000000004D0000000000000050000000000000005D00000000000000070000000000000011000000000000002300000000000000240000000000000025000000000000002D000000000000002E000000000000003B000000000000003D00000000000000450000000000000047000000000000004800000000000000520000000000000053000000000000005B000000000000005F00000000000000630000000000000000000000000000000100000000000000020000000000000007000000000000000B000000000000000F0000000000000011000000000000001C000000000000001E000000000000001F00000000000000260000000000000027000000000000003100000000000000320000000000000033000000000000003A000000000000003B000000000000003C00000000000000440000000000000047000000000000004E00000000000000530000000000000059000000000000000200000000000000060000000000000007000000000000000D0000000000000010000000000000001D000000000000001F0000000000000020000000000000002200000000000000260000000000000028000000000000002A00000000000000380000000000000039000000000000003E000000000000003F00000000000000520000000000000057000000000000005E000000000000006100000000000000060000000000000007000000000000000E0000000000000010000000000000002200000000000000270000000000000028000000000000002C000000000000002D000000000000002E00000000000000320000000000000033000000000000003500000000000000360000000000000039000000000000003B000000000000003E0000000000000042000000000000004400000000000000470000000000000049000000000000004A000000000000004E000000000000005F00000000000000600000000000000062000000000000000000000000000000010000000000000004000000000000000A000000000000000F000000000000001D00000000000000200000000000000027000000000000002900000000000000320000000000000034000000000000003B000000000000004100000000000000460000000000000048000000000000004E000000000000004F0000000000000050000000000000005500000000000000570000000000000058000000000000005B000000000000006200000000000000020000000000000006000000000000001800000000000000200000000000000022000000000000002D000000000000003D0000000000000041000000000000004D000000000000004F0000000000000058000000000000005B000000000000005E0000000000000063000000000000000100000000000000060000000000000009000000000000000A000000000000000D000000000000000F000000000000001000000000000000130000000000000017000000000000001900000000000000260000000000000027000000000000002C000000000000002F0000000000000036000000000000004F0000000000000050000000000000005A000000000000005F000000000000006200000000000000630000000000000005000000000000000C0000000000000010000000000000001C000000000000001E000000000000001F0000000000000023000000000000002A000000000000003500000000000000420000000000000043000000000000004700000000000000550000000000000060000000000000006200000000000000000000000000000005000000000000000C000000000000000D000000000000000E00000000000000170000000000000019000000000000002200000000000000260000000000000027000000000000002800000000000000330000000000000036000000000000004100000000000000470000000000000048000000000000004A000000000000004B000000000000004F000000000000006100000000000000000000000000000004000000000000000500000000000000060000000000000007000000000000001C00000000000000260000000000000027000000000000002C000000000000002E0000000000000030000000000000003700000000000000450000000000000046000000000000004A000000000000005700000000000000610000000000000062000000000000000100000000000000030000000000000004000000000000000F00000000000000130000000000000019000000000000001E00000000000000210000000000000031000000000000003A000000000000003F00000000000000420000000000000044000000000000004600000000000000470000000000000048000000000000004A000000000000004B000000000000004D000000000000004F000000000000005C000000000000005E00000000000000600000000000000000000000000000000100000000000000020000000000000005000000000000001400000000000000160000000000000017000000000000002100000000000000220000000000000023000000000000002500000000000000280000000000000037000000000000003F0000000000000043000000000000004B000000000000004E00000000000000520000000000000059000000000000006300000000000000030000000000000004000000000000000E000000000000001000000000000000160000000000000017000000000000001D0000000000000024000000000000002E0000000000000033000000000000003400000000000000360000000000000038000000000000003B000000000000003F0000000000000046000000000000004900000000000000540000000000000056000000000000005D000000000000005E0000000000000060000000000000006100000000000000000000000000000001000000000000000200000000000000070000000000000009000000000000000C000000000000000E000000000000001000000000000000140000000000000018000000000000001A000000000000001D000000000000001E0000000000000020000000000000002E00000000000000360000000000000038000000000000003C000000000000004D000000000000004F00000000000000510000000000000052000000000000005E000000000000006100000000000000630000000000000008000000000000000B000000000000000F000000000000001E000000000000002100000000000000220000000000000024000000000000002B000000000000002C000000000000003D000000000000003E0000000000000041000000000000004B000000000000004C0000000000000055000000000000005C00000000000000000000000000000008000000000000000E00000000000000110000000000000017000000000000001E000000000000001F000000000000002000000000000000230000000000000024000000000000002D00000000000000300000000000000032000000000000003C000000000000003D0000000000000044000000000000004700000000000000480000000000000050000000000000005B000000000000000100000000000000030000000000000004000000000000000E000000000000000F0000000000000011000000000000001400000000000000170000000000000018000000000000001A000000000000001B0000000000000026000000000000003400000000000000360000000000000039000000000000003A000000000000003F000000000000004200000000000000510000000000000052000000000000005600000000000000000000000000000007000000000000000A000000000000000D000000000000001200000000000000140000000000000018000000000000002000000000000000280000000000000029000000000000002B000000000000002D000000000000002E000000000000003000000000000000370000000000000039000000000000003E0000000000000040000000000000004200000000000000440000000000000045000000000000004E000000000000005100000000000000520000000000000056000000000000006300000000000000120000000000000015000000000000001600000000000000180000000000000019000000000000001F000000000000002000000000000000280000000000000029000000000000002C0000000000000035000000000000003600000000000000430000000000000044000000000000004F000000000000005200000000000000540000000000000057000000000000005E000000000000006300000000000000"> : tensor<1999xindex>) {addr_space = 0 : i32, 