module {
  llvm.func @malloc(i64) -> !llvm.ptr
  llvm.mlir.global private constant @__constant_100x100xf64_0(dense<"0x53EC681CEA5F514021E7FD7F9C543540ED6305BF0D11334082548A1D8D733B40309C6B98A1F9464006A1BC8FA3D955406500A8E2C6B741402236583849094940354069A8517E5440EE26F8A6E96B224024986A662DC94A40740D33349EB4494058E542E55FCC574044A2D0B2EE7D4640C26856B60FD94440BB473657CD314940C939B187F647574080812040864EF93F0DE198654F624F4059BE2EC37FEE4440C53BC093160E4340D49B51F355EE3A402446CF2D74D2574012BC218D0A064B406FBBD05CA7685040D93F4F0306434C40FCFB8C0B07924B40BEA3C684985B24404CE0D6DD3C0D41409ED32CD0EE0434405A66118AAD524A4036CD3B4ED1C53140D7DAFB5415B23F4079B29B19FDCC5840478FDFDBF4094A405281936DE06E1140D575A8A6243C5340EE7BD45FAFDB5840575F5D15A8D13E4068B27F9E06D64F4066BFEE74E7091E407E01BD70E7D3554096986725AD524940C6F8307BD9AB5040253E7782FD714E40287CB60E0EFE3C402DEC6987BF060940FD14C78157FB2640D13E56F0DBA8464030F0DC7BB8B03D40161747E526CE314008CC43A67CDE4840766B990CC75852406B7F677BF4260540E700C11C3D995140B4C9E1934EC644406E4F90D8EE524E40AED3484BE5905740BEDEFDF15E5B524057D0B4C4CAC84040FC6F253B36AE3640A65F22DE3A9F3840A69D9ACB0DCB514033897AC1A7590A40F163CC5D4BE4384064ADA1D45EFE5340D4449F8F32104240A088450C3B2E47404D66BCADF4D04440F487669E5C932140E2218C9FC6CF48405305A3923AB113403B527DE717B517403F0114234B8E29402E9276A38F885040E353008C67903C40E3FBE252950E5440E7E26F7B82F43340D3A57F492AC328407765170CAE134340F4346090F4285640D122DBF97E5E4240A98427F4FA8B4940BEBED6A546D03B40D65240DAFF9454401D1D5723BB863A40855CA967415A50404B3FE1ECD6804C40616F62484E7E51401286014BAE0A4540FB05BB61DB0C5540939048DBF82D4A403128D3687295444096CCB1BCAB064840A1A3552DE9D83340E7E44526E023334031ED9BFBAB185340A7406667D18954401E6D1CB116555240889D29745E2D5040D6FCF84B8BFC444023F3C81F0CDC4040BCB1A030283C574046D3D9C9E0E6434036AD1402B9642840C30FCEA78E465640FA28232E0015364053CE177B2FF25140149337C0CC3258404A42226DE35B4D405C55F65D119645403C32569BFF2451407BBE66B96C0C4F409966BAD749CD3440397B67B45509FA3F25B37A87DBB058406347E350BF63534091813CBB7C573240EDD632198E971440170D198F521457404B7842AF3F83504090BC73284341394004C8D0B18328494041D3122BA3205440D3BEB9BF7A4650402D98F8A3A81D49400C3B8C497FE65040A435069D104A4240ED4ACB48BDC330401212691B7F2A30406ADFDC5F3DEE0D4049DA8D3EE6035740A31EA2D11D7410406E4E250340C5484040C39B3578854640D90759164CF44740B136C64E789252401C7A8B87F7DCFA3FDE3CD521370F5440F1B913ECBF5F5740D47D00529B7C304049145AD6FDD74D402DEDD45C6ECE4840C0AF912408DB5640EFC7ED974F360B40CB2F833122BC5640C976BE9F1AC14A403FAC376A854938405FB7088CF58B4A40483657CD73324B4051F86C1D1CD15840774EB340BBBF40406823D74D297C5640CC7EDDE9CED65840910BCEE0EF3354400EF8FC30421258405B25581CCE9648406479573D60124140ED832C0B265A3D409DBCC804FCFA4440B22AC24D46AA5440D099B4A9BAFE5140B69E211CB30C2D402C8194D8B5154C402CF52C08E5B65740BB97FBE428082440CBBE2B82FF893440C45BE7DF2E434040DA1B7C6132D521406CE9D1544FB256409DBAF2599E1F24405CACA8C134384E409A7D1EA33CCF46406954E0641BB858406090F469155531400B5EF415A4314440EA3E00A94D804740B709F7CABC693640124BCADDE7A81F400341800C1D873E40FF756EDA8C66574029E78BBD17674E40410C74ED0BE45040A11342075DF05040EEAF1EF7ADB25340E19524CFF597484066BCADF4DA6C154048E00F3FFF374B40ECA2E8818FE94040BAA46ABB09BC5440912C6002B7584D40483657CD736152405439ED29394A5840D1B2EE1F0B0124402B2FF99FFCE55840F92EA52E19474D40293DD34B8CC15740EE0A7DB08C4B4C409C1551137D1E45402A560DC2DC6B5740B6114F7633055340D61C2098A3255540F564FED137012240274EEE772822374019575C1C95A33640BABDA4315A8A5440A088450C3BE6404056D7A19A92724B40473EAF78EA43504004594FADBE764140CF84268925050A40B91798158A67504026FE28EACCA35540C8EE022505963240A39410ACAA0953407764AC36FFDA5140666A12BC215941407D7901F6D1075740FBEB1516DCAF0F40D3BD4EEACBB21E40664D2CF015A34340EF01BA2F67263F40FFB1101D02B3394075B0FECF61735240D15966118ABD2140490ED8D5E41D34402E3D9AEAC93057400BD3F71A82B73A40CF2C095053DB2E4059350873BB1B52408D429259BD7F55406FD8B628B32534405322895E463F40402EFEB62748E0414040A0336953FE5640F2423A3C842B57408AE5965643B153407193516518AE5440E02F664B56FB464055867137884E4140C07ADCB75A1C5240D48041D2A75D5040AE4A22FB2073544059BF99982EC442408B36C7B94D3A4A40109370218F2E5440B4571F0F7D133F40CA8B4CC0AF954740F9669B1BD367454090847D3B89684240DFFAB0DEA8151B4011C30E63D2F14840F0C4AC1743F13840EF2076A6D0253840E12538F581AE52402F89B3226AB84B40124F7633A36349402FA704C4248C4F40054D4BAC8C4E2640E355D636C5C14E406536C8242322514047C9AB730CE840407A354069A8D15240359BC76130174F40D90759164CA25740BDE2A9471AA351402B51F69672063A408E210038F6775740045ABA826D504640802BD9B111364E40FD304278B4695240137EA99F375F42402315C61682D2574085ED27637C7A4A404AD40B3ECDDC51405665DF15C1BB5240768BC058DF864040E57FF277EF8E4F40ADA3AA09A2A95140BFBA2A508BDC514038F581E49D394240BC96900F7A1E20405DA9674128EF0340AFB14B546FA54B407A6EA12B1117534066A3737E8AD14B4039471D1D57294340BC5CC47762C64940320395F1EFD30E402DAF5C6F9B414D40D89DEE3CF1975040236AA2CF47B85640041F8315A7524340BC77D49810814940D7338463964A514029B2D6506A9B4F40F58590F3FEE74940D82E6D382C714040ECDADE6E49ED534029EACC3D24235540753DD175E1833A4028D53E1D8F293A40F5824F73F20231402BBEA1F0D9E35140E31B0A9FAD254340BABDA4315AFD474079E57ADB4C6F494087889B53C94E58409B3BFA5FAE2D3E40745C8DEC4AB85540998235CEA6874A40116E32AA0C8333401F2DCE18E6E958405C1FD61BB5FE5440F6ECB94C4D305340AD510FD1E83627406E1805C1E399554008E3A7716F4A4C4095BA641C23193040DC7F643A749C4E40349F73B7EB9D5440666B7D91D05A3640E4D87A86700B53403E963E7441CD4B40AA0D4E44BF762B40A0DD21C500193D403EEB1A2D07885040A27F828B15035340F9156BB8C80050405262D7F67692584006D49B51F35351407539252026A11E4072BF4351A067214069368FC360C04E40B79A75C6F7D94C405E6743FE99C74340408864C8B17F494096253ACB2C565440FDBCA948853D434022C495B3777B574081ECF5EE8FE94E40E161DA37F7CF3E4035ECF7C43A18554008C72C7B128658402507EC6AF2515340B05582C5E16C46402B33A5F5B7B35140FA62EFC5178C544092E9D0E9790F4040274D83A279475340D5EAABAB02E35340973B33C1707652405C3AE63C630B5740B0743E3C4BAA52403FFED2A23EC75440C9E88024EC7B1D408F8EAB915DA9FE3FDA91EA3BBF104140E692AAED265D5840D20149D8B7BB4740605AD427B96F3F406CEBA7FFAC15524016855D143D9A45403755F7C8E60558401C9947FE60201F40527DE71725EC584097E315889EC03C402366F6798C323D402D27A1F48590FB3F55FB743C665758409B1E1494A28749405D37A5BC5648494008CDAE7B2BC21B40043A933655DD4B403CF88903E80337402A37514B73E338401EFCC401F45B2340ABECBB22F8DF4E40DF35E84B6FCA58400CC9C9C4AD9E3440EEEBC039235B584089963C9E96174F40639B5434D69D5140C231CB9E04B849402827DA5548174140B28009DCBA3B3840857D3B8908725240569DD5027BE842406DCA15DEE5BA42402750C42286D5314026732CEFAA474D404489963C9EB2444082E15CC30CE1524000ADF9F197304D4003EE79FEB4DD4240E84CDA54DD945240293C6876DDC54A4072FC5069C42F51403C2D3F7095471F4079CC4065FCC851407CF1457BBC0043406728EE78932F2740CC7EDDE9CE8B3E40C7F65AD07B1B494030D63730B9E74040A7E7DD5850B83140AF7D01BD70371040E82FF488D14F4840DC68006F81685240BF44BC75FE8131409ED32CD0EE002740D124B1A4DC2D20408FAB915D698139406D37C1374DF75240740D33349EF84340AA29C93A1C2D3740D8F50B76C3663D40F015DD7A4DF8584096B377465B8D3B40693A3B191CE15140E57FF277EF684B40C2A563CE33BC4C40AF08FEB792EF52407DE71725E8A3504047E4BB94BACD5240782975C938E85540E7FEEA71DF5247406D91B41B7D015340BDA772DA53E755401DE38A8BA3863E4074982F2FC05F5740E124CD1FD3A8484003D2FE0758514340D8D64FFF59BB3E4077DCF0BBE9DE30405FCFD72C974D54404B3E761728025040CE001764CBE2334094313ECC5EEE3C40088ECBB8A93E5740F67EA31D37B42C404B77D7D990814040637D03931B2B4A4076C075C58CB04D409016670C73A84A40D9B3E73235854C40D6E429ABE9C633409BAF928FDDF657408466D7BD15054B40BBF2599E073C5840ACE122F7743E584028BB99D18F7C5040D2E4620CAC6256408C81751C3FE15640B32781CD399E5440B537F8C264022440E466B8019F9C5140C95A43A9BD582D40DC9DB5DB2E4055409609BFD4CF814C40664AEB6F09685140514A0856D5925540CC457C2766453C408B6CE7FBA9092140C500892650005840FED137691A2F5840E607AEF204023C4059BE2EC37FC0524044A2D0B2EE554640338CBB41B43D584088670932020357402FFCE07CEA6C5740F48C7DC9C6255840B05582C5E1983240C780ECF5EE9F3F406C3F19E3C3F04840349D9D0C8ECE47404485EAE6E2C54E4068942EFD4B6E38408A0629780A585840F86F5E9CF8535240287D21E4BCFFFF3F16DEE522BE125040DBA6785C54014C40B83B6BB75D68F23F9BC761307FE1534080608E1EBF675540A8E507AEF2D41240E8A1B60DA3E7514059DC7F643AD0504056BB26A435DE4040259694BBCF5F5640A8363811FD563740F7764B72C0F231402575029A081F5240AE669DF17D514A400438BD8BF73E5340C4B5DAC35ED03D401D3A3DEFC6A55340DB6CACC43C165840F2CD3637A627FD3F5401F73C7F3251407E8AE3C0AB4D504027BF45274BB13040E6AF90B9321C3C40FEB968C878583340F853E3A59B344A40AD32535A7FBF3A40A5DB12B9E08C3B406806F1811D3F144080457EFD109F4B40DC813AE5D173584098FBE42840A64840486B0C3A21E41540A4E2FF8EA802544000750305DEF74D4072C284D1AC34334092CF2B9E7A6E504087DF4DB7EC1F5640EA95B20C71615840B1524145D54948407313B534B76A2840CE380D51855B3B400E9E094D125345400F441669E2B52840D8BB3FDEAB605140EAB303AE2B7E3940AA61BF27D61453408F6E84454520554033880FECF83D5840D53C47E4BB904B4016BF29AC54900740103FFF3D78174740CC0A45BA9F72584048DC63E943F730401CB4571F0FCD4E40D1764CDD958F58402426A8E15B4F55409C36E334440D4E40B98E71C5C52D41401900AAB871954A40A20BEA5BE61C4E40774EB340BB8B5340EBC37AA356F835405DA5BBEB6C9641409548A29751C04F40C83F33880FCC2740DAA84E07B2504040E9482EFF21FF5840CEFC6A0E106032403CF71E2E3936304048FC8A355C4C5740A12B11A8FED12D40CBDAA6785C6C3840C5FEB27BF2F454400C5BB39597AE4040F0332E1C087D524022C66B5ED5B957402AA73D25E7B244405859DB148FEB07400CB265F9BA615640F487669E5C3F534003D2FE0758D754407BD7A02FBDA05140378B170B43041E4062BB7B80EE3650401A31B3CF63B84640F04DD36707D15140904E5DF92CA73040F2237EC51A9E2640892991442F4C5240FA7ABE66B9364F40CB845FEAE7F543401B13622EA9D22B409869FB5756F23440BC0853944B032F40EBFEB1101D5754408CBB41B4564E5640F19F6EA0C01E514094DE37BEF6104B402D98F8A3A83B28406072A3C85A474A409886E1236268474046CF2D7425A84040BA826DC493DF4440081F4AB4E4893E403E7AC37DE48E4E4089618731E9C74840B2B96A9E23B4504066321CCF67655540BFD2F9F02C211240B857E6ADBAC25840D3307C444C312040F10D85CFD6CF4D407A354069A8F93740F0332E1C08D12C4090A0F831E61243409E060C923EF130406CB41CE8A17A5040D5592DB0C7842D409F5BE84A0406504078B7B24467F14E40BD0166BE83E6564016FBCBEEC9405340406D54A703353C407427D87F9D174A40E17A14AE475F4D40008DD2A57F7A56409F758D9603434840015130630AB75640766C04E275615340730F09DFFB074940ABD0402C9B2D45409C525E2BA1CB57401F84807C091D3240C9E88024EC485840E886A6ECF4485240EACC3D247C2F3C40336B2920ED8F46406249B9FB1C4F354064744012F6854F4062BB7B80EE1756406EFB1EF5D7EB3540997E8978EBCC3740C901BB9A3C5D2F40C652245F09E83040F38FBE49D39047409BE61DA7E8BC4B401A6D5512D9C4584031242713B7E63C402F14B01D8CB448403481221631664140AAF06778B3235540F5A276BF0A182940B01D8CD827F02040B9C5FCDCD01E4B405C9198A0864F0440753A90F5D4575340B4E908E0668B50407A8F334DD8EE244059164CFC51785240B70C384BC9824A40C45C52B5DD8C2840009013268CC23440096EA46C9168364087DC0C37E08B29408C4AEA0434135340C498F4F7520451406DFFCA4A938A5840265646239F494B4042CEFBFF38D74040AA9A20EA3EB0244013286211C37C544086376BF0BEB230408A1EF818AC484140AA44D95BCA6140402F8B89CDC7B74940C153C8957AEF52401749BBD1C78046409CC420B072FC38400B9B012EC86618405D15A8C5E03955402786E464E21840406116DA39CDF95540D25625917D50F23F50E09D7C7A6CEC3F98141F9F905D1E405709168733A85240B0592E1B9D873040B5FE9600FC0A514065C5707500C4F53F9D103AE812CC4240650113B875C724409067976F7D881740389F3A562937524062A2410A9EE85540FD69A33A1D35554044C362D4B5562540AF3E1EFAEE463240815CE2C803A93540764F1E166A3354408FE4F21FD264514012BC218D0AAC424032755776C182464012BD8C62B9ED2C402D98F8A3A8B3FC3F4BCD1E6805BC4440801134661275E43F7C9C69C2F64652400264E8D841D145406CB3B112F35C30405514AFB2B638504066D828EB37694B4097CADB114E5941407DE882FA965B404074081C0934B25640FCC6D79E59DF54401CEF8E8CD5E6FD3F5C02F04FA9BC4840DEE4B7E8643C504097546D37C1A25140A0A52BD846CC2540F46E2C280CC04340FDA4DAA7E3C85340126C5CFFAECA55405320B3B3E83D10406AA2CF4719834940560E2DB29DD650405A2E1B9DF353F33F861C5BCF10875240C1AC50A4FBD901401DAF40F4A4B24540460C3B8C49D9494037FA980F08303A40AA81E673EE2E5540096D3997E2C84240FC8F4C874EFF3F40BEF6CC92003D57406EC2BD326FDD2B408DB7955E9BDF424052D50451F7A12D40D13C80457E5146407976F9D6875D374010B056ED9AA857407A51BB5F05A84B401762F54718815140B0A9F3A8F86B4E4055151A8865CE53408CDAFD2AC03D48402A90D959F46E0040D9226937FAA1524016687748319753408CD7BCAAB3A246400BF148BC3CCB4A40917D9065C19556401AFCFD62B6B158403674B33F501C554028B517D1763C244051F52B9D0FBD4C40FC8EE1B19FB1504022895E46B17452407C6308008ED05740F7216FB9FAB112406E3315E291F80A4069E1B20A9B3D344059DFC0E446F1304064062AE3DF6B4540EE98BA2BBBE45440137D3ECA883B24409A93179980A7204086C8E9EBF955534083FB010F0C0046405C548B88628954408B36C7B94DB6534094F6065F98EA5140085A8121AB4B2740ED2DE57CB191454050508A56EE053140124F7633A3D15140C1745AB7411D1D40F1F109D979CE5440E92ADD5D67305640C9FFE4EFDEFD544056EF703B34265540F67D384888CF5640B6D8EDB3CAE43440624CFA7B293E44404F75C8CD701052400CCEE0EF1769574024986A662DD14A404DBED9E6C6A43140755B22179C2752400DFD135CAC582740D2DF4BE1413A544001F6D1A92B5252408670CCB227192540ED45B41D53EF3B40D313967840212B40BCAE5FB01B344840E17CEA58A54C4340EA93DC61139A5140E9EE3A1BF2C35740CFC0C8CB9A60364078B7B24467D74F405D8B16A06D852C40978E39CFD81F53400D7041B62C01474017A06D35EB9C274075AE282504685840C87DAB75E262264013D731AEB8264D405A68E7340BDC3C4062BF27D6A9EC5040CE8C7E349CAE3F407A50508A56CA5040158F8B6A11153D401CCEFC6A0EDE4040AA6400A8E2FC5640F3E670ADF63C5240C37E4FAC53252640357F4C6BD3CE40408BA548BE12544B40B69DB6460443204064CDC82077A45640FCC22B499E5657402FDE8FDB2F03384043E1B37570EE52401361C3D32BAC5540EB19C231CBBE234082700514EA554940596B28B51731284056F5F23B4DA85440FEB4519D0E21514041EF8D2100304B404E61A5828AD639403604C765DC495540923D42CD90EF564071E7C2482F9E4840301004C8D0511940DA56B3CEF83C48406D0036204224524046EF54C03DCB36405A47551344DD3940DD3F16A2434A4B40C03E3A75E5B33640723271AB20A64840C24D469561F4364068EC4B361EE64040CDCB61F71DFC504024B4E55C8A2BF13F562DE928070B4040AC1A84B9DDA74540A19E3E027FF854404832AB77B8D741401D3D7E6FD3E74840F7ADD689CB112C40FE2B2B4D4A155240FFCEF6E80D64514098E0D4079243544039984D80612D4B40723788D68ABE3140BF60376C5B6645409B9141EE22365340EF90628044094C406A334E43543B504041F2CEA10C813C4019761893FE6F5240D05E7D3CF4EB51404C1938A0A5FD4B40C005D9B27C252E406B8313D1AF265140D52137C30D1E5340A2EF6E6589505340925B936E4B142040BD55D7A19AC45740D270CADC7CFF3D40115663096BBD4C40F833BC598310574011548D5E0D7C56402B69C537148A554050A6D1E4627A58406616A1D80A9ACE3FF818AC38D50A5040CCB392567C331A40D7C0560916B94C406DC7D45DD9A34F4097033DD4B6B14540FFE6C589AFCF504095F1EF332E5439402313F06B24713E401343723271433A40FFE7305F5E0354408D463EAF78AF544036E9B6442E00314075AF93FAB2F64740876BB587BD682E409EB7B1D991EA464020D26F5F07144D4017F4DE18027358407731CD74AF774940B03731242758574005FD851E31C64E40D95DA0A4C0EE49403BC3D4963A80264024D40CA9A2BE4440293C6876DDC14C402EC6C03A8E2D50407B698A00A7EF3240710168942EF52040245E9ECE15FB4C4024456458C52D45403F8D7BF31B304C401CB4571F0F6144402DAF5C6F9BB91740101FD8F15FF64D402252D32EA615434066F4A3E194EA52405EBC1FB75FC24340014C1938A0494E406BBB09BE69A556402BFA43334FFA57400DFD135CAC7C3A40A9F57EA31D1253404582A966D6C84A40ECBE6378ECCF3140BADDCB7D72104740F627F1B913395340F85278D0EC4A4440ED66463F1A6E3940C345EEE9EA10514025B1A4DC7D604A4018601F9DBAFA2440789ACC785BA741406F9BA9108F04214038D73043E3FD3A402F4FE78A525A33406D3CD862B7B45840FF2268CC24584640CF2F4AD05FE35140043752B648CF5540556AF6402BD00040F5B9DA8AFD6538409C340D8AE6E10640234C512E8DF5434098C3EE3B86225840A3AD4A22FB102F40A180ED60C4144B408BC058DFC0A35340E38920CEC3D05040E36BCF2C096B5740A71FD4450A094E4057CF49EF1B8F294096766A2E373E5740063065E080805340E17A14AE47C12B4074B2D47ABF2856406C98A1F144DC52400725CCB4FDD75140CD94D6DF12A644405186AA984A494440DA9255116E1E314017838769DF2554404D86E3F90CD458404609FA0B3D822140BD38F1D58E88524008CDAE7B2BA7514016F71F990E305040EAAEEC82C1E13F40F20C1AFA273C4B40B0E600C11C325140BE6A65C22F30524085EAE6E26F0B11409224085740BF4B4083FB010F0C20D33F3F027FF8F9572F4099620E828E9E454014234BE65866414033880FECF8372F402C8194D8B5B3434018E945ED7E4B4A403FA7203F1B853F40DDB1D82615A85340CF83BBB3760941408DCF64FF3C0D3140B0E600C11C7D254036E9B6442E1805406DE525FF93474840A4C4AEEDED9E4D40C8B60C384B9345400F99F221A8FA1F402EFF21FDF60156406937FA980F48F73F185DDE1CAE95FF3F99BC0166BE1F35409AEB34D252492A40CE1B27857907584052D50451F70B4F40179CC1DF2F7557404F93196F2BFD3C404B75012F33924C40939048DBF84549402E71E481C8084A406E162F1686DC404084D90418966D51401C9AB2D30FE22C4025B37A87DB025540FEB7921D1BC11440D996016729C9554007600322C44B4440560DC2DCEE0B42409D82FC6CE4FA3640724D81CCCE5C4E40BB0ED59464E94C40EA76F6950746524028B9C32632255140CF13CFD902775440C1C41F459DF91E40F6B6990AF1B750402312859675F33E409FC728CFBCB0434033C005D9B2A841402D3E05C078AE3C409335EA211A6D2F409432A9A10DB351407FF964C570AD3B403E42CD902AE243405BEA20AF07D15540251FBB0B94864B40753E3C4B90BF534027DD96C805C74840ECDD1FEF55855740C7D45DD905E55640709A3E3BE04A5340A3224E27D9405140FDA19927D7C75840FBB0DEA8155041406E68CA4E3FAC404080BBECD79D635240C710001C7BB04940494BE5ED085148407592AD2EA7003F40EB8D5A61FA7A36407862D68BA1A42340C823B891B28551401878EE3D5C4A4F40EE7A698A000C5740043752B648D25740FD87F4DBD7494340C5C8923996B74F406F4BE48233DC384079E75086AA1C524019726C3D430F54406E32AA0CE34D5440B2B96A9E23FA3B40C0B0FCF9B6144E408D976E12831445408A3A730F0982564049809A5AB646544038C0CC77F0CF36406C04E275FDF2154063D34A21909F4940707D586FD4095540EFE714E46723224036785F950B95E43FF20703CFBD814140B4571F0F7D515040111E6D1CB103554089EB18575C8C3A40E84EB0FF3A7853405B9885764E9D5240ED6305BF0D79494003B16CE6908E564084807C09155C3C40F3E505D8477722401C23D923D4355140813D26529AC85040E92CB308C5861440C4CF7F0F5EE33A40A933F790F0075640D670917BBAEA21401990BDDEFDB10A407023658BA4053D4058AA0B78992154400DA7CCCD376C4440A4DE5339ED4B5140A453573ECB7355403FFF3D78ED2A4C40A703594FAD55564030F0DC7BB8A25040425DA45016DE3740DC80CF0F23F253400E30F31DFCAE4840C4B46FEEAFC55440EDF483BA48165140A3E716BA12410440BED87BF1450941409A5E622CD3EF074066DB696B44243440E7FF55478E944340A69718CBF43B32403B730F09DF5F44407638BA4A776F484098C1189128115640A33EC91D36AD32400C93A982518756401C97715303C53C4020F12BD670B65240062AE3DF67304E40D65757056A9357405DE0F25833D22240E014562AA8F44940D05E7D3CF4474340616C21C841991B4078279F1EDBBA4240117008556AFA5140DCF29194F4401440FACF9A1F7FD748404A253CA1D79B3040B665C0594ACC47404298DBBDDC2337409679ABAE431134405EBEF561BD605740774CDD955D775840064A0A2C80C1434018213CDA384A51406364C91CCB1335405184D4EDEC7C524062484E266E165040A3E8818FC1CE3F409AB2D30FEAA85240FA27B85851934040FCE3BD6A656A58403F541A31B3E45340D6027B4CA46E4240EE43DE72F5CB534048FAB48AFE202140CDE7DCED7AA531406E85B01A4B98F43FCC7F48BF7DF15540ABB2EF8AE07057404FCFBBB1A095534092E7FA3E1CB41A40C6353E93FD2D49407C60C77F81FA4B40F31B261AA47F5540FCA5457D9208544044DE72F5632B52404A7D59DAA9394140B0C56E9F558A41407BDD2230D6573540B85CFDD824A74640B9FAB1497EDC5640C097C28366C1494084656CE8667F19407B2DE8BD31684D405B5B785E2A3C4240F3C64961DE53404084656CE8667F39402F4E7CB5A32C444019E25817B7B12D405E49F25CDF35474014083BC5AA810440E2934E249834584029EACC3D243443409373620FED455740225514AFB22654405EA0A4C002803D403B38D89B188E35407BA35698BE854E409B8F6B43C5402D407AE063B0E2524E40E481C8224D744B40E04735ECF7C4E63F357A354069E02D402AA913D0440056409529E620E8815240546F0D6C95402B403F524486554448401BD47E6B271E42402B31CF4A5AF1D33F4850FC187360574061376C5B94F5344096EA025E664756409FAA4203B11C3E40D20149D8B75E5340118B187618D304406DACC43C2B2C51403D2828452BC0524026C79DD2C15A3D409B8D959867134A408675E3DD91BB5040020EA14ACD723E40253B3602F1FE304094675E0EBBB05040A6EF3504C7A5524009C556D0B4F44840228B34F10E295440FE8172DBBEB45040B8CD548847DA3040F6B6990AF1643140C1374D9F1DB35140DC10E335AF4754408EB27E33310358406E895C7006C8564021CB82893FF23040919C4CDC2A3E5240B74604E3E0422740B323D5777E634F401762F54718BF5740ECA529029C563740DCD440F339EB37404A99D4D006C044405C7347FFCBB141402046088F363F56408BA8893E1F9D49404033880FEC735840B858518369D24A40D72FD80DDBD61A40D9B11188D79D4340A0C37C79014E3F40A8E49CD84366534080EECB99ED524040A4DE5339ED114F4084F23E8EE6383A403196E997887726404983DBDAC2432E4016C26A2C612C5540B89388F02FEA3F4071E481C8227D214016F6B4C35FF733406A34B91803935740B45A608F89383C405C7347FFCB8F56402634492C29A4504032AA0CE36EA3504001FBE8D4953A5340A2D3F36E2C1831409DD843FB58B8584082E2C798BBC23540501DAB949E715640F8510DFB3DD15640865968E734A34140971E4DF5640244409CA38E8EABF11040F10EF0A485AF3040ED65DB696B240E40B64B1B0E4B5F54404835ECF7C410444035D4282499354640849ECDAACF2D3740A5828AAA5F4B4340622D3E05C06432407AA702EE79B85140F88BD99255AD3C403EAE0D15E3375440761BD47E6B29494085436FF1F0AC5140FF058200190E4D40FC71FBE5939C5140B1A888D349224F407993DFA293CB4C401FF46C567D4E3040DB4E5B23826745406E5166834CD15740F450DB8651324B4055849B8C2A3B47403733FAD17042454059A31EA2D11056402CD505BCCC915540B51666A19D5949408F352383DC334740983270404B6F37406E8AC745B5C65740C3EFA65B768A48407D5D86FF743347407AABAE4335050A40376F9C14E6B655404EF04DD3676C58401A6B7F677BF4FF3F1DAA29C93A7037407EAB75E272343A409DF4BEF1B50B57404F5AB8ACC2F44D40A54FABE80F1C51405706D50627185840D9960167298540402FC37FBA815A204023827170E9F95140D7A6B1BD16595640A5BF97C283D75840FD4D2844C0894540662E7079AC41354062F4DC4257665240B187F6B1825F3840F33CB83B6B6F2440111C9771537C5540B0E42A16BFAF4840450F7C0C56204940799109F835522240A31EA2D11DC033404DF38E53746551409816F549EE282B406F48A30227AF3C40AC730CC85E03444016DBA4A2B1825240D0B9DBF5D2495440AD4B8DD0CF704D4033C2DB83103046403F8D7BF31BE156402CF180B22957F33F950C0055DCB65040CC5D4BC807FC54405BB56B425AA25040C8B260E28F9154408A3A730F099B384096253ACB2CEC4440329067976F974640E204A6D3BAAB5140D3D85E0B7A97514097A949F08680514097917A4FE5B24740B403AE2B665C5740EECD6F9868C84940C5C551B98998424068976F7D58FD54404ED2FC31ADBF4B407EAA0A0DC4B24F40DA5548F9490F404078D32D3BC4CF464050C422861DA85140ED66463F1AEA4E408716D9CEF7530140D00F238447433C403DEE5BAD13B94340331B649291AD4140496760E4650D024079944A7842374F402F36AD1402292B40C6151747E52C4E40ED0E290648444B40077E54C37EF73640F35A09DD25310E409E4319AA6228574021904B1C7970414052F355F2B16F494006836BEEE808574021B1DD3D400F2F40DE3CD52137374740855CA96741E25440FA7B293C68404340E7A8A3E36AEF534037E2C96E66EE564078EDD286C3E95140BAA46ABB090658403DD34B8C654A3740287D21E4BC214740CD7344BE4BCB47407BF7C77BD5284940E41071732AD95540CC7EDDE9CED252403D7E6FD39F834F408E3D7B2E530D57409A7CB3CD8D47544037397CD28984494012BC218D0A1C2B4086747808E36254409BE3DC26DCF351405F268A90BA493C40A26131EA5A9D494045D61A4AEDED3040F6402B3064FD4240EACA67791E504E40E71890BDDE5B4D4066A3737E8A3B2340A08D5C37A5443C4088D7F50B76033340058C2E6F0E4F2D40780E65A88A365140AC1919E42EE84F40D34CF73AA9B25640B62C5F97E15B4D400DA7CCCD37804040E5B4A7E49CE15440056C0723F6C9F93F132C0E677E93434025B1A4DC7D2E2A401C7A8B87F70E4D40001C7BF65CE63C40DE21C50089DC40400F99F221A8355440DE9387855AE33A40BA30D28BDA813B40FF21FDF675364B40FED7B96933185640F0366F9C14F85040EE06D15AD1AE2F40A56950340F8822407AFF1F274C9830404A253CA1D7B73D40F1D8CF62297C4B40A400513063CE5340EA20AF0793863040B30B06D7DC754A408D63247B84D4504062BEBC00FB215840BA111615711A0E4006836BEEE8825040B6F7A92A34EA4440014EEFE2FD6440408A592F86721F5340A94BC63192C85240BF0D315EF3E643407B4E7ADFF892224037195586711547406E8B321B64A241409B38B9DFA1A836401D739EB12FE12E408CDCD3D51D155440E3C798BB964C58405AD93EE42D173E40FE7BF0DAA5D9514018EC866D8B3B5540014EEFE2FDE84140344A97FE256D55407522C154330F34407521567F84995340EDD632198EA70340F9484A7A1842544095D74AE82E6F4F40876EF607CAC74840ABEAE5779A004840193735D07C6756408657923CD734574044A852B307923840768A558330585740CC4065FCFB5751407216F6B4C3014640CEC64ACCB392F63FA5677A89B1A55640A29C685721A93E403BC780ECF5825240A48E8EAB91D252402A37514B734B3A408D7BF31B2629524085B18520076D414044A7E7DD584E4C40E6913F18785A4E401B7FA2B261BE5340381092054C9C314042959A3DD0A15640E31B0A9FAD074F40D3F88557922E4F4062A06B5F40F94F40A54A94BDA5CE5340CCEF3499F1495240BBEF181EFBC74940D0807A336AA237409CA38E8EABC53440D042024697D74940747CB43863FA5440FE7DC685031136406AA510C8259E2540A4C519C39CCA4840BA84436FF1C6544093382BA226EE5340895DDBDB2DE5524066F9BA0CFF8D5040B1506B9A77343C40F4FC69A33A953D40098B8A389D9A55407E00529B38534440679C86A8C2DF384034DB15FA602B554065389ECF800A2A40FF03AC55BB1A3040290989B48DCB324066D828EB37174040A77686A92D452640A301BC0512644D40C8242367616558401500E319343C5240E3C281902CF35340CC441152B7C155407FC2D9AD652F5240D7DB662AC4EF31409F03CB1132F01A40B6696CAF052F4E40A59F70766BF54A4015AC71361D594940A2B8E34D7EEF3A40C7F2AE7AC0B44940FF03AC55BBE64A40A2D5C9198A7B34401FF30181CE195040965AEF37DAC12740C7F319506F744240E7543200548F4E4084674293C45A5140E7C3B30419713D40CE35CCD078D048400987DEE2E12B5240C8B260E28F724340BCCE86FC33F0504015FF7744850B51402A58E36C3A42564038F8C264AA675640A4C16D6DE1F137408E075BECF6785040BF29AC5450A93B4090696D1ADB37384094BDA59C2F4858405D8B16A06DB155404165FCFB8CDB1D40F488D1730B6D3740EA060ABC93A653407A71E2AB1D2F5340596C938AC61A574032207BBDFB135740255AF2785AAA4E40E49F19C4073846405663096B633C2E401BD7BFEB33754740575EF23FF94B15407F17B6662B7F46402827DA55485C534066A032FE7D4056400FB743C362F24240EBFD463B6E064840D44334BA83F24740FAD2DB9F8B562C40809A5AB6D64E52406F10AD156D1635402922C32ADE38134098512CB7B4CA33402140868E1D4C31404241295AB99A5540EC1681B1BE553B4057276728EEAA55407C478D093135404034F279C553DF4E40490F43AB934D4540EACE13CFD946504094DA8B683B8B57404A27124C35B33D408CA19C685765374055FA0967B7D55140240C03965C215140E7525C55F68F4D40B58D3F51D9784540D619DF179723544093E52494BE104E40060DFD135C18364084640113B8B75240CB9F6F0B96544D40DC80CF0F2395524083177D0569F44E40E4F90CA837073E408B170B43E4EC2E4082751C3F54B8464028603B18B1694940BAD91F28B7BD5440D00F238447D74C400DC51D6FF2E65740C405A051BA3837408F1D54E23A063240D7DCD1FF728854405A492BBEA19C544013EE9579AB0E0E404510E7E104C24D408124ECDB494433409FAD8383BD514C40952C27A1F40B5340D8D825AAB72643409B58E02BBA4B4E40C4245CC823CC44402D060FD3BEB9ED3F320400C79E1F5540D882DE1B43925440DE9046054EEA514033C2DB83105004404EB9C2BB5CA0504049658A3908744040A59E05A1BCA34540AE64C74620F44C4035D42824997D4D40D7FA22A12D685640C1A90F24EFE75040EC51B81E859B56400C3CF71E2E0543403526C45C52C939409A5C8C8175F24840D7A205685BED4C40577BD80B057C2D4059DB148F8B8240407CD3F4D901FB5040CC0C1B65FDB35640618A7269FC3C4E40F5F6E7A2215C5740A779C7293A8224402EC896E5EB3225406EC493DDCC624F40BDA94885B13B4640B3976DA7ADB92640AB402D060FD144405BEB8B84B68C53400EBE30992A344F40C1E270E657731440FE45D09849EE5140FCC22B499E17564030D5CC5A0AAA5140F94D61A582863140088F368E58294B40A4C4AEEDEDD24D4055336B2920454F40B9DE365321C24D401FBB0B94141438408C497F2F851F284081423D7D04185040F65D11FC6F8D2A40C87E164B91B852408D9B1A683EBC5740FDF7E0B54B6B444001A1F5F0650E3C40E8667FA0DC9236407769C361691035400EF62686E44D5640D2FD9C82FC7642408D976E1283C43C404AB20E4757A94440DBA4A2B1F63B3040C15774EB35B52F409605137F14DD2E40C32D1F49498F1240BC79AA436EC45340E90E62670A0B5440AAD4EC81565C56404D0F0A4AD16E4E40D7A546E8674241407F33315D88255140F870C971A7D40E405E126745D4B039403049658A39702240E35295B6B8BE3640DD611399B9C55540321F10E84CB04F40F6EFFACC59C14540BBD1C77C408E4E40EAEC647094A550400EA48B4D2BCD3240FEB8FDF2C9C84E404E64E60297B72440282A1BD654960E4030BDFDB9682A4440A35BAFE9419D4F40C83F33880FD424405D6C5A290417564093DFA293A5C64840E0826C59BE5046400A815CE2C87F5340ABCDFFAB8EA04D40F2D077B7B29C4E40B8567BD80BAB5340D6E253008C33354083C0CAA1456E2F4073D712F241A85440D7D9907F66AB5740944F8F6D19BD5240A1664815C566534054E3A59BC48A514074965984623322403E0801F912765240CC7EDDE9CE4755407BA4C16D6DA1FD3FB80721205F0223401D93C5FD47AA4B409C3237DF889E4D404888F2052D503C40E4326E6AA06530407C4276DEC67D5740F0C3414294CF34401E34BBEEAD1058404DD9E907755743406DE690D442914A40732EC55565FD4D40DB5031CEDF504840EE96E4805D353B404E0AF31E67D856409D66817687555740AFEAAC16D89B2E4000FF942A51F6FE3F6C79E57ADBFC1A4012DDB3AED13051401EE1B4E0454F3B409162804413C80B40A2D3F36E2CF83B4014CC988235344C403BE5D18DB074324093A7ACA6EB4D3A406F66F4A3E1CA44403D484F9143242A403CA41820D1E426403EB0E3BF407023405B087250C24CD53FF277EFA83175474062BEBC00FB9C3340166BB8C83DA4504093533BC3D43E344019028063CF5F5640CE70033E3F5435408F8B6A1151405640E78C28ED0DEA454047AF06280D05344028BA2EFCE0E44B4039D6C56D347E5040A88C7F9F71192440E1968FA4A4614B40F435CB65A30D54405A9BC6F65AEF55406C79E57ADB4C334087FC3383F812524035ED629AE91F554083C0CAA145D60F40C0CDE2C5C2A0574015AB06616E99584073D712F2410E5440FD3383F8C0944640295B24ED46B45640A8E0F082889F5540BA4DB857E65135400C941458003C5840CD72D9E89CFB4B4036E7E099D0885240B727486C77734A406D567DAEB6464040CAA99D616A8B5440EE43DE72F5332C40BC749318046E5240F1B8A816118F4E40E1EF17B3251F3840129F3BC1FE5331401F317A6EA10B0B40A439B2F2CB924040933655F7C84B5540EA793716144E554043AD69DE711440407978CF81E5705640D6FECEF6E8F65140FBB1497EC4685840664CC11A67955740A60BB1FA230F5340D28DB0A8886D5740573D601E32955440A7785C548B0253405C55F65D11924F40EA5910CAFB7F5040AE8218E8DA7656405B9885764EF05240DC476E4DBAEF5840E198654F02F45840931ADA006C8028405455682096D131402907B309303C3A4048A30227DBA0394027DD96C80592534058E542E55F634940C8073D9B555D41404CC631923DC63440BF28417FA14D584008E3A7716FCA3E40B3B3E89D0AFC3B4059A7CAF78CC83740F4E0EEACDDB846404A7EC4AF58C057406C5D6A847ECC56401AF7E6374C4C2140E0F3C308E15D4A4027F6D03E56683E40E5266A696E90584080289831055B4D40C7478B3386294C40A25EF0694E2E1640FA4674CFBAAE234079245E9ECE451B403F390A1005974840CE8AA8893E9F35405ABA826DC4F73040EEB5A0F7C69C4E406F10AD156DAE4140290989B48D4A58400D6C956071E04D403B191C25AF60464093382BA226E5584011514CDE00733440611BF16437D85440D2890453CDFD53403944DC9C4AA24B405ED72FD80D1542401B62BCE655A14B40971AA19FA91B4740D6A887687429414067D311C0CD7A2140D7A4DB12B920FD3F446B459BE32C1D4085419946938BFB3FD25625917D501940DC2BF3565D1D5540E719FB928D3A534034492C2977E33D406D6FB72407C958409FCDAACFD516FA3FDC2BF3565DE74140300E2E1D73F25340029EB47059DD4E4093AB58FCA6CA4340BCADF4DA6C48374066C0594A96D3244030D7A20568A32340B9C5FCDCD07449407845F0BF95ECB03F9B374E0AF3F1544032772D211F1453400B7BDAE1AFD65840664B5645B8AA5040B8955E9B8D1A51402FFB75A73B3B4C40E338F06AB9F95440A6F10BAF24F94D401F9DBAF2599ECB3F62D68BA19CD82B40452BF702B3184E4097E5EB32FCE733407BA4C16D6D01134094F59B89E9921A400F0A4AD1CA7535402C9E7AA4C1025140A9C29FE1CDB2464094BC3AC780BC3F40D2AC6C1FF2A63E40CE6F9868901A4E40AD1402B9C4814B401D90847D3B155140F73B1405FA4F56406684B70721143F40E23FDD40817F40405B7C0A80F19437407AC5538F34795740069E7B0F97C0544037E15E99B7624B40DD2230D637F03E40251FBB0B94424440A8FC6B79E53A3540D960E124CD9F1540643F8BA5480A4E40B763EAAEECA442405EA10F96B1125040BA826DC493DDF93FDAAA24B20F422C4080D591239D554740B9A7AB3B16B347404BCADDE7F8A84340B43BA41820514B4073A25D8594873840BA1457957D673840116E32AA0C433440B58CD47B2A7D56405D1ABFF04AFA5240F9872D3D9AAA0140BCB20B06D7D04E406090F469153B5440F3CAF5B699363540C216BB7D56C53C4083DF8618AF4141400056478E74A6444088687407B19C5840B131AF230EF12440A915A6EF35F05140A721AAF067E25240310BED9C66974F40F20A444FCA841B40B091240857303A40E415889E94CD4F40E63FA4DFBE2753401DE38A8BA36A2540758F6CAE9A975140295C8FC2F56C43405E807D74EA5157408104C58F31A71A40CCB4FD2B2B8654406A696E85B0AE3D40FC1D8A027DFE3A40AC53E57B46C223408AE596564312534002B859BC5880454008AC1C5A64A744409BADBCE47FE220403EAF78EA91004240465ED6C4020F3A4044334FAE29C4444015FE0C6FD6B43640B80375CAA3934E40931CB0ABC9632C40917D9065C19E5540E3E2A8DC443E5040CEC47421562B3440069FE6E445023A40DC645419C6813640751E15FF77A40F4079AC1919E4BD56403370404B57F04F40BD8C62B9A5E53540D4981073493156400C0742B280314C405DA626C11BE232403C4D66BCAD803840930035B56C5D2140147651F4C0554140AEF545425B24554014CE6E2D93DE574016DD7A4D0FA44640B77EFACF9A8D5440C3D501107781344095EEAEB321785440BB5E9A22C05D3D402B1895D4096C3840077B134372315140172B6A300DAC50400AB952CF82724A40423F53AF5BD24B402BC0779B370A5640F2B6D26BB3B74B40F58590F3FE36564069C537143E7953405B9A5B21AC1752402E3C2F151B3B534058ACE122F7D43F40AABA47365745404052D66F26A6885540A29BFD8172594C4060E5D022DBE35640ADFBC74274E248405859DB148F5B4F40A2630795B85E2F40F4531C075EA65440D1E97937166F544051A4FB39059D3E408D429259BD03F33F1D5BCF108ED747407B2E5393E08D4E40F641960513514B40A2B2614D65BB504029AE2AFBAE804A40423EE8D9ACEE524078978BF84EA246405D6E30D46105E03FCEE2C5C2101B4840268DD13AAA3750405A48C0E8F2F657401AC40776FC61564024B891B245C84C40F64201DBC1C95240F46E2C280CCAF63F6765FB90B7B43B40309E4143FFB42B40EDEF6C8FDE683D408E209562471B35401FBE4C1421213D40A8C7B60C38BB4B407573F1B73D813A4062307F85CCC14D408655BC9179F75840A54A94BDA5AC3440C3651536032C55401D007157AF6A5540B5A338471D095440F209D9791BB54940D784B4C6A0D95540D49CBCC804AF55409D66817687B7514092B245D26EA039402ECA6C9049AE4D40793E03EACD5E43404276DEC666CD4740F9DA334B02241F403B18B14F00C53040D9EA724A402A4D40FCE1E7BF07A942403D9CC0745ACD434000917EFB3AEE5440E3FDB8FDF2C9084003250516C0484D400F45813E91B74B40DC847B65DEEA3E40EA5DBC1FB7434E4029AF95D05DA22340A4C16D6DE1591840ECFA05BB6177464040852348A598454022FC8BA031AF564076FC1708022A4540E7C589AF76115040855CA96741404340FA635A9BC6B756407380608E1EF348405340DAFF00F352403D2CD49AE6CF4A40E02BBAF59A162E4013BA4BE2ACB43640F96871C630172D4076DEC666473A1C406117450F7C575540412C9B3924DF54400B7BDAE1AF4B4D40AE81AD122CF853407155D9774560174047B071FDBBBE1F40E8A38CB800384740EF0390DAC44A55403C6876DD5B1531402EC55565DF454A403F8EE6C8CAC95040E63E390A10FA50405B087250C2C432400C03965CC5D21A40C70DBF9B6E634B4065170CAEB9D35740D882DE1B43C6544088484DBB9826F23F016E162F16505440739EB12FD9335140B7ED7BD45F87364089981249F44A55404A9A3FA6B5AF4D40BB2A508BC1533A40F5A276BF0A5754403C4B901150494E40D90A9A96583D344056B8E52329154E40E3E313B2F3063F40B51A12F758385240AC1E300F998E4B40C652245F096C2540977329AE2AFB4440EF0390DAC4B936407A3881E9B48E0A400DC347C494224040EA094B3CA05C45407F4FAC53E5B3424028F1B913ECDF5240D28A6F287C9619408DB3E908E06E46403354C554FA55534057056A3178D453403D9B559FABA13640BE6C3B6D8D564940C2A1B77878AB394015191D9084452C4092EA3BBF281132409AEE75525FBC4040AB3FC23060574E40A2D45E44DBB14040137CD3F4D96D3940D21BEE23B7AA324032056B9C4DEF35403E247CEF6FD0ED3FB83EAC376A751940D0B359F5B9BA2140C32ADEC83C084C404546072461E45840F9A067B3EA6158402DEE3F321D385740990F0874265D5540802C4487C0311140DCB75A272E225640D2510E6613F84D40AC70CB4752CD564085D1AC6C1FE44540EFC682C2A0F035405EBEF561BDA132404969368FC389564087A6ECF483D232405C8E57207A685340091B9E5E29834940664D2CF015965740BF47FDF50A2B0640E57B462234463E404E0CC9C9C4793E40CFBF5DF6EB6E15409483D904180E4D40E2CB441152834140828FC18A538B4040AC1E300F999E3C40360186E5CFD72540817B9E3F6D78504095EF1989D0775640AA29C93A1C8D57405BB6D61709AB4840DA006C4084703E408A7780272DE55340755AB741ED725540C6C210397D5D254097FDBAD39D8257400729780AB992234005C4245CC8AC554070EEAF1EF7FF49402C45F29540424640BC900E0F612B5040A1866F61DDA75540414AECDADE4A47405F420587174C3940D600A5A146AC544089EDEE01BA9D4C40E49EAEEE587F5240DD5B9198A014524061360186E5925240A01518B2BA2D57400420EEEA55F843407619FED30DDE4540D28F8653E67D5440423EE8D9ACE233406EBF7CB262F8474079E9263108944640B9C3263273D92040F1D93A38D8FB45404415FE0C6FE3544022A7AFE76B7D58402E3883BF5FF842403C69E1B20A0F3240A0C6BDF90DF73D40D388997D1E06584044A67C08AA9957405436ACA92C9552403259DC7F64695040006F8104C5A3564007CF8426893B4240BD8E386403C90F40BD18CA897681314088821953B08C5740DE21C50089C609408201840F255C46400DC51D6FF2A74E403BFF76D9AF4B34406308008E3D674E40FA60191BBAC349403FC91D369197484098C1189128684D40D655815A0C6E2D4022AB5B3D27D6584029CDE6711864254062A1D634EFE04340F3599E0777874F4076340EF5BBFD53407EA7C98CB7351240813FFCFCF796584052EFA99CF6284440E86B96CB4655544024809BC58B6F5040FDBB3E73D61A5440A7EA1ED95C7D4E404AF086342AB44D40D6FECEF6E8BF4940EACDA8F92ABB584094111780464F4A4044520B2593233740E2016553AEB84440978FA4A487E11540D0622992AFE846408CF7E3F6CBE71A408E3A3AAE46104E40399D64ABCB4E5640C669882AFCB90C40B51666A19DEB2A40EA245B5D4E44544036AB3E575B793D40DCA0F65B3BD7504017D86322A58655402A1BD654162B5840465ED6C4027D434093A98251491D0C40145FED28CE694D40F1BBE9961D4A5040889FFF1EBC76364030478FDFDB7E4F40D0D6C1C1DE4040400B08AD872F7E55408E791D71C8262840CE1B278579FF1540569E40D829623F40266E15C440834440C6DFF604891D1E4001A260C614E95740CEFBFF38618E57407A8B87F71C083A4077103B53E8EF574007EFAB72A1C6484096D05D12677655401233FB3C46DD3640B62FA017EE4453408446B071FDA056406EFC89CA86453D407F32C687D99456404293C492723F57407C9E3F6D545F284053591476514044409CC0745AB7FD4B4010AD156D8E5357403D47E4BB943C484035289A07B0415040EE7A698A00ED52405BB4006DAB77404095641D8EAEC213405D6DC5FEB27B55407F164B917C1856402A3927F6D0764740A96BED7DAA845740F9BCE2A947864E404A287D21E4842B408C2FDAE38518484052D4997B48B64940ED28CE51472B4440E08442041C021C409EB30584D6154D406555849B8CEAFA3F22A98592C90D5040A1BFD02346F94940A88E554ACFBE4540B58993FB1D8A02406C2409C215ED5140481630815BA5484056D3F544D7FB4E40EC884336906E4440DA740470B3BA52407A8A1C226E0E0E405A9C31CC09A64040FF976BD10234104085B69C4B715A574087BF266BD44F37404D9EB29AAED744402FA52E19C79C3D404D2EC6C03A2D5540399CF9D51CFC49402D9622F94A8C314073A087DA361358400AB952CF82764940B9C5FCDCD0A43340C0046EDDCD8F4F40304CA60A463F52400F441669E21F43404147AB5AD2B10F4061E0B9F770F53640FDF50A0BEE6745404F1E166A4D375040739EB12FD971524001F9122A38CA5440E7357689EA7A53409A779CA223C121400266BE839F8F5240185B0872507A3B408E5C37A5BCD758408A929048DBC048406440F67AF7E7224091477023651A50407FA31D37FCF846404B2366F679783840F168E388B5781640B8054B7501034F4045813E9127D15140C0CC77F0136F3040B7D095085457404074D3669C863C3F40F8C610001C63464036E50AEF72DD35402B6D718DCF441A401557957D57145040637FD93D791817409010E50B5AB75840A33EC91D36393D40FA0D130D52743940D0B69A75C6633B402A55A2EC2D394F401D91EF52EA92E93F8D7A884677B02240DDB243FCC3A23C4018963FDF162C30403ACC9717602B3040C2BF081A33512340C3D66CE525574140C362D4B5F68A364034F5BA45606853405C548B8862EC4240A1BB24CE8A355440AC5791D101B74240342C465D6BBD4A40A5315A4755233C40483140A209743B40CB113290679B3A40A301BC05123C2540C009850838744940B4588AE42B5452405C3AE63C63C34B40B8B1D991EA7B4540A1DB4B1AA3851940A69718CBF4633F403B394371C78D40403D2828452B194E40CFF8BEB854AD2640E292E34EE9183540323B8BDEA9E02E40861E317A6E755140A29927D7140A47406DC9AA0837E0504053211E899753544067463F1A4E692E40382EE3A6061756405E4BC8073D455240AE2EA704C4403440D2A92B9FE5694140DEAE97A6080C3140904E5DF92C7F3740A0353FFED2D6564021CCED5EEE473D40321F10E84CCA48407A522635B4FF4140E7E44526E0FF20403D7E6FD39F954940A5F8F884ECBC09403082C64CA23637408B51D7DAFBC41F405A828C800A4F3840C190D5AD9E631D40030AF5F41125524097E65608AB994C406D72F8A413935640C7116BF129D017405C0531D0B5E34F40CAA8328CBB2104406F9BA9108F9B544031D0B52FA0C356402F34D769A499534052D32EA6996A3640E8A221E351545840C500892650CC4240D7DCD1FF7263414001A4367172714C406E313F3734B956402B6A300DC39F2A40C878944A78904C40338B506C054D2B406AF816D68D2B3F405D3123BC3D58324065355D4F74D05040D2C5A695429F50406FF1F09E03894B401D007157AFE15240AC55BB26A4B948407DD0B359F5FD3240469A780778244E4011397D3D5F9B4340C1FF56B263BA534083C13577F47E5340B56E83DA6F6651403F70952710C842403AE63C635FE23340E95F92CA14EE5540E6948098845334406405BF0D311D5440A5DB12B9E0303B40247F30F0DCD3224096E7C1DD59C3354098DA5207792F56405CC98E8D402A51406F9BA9108FFC2140F7C8E6AA79C65340ADC3D155BACD4D4012D89C8367722940EBA7FFACF9092F40E272BC02D133104012F92EA52E2756400455A35703AB5540BC5983F75536554084674293C4255440DDCF29C8CFD6254027F8A6E9B33F3640280AF4893C592740D57ABFD18E6F3940A741D13C801255406A12BC218D1A5540F78E1A1362904540B2497EC4AFA83C404D1421753B3F3740F4FBFECD8B994640EB8F300C589A5440BB6070CD1DCD57408A03E8F7FD3144404F232D95B70D4640132BA391CFEB1D400F9BC8CC05DE40400B60CAC0014F44409D2FF65E7CCD4C4070D1C952EBF52D40C636A968AC993340C6C1A563CEDC5740E0DA8992905045406BB75D68AEA3374022179CC1DF2F054061E3FA777D94404042E90B21E7ED4A4029594E42E90BDB3F76DF313CF6314F40986C3CD8628C5540302C7FBE2DFE5540B340BB438AFE5240596B28B517A74B40CDB051D66F6A5240FBCE2F4AD0BA51408AE8D7D64FE94940BA6A9E23F2AD314062BA10AB3F8A2840BDC3EDD0B0215440BE874B8E3B334640863AAC70CB674640A723809BC5FD4140CE8E54DFF9B136407940D9942B643740DA70581AF8B652404165FCFB8CD05740202922C32A9E5240F5DA6CACC4244A40C78157CB9DB34340A986FD9E58C721406D020CCB9F8B38409A7D1EA33C5947405CAB3DEC85922D40508BC1C3B4E450402A1900AAB8953840A4A65D4C33FF4840D789CBF10A255840F2ED5D83BEC4104036CB65A373E2424001C0B167CF4050405EBBB4E1B0B4FF3F069FE6E445C442401C2785798FAF4B40BBF1EEC858A1524068757286E23F544087A757CA32165740E5F0492712775440D8B79388F08752408B321B64923D40402312859675872740D4F02DAC1B7A5040AF42CA4FAAED44404F07B29E5A425340F2D077B7B29E56404852D2C3D0CB5040416326512FBA414039268BFB8F3049407094BC3AC7C000403F8D7BF31BF63140098CF50D4CD62F40ED2DE57CB1D05640F3CCCB61F7EB4B4058C7F143A5745140A9143B1A87C63E409B8F6B43C5F04B40EA76F69507D34D402E1A321EA5005640B857E6ADBAD95440C5A9D6C22C6A5340CAFD0E4581DA444039ED293927444A40AF78EA9106695840541C075E2D1F2440D82AC1E2701451407FDE54A4C20B5240CBD6FA22A16D3F4016342DB1323634403E23111AC1B44040F8A57EDE549058403C69E1B20A3B4D4055185B0872684D402CB7B41A12AA53400C3CF71E2E6D4A404910AE8042914740A9C0C93670225740D7C0560916EF2B408DF0F62004255240DA1A118C83ED4140FD67CD8FBF8A48406C79E57ADB6955400F98874CF96D5340E63DCE346153334057957D5704173E40F96871C630DF324019E25817B7A351406E179AEB34CD5640A3AD4A22FBA02840B9A81611C5FA4540E52A16BF29E43140350C1F1153D2254099107349D586444014048F6FEFD2444082548A1D8DE14040185DDE1CAED54A4027C286A7576A3240D4F36E2C28E83C40711B0DE02DE64D404B5AF10D854333407575C7629BF64D4007EE409DF267524080EECB99EDF22E40D0ECBAB7227B56409E60FF756E50434013BBB6B75B2E41408A3BDEE4B7DE41409C3237DF881445409D103AE8123E1140A2630795B8DE394091D26C1E87E94940BC581822A74B3440DDB3AED1728C3D4014984EEB36183840DB32E02C257A5240253CA1D79FB45340A2B5A2CD71DE31406F10AD156D4A4D4002486DE2E4123440EB73B515FBC45840A320787C7B4B584015562AA8A8663E407D93A641D11843400D1CD0D21514484034D593F9470B434015C5ABAC6D3E344075779D0DF97735404B22FB20CB7E41401EA9BEF38B7D52409163EB19C2454E40E7357689EACB4F4060048D99441D2A40083A5AD5928244409F724C16F7A5404018247D5A45D14940438D4292598D3D407C98BD6C3B085340809BC58B85192C40037D224F927E394014CC9882354246400801F9122AE43840276728EE78AD454018EE5C18E90A50401E6CB1DB676D3640A92EE06586754F4012C0CDE2C5F05640FEB5BC72BDDD4940D0B359F5B92E5140F5BD86E0B83C4F408BAA5FE97CDA4440D00D4DD9E9D94B408927BB99D1825040C51C041DAD2649404AB4E4F1B4A25740CDE67118CCD3424043723271AB9A5040BE9F1A2FDD8951406876DD5B91FC4540E54691B5868F5540451152B7B3AB30409160AA99B5A954400C569C6A2D1647407F6ABC74933E51408C67D0D03F993940DA59F44E058055401AFD6838654E0640B9382A3751345540DFDDCA129D053D40855D143DF0C35040705E9CF86AB73840051555BFD2E250404AED45B41DF32F40C4094CA775A7514008E57D1CCDD92840467D923B6CE45840812040868E0154405ED905836B4F544002840F255ADC4B40AF264F594DD72D40DEAAEB504DC53140E3FDB8FDF20E524040F7E5CC76874F40CF4D9B711AC84C4094DC611399BA514012BD8C62B9EB534003D0285DFABF5240C4CE143AAF9D354092E7FA3E1C54194096CFF23CB8A54740DB8827BB994F4C40075F984C15E64E40F2ED5D83BE343640A8514832AB914C4040A374E95F204D40074147AB5AB23A40A2F14410E76926409599D2FA5BE233409E62D520CCC056408E75711B0DF24B40B1170AD80E5A56402D9622F94AB03340E09C11A5BD353540DE3EABCC94261B40EE409DF2E80E4840DDCEBEF2208D47401137A79201B249402383DC4598564F40D74B530438A937409430D3F6AF3A4F40404F0306498B37407C7BD7A02FD74840E204A6D3BAAE57400FD3BEB9BF65524033349E08E2A84C403C2EAA4544C12D4070D05E7D3C2C5440CBD765F84F0D56409148DBF813A74E40BE30992A186658409240834D9D2147404852D2C3D0144E4031D28BDAFD5A3340F0DB10E3359F214018946934B9F03D404D4EED0C53EE5340AB3FC23060AC56409E616A4B1DC75040200BD12170E44C4095F25A09DDF53340444FCAA486164E40240ED940BA182440469737876B1D4F409F94490D6D0A4540A67F492A538C0840FE4465C39AEE4640FA997ADD2285544026A60BB1FA3355401FB935E9B68832401409A69A592B2F408046E9D2BF644B4017D86322A5C14440D253E41071925640C4211B48177C5640151E34BBEE834540BDC5C37B0EFC27400070ECD9739F4C40E564E25641825040569FABADD837554055A52DAEF15656407CBABA63B14D23408A213999B84951407863416150E35140F3AB394030C704404E0AF31E675C41407E6FD39FFD04334053B4722F30105540950B957F2DCF14406CAF05BD37AE2E40DFE00B93A9C05340E2CCAFE600DD4D40684128EFE3DB5440726E13EE95A937408813984EEB8E42408E5C37A5BC3844407383A10E2B1453408EE6C8CA2FEC52401409A69A59834540ED815660C88D5340F294D5743DE741403BE0BA62467D5640978E39CFD807454083F8C08EFF464240333509DE902E44407D91D09673A65540B7B585E7A5B04D4020459DB9873450408655BC9179AA53406327BC04A759524021037976F91054401D90847D3B4926405FB2F1608B025540C26B97361C5654405AF10D85CF4A4140F279C5538F003340FF428F183DAF3140BF61A2410A92484049BDA772DAC54F40CC0C1B65FD464F400327DBC01D1E44402C0C91D3D7614940BA4BE2AC881A4B40E71C3C139A52494012F6ED2422735640FBE8D495CF51564045F6419605FC5640BCB376DB85362A40C9224DBC03B247405036E50AEF4654408DD13AAA9A1C534053AF5B04C6F44A40CC2555DB4D445340802DAF5C6F994440FA0967B796B14E401616DC0F784052401FBC7669C3C54B40D57ABFD18E8D5040D7FA22A12DC94040946A9F8EC72C09408CBD175FB48D4840170E8464014256404D31074147ABE43F5DA626C11B8656408D429259BDEB2D4070438CD7BCCC4D40FA0B3D62F4C03C40FA08FCE1E7B33240CB4752D2C3C03D40EF8CB62A8916444073A087DA36F555406A8995D1C80F36406B2BF697DD7E5640B5C4CA68E4ED5240DE1E84807CFD58403ACB2C42B15551403D2B69C5370251408237A45181005640465ED6C4029E5640177FDB13246F57401A19E42EC294E53F236937FA98CB3540CF4C309C6BD43D4091B8C7D287E04C4078B81D1A161F3740C4B0C398F48F2440DE59BBED42D955401AA54BFF920C494011C7BAB88D3D5740E5D3635B06B44B4048FE60E0B9F94A405AF2785A7E98574042EDB776A2FC2340A52C431CEBD6374071E5EC9DD156E03FF3C64961DEE33C406FBC3B32565F5140B98B3045B98C3D405FD218ADA3065540724D81CCCE675640C9C859D8D384564053758F6CAEAA4F40AE0E80B8AB57DE3FA8A624EB709446401C446B459B2F4240A06EA0C03B5D55404FB2D5E5941A5640A3C85A43A9A54240CEFC6A0E109C25405FB69DB646D03D40719010E50BCA2840E4A3C519C3B358400CCD751A695D3640C84109336D733D400C76C3B645713C40BB2BBB60708744406BF12900C65F474022A64412BDA03240EA245B5D4E392840E719FB928D8452405F09A4C4AE5D454046072461DF0C5040D3A1D3F36EA551406B4AB20E4747344071A94A5B5C5B5040C53D963E74A93A40381268B0A958504014B4C9E193B0474078F17EDC7E194C4040683D7C99B44040A51309A69AB54540BC79AA436E423D40EB56CF49EFDA534090847D3B895815402CB98AC56F3D5240E8F7FD9B17F71F406B4606B98B644340F0694E5E64AE4540963FDF162C2C5840B51B7DCC072843409B012EC8962D3E40EF906280442B2440AAF06778B32C4F401DE560360146F93F7EE4D6A4DB7A2740056C0723F6C122403CF71E2E397E1B40F1660DDE57C25040C3BAF1EEC8AD564090A2CEDC43884E40AD510FD1E81A434042D13C80459E0B40CC441152B7AF56408FFE976BD1FC564025CE8AA889A75840B7D26BB3B1FE4540FDDCD0949DEA4640CB4DD4D2DCAE3340DCB930D28BB23A40A452EC681C7A2940B0C56E9F55D24E402B4EB516663F44402AC58EC6A1B23F40213D450E11BD4840317903CC7C6F3340DA20938C9CE507406C088ECBB8634C4063D4B5F63E554340DC9E20B1DDC5534062855B3E922649402E1C08C902395340DFA3FE7A85034840B2F2CB608C6E5440FF58880E81454640E08096AE60E7334036AB3E575B6110400CCB9F6F0B062140E6797077D67043408192020B60B952402BFBAE08FE074B40B39597FC4FEE37402C0FD253E47C4C400FED6305BF4F4740357EE19524272440FB3E1C2444FD52405166834C329F554036E675C421A32140297B4B395F4F5340849CF7FF71C057407AFEB4519DFC45407008556AF68A5040D5AE09698D011340E71890BDDEA54440D993C0E61C9E564099F4F7527846564050FD834886F42940C040102043335740ABED26F8A6F2504007D2C5A695AA2940EE4108C897A24C408BE1EA0088EF4C40C190D5AD9E975540E8A1B60DA3AC344003249A4011AF5840F3AD0FEB8DD15740BAF42F49650653404F965AEF37404440274F594DD7415040DA722EC555953540817B9E3F6D0830400DFCA886FD3352406FD575A8A6525640F9669B1BD33548409483D90418D243409605137F14905840420A9E42AE724D400917F2086E841540DF701FB935B747400A4AD1CABD7A47403E0455A357B74240B01F628385AB2A406AF981AB3CF12340111D024702B343403F709527107250407AA702EE79305040CBF27519FEFB2940ED461FF3011F4C403AE8120EBD9C52407DE6AC4F390E58405F46B1DCD2F63C40F3C7B4368D465640D236FE44658D55405187156EF9E80140BA83D89942372740F0517FBDC28258409775FF5888F24040725303CDE7E42E400EA0DFF76F084540DBFD2AC0778B4D40FE8172DBBE134C40B0AE0AD4628556409964E42CEC191640E7FC14C7811C5340668522DDCF1538406D205D6C5A35414034A2B437F8B456407E737FF5B86A50403691990B5C0151400BB6114F76A952409818CBF44B764D408A1C226E4EBD52401AF9BCE2A9CF58406249B9FB1CED5440F35A09DD25314740029D499BAAFB29402AABE97AA2C25140F661BD512BE055407BF486FBC89141403E3C4B90111F544049D8B793884C44403D29931ADAB8334048C2BE9D44F436408411FB0450015440EFE714E4679553404E452A8C2DC6434019E8DA17D047504087C5A86BED295040AAF3A8F8BF195340B47405DB889457407BD80B056CB35040B58AFED0CCE3364029E78BBD172D55407E02284696444B40205ED72FD8F14C4032207BBDFBB74040174A26A7761E3C4034D769A4A57F504091BA9D7DE5305340AD4ECE50DC5A57408CF84ECC7AEB55400B5EF415A40D454046EA3D95D3C84040552E54FEB5803C40828E56B5A455514019FED30D14C75240904FC8CEDB2F554071AB2006BA0E4940DF4E22C2BFF84440F67EA31D375257407A34D593F95337401E520C9068D63B40855D143DF08B5040CE18E6046D464C4062F3716DA85854402DE92807B39D3E40D32F116F9D83314055C03DCF9F6A3340CA1AF5108D255140938B31B08E614240D3C08F6AD8BF55404EB7EC10FF964840543882548AF13340ECDE8AC4049D27405AD5928E72504D40A20DC00644003A40E7FF55478E984B40868F8829910158407825C9737D325640029EB470593F56405F0D501A6AD24540D95A5F24B46853408ECBB8A9819C4740B5A7E49CD8C73F40401878EE3DB44A4069723106D6F93F404E0CC9C9C42D2B40C636A968AC1755401805C1E3DB0E5440228E75711BF651401C42959A3D10F63FA41820D104C24F407D23BA675D91574052431B800D6E47407901F6D1A92D4C403FFD67CD8F372840E272BC02D1233D4074ED0BE885CD4B40FE62B66455864440F35487DC0C354E407F4C6BD3D86E3240725303CDE7604540E7525C55F6ED3B40EB8F300C586B58403AAE4676A56A5140B9A5D590B84D4D40B34291EEE74C4F40B01C210379A45640E5B512BA4BC6544093FDF334607831406A1492CCEA865440649126DE01175540B3B3E89D0A22404079AEEFC341DA304017F2086EA44950409AB1683A3BFC5440BDC804FC1A89F23F24D3A1D3F3085540F2E9B12D03FA3F40669FC728CF184940BABBCE86FC4B3540A3E6ABE463434E40EB54F99E91981340F30181CEA4D2554014B2F33636C75140624ED02687074A4048C153C895A75140CDE9B298D8F15840B45BCB6438765440E675C4211B143E40D542C9E4D4F25340274C18CDCA9A474066D993C0E61CB03F4FCFBBB1A07E4440FD6CE4BA29A94B4019C8B3CBB7023B40696FF085C994FE3F9983A0A355813140A6D590B8C7C65140596ABDDF68571940A852B3075A01554076A4FACE2FD1514052D2C3D0EA7A4D409E40D82956034640C972124A5F3A4F409888B7CEBF0931405340DAFF00374440C5758C2B2EAA34405B9A5B21ACBE2B4047E4BB94BA64104066DB696B44C6494054E6E61BD1ED434078EFA831218751408BA8893E1FA1354012312592E8D95840C05DF6EB4EBB5440871403249A5446402FF834272F2A4840DB5207793D181E404F22C2BF083A5840AE9D2809897B5640D2C77C40A09B4340D190F12895202B4023DA8EA9BBDD524036CAFACDC40A4B40B35E0CE544873C409B8E006E167C5740ACAC6D8AC7FE584048197101681251402EC896E5EBD04A4031B610E4A04C394001F73C7FDA835840C03C64CA87B0584079060DFD139A4940C74CA25EF0691040B9895A9A5BE85640C382FB010FE42640289CDD5A26CB4F40FCDEA63FFBC12E40C32B499EEBD9564007EE409DF26A4D401CEC4D0CC95B5240AD855968E7815640873254C554B24C40A94A5B5CE3530F40467A51BB5FA13A4092B06F2711C55640EEB089CC5CF84340EB1C03B2D7CF4140100874266D6222400CE6AF90B9FA4540CA181F662FD052406AA2CF4719992340C30E63D2DFE7304015E3FC4D280C2940AC00DF6DDE183B40E9F17B9BFEA84A4013656F29E7D73E40C8EBC1A4F8284A40CD94D6DF12C00E40C45DBD8A8C0E2240E97E4E417E923C40A3E6ABE4632C5640F59F353FFEB23440DB15FA60192D48400C5BB39597AA4840A2B5A2CD71015040179D2CB5DE4F3540118FC4CBD30250405D514A08565F584074081C0934964A407B14AE47E1323840CEC29E76F8A339407FA31D37FC544F40570A815CE2B81140F435CB65A3C851405D88D51F61844B40A301BC051293544086AB0320EEC64740807EDFBF79A651405E30B8E68E805140035E66D8287D5240C03DCF9F36BE3440577BD80B05483B4032022A1C413A43401B2D077AA8454E40B29B19FD68084A40A7E9B303AEB34F4098A3C7EF6DAC5140927A4FE5B4EF50402FA2ED98BA1B3C40CD76853E58E7584070253B36029A56405419C6DD20B84D40D811876C202258409C35785F952B2940C7D79E5912CE5140412E71E4815033403083312251C82E40126A865451F43A401AE1ED4108904F402594BE1072364740A81E69705B045340C0E95DBC1F1D4940386744696F9F5740CBF5B6990A7130400D8D278238994240266E15C4408F48400B613596B0123440E8C072840CEE5840FD15325706AC51407BC03C64CAE33440341477BCC9373E402AA8A8FA95504840E5EC9DD156051540EAEA8EC536193C40680586AC6EA05640FEEDB25F7782414031D120054FD547406C5B94D920FD5740B9DFA128D07F37403ACFD8976CD057407FA5F3E159764E40DE019EB4701854402769FE98D66E3940751DAA29C92A2C4062DBA2CC062D3140F60D4C6E1477454037A6272CF1325640E2934E249856564083BF5FCC96B3504054FF209221295140785E2A36E6C52B4042B3EBDE8A9C2A40EE0912DBDD6D554075012F336CC45440529E7939EC665640315C1D00718B5140E048A0C1A61624403E9468C9E32D49403F575BB1BF445240B2A03028D35558409F71E140480A3140DFE00B93A93855401A8BA6B3938D4F40975643E21E7F3A4068EC4B361ED247409A07B0C8AF854740D13B1570CFF15240DF8C9AAF92014E40DE02098A1FA32940F165A208A9DBD93F3AEAE8B81ADB4F407DE6AC4F393A38409BE61DA7E8445440249C16BCE89B1D401A89D00836D0514005BF0D315E5B2A40A81DFE9AAC85484052D50451F7B151407E54C37E4FBC4F40766EDA8CD397554082C476F7005DE03F338CBB41B4CA5840CD902A8A57A94D403DD7F7E1201B4F40AA2A3410CB0E43405BD2510E66694C40213F1BB96E404140D65416855D842A40A6B8AAECBB604B40645DDC4603243040F086342A70A84440E23FDD4081905540CDCEA2772AF6444010255AF278DAE23FC40B2252D33256408E7406465EB84D4011AB3FC2304256408675E3DD91092B406E162F16864824403DD34B8C659A244014B35E0CE5D35840469561DC0DA5584079E8BB5B59F219409701672959E55440CFA10C55312A50406FF25B74B2B8324084D90418963E5240B98D06F016C434402C45F29540EB5040E71890BDDEEA5340574277499C674340A26131EA5A033B405B0C1EA67D254B40C007AF5DDAC15640ADA3AA09A2284A40A06B5F402FCC1B406DE34F54369E48402522FC8BA0212E408F39CFD897EC4440D2E0B6B6F05034407BA180ED608D5140F9F719170EB955401D2098A3C74B394063635E471C165540E4C0ABE5CEA25740BBD23252EFAF584006A051BAF45F5040AC1BEF8E8CA250406DFFCA4A93821940F452B131AFF54440336E6AA0F9FC3240A2CF471971EF5740EBE1CB4411AF5540AD3594DA8B081840232E008DD2AA51405A0EF450DB8E5440D09B8A54186B56409886E12362BC52402FA3586E693D4840C07630629F495040A60BB1FA23185440C6DE8B2FDA0B3040CE8AA8893E005740E46A64575ADA564074B515FBCBAD534037A5BC56420B3D40C55565DF15F53C4078431A1538C54240876A4AB20EB85140A2444B1E4F3B3A404B3ACAC16C2E35407EACE0B7212C4140664CC11A67BB224075C7629B54475140EA23F0879F172A40E2934E24989A11400FD1E80E62C33540F2EF332E1C683A40CD1DFD2FD78A2C40624D6551D81858409E5E29CB10174140A0A86C5853D3454088635DDC464D404009C1AA7AF9FD0140EE409DF2E89C42405C74B2D47A4958404AF086342A3822406F2D93E178C2434060EAE74D45964540AB984A3FE1975140C4094CA7751549407714E7A8A3945440C9E88024EC6F3E400266BE839FB458407D94111780FE2440D1747632380852405E488787308C4040E9D66B7A50743040BB7EC16ED8D620401F1329CDE6DD4040CF4BC5C6BCA442403ECBF3E0EEF44E40B6F292FFC9E9524036035C902D8B5740A54DD53DB20F5640723447567ED654405CE7DF2EFB274740028063CF9EFB1040E1B54B1B0E95544084D9041896BF19408202EFE4D3233140FD84B35BCB33584094F7713447FF53409241EE224CE54240340EF5BBB09E534080EF366F9CA44C40BEF561BD51585140001DE6CB0B9855407FDB1324B6FB0240D36A48DC6325374077D844662E5042407F6ABC74930756407C4276DEC6D25140280D350A49BE274015CAC2D7D7AE4640A5F9635A9B963C40511212691B1950404FAC53E57B2053403E5DDDB1D874524082531F48DE7956406B60AB048B835740068200193ACE2B40F0DE516342124240E63DCE3461C73940C09657AEB74937408A0629780A093F4010B22C98F81B34404AED45B41D8E5640F75965A6B4F84F40C78157CB9DF54040EB8CEF8B4B374E40F641960513BFF83FEC67B114C90723404F965AEF377A25404E42E90B211955403E93FDF334784240696E85B01A92544068E7340BB4994140439259BDC33939405F27F56569FD4A402C62D8614C1A4A4065A6B4FE96544A403ACFD8976C63584039D384ED27A25840F607CA6DFB3C4740FF092E56D474314014CE6E2D93E652409E0B23BDA8D749407157AF22A32F304076FD82DDB0054A40E77283A10E374A40419B1C3EE9A41A4017105A0F5F061740F0A7C64B37E93B409D9FE238F0A3574014950D6B2ACC5840CCCF0D4DD9BF5240A81B28F04EE62040AB984A3FE1BF55400C738236397C344051F69672BED9504073BD6DA6424D564078F17EDC7EE53E403430F2B2266A384033C005D9B2344040AA6395D233913E40183E22A644AA4240B7B75B92035D574044696FF085F258404700378B17245440DEC9A7C7B67C45409626A5A0DB145640522CB7B41A784F408995D1C8E7DA5740191C25AFCE5D404049F4328AE5655740336FD575A8A63040D578E926313640404DF910548DC7514064963D096C3E18400E15E3FC4D3753403A22DFA5D4735840734BAB21716F0040527FBDC2825346404489963C9EAA4340F85278D0EC3A4940C5C551B9895A1C400CAD4ECE50FC554000E2AE5E45A63C4077499C1551E35340D1031F83154712402026E1421ED55740F418E59997995640EE06D15AD1325340DF32A7CB62963C40063065E080B45140F0F78BD9925B424099D6A6B1BDA8454093E1783E03A95240B22E6EA3016038403524EEB1F481194079E8BB5B59C1554074620FED631051403E75AC527A76194044317903CC8F57404B051555BF6A344064B14D2A1A4E50406902452C62083E401E1B81785D2350407E703E75ACF84D407B4CA4349B725240D31742CEFBA73F40CE8E54DFF97258408BC404357C2B04401CD2A8C0C902374062BD512B4C9F3B40E36E10AD15EDFB3F3F389F3A56092340C85C19541B30324000AAB8718B612240ADDF4C4C178B58403F1EFAEE56163140EFE714E467AB3540C1E3DBBB068D3C4000E65AB4006D0D4096236420CFB64B405F0B7A6F0C7B484021E4BCFF8F185440B6114F76333C55400470B378B1AC30400E10CCD1E3974540064CE0D6DD7C344067B96C74CEB73D40D124B1A4DC325840B519A721AAE552402E3D9AEAC97E5640193BE12538754C40FDF84B8BFA5449404CE3175E49C15540948444DAC6CB3F4039D384ED274F3740F4C473B6808040407901F6D1A9755640A6D425E3182E544044BFB67EFA0A57404B5AF10D855F5140603AADDBA0324C4080BA8102EF664B40F4C29D0B23275340D122DBF97EEA034094F59B89E9FA3F4041834D9D476D494097C4591135112C4071AC8BDB680D5240B4E386DF4D175840C40B2252D366564022382EE3A66852405A29047289234E40C1711937358F544072A43330F21C4140D0ECBAB722AB55408274B169A55C5740444C89247A4651409082A7902B8A524011C8258E3CBA534051853FC39B4B5840B4AF3C484F91D63F37514B732BE456409888B7CEBF793940111C977153845340A7936C7539854F40ECF65965A6041340198F52094F815740EAE74D452A0050402BC3B81B447955401AA54BFF928432405B069CA564253740416326512FE8464038F92D3A595E42407B4FE5B4A7765340F8C3CF7F0F8C50404F9143C4CDE456402DB308C5568E584047753A90F5F84F40D13B1570CF915140BB0F406A13872740D0807A336A844440E5B33C0FEE362540EB353D2828995140C1C6F5EFFACC5240CBBBEA01F3F0014050FEEE1D350601405E2EE23B31BD5140D9B27C5D86CD4240E353008C673C34404F2157EA59FC4D402FA2ED98BAC74C40EF75525F96BE3F40226DE34F54EE4540325706D5067354403F541A31B3EA58408448861C5BDB3640300F99F221564A400D37E0F3C310204028D714C8ECB84340A036AAD381024D40D190F128959C3040315D88D51FC952402EAA454431213E40FF04172B6A724A40679E5C5320131D4023F3C81F0CBCF63F50FBAD9D28BD3640AC8E1CE90CF42240BC900E0F61895240CC7C073F712C49404BAE62F19B022340649291B3B0F33140B45BCB6438084F40990D32C9C8A255405F0D501A6AAA4040185DDE1CAE3D53407B336ABE4A4E17402B16BF29AC7B5140C3482F6AF77B1F409B3BFA5FAEE656405E471CB281AC29402BBD361B2B1D394042CC2555DBD526401F80D4264EDD5040742843554C8957409F3D97A9495C33401475E61E12D23040EB19C231CB4452400B28D4D347C8244037161406658A304072FDBB3E73E0474076A8A624EBC84640AE9D280989CB50403A77BB5E9A9E37406249B9FB1C4732401D1F2DCE180622400F9A5DF756F558406971C630273A4640CBA0DAE0443A484093020B60CAB021405D8C81751C074D40573F36C98FD43B401F4DF564FECF4F40BBD39D279EC74440289B728577393A4023A30392B0874140B34291EEE77835407AC2120F28514940B1E1E995B2215040B7989F1B9A8E52405D70067FBFE240401EA33CF372C836409BAF928FDD5E50401B4641F0F87B5340D80E46EC13995340A0E1CD1ABC6F5440E9D495CFF20056401A6EC0E787392C40C6FD47A64387234056629E95B4785840FBB1497EC49C5740F644D7851F983E405FCFD72C97EA534005F9D9C8753F4240D7FA22A12D1541404C35B39602CA364026FDBD141E0754405F950B957F4A554038DBDC989E7A4340396403E9628B37409DF529C764892740302DEA93DC692D40EF5701BEDBE24740A4DFBE0E9C934E40F2785A7EE0364C40A01518B2BAC13340FD4D2844C0FD5040D0F0660DDE2545402C634337FB335340F19C2D20B4262540B952CF8250EE414082AD122C0EA7174020B8CA13080D5540290989B48DEF3240438D429259BD08401A19E42EC2E44A403A596ABDDFC82F403C1405FA44204B40A20C553195962840882CD2C43B4C3240EACF7EA488683E4031B5A50EF25E3740BB2BBB6070B85540E2E5E95C51AC56403B527DE7178D5140DD0720B589D347408928266F802D5840ECC1A4F8F84C3E40FBEB1516DCC95040EDD79DEE3C325640EA3E00A94D364D40205D6C5A29495040962023A0C211F03F02469737874150408F6FEF1AF4351B40C9E369F981F35440D578E926312815406CCB80B3942C174090C01F7EFE07554003E962D34A6B4040C53D963E74214E40A9BC1DE1B46D54409FE74F1BD505454077A38FF980984140DB6AD619DFB70C403A58FFE730FF1E4050560C5707F24B40C39B35785F054F40F7CC9200351D2E40C03C64CA879A56406404543882742740D2544FE61FA252409A94826E2FE340400919C8B3CB795740C1E5B166647C3A404DDBBFB2D29C4D40DA006C4084B44840F1F109D979D14D40731074B4AAC54D40A5F44C2F31B24E40973C9E961F3C4B4032AA0CE36EEE4340D00CE2033B5638401EA7E8482EC33A40F4177AC4E8FD3540E6B0FB8EE1F15040C26B97361C3C4B407764AC36FF7D41406ABFB51325811C4070D1C952EB994E4033FE7DC6859F44402828452BF72E58408D9B1A683E63554049F25CDF87834E40199128B4ACBB174027DA5548F9705440CEC64ACCB3715140073F7100FD7E3040E1D39CBCC82A41408BFD65F7E4913740355F251FBB9D43409F76F86BB24F54406B82A8FB00BA564067B62BF4C1DA3A406138D73043934240828E56B5A49858406B0DA5F622DA31403FE1ECD6326D4C405072874D645E56403695456117F25340A26131EA5A1347400072C284D1D840403D450E11375F2540319413ED2A805540C347C49448095340AA0F24EF1CB5584093E34EE960B6544076C6F7C5A5C64040C95A43A9BD2651405C1E6B46069152406DAE9AE7881A51400F0BB5A67967424091B75CFDD8D65340BF7E880D1616384055A4C2D84240574040C05AB56BB84640B1C1C2499AC7314027F911BF628B55405AF2785A7E4B57404563EDEF6C734C40EE79FEB451C65140AB92C83EC8263D407714E7A8A34B3740E4141DC9E50D48405ED905836B3E31406AA67B9DD47856402844C02154CD3640280AF4893CBF58400B28D4D3472C3240040473F4F8335240C18BBE82346F524060014C1938224F4043588D25ACCD1C40C30C8D2782104A40AA44D95BCAF913400C738236392654403E0801F9122C48404F5DF92CCF2B234072F8A4130956364099D36531B14053405B96AFCBF0CF3D406C79E57ADB035240AC376A85E93B4440A48D23D6E2895740D15AD1E638D85840D10836AE7F0C514077DA1A118CB653404F3FA88B14463A40DD442DCDAD5A4840BBECD79DEE384E4080D4264EEEFA584038F6ECB94C035240C97553CA6B1522400211E2CAD93B04409F58A7CAF7603C402DB308C5560E4D40C7BC8E3864414540FF23D3A1D32B2D40321D3A3DEFB453407E8AE3C0AB853D40BCE9961DE22F2640554E7B4ACE7053401215AA9B8B554640978BF84ECC785540A1F2AFE595EB3D409AEB34D252B128408942CBBA7F85504028F1B913EC5F254086200725CCC44040252191B6F1B94A405E2F4D11E0E254408FE3874A23704A407A54FCDF118257407026A60BB1BC584069554B3ACA79444062821ABE85534240064A0A2C80893E403F3A75E5B3D43240F2B22616F8064A40FDDD3B6A4CD35540C712D6C6D84F4540F5F75278D0FA56405BB39597FC574D40439259BDC37F5640B32781CD39664A40925A28999CA2584040FA264D83AA3D401F48DE3994A1D83F7D5C1B2AC6B14F409D2CB5DE6F8C24400EBDC5C37B6E4340DF701FB935614D4035B56CAD2F1A52409599D2FA5B204940D46531B1F9A820407AFB73D1901057401C615111A7F352403596B036C6E63940FA0E7EE2004F5740D12346CF2D684240F8510DFB3DD53040F9F36DC152B5544073A087DA363E574078B306EFAB9E35402E1EDE7360390440B3B794F3C5F63140925A28999CCE4F4068B114C9573A2F409294F430B49654407BBFD18E1B3D5740DF37BEF6CCD44D4071C806D2C51A3D404A7B832F4CC64B406E6AA0F99CB33E400B24287E8C2D42403C873254C5FC2E4052B648DA8D7A4D402ACAA5F10B8A5740A741D13C80A14F4007B64AB038103540357A354069E4414009A7052FFAE05540DAAA24B20F122D40433A3C84F15305405DA8FC6B791150409B00C3F2E7335840D5230D6E6B385340FB5A971AA1875740E8120EBDC5E32A409FC9FE791ABE4B400F0F61FC34C55140A0C4E74EB0AF3B40622EA9DA6E7D5540EDD3F19881804540A9893E1F6507554005A2276552832A40310BED9C661C5540BC5CC47762523A4053944BE31727584011902FA182BF30405C035B25581C4B4081ECF5EE8FE65840DFF8DA334B664240F697DD9387613040C37E4FAC537D5240AB06616EF7A1574061FD9FC37CF5584006BCCCB0515956407E6FD39FFDE65540B60F79CBD50D46404E0CC9C9C4FB55405875560BEC9B5140E6E95C514A482B401F1329CDE6114D409A7ADD2230F95840AD4F39268B895240BB29E5B5122E384030D7A205689B0840F9156BB8C89F53402330D63730405040ACCABE2B827252407AE063B0E2E0404036069D103A144D40A3073E062BA0424089EC832C0BDA4C40AFCF9CF529094140DC9C4A06805C584075E5B33C0FDE3740D0B69A75C69F38403ECA880B40273D4095D6DF1280D05040C45DBD8A8C6E5840BF1072DEFF5552401172DEFFC7B4584030F1475167223B405DDDB1D826535340001B1021AE003E40EE26F8A6E95F37407AFCDEA63FB152407D40A03369DC5040F69672BED8F257404AF086342A0C44408141D2A755564D40B6B9313D6105334004763579CA624640DCF126BF4599494029780AB952E355403048FAB48A935240BC033C69E1715640F85278D0EC4556400C207C28D1DA4E40778368AD68445240BC5B59A2B37A42407842AF3F89334840D027F224E97445404149810530B938407B1684F23E7E5240BEDEFDF15E715340A06D35EB8C173840BDC799266C0748409581035ABA0C4740B0C7444AB301214050340F6091E728407E569929AD63554044A7E7DD587C404076DEC666477E3940F4F928232EE056408D7BF31B26515240E59997C3EECB4340B24B546F0DB43B402634492C29CF3040B2D47ABFD18E0D407F33315D88B93E4002D6AA5D13E4544011C47938819B4D4009DD257156F447408D4468041B0714406589CE328B724540BA313D6189873A40DE0033DFC1115540B8239C16BC0023401327F73B14F94140994BAAB69B1E44406477819202132E40B35F77BAF3065840438D4292593345406C3D433866A5514055C03DCF9F064140191D90847D015540CAF962EFC5772B40963E74417D4B0F4018B0E42A16FB5340C58CF0F6201C2A40EEB5A0F7C65153407B4ACE893D3646402A8C2D0439D84540732B84D558EE524091459A78079E57406B9BE27151085340A33F34F3E4FE4C40454B1E4FCB4B3D40E71725E82FFC36403AAE4676A5E51140B7F0BC546C1C3740CBDAA6785C06544018B0E42A16934940346953758F2252404359F8FA5AB54A407024D06053DF3E4099D53BDC0E955340452A8C2D04E344403D0B42791F6E5640E21E4B1FBAEA4D408716D9CEF7BB314038691A14CD0341408FA67A32FF835140C501F4FBFE7353408FAA2688BAB73A402E1A321EA5363B4012312592E859564016FBCBEEC9445340C11A67D311E55040B7EEE6A90E135240336DFFCA4AE33B408A7780272DC03D40FC8D76DCF0AB3C40A31D37FC6EDA2D40F46A80D2502450404D31074147A9544081B2295778B34540D064FF3C0DF55640272EC72B10852640E5EE737CB4BA564009FB761211023C407BC1A739794142407AA702EE79E442403F74417DCB483F409A93179980DF1E40CBA145B6F3FB514055F99E91081D584090F7AA95096F4C4095D5743DD18155403E9468C9E3F55640F700DD9733FF3D4061A7583508935640CC79C6BE64A05240BB97FBE42888334005A3923A017520404DBD6E11182A5840543BC3D496404840616BB6F292E7464019709692E5684B4023BBD232520D5840B2683A3B19A4504044A852B3076C4D402E04392861945740FED137691A705640CDACA580B4394D40E8D9ACFA5CE5544036AE7FD767044B4056F2B1BB40FF5840B1C22D1F499B414060B1868BDCE55340772CB64945AB5740BC5D2F4D116E4940177E703E75984B4095D409682238474094FB1D8A027D1F40E0490B9755983240E0F42EDE8F95554065389ECF803C5040B1DD3D40F75D5140A33A1DC87AFE58409EF0129CFAD84240CF108E59F6805340E6CC76853EAE4B40B1C05774EB3158404A07EBFF1C3A4640D9EE1EA0FB36464093382BA226405340130EBDC5C3774440A296E65608C851408731E9EFA5904D40A5BBEB6CC8635140E1606F6248E62640B741EDB776595040DB85E63A8D6C4C402711E15F04114340209BE447FC555340E0D7481284AF324081CEA44DD59B4840198EE733A0DA354036E49F19C42853408202EFE4D34940401DAF40F4A4083E4081221631EC702D40E0D5726726384440C05DF6EB4E5651404BEA043411C61D406269E04735A4514003B68311FB941E40DD5CFC6D4F3D54403BC3D4963A3757406D54A7035931404062156F641E2125405ED905836B8E1F405915E126A39A3F40452C62D861A655402046088F367C524001A1F5F065D24840EECF4543C67153409B02999D455F4140AA2C0ABB286354404BCADDE7F8D24F40EC2FBB270FAB084007077B13436C48401D226E4E25CD584043FF04172B5A2440F2EB87D860713D40EDD3F19881323040D7DAFB5415684840B4E55C8AABD24B4054E1CFF066FD4940FA4509FA0B49554087FC3383F89F5740304B3B35976A56408D43FD2E6CFB4B4060E7A6CD384456406E14596B28614140CB11329067185440E7E26F7B82985340D1E80E6267E35640AED9CA4BFE355640EE76BD3445901140473B6EF8DD5C4740E6797077D6A24A406D8FDE701F153140103CBEBD6BD83540AF7D01BD70EC56400E2C47C840724E40488787307EF0464098C11891282C3A400890A16307552140A88C7F9F71A12D40E88711C2A3535540EBE3A1EF6ED74C40BE50C076302241409BA9108FC43D44401A14CD03589415404B1FBAA0BE01364026E0D74812E42040D9E89C9FE2ED54408B89CDC7B541084083DF8618AF63484015E63DCE34A05240D82C978DCE3253403737A6272C1D3C40E42D573F363150400307B474050E514061C3D32B6599E73F83A5BA80976F4040E3FC4D2844B44E402B6C06B8204F5340DD2230D637801640827170E9981B5340B2463D44A302514085D1AC6C1F0C42407FDDE9CE1393514032755776C1E8464001857AFA082556401E17D522A29956408104C58F31CD47409372F7393E5AB03F0A698D41270B564057056A317878224060394206F2C050409160AA99B506424019726C3D43B80340DAC87553CA595340BBD23252EFC85440A5BDC11726EF464041F4A44C6AD44A403524EEB1F46340406D57E88365F42A40ADDA3521AD9053407B87DBA161A85540AB2688BA0F2039402A5778978B902040098D60E3FA5F544082FDD7B969F65040E94317D4B7CF584034F6251B0F564840008DD2A57F753A40F78F85E810415540328E91EC113A4B40685E0EBBEF5C4C40170FEF39B0B43C401A1538D906775740A8734529210C3E40F69672BED80F3E40C7A17E17B61D5140766EDA8CD30038401A868F8829C12240C1374D9F1DA7564042CF66D5E7E23740912749D74C0455400DC68844A1F14440161747E5264A1F40B0AD9FFEB38E4D4051A04FE4497B54400B7C45B75E2D4A40828C800A47D02E4058AEB7CD54FC47404BAB21718FFD3A40BEBD6BD097B230408D98D9E73158564088855AD3BCED45406B0F7BA1801D3E40F226BF4527E34A401E5036E50ADF5140B45549641F884C4014252191B6911140BD361B2B31134B4035255987A32BF63F371B2B31CFF84140A1496249B9E65040990E9D9E77ED564072FE261422003640FE2AC0779BC65640C3B7B06EBCFB204007431D56B8385840492C29779F2146406DC83F3388A14140DAAD65321C733240487023658B183740FC56EBC4E5343140A06CCA15DEA54B4016C1FF56B2214540F148BC3C9D5C53400D7217618A344B408BFA2477D8C55340132D793C2D5F33405EBC1FB75F2C4040AA6395D233875740077DE9EDCF2C544016C0948103445340DD274701A2CE4140628731E9EF3D2A401A506F46CD554E4095D4096822285240A3B1F677B6470740DA59F44E053A4840D593F947DF885140C61858C7F10B4C40FE463B6EF8E74F409D4830D5CCD157401E8997A7735E5040800BB265F91E3540D940BAD8B4F20A40696FF085C9342540B1F9B83654AC0540761BD47E6BA9584032AD4D637BA156408F17D2E121F5504081CB63CDC8443B4082FDD7B9696F5440D82C978DCE092440FB1EF5D72BC153407B87DBA161134C401686C8E9EB365240514D49D6E1DC4E40F513CE6E2D205340E50CC51D6FA22240BD344580D30D4640EC134031B264DC3FA8FFACF9F1A15440A96A82A8FBE04440056A31789876F73F6B11514CDE8A4D40BC202235ED3F53403F1BB96E4A085340F31C91EF526AE93F145D177E70284D4089CF9D60FF054D401407D0EFFB8F5740EE0A7DB08CB93F401C60E63BF8E357401AA721AAF08F3140F8C264AA60543740DFC0E44691393E40FE4465C39A4A45409ACDE330988F4E409B75C6F7C5452440677C5F5CAA520B4038D89B189247464042226DE34F8839405264ADA1D4F651400D5531957E0A2C4003EB387EA8E853400648348122DB544027874F3A91BC4E406FD74B5304DA4F40C4978922A4A35140C287122D790356400C23BDA8DDE33E402F3196E997224B40F7E80DF791285040C39ACAA2B0C94740CB83F41439525640ACAA97DF69122540C2C3B46FEE7B524020EBA9D557AF2D40944DB9C2BB903D40FA415DA4509E4C409B73F04C681C584065AA605452165340AB23473A03F73940A5C0029832143640B32781CD399656401E87C1FC15884E404E266E15C40E5340B5C5353E937DF13F62BCE6559D694A405BB4006DABD15740DF35E84B6F133F40A2444B1E4F895740E9279CDD5A2A3340A56ABB09BE4143401D0247020DEE3C40FD851E317AAE4E40DE03745FCE8647406EFB1EF5D7565540C9CC052E8F2D4040A3CB9BC3B51A5340FF59F3E32F635140AAB8718BF9A1484048A8195245711440BB6070CD1D44504004E44BA8E0F0EF3FB5A7E49CD81B53407DAD4B8DD06951404D83A279000E56408F56B5A4A38B5440DE3994A12A9E2340A0185932C7A05340F92D3A596A953540A2F14410E7F116400305DEC9A73F46405AA148F773AE50408179C8940F014E40CD21A98592BA564027124C35B3A4424020990E9D9E3D5340D06394675E6A5540A4E029E44AEC5740800EF3E505EE41408124ECDB49643740FB912232AC835740A988D349B62E53403ECBF3E0EE6426406D3A02B859C431404D4D8237A44258405001309E41DB21406CEC12D55B535240C0CB0C1B65DB544025B03907CF4C4F40E010AAD4EC814D4029B16B7BBB613E400E130D52F03C2940CF11F92EA5075640022EC896E54B31402F8A1EF8183849401DACFF7398DB3940BCCB457C279F5640BDC804FC1ADB4240C59107228BF4254019E76F4221F2384089B7CEBF5D575140B37DC85BAE83524044FB58C16F185440EFAD484C50485440D4D7F335CB5525408F39CFD897504A409BAC510FD1AB52407F8978EBFC8B4F40E7012CF2EBC657409E45EF54C0BDEA3F50711C78B58C3E40321CCF6740125740BD395CAB3D0854405891D1014900424035ECF7C43AB94E40C3D8429083D22240D1AE42CA4FB850408CDAFD2AC0854E405B7B9FAA42314B40CCD4247843A55340F94D61A582EA09406DE34F54361C3D40F96706F1817D1940512FF83427D74A40105A0F5F269351403332C85D84AF47403EEC8502B6EF55400420EEEA55AE51409CBF0985086E5140FF9600FC539A384027D9EA724A364F404F3E3DB6654D524047C66AF3FF765140B9AB5791D1B53040EE9579ABAEEF50400038F6ECB9C24C40A1F2AFE595B54E4053060E68E9575140D4D7F335CB5F51409F02603C83844C406956B60F796B3F4007EA9447377E3C40D3F544D7855B3B403909A52F84303540B891B245D26243405CAAD216D7F65140726F7EC344705340105A0F5F264A3B401EDE7360396756404C1AA37554C74F40B66455849B564E40C5E3A25A44044F40965984622BC552408333F8FBC5EC284053094FE8F5C45340F838D384ED954D40410DDFC2BAAD3C402DAF5C6F9B894140D905836BEEE451406D37C1374D45484098FBE42840464C407C26FBE7691A41401344DD072035304041EF8D21004434403716140665C0454036CD3B4ED1EC51406DE179A9D8B05140A4C519C39C684F405A66118AADC830400C5872158B433140F0FACC599F585140C0417BF5F1CD57405BB05417F00852402F14B01D8C9C464037FA980F08D35740AC70CB4752FC4C4083DC4598A2DA4840785F950B95FF2240C992399677D14640B5E1B034F02B34404F75C8CD709342402C0FD253E4983B4015CAC2D7D71632408D2958E36CC9574023D8B8FE5D3C5140D40D147827395340F19BC24A05ED5140ADF71BEDB8045240444C89247A4934408ACBF10A440452402504ABEAE55B3F40D2E1218C9F875240A6B8AAECBB484240629F008A91FC55406F0C01C0B1971240F7216FB9FAB54D40CEA78E554A7F13403FE1ECD632B74840EF1D3526C4564C40BC5AEECC04C54E406A4E5E64028444407496598462733340711B0DE02D9C3B40A515DF50F8EE4C408FFB56EBC4B531405FEB5223F4525140AE6186C613C10140FF209221C78E3D40D1419770E81C57408DB5BFB33DFA1740171230BABCAB574046B41D5377995740A8195245F1EAF63FAE49B725720D304011E335AFEA395340E5EFDE5163085240569DD5027B2156400074982F2FD64B401D21037976991C409CA5643909AD354016139B8F6BE65740C2DF2F664B6651401BBAD91F28834940F86C1D1CEC954F40321CCF6740C85140006F8104C50F0B40EDD45C6E30DC484095EEAEB3212E554074452921581133409EB7B1D991224B40BDAAB35A60BD43408A3C49BA66022540D3C1FA3F87192E401077F52A329A4540FAD51C20980D4C40209738F24010464078962023A04A3E408EE9094B3C804F4048C0E8F2E62D50401897AAB4C5413E40D80B056C078F3340D1E7A38CB8FA5840AC8BDB6800E54F406A8995D1C8B55240244223D8B88C5040E92ADD5D67514640581CCEFC6A4E4B4046CD57C9C7EE4B4061FA5E43708350405915E126A324504016FBCBEEC95B3040228C9FC6BD253240177FDB13243C4440C32B499EEBAB394031CF4A5AF11D154080EF366F9C52474001C0B167CF3B48405D37A5BC563C52408D63247B84522140A2427573F1F65740AF946588638F43408A3BDEE4B7680440616D8C9DF04A24402EAD86C43D464C40D926158DB5F332409DA1B8E34DC242403F8EE6C8CA8F46408FDE701FB94D4340D976DA1A11BA5840021077F52A2A22401424B6BB07682740C6E061DA37394E4017D34CF73AD15440EDB776A2241845409D4A06802AEB5040177E703E75D75040492C29779F194A40A4FB3905F9992140D099B4A9BA372D4030F1475167AC4040FC1C1F2DCE7A4540DBC1887D026026401D007157AF423D400F9A5DF75658424041498105306749408E01D9EBDD1F3D40847EA65EB728284002D4D4B2B5CA334071033E3F8C805740CE716E13EE15FE3FEC884336902EBA3F252191B6F17D54405B96AFCBF09FC23FEC88433690EB5240E01115AA9BA85840C364AA6054B24A401822A7AFE7694140F8544E7B4A18424014EB54F99ECC584029CC7B9C692555400518963FDF7A4C407D259012BB523240E277D32D3BB95140FB75A73B4F6F5640A3B08BA207CC56406F7F2E1A323E3040DFA9807B9E0051403C31EBC5501450405BB39597FCAB4440ADA580B4FF894740043DD4B661043340E6E61BD13DB14840C422861DC67C2240BE175FB4C7654240F819170E8484184008043A9336214C409DF7FF71C208494044334FAE296C5240BA6B09F9A0E7E13FF3E49A0299774D40ED478AC8B08D5640D9EE1EA0FBB25040F7E80DF7912F44402E3BC43F6C5F4340C845B58828BA3240A6811FD5B0754840F148BC3C9D334A408BDD3EABCC4E4A40E0BBCD1B27450E405B5CE333D9A9434013D38558FD4124407DD0B359F5CD484087C43D963EF03B40B5A50EF27AD04C40558A1D8D436855404AB54FC763FE33409411178046754440E1EEACDD76311D40A8C821E2E64446402594BE10723E044035CF11F92E634040D1E979371624534006D7DCD1FFCB5540B5A4A31CCC1F5040915F3FC4068F3040BA2C26361FE94C40F8C3CF7F0F9847404774CFBA46A957400FBA84436F6458402098A3C7EFC14940696E85B01ABB5540465ED6C402CF1840ED293927F6D651401EDFDE35E8EB1F409D82FC6CE4A15440A8C5E061DA34584074B7EBA5293A40402F4FE78A52F23E40A12C7C7DAD0B56407C28D192C7CF324085436FF1F0DA3540F10F5B7A3486574016F71F990EFD57402098A3C7EFED00401827BEDA519A5740A5F78DAF3D832B40802898310537454014234BE6582C4540EC14AB066127544011AAD4EC8167564094162EABB0BB4840F982161230D358403BE0BA62461E4140FE0FB056ED54534013B70A62A03B4040CFDBD8EC485D274014E81379928446407CF31B261A5C3F40B4CA4C69FD774940F435CB65A33345405E66D828EB4B41408350DEC7D1F9564078465B9544A757403D1059A489925240C843DFDDCA0C5140E99B340D8AC65140740B5D8940AD3840CC0D863AAC265240B2DAFCBFEAA805401A8A3BDEE4145740EF54C03DCFD146405340DAFF0003544046EEE9EA8E59524010919A76315D484057EE056685964240CD91955F063746405BB22AC24D645740A75B76887F024640D2C43BC093F65340C9AA083719934240A8E507AEF2924840C80C54C6BF825340382D78D157A65440D7BFEB3367C357404E266E15C4C034402174D0251C1A1C409B745B2217742740683EE76ED75F3440E8853B17464E3B40309C6B98A1B9294060CD0182391635402104E44BA8B9504096CCB1BCABAE1940390F27309D4456400FB8AE9811DE1F407D3F355EBA935740CA8CB7955EFB0A4079944A7842AD4240F581E49D436455402331410DDF8A2A40EF02250516F6554040DEAB56264D52402D211FF46CFE5240554B3ACAC18D5640FDC1C073EFE157409B1BD31396A654401171732A19D75440C1ABE5CE4CA84040D65757056AE944404B57B08D78F20640AC00DF6DDE855040D5B0DF13EB8D57400A9E42AED4DA504029780AB952FF1D40FBCDC47421C62340552E54FEB55A4240D4D4B2B5BEDF57406CB587BD50DA4740390EBC5AEEEC0040A69A594B010919400D7041B62CAF38408A7780272DD45540F7ADD689CB1D5740EA944737C2795040A19FA9D72DD04A40971B0C75583D414051DB8651109426405E49F25CDFF34140B8239C16BCAA4E40E3AAB2EF8A902640BAF94674CF7E4E4048C2BE9D444953400BEF7211DF01254019390B7BDA65374077137CD3F41D404092088D60E3044040F4C5DE8B2FAA18408D7E349C32DD40409F73B7EBA5BE5640D464C6DB4AC33C40020F0C207C385640FA28232E003D3A40AE64C74620DE1E4009DD257156FA4840C66CC9AA08D73840A3E6ABE46363394016A75A0BB3D45840F2B391EBA630444055BFD2F9F0BE4E40F9BB77D498325240ED647094BC4639404C1AA37554474E40C3BAF1EEC8E552408A9466F338755840D13FC1C58A4040404AB20E4757F12C40B85A272EC7BB574057B3CEF8BE7030401CB5C2F4BD06E43F93AAED26F81058407AE3A430EF6931402942EA76F6374C402634492C29173940BEA1F0D93A0C58405B96AFCBF04D4B40D02A33A5F5FD474006BCCCB051404B40CB0F5CE509E6474073840CE4D9E50440B2B96A9E23B65840261E5036E5C251406BB933130CFE57404C70EA03C97B2A40FFEA71DF6A2E5040F7949C137B7817403161342BDB574C400A65E1EB6B15244045F12A6B9B6A5240680932022ADB5740E675C4211B0C4A40651BB80375E84140A6EF3504C7EB47403885950A2AA63840778192020B585140774D486B0C89554083C13577F4FF2940575A46EA3DED5340DCD8EC48F541304030682101A3B55440E92807B309664540EF1F0BD121D8564034A149624927474087DC0C37E03B334066DB696B446049406D1E87C1FC613340C8B1F50CE16036408B6F287CB62E11401D5723BBD24A3E40C49448A2975531402FBFD364C69C56400ED76A0F7BDB4140C64D0D349FD954405CE674594C6C4E40E19BA6CF0E375440FD1186014BD25240A8FC6B79E5885840BA2EFCE07C6AEC3FD943FB58C1F1544079AD84EE92402D405721E527D54E134044FD2E6CCD9853403337DF88EE7F4740153AAFB14B9C5040C2FC153257B75440726DA818E7FD51401904560E2D4217401EA33CF372F24B407F6B274A425C4740C5C89239962B32403733FAD1706056408F6CAE9AE7664540B858518369F03C40333509DE90460840779D0DF9676E2A40BFB9BF7ADC094C404374081C09742640925D6919A97C5040616EF7729F8C1D40FC8A355CE4D65840DF18028063935740672618CE35A44F405B5F24B4E5B429403A58FFE7302B50400CAD4ECE50C44940378DEDB5A0B8514073F4F8BD4D1F034094A12AA6D2A95240AA2C0ABB2826494051DEC7D11C86524004AA7F10C9C051406362F3716D082F4076A73B4F3C9B4940656F29E78B3E55407EA8346266C658408124ECDB49F42540F2608BDD3EDD47408EB0A888D3E1444061E124CD1F9743404A5F0839EF2D4D407061DD78775C26400612143FC65554406C5CFFAECF9A4540FB9463B2B87FE53F111956F146BE5440170E8464016F3940AC1F9BE447AE5240D45FAFB0E0EE47402733DE567ACD1640FDDAFAE93F175140F19BC24A054A52406CD102B4ADC63B40596ABDDF68F455403ACFD8976C484E40C767B27F9E985440728C648F50730E40A5A31CCC26E04640A33D5E488729484069E04735ECA15040B8CA13083B065840B1C05774EB33564054C4E9245B7D0540562AA8A8FA4D46409BC6F65AD053304055BFD2F9F0E052407CD45FAFB0F15840933655F7C81E2E401C5C3AE63C40514011018750A5C64D400803CFBD870F4F40C6DE8B2FDA2F58400F441669E2CA504072DF6A9DB82C4C40155454FD4A6D4140DF4E22C2BF68034064E76D6C76124B40B6494563EDBB5040A0C6BDF90D6A5240B9AAECBB22725840969526A5A0ED50402AAC545051414A407F85CC9541093B40573F36C98FA04440E9279CDD5A0951400B7F86376B145640AE2AFBAE08C1514083C13577F46256405987A3AB743B3A40BE8575E3DDC8514017467A51BB9F354084F068E3886D374089D1730B5DFD5140F1D4230D6EBC5040F1A1444B1EFA5540D505BCCCB06856407841446ADA2C5640F6B52E3542FFF33F992D5915E1A849401CCF6740BD015740AA4885B185C00E40514CDE00339A5840F3AE7AC03C965040D9B27C5D86F74A40CE16105A0F3F38409CFBABC77D2A53401D1CEC4D0CD91B4026C5C72764E74540FD9FC37C796454400B9B012EC8FA4740E3E0D231E7214640BBB54C86E3DA50401973D712F22D30400E4A9869FB835640CA198A3BDEA4FF3F8B506C054DC3434064EAAEEC827550408FFE976BD1784B406A696E85B0D64E403C6A4C88B9224940221ADD41ECCC2140F2EB87D860574340EDD286C3D2064840AFEB17EC86652A4096B377465B993940E9465854C4155440D2393FC57190544075AC527AA6CF294092CA1473108C584019E3C3EC654344408DEC4ACB483D0040FB3BDBA337EC4340D7C1C1DEC4743140CC0C1B65FDD250408D96033DD4D84B405E13D21A83B63A401D5A643BDF5C5840AF05BD3786002E40C2DF2F664B384440D4D17135B233494008CA6DFB1EBD2D40892650C422F05640D4282499D50B4F4066A3737E8AC74040653909A52FEC5240D7A3703D0A994940BA4DB857E6375140C7F2AE7AC01751405F46B1DCD21A4D40CEC64ACCB3E84440D255BABBCE2653404B00FE2955F64B40A3EA573A1F364240F818AC38D5A04640268A90BA9D13584068CA4E3FA87D46405CE84A04AACF184070D1C952EB452D40AAB5300BED124F40E27492AD2EBD4B400AF65FE7A65954405ED72FD80D3F3640F0A7C64B37BF49409A999999994558407714E7A8A3115140959D7E50177D3840253CA1D79FD84740D8EF8975AA0A55401B800D8810865140226FB9FAB185574086E3F90CA85D4F40130D52F014335240E6913F1878B254408CF7E3F6CBB05440A3AF20CD58704D406AF816D68DF94940EAE8B81AD9BA584033E02C25CBCF4840848252B472BD5540E17EC00303D0544073840CE4D9F45240BC0512143FA635408B18761893D04B408E791D71C85A3E4076525F9676EF5440B6494563ED3157405E48878730B1554062BF27D6A9544940E2CB441152633A408481E7DEC3054040EDF318E5991711407C0DC171196B5640A167B3EA73B74140C2C1DEC490042B403E40F7E5CC3D58408FC360FE0AA92E40F14BFDBCA92813400266BE839FD251400B7C45B75ED31F40BA84436FF1255140AAD381ACA72E4940B05417F032294640C5C72764E7D8554091F12895F0FA49403D29931ADA3F514096B1A19BFD8A5240679B1BD313B61740703E75AC527A184088BA0F406A914A40280B5F5FEB444F40BCB20B06D7903E40D00D4DD9E91733403430F2B226DE4440BA8102EFE4E73B40416667D13B2513408BE255D6365510405B5CE333D9BB45403387A4164A9A4C406D73637AC2FC4C409A25016A6AC545406C787AA52CA351401EA67D737F753E4063EFC517ED811E4031B3CF63946B4A409148DBF8130F524065ABCB290141264014D1AFAD9F6555408DD31055F8A32640DC82A5BA80BC5840F702B34291263F4022C154336B491240340EF5BBB0F51040020F0C207CE552402E1B9DF353E55240F25CDF8783DC3E402D7AA702EE934A404B3FE1ECD6D210402A90D959F4663440ABECBB22F8E7564085EE92382B0A5740AB21718FA56853401BF33AE2904543401E87C1FC15C04140465C001AA5BB4E4086CABF96577A4340310BED9C66093140315EF3AACE844A400D1AFA27B8FC54408E7747C66AF6574079CBD58F4D7C5140B66455849BCC3F4062D68BA19C00344000E48409A3755540ADFC321823784240B54E5C8E5774354024809BC58B97514046EBA86A825452400FD1E80E620D5040C1C8CB9A58E24A4000732D5A80BD5140ADA6EB89AE5452403CF88903E8994D407B319413ED4635403D0AD7A370715140D55A9885766E424004C93B8732C41040255CC823B8F74E408DB454DE8E5030403160C9552CAA4E40568330B77B414C402B6A300DC3673F407C0C569C6AD94B40C2137AFD49243D40F19D98F562DA46409A42E73576CE50403EEB1A2D07955040BB2A508BC17F3340C365153603BC1F40865AD3BCE3D83B404B917C2590DF514062BD512B4C473F407100FDBE7F0B324037397CD2895D55404D6A6803B0F7584057B439CE6D245340D046AE9B529E2F40855CA967418C3D401EC6A4BF97E23640D7DEA7AAD09B56405F622CD32F274D4034A2B437F8CC4C4080F3E2C457FD4D4098F6CDFDD50251404FE78A52423758407E703E75AC784F403657CD7344AC5440228E75711B4B5740D8BAD408FD603240E71A66683CDB4B405C0531D0B5FA54405A84622B68E04C4025085740A15454403A9677D5032230402060ADDA35B53840C3482F6AF7873040DDEF5014E8BF5540252026E142064D4093718C648FDA4E402250FD8348A61840C8EBC1A4F8A03340B000A60C1CAB5540BB2A508BC15340406BD784B4C6BC31400ED8D5E4298C5840F8C5A52A6D2F4B40A0A696ADF58753404DF4F92823F24840F4311F10E89A41402EABB019E08054403046240A2D5C544091D5AD9E930A4940790778D2C2AE5540111956F146363040BD5301F73C394740850A0E2F88EB544045F295404A6420403562669FC7E81F400A647616BDB050404E9CDCEF50BC3940ACAB02B5183A4140D73043E38934444010C99063EB6D5040D2FE0758ABF6064073486AA164E64E408AABCABE2B3A34408F519E7939CC47401A18795913D65540130F289B72545240FB592C45F25B56403480B7408291584039ECBE63789F5840766C04E2753E5740234DBC033CE34F405CE84A04AAEF10408065A54929FC46403B38D89B18663F401118EB1B989D5340B43A3943715056406CD102B4AD7A41400875914259DC4440630AD6389B40404061376C5B94AC5840A3737E8AE36C4540C32CB4739A05F53FAB7AF99D26845840172B6A300DF31940B28174B169853C404E62105839F64B40AB7823F3C87B514051BB5F05F8BE4640950D6B2A8B5152407104A9143BF35640001AA54BFFC75340A530EF71A6612C40E57B4622341E3B40A9DE1AD82A3E5340A59E05A1BCC73A40E5D3635B06D0484027158DB5BFA74A401EE0490B979D24402C7FBE2D58565640D847A7AE7C0C4E40AB09A2EE03B0464027124C35B3FA5140B18A37328F2C2D40732CEFAA075C1F407217618A72645040B136C64E78A54A4081B053AC1AE44540F5673F52440454409EB30584D6CF45400C207C28D11D5740FDDB65BFEE0C2840D7169E978A7931400473F4F8BDCD2440889D29745E1549401FF30181CE103A4058AEB7CD548155402D26361FD7B157403C3080F0A195504093AB58FCA6F021406519E258172140405C751DAA296551403BC8EBC1A460214082700514EA6A5740849B8C2AC3CD5340861F9C4F1D135140A8C821E2E61F5240E31C75745CC55140E23FDD40812F4540D87DC7F0D8455440E59D4319AAAA344096404AECDA0C58401A8A3BDEE45D4F40234DBC033C413B4078978BF84E2C3F404AF1F109D94534407AAA436E86FB4A40FD67CD8FBF944B4092CD55F31C792140E23AC61517AF53400D6D003620321D40037D224F92B35140A4198BA6B30F464045F30016F97D5640D1048A58C430F03FD9B0A6B228783E40E5ED08A705A54A4017F37343535552409F1EDB32E0642040E1B721C66B544C409B745B2217403F40EAB0C22D1F3131409DA04D0E9F4E58405D15A8C5E0C53C402E02637D03B748405DA8FC6B79654E4062F71DC363FC5540ED45B41D530B3840551344DD07C829409C36E33444974E40F10EF0A485DD464022AAF067781743408F52094FE8C0514012F6ED2422FC474055FA0967B7505240613596B036EA4040454948A46D985440C93EC8B260285740CDE67118CCB25140C7BB2363B5A156405C548B88623354406CEBA7FFAC3850407FBC57AD4C184E400D501A6A14F638408E3C1059A48912408B170B43E4C648405036E50AEF804740E1B88C9B1A525240A0A86C5853EA5740A510C8258E704D40E9F351465C3E55401650A8A78F00FE3F08CBD8D0CD6234405E10919A76C5394077BD34458090524058569A94826625402B8A5759DBC852400874266DAA0A5240B056ED9A906358402BF9D85DA0564040661536035CAC3440F73FC05AB57B2F40EA5C514A087E514059C4B0C398245740B20DDC813A913F400C03965CC5545240F8DF4A766C775440DB87BCE5EAC05240C72E51BD355443409D84D21742675240868E1D54E21A47404C361E6CB1FA5040882D3D9AEA92544016DEE522BE2D4F40D712F241CF5E2840459E245D339D3D407311DF8959573440E38A8BA3724F3F401B0DE02D907A4E40340F60915FC94F4080608E1EBF894240CEC47421560940405854C4E92465504013F241CF66A1504046B1DCD26A844D4030F488D1730B1A4059C0046EDDE94E40DF88EE59D750444064AF777FBCB55540070ABC934F9B3B4077BAF3C473D624405182FE428FED524018B49080D18D294011FC6F253B8614407218CC5F21A54D40111C977153531040437573F1B7F0504065C746205E855740BA4BE2AC881F53408EB27E33317B5840022CF2EB87E35140859675FF583D55400A67B796C94257401D3BA8C4753C1C40C1ADBB79AAA94D404182E2C798574140D4F36E2C28DC1D40FD67CD8FBF0A4F4051F52B9D0F5F564088F4DBD781DE50402C2CB81FF0835740A296E656087456407E00529B38374A408461C092AB1D51409148DBF813AA5740DBC2F352B1192640618BDD3EAB3C4740FED478E926792540DAAB8F87BE673D408F37F92D3A3B584095EF1989D0885140465F419AB19157408F19A88C7F572F402F302B14E9CE284066A4DE5339C549408BC22E8A1EF8E23F83DC4598A2BC4C404227840EBA104C4088D7F50B760B42405CCB64389E1953407B6B60AB045B2840FB777DE6AC51514012178046E92A28403D997FF44D76374083DF8618AF190240102043C70E3634408B53AD8559D25640C503CAA65C394C40533E0455A3A34840B64B1B0E4BC301406649809A5AF05740AC3B16DBA4D44540E50D30F31D024740F853E3A59BF04D407C7F83F6EA8E5340CD72D9E89C0055409981CAF8F7274B405F5E807D74264A40CB48BDA772322D400727A25F5BC1434026A8E15B5847104095F25A09DDE5F13F6CCCEB8843F64540C9E4D4CE30575040A69883A0A32152403ACB2C42B1114040354069A85136474099805F2349AE56404EB7EC10FF500340390EBC5AEE6C3D406FF4311F10A032405DC136E2C9FA3F40E3A9471ADCD25240FBCA83F414F1404039EFFFE384834F40F6B3588AE4314B401004C8D0B1155040FAB5F5D37FC951406745D4449FF156401EDFDE35E8374D40A6D1E4620C5C474017F2086EA4B43340DA722EC555315640609335EA215E4B4067B5C01E13E9544022AB5B3D27E7444007D15AD1E6482140FCDEA63FFB194E40D734EF3845073E401840F850A2814040145FED28CE192C407DCA3159DC973040952BBCCB45984B402524D236FEF456407C43E1B375E82B409B3A8F8AFF615040C991CEC0C8DB4040069E7B0F972435404F3BFC3559532540D7F7E12021023D4058FE7C5BB09856400C91D3D7F3BC5240338AE59656B73840725303CDE7C0354036CEA6238020554033A83638113B4D404E62105839D752407D7901F6D16F4940616D8C9DF0264640CE380D5185545040BA313D6189EB39405DFDD8243F7A5740F59ECA694F75414002124DA088AB41403DEE5BAD136730400C01C0B1673B5040AED51EF642F1574024287E8CB92D4C40FF5E0A0F9A053E40556AF6402B375240BBD408FD4C954140441669E21DBF524087FBC8AD49405040AE0E80B8AB854B400CB08F4E5DF9DC3F5985CD0017324F40350BB43BA41249408351499D80E85740D1B01875AD7C5040D5B14AE999195440B341261939C25140E5B9BE0F07C654400744882B67B34140917D9065C192474096CCB1BCAB163940859675FF58E03C40C4E8B985AE1C2C405396218E75655540E7357689EA014E40111956F146905140878906297832364015191D90847D29409198A0866F1134402E71E481C8DE554027DA5548F9FB434088B839950CDF5040D2C43BC0933447405793A7ACA6DF3840E3C281902CC445403EEC8502B6174D4006DA1D520CC43740580053060EC9504095B7239C168F584050C3B7B06E915140D55E44DB31BD5340842BA0504F2146408BE07F2BD90B5840BF9D44847FB34440A8E0F0828884114039471D1D57AB4B40A54BFF925443514018EE5C18E9D349407157AF22A3BB4B407F880D164E4A20409A97C3EE3B685740A5A31CCC26BF5240E17B7F83F6AAFF3FC7BDF90D13315340EBFEB1101DE4424066BE839F38AC4940881057CEDEC75040552E54FEB5404240ABB35A608FC12D4029779FE3A3035240E35295B6B8DC4B40EA07759142AA5540471D1D57237B18403A22DFA5D4093D40AE62F19BC2604340F96A47718E7A40404F05DCF3FC6948402FDFFAB0DEF43D40A8A9656B7D4155401F4AB4E4F1DC22409ED1562591A5504081B1BE81C97D1A409F3E027FF87F4640B9C667B27F504F40E370E65773202C40091B9E5E293F4740FCC3961E4D7B454090DC9A745B9B52402A37514B73CB2840D4D17135B21D57408CA37213B5B42140D591239D81493E40ED478AC8B0363040593673486AB54B40C156091687E143402D095053CB25564043E73576892A0840B7EC10FFB01D354091459A7807583540DF18028063ED4E409604A8A965D5454016A58460553D21401EA33CF3723B524087889B53C9DF5240A92EE065867253404E0CC9C9C4B95240CD58349D9DE43E405323F433F5D631408CBD175FB4E7554085949F54FB3A5140C1525DC0CB1255407D3F355EBA012240251FBB0B942C4E40E09F5225CABF5140DD425722506C574048179B560ACB40401E54E23AC6B50A40F6ED2422FCA357405A0D897B2C9B4F40BEDEFDF15E1D584047020D36750E154032E719FB927F5640224F92AE99515040A03715A930BE3C40CC0A45BA9FC14240213CDA38626A53403AE63C635FF633402FDFFAB0DEB02B40016A6AD95A365040F4328AE59612384030F65E7CD187584057056A3178345440EAE74D452A575040AA436E861B38344003999D45EF3C23408202EFE4D3C342402497FF907E9D42408FC70C54C69B5440158BDF1456EA37401AA721AAF06A5640323CF6B358E15040666B7D91D03E2540C25087156E1D3840158E209562EE5540C51A2E724FC33F4080457EFD10F0574040BE840A0E4A5240560E2DB29DE94540A60BB1FA238A4F401ABFF04A921F4C40FEBAD39D271A3A40768A558330573240BC067DE9EDB654403E07962364F842404A7CEE04FB495240B75ED38382320640BE66B96C749C4E404818062CB9623D4071C79BFC162D494053AF5B04C60A4F402CB7B41A12133840DA3BA3AD4AB44040AC72A1F2AF01414037C2A2224E274140804754A86E6D5040ACE63922DF9E56408AAE0B3F380745404C70EA03C98B2C409A42E735761A50402DB308C556E7564029EACC3D243246405C7171546E563C40E50CC51D6F6443404C1762F54754374099B9C0E5B130514099654F029B945640E3A9471ADCD4444079AD84EE929B544084F23E8EE6745340E25CC30C8D433A40F4FE3F4E98D01540AB08371955FE4440640795B88EE93340C422861DC6475640F94D61A582A84C40D8EF8975AA804240204432E4D8644B40F4F928232EC8254059350873BBF858406A50340F60494B40774EB340BB9F4B406DA818E76FB21640EEB4352218054D405E126745D4FA514086E464E256934240F9F6AE415F9A1540A1BE654E97653E40C13A8E1F2A8757405B9544F641264D40D4D2DC0A61AC5340DA3C0E83F94B5040B0AE0AD462AA414039622D3E05901440183E22A6447A364054909F8D5C4D4C40BC22F8DF4ABE21407F32C687D9F34640B262B83A00015740711FB935E96A54401F12BEF737FC5240D8EF8975AA403240C2BF081A33834E40E08096AE60733240484F9143C42D554082902C6002B7D03FE066F1626188FD3FFB03E5B67DBB36402B1895D409105340DE1D19ABCD133E40A3073E062B1C4840C3BCC79926BB5840894336902E6A50409FAD8383BDD12D401897AAB4C5745840A6D590B8C778454051A5660FB4765040E109BDFE24DE0840EE98BA2BBB06534083FB010F0CB43640473CD9CD8C362240E8323509DEA44740BEA3C684981E574057CEDE196D2B4640B03731242753114041BCAE5FB09B2E4067D65240DAE94040FC6D4F90D8CA444051D9B0A6B2E242403D0B42791F39514084622B685AC84C40B37C5D86FF875440A4FCA4DAA77B3A402BC0779B37DE174012178046E9E5574011FE45D098F94C403605323B8B2E184096B4E21B0A585140E544BB0A29AF31403C33C170AE3D4A401A4D2EC6C0AD57404FCB0F5CE5413140ADC266800B364140ADF886C26723564056EF703B3418474098A25C1ABF504F40D93F4F0306DD4A401E1840F850F9564007D0EFFB374F25402FC37FBA812C5740C37DE4D6A4AB4640B187F6B1823F1A40AF7B2B1213385140B0CBF09F6E225440473CD9CD8C46544034BDC458A6654F40BFD6A546E8EC5240BC900E0F611050403579CA6ABA10454030D63730B99B5340412E71E4812C5040889FFF1EBC0A554094111780462533400CE544BB0A892F40541EDD088B063D403197546D37C55140A5828AAA5F374B4033880FECF89251403E7782FDD7AD5440056EDDCD53654140CF656A12BC3C524004560E2DB25756403337DF88EE254B400F0A4AD1CACD17403999B85510573F40C367EBE060D54C40EFC8586DFEB54C4046787B1002324840D061BEBC00A94F40A3073E062BF5504065506D7022323E4024F0879FFF104D402B6B9BE271E35540F419506F46AD1B4081B3942C27993040772CB649457E554015E46723D7BA5140AFEB17EC86B74640D57B2AA73DE35740FDBB3E73D6173D404CFF9254A698E33F4182E2C7981F3440156F641EF9925040E3FDB8FDF2C90440323ECC5EB6CF44409ACFB9DBF5EE4D402FDCB930D29452402B508BC1C3475540DA58897956C1514081CEA44DD5574D400A6AF816D60C56401B67D311C01D4D40740B5D8940752F40113AE8120E853140F209D9791B094F4055A3570394062C40A777F17EDC975740279F1EDB323056409225732CEFE447406859F78F85680B4066DCD440F38955409357E718900D23409E996038D7982B404759BF99986E0140C9AEB48CD44347406823D74D29905540A48D23D6E2DB3640D6FF39CC97A72540C43E011423C34B40D04543C6A3E42B4042959A3DD09A4E40A3CC069964CC25405053CBD6FA2A33406FF085C9543D4F4072FE261422465540AE62F19BC24956408C868C47A9B4204003098A1F63B04540EEB089CC5CAD50409D499BAA7B442C406E50FBAD9D86444055A1815836730940B9C4910722294A4027840EBA840755408A56EE056635514018062CB98A954E40BB9C121093B000407E6E68CA4E5F2A404E7D2079E75C4340BD8E386403BF5740FA9B50888077544027309DD66DA75240897956D28A8D4C405303CDE7DC0B504086E7A56263B04E40465B9544F6210940D3838252B465544075914259F8424A4004711E4E60BE4940AE635C717153584042CEFBFF38713B4087FA5DD89ADD1340A5A2B1F677B2354009A9DBD957355240C2A563CE331A30409FAD8383BDAB57408484285FD0C649403BA759A0DDC35040C095ECD8082A49402522FC8BA01151409A5FCD018286584069C36169E0A15040EE60C43E01E0364093FDF33460C648408461C092AB082840D53C47E4BB224A40A1832EE1D0105840077E54C37EC752408B6CE7FBA9A25240003620425CAF46401EA9BEF38B222D40ADFBC74274A847400F0C207C2841234095456117454F2F40FB761211FE855640CB4BFE277FC55340168A743FA7BC5140E21E4B1FBA5D5240BCE82B48333E4740496760E465E52C40B6494563ED955440645C7171546C4B40C90050C58D3B0240159161156FAE474045F30016F9A052402E1A321EA5D247409C4EB2D5E594B83F7D3D5FB35C9A544085EE92382B8258402F6D382C0DCE544095D74AE82E025040B8E52329E9CA53400A664CC11A571A405D363AE7A7AA4940020EA14ACD2E3040A3755435417E4E40D0251C7A8B33404009C556D0B4AC22406EBF7CB262C6534098DF6932E385524027BC04A73EB43440695721E527DF5640F65D11FC6F93424011DF89592F06E53F6EF8DD74CB063040130B7C45B7362F4095B7239C16305840BBECD79DEE142040B344679945955440AB22DC6454FD4D40F7578FFB562F46404A79AD84EE263D402A5778978BFF5240A180ED60C48A56408731E9EFA530404034F5BA45608B5240FD101B2C9C044E4012A452EC68AA43400CEA5BE6743F4840C007AF5DDACF58408B321B64929111405A83F755B9F83440A6D24F38BBF5F03FA9A3E36A64D7E83FEF586C938A16254057772CB64945E13F9DB98784EF2D3B40511553E927665440A8397991099C3440070ABC934F2A55400AA01859322B5340548F34B8ADADFF3F3D601E32E5FF4740014EEFE2FD881D40C9AA083719A35640E23FDD4081DF35405AF3E32F2DAC54406B7EFCA54515294077A38FF9803A474098F8A3A833175240A439B2F2CB604A40A5A487A1D5092940BD8BF7E3F6D058403012DA722E752B400B9A965819DF5540CA1649BBD19F4E407041B62C5F7D4C40BF2CEDD45C763F405BCF108E592F51405BB56B425A93224057EBC4E5787556406D8FDE701F6556406E85B01A4BAB534076A911FA99BB5240F4C1323674B9544074232C2AE2FC3D40BA32A836386B5640406A1327F70F544049B9FB1C1F2DF63F21E7FD7F9C7E45401E8CD827804752400E66136058BA4D4048197101683835407218CC5F21705240CD203EB0E3F9414074982F2FC0B24C40C138B874CC835040FF428F183DE71D4029D027F22429F53FAB59677C5F9C40405B5F24B4E5664B4065FB90B75C5547408143A852B3EC5640BB99D18F862331405182FE428F284C40C66E9F5566DA2E40E5B512BA4B264840ED10FFB0A5534240DCD440F339771040AED7F4A0A03C2E40DC847B65DE863A40D4B837BF61623640CD565EF23FDE514007B47405DB6951403318231285BC48404D689258528E4240681F2BF86D8A54401B4AED45B4253B40D13FC1C58A71574054E6E61BD1213E40A3C9C51858374740B62DCA6C90B93A40645DDC4603643C40DB8651103C3E354048197101683E5140207F69519F7E4A4072874D64E65D55409F91088D60D73B4024253D0CAD43514068226C787A315040E48233F8FBF34B40A0FF1EBC761F5540361FD7868AB13D405A492BBEA14D5340679C86A8C29255404D4D8237A4265640D7A19A92AC5E56400395F1EF33E358401E4E603AADBB3C405B7D7555A04E4B403D9B559FAB6F5540A7B393C151795140E5EFDE516342444076340EF5BBCC58401EC539EAE8B80640E5D022DBF9BE3D4070B54E5C8E6F394061C1FD800706154095B54DF1B8AB504014967840D96445404E0CC9C9C4C75340D00D4DD9E9C7F93FE44EE960FDE955406954E0641B58584043024697371E5840B6BE4868CB6D30402766BD18CADD5640259529E620502A40CC7F48BF7D2D5740B5503239B5530C40427C60C77F8953403674B33F50DC5840C8D0B1834A90584082E50819C8B73A40F41ABB44F5A0534043041C4295823B4047718E3A3A023640E485747808632040D2E3F736FD6911400518963FDFBC5840871403249A4E5440E8F4BC1B0B584E4064AE0CAA0D7E3540EA5A7B9FAA47584005357C0BEB724D4012143FC6DC1D4640457F68E6C9EB5040F8713447564054401F84807C09750140B4571F0F7D9857403C855CA9676B49408143A852B36734408B1BB7989F754640B9FC87F4DB434D402C47C8409E31414088687407B1D256407842AF3F89EF5340BB99D18F863D57408BA9F413CEB6554097AE601BF1BC484009FEB7921D434F402B14E97E4E513440923CD7F7E1F013402C7DE882FA762F4002284696CCA54F407E198C11894855406EA6423C125B42403E05C078069B464032AEB8382AC14840D751D504517053404C5299620E02FB3F6614CB2DADD23640E6E61BD13D9D53400F643DB5FAB65140D3139678409A51409694BBCFF1ED36409F3C2CD49A663140D7DCD1FF72BE56402E8F352383B651408F386403E9F23840605B3FFD67E34240B68311FB04B0294012DBDD03748C5640575EF23FF9055740823CBB7CEB2310406F4562821A8E2840FB213658388132402C499EEBFB0C3240DA03ADC0901D34404513286211B1434091ED7C3F35BA3540C3D7D7BAD4465040F7E7A221E34B4E405245F12A6BA74740A565A4DE5329104023BC3D0801D9294041D5E8D500AD474041D3122BA3965640E256410C74585140EDD79DEE3C510540F12F82C64CB856403562669FC7F15240DA8F149161034840A35A4414937B3540EC1681B1BE313E40770FD07D39774140A245B6F3FD9A4240982F2FC03E7240405BEB8B84B60C1040EF8E8CD5E6CD4F40BB4560AC6FD04D40A9F8BF232A565740AA7F10C990794B404C8C65FA25AE4840685BCD3AE3E73D4051FA42C879625840A647533D998E5140B071FDBB3EC05140596E693524A35240079B3A8F8A654D4025E659492BFE3F40BE89213999E75540D34ECDE5066F5040E690D442C9143640DE1E84807CAD4240E2E82ADD5D7F574040DEAB5626CC534003931B45D68D5340D50968226CEF5640A301BC0512045640EDB94C4D82FF4D40C58D5BCCCF0D074046EC134031A04A406687F8872D035140EF38454772A558405E471CB2817A454024B4E55C8AC74540077DE9EDCFE55640BF654E97C5E6434050E09D7C7AC42E4082FFAD64C7E640400D36751E15133140A9DDAF027C094B4008556AF6400F5740274A42226D2151404A9A3FA6B569CC3F7F17B6662BA73740AAEFFCA204F6584040A54A94BD9D214018CDCAF621B339401D1F2DCE18E6FA3FFFCD8B135FCF4B400398327040373A4041B79734469B4240F086342A70805840043752B648563540821E6ADB3076424032E4D87A86482D40EAEBF99AE551524059164CFC516A454078B81D1A16E55440F1811DFF05EA2540128942CBBA294540A62BD8463CF54B4080D767CEFAAB58400306499F56853240209738F2401D534093399677D5A75640799274CDE44B4C40FA97A432C5C04B40429770E82D464540594C6C3EAEAD1340C4B0C398F48D4940B1506B9A77AE4C40FDC0559E40C43940DE57E542E5FB42404E266E15C4605440B939950C00D52A405DA45016BE0754405FCFD72C97B74D400C0742B280E9504096986725AD60384019E76F42219A2D4056BB26A43506F93FD66F26A60B2853409C35785F958F314073BD6DA642043040852348A5D8711B406EDC627E6ED7514024EF1CCA50814A4076E272BC021253404BE5ED08A76C5540494A7A185A655740B2D7BB3FDE12564060234910AE2A4A400FB8AE981139554036902E36AD475440361E6CB1DB815840ECA353573E633A40A5677A89B1EF50401B4AED45B4F948405704FF5BC95A3140E42D573F362D45405BB1BFEC9EAC4C40DC2E34D769CC3B40A86E2EFEB66B30403FC7478B339B58404D13B69F8C812D4064963D096C395140A88C7F9F71174E40B2D5E59480145640DA3C0E83F933274029EB3713D32C5140BB63B14D2A8A2840E700C11C3D7EF13FFF3D78EDD2EE4240E1D1C6116B035840B96FB54E5C723D408F8AFF3BA2144A40B9382A3751F94040EDF1423A3C5E4E406E4C4F58E26141404563EDEF6CF154408258367348065640C8091346B3022A408D9AAF928F9D3F400DA661F888244A408CA2073E06FF3D4034BBEEAD488554403B8908FF22024140E770ADF6B0A85740CC24EA059FCA414074B33F506EFB1840D9092FC1A91730401FBC7669C3D052406E1805C1E3495340276728EE78ED4140CEFE40B96D554740E5B33C0FEE0D514018963FDF16DA4C40C9552C7E53303C40BFD18E1B7EC054408B6B7C26FBB73D404A0D6D0036EE4340F5F57CCD725D5740AFB0E07EC053414048E17A14AE394340A6B8AAECBB045040AF44A0FA071D34406CB41CE8A10E284089CE328B506247405663096B630C0D40446B459BE31958402F1686C8E9DC51409206B7B585615440685DA3E5406F484029064834819C4F4094A3005130C148404CE2AC889A44434063B9A5D590D244403DF372D87D470A40D2FD9C82FCFC11404A09C1AA7AB12C40EACA67791E6A47409A249694BB52564076A911FA99E24F409D4CDC2A88934F4049490F43ABF55740F3052D2460FD5840ADC1FBAA5C68F53F39D1AE42CA8B3140124E0B5EF4251240313F3734652255402716F88A6EE5374028BB99D18F8639404A95287B4BCB4040CC0A45BA9F1B26405AD76839D0D2564083FA96395DA55740B2135E82532F2840842EE1D05B543D40BE840A0E2F581140A393A5D6FB253E4024ED461FF3D94B406138D730435B434029965B5A0DCD5240749B70AFCCCB55408B34F10EF0643F408448861C5BE55840EACBD24ECD795340B94F8E0244A93440477364E597B92340317BD976DAAE3540185FB4C70B5941404FE78A52425C5640EC8A19E1ED0350409755D80C7057414058FE7C5BB03C5140A304FD851E714140320400C79EAD15402FDFFAB0DE081740663387A416555640527DE7172544504088B9A46ABB0903404C8BFA2477C25440DFDE35E84B0747408E90813CBB8035404E7CB5A33887F03F94675E0EBB194A40CA367007EAAC4040679B1BD3137A3940946B0A64763C444012C2A38D232D5640904946CEC29242405AB9179815904C40EE5EEE93A38C404000ADF9F197DC4040A5A0DB4B1A1730406728EE7893A33840552FBFD3640A3D407D06D49B51773B4068CD8FBFB4C45540F583BA48A18C1340E2C96E66F4EB4A40901150E1084A4140A0FA07910C375640D4282499D533324087FBC8AD498A54402524D236FEFC4E400518963FDF755340D4298F6E84D749405E2D776682274E408907944DB9EA3C40A8E49CD843DD4C40016DAB5967164B406F29E78BBDDB434060B1868BDC531C407E39B35DA15F1B40BCCCB051D6C72040BAF770C97144584059FAD005F59930409198A0866F274F405F79909E224541407A8B87F71C584940D311C0CDE2734E40101FD8F15F5356402786E464E2BA5740F9D687F546C93340C9E369F981533E40E76F422102FA4F40C6A86BED7D464A40295FD042028A304035B39602D26627405AD6FD6321D0524066DB696B44D24B404CDE0033DF5C5740F698486936B258401EFCC401F43F3440B5E0455F41235140417FA1478CE04E4048A7AE7C96EE5240174850FC18AD4F40FCC8AD49B7E5364018EC866D8B9E464099620E828E545540E3512AE1093D4B40E17F2BD9B16D3F40CAA7C7B60C1E51402CF015DD7A105640E71725E82F7423407AA86DC3280956403CF9F4D8960D3C40E014562AA866514025E99AC937614840454772F90FA1404001FA7DFFE6215840B2632310AF3B2640E0DBF4673F2B53404A7B832F4C3A4D4066DB696B445E504078D503E62183314084B70721205051408E3A3AAE46FA3C40ADF71BEDB8992A403F19E3C3EC585340B9382A37516F3440C100C28712315740E7A90EB9190E3D40FA9CBB5D2F1D4B40A73FFB9122722C40AB7823F3C8EF4C408ACA863595C74540F31E679AB0415140E23B31EBC5065640F3AE7AC03CE24E40742843554C94514051BEA0850434504068791EDC9DAB51401D01DC2C5E2A48409A7CB3CD8D754F40068541994645444022382EE3A6260340384888F2053A504031444E5FCFED5440EA5E27F56569B33F7C992842EAB6F53FA62BD8463C4346403DD4B661141D5240095053CBD6C443401C28F04E3EA527402AC423F1F2504140D47E6B274ADE5140BBD408FD4CF3574036E84B6F7F204B40A5F78DAF3DAF3640D33252EFA9AC1440D4BA0D6ABF0F4C40093543AA285ED83FC899266C3F4949403B014D840D2F0E40630E828E56550C40548CF337A1365540E9995E622CBB3D40DD955D30B8B61E40E65AB4006DF545409FC893A46B235340999B6F44F7744E40A81E69705BFB2D401F10E84CDA5954401E8CD827804444405B272EC72B58534050FC1873D7C04440282CF180B2B75340F88DAF3DB324D03FF1BBE9961DA357408ECD8E54DF275540C0CFB870206C4F4088BEBB9525264040D6355A0EF40C5640AB08371955B556407AA69718CBB42440D1E638B7097B4F40450F7C0C56D447409F05A1BC8F49504022A64412BD615840DB1324B6BBF736409B20EA3E00D5504000E48409A3F34D40DB89929048A1414001A260C614143F4099D711876C8A444036AE7FD767