module {
  llvm.func @malloc(i64) -> !llvm.ptr
  llvm.mlir.global private constant @__constant_101xindex(dense<"0x00000000000000001000000000000000100000000000000025000000000000002500000000000000380000000000000038000000000000004900000000000000490000000000000061000000000000006100000000000000710000000000000071000000000000008000000000000000800000000000000094000000000000009400000000000000A700000000000000A700000000000000B700000000000000B700000000000000C900000000000000C900000000000000D700000000000000D700000000000000EC00000000000000EC00000000000000090100000000000009010000000000001E010000000000001E01000000000000330100000000000033010000000000004D010000000000004D010000000000005E010000000000005E01000000000000780100000000000078010000000000008C010000000000008C010000000000009E010000000000009E01000000000000B101000000000000B101000000000000C501000000000000C501000000000000D901000000000000D901000000000000E801000000000000E801000000000000FE01000000000000FE01000000000000160200000000000016020000000000002C020000000000002C020000000000003F020000000000003F020000000000005002000000000000500200000000000064020000000000006402000000000000770200000000000077020000000000008B020000000000008B02000000000000A002000000000000A002000000000000B602000000000000B602000000000000C202000000000000C202000000000000D802000000000000D802000000000000ED02000000000000ED020000000000000D030000000000000D030000000000001E030000000000001E030000000000002C030000000000002C03000000000000450300000000000045030000000000005C030000000000005C030000000000006B030000000000006B030000000000008303000000000000830300000000000097030000000000009703000000000000AD03000000000000AD03000000000000C103000000000000C103000000000000D103000000000000D103000000000000E703000000000000E703000000000000"> : tensor<101xindex>) {addr_space = 0 : i32, alignment = 64 : i64} : !llvm.array<101 x i64>
  llvm.mlir.global private constant @__constant_999xindex(dense<"0x0000000000000000040000000000000006000000000000000A000000000000000E0000000000000016000000000000001A0000000000000022000000000000002A000000000000002C000000000000003C00000000000000440000000000000048000000000000004A000000000000004E000000000000005800000000000000000000000000000004000000000000000C000000000000000E00000000000000160000000000000018000000000000001A000000000000001C000000000000003000000000000000340000000000000036000000000000003A0000000000000040000000000000004400000000000000460000000000000048000000000000004C00000000000000540000000000000058000000000000005C0000000000000060000000000000000E00000000000000120000000000000016000000000000001E0000000000000020000000000000002200000000000000240000000000000026000000000000002E00000000000000340000000000000036000000000000003A000000000000003C000000000000003E000000000000004E000000000000005200000000000000540000000000000060000000000000006200000000000000020000000000000008000000000000000C000000000000001400000000000000160000000000000018000000000000001C0000000000000026000000000000002A0000000000000034000000000000003C0000000000000048000000000000004A000000000000004E0000000000000058000000000000005C000000000000005E00000000000000040000000000000008000000000000000C000000000000001400000000000000160000000000000018000000000000001A0000000000000026000000000000002A000000000000002C000000000000002E00000000000000340000000000000036000000000000003A000000000000003C000000000000004400000000000000460000000000000048000000000000004A00000000000000500000000000000056000000000000005A000000000000006000000000000000620000000000000006000000000000000800000000000000160000000000000018000000000000001E00000000000000200000000000000026000000000000002A000000000000002C000000000000002E000000000000003A0000000000000040000000000000004A000000000000004E0000000000000054000000000000005800000000000000100000000000000012000000000000001E00000000000000260000000000000028000000000000002A000000000000002E00000000000000360000000000000038000000000000003C000000000000003E00000000000000440000000000000046000000000000004A000000000000005C00000000000000000000000000000002000000000000000E000000000000001800000000000000200000000000000026000000000000002A000000000000002C000000000000003000000000000000360000000000000038000000000000003C000000000000003E000000000000004000000000000000440000000000000048000000000000004E0000000000000054000000000000005600000000000000620000000000000006000000000000000A000000000000000C000000000000000E0000000000000010000000000000001A000000000000001C000000000000001E000000000000002600000000000000320000000000000034000000000000003E0000000000000044000000000000004C000000000000004E00000000000000500000000000000054000000000000005A000000000000005E0000000000000000000000000000000C00000000000000120000000000000014000000000000001C000000000000002000000000000000260000000000000028000000000000002E0000000000000032000000000000003A0000000000000044000000000000004600000000000000480000000000000056000000000000006200000000000000000000000000000002000000000000000C000000000000001000000000000000120000000000000016000000000000001C00000000000000240000000000000028000000000000002A000000000000002E00000000000000340000000000000036000000000000003A00000000000000420000000000000044000000000000005C000000000000005E00000000000000020000000000000004000000000000000E000000000000001A000000000000001E00000000000000260000000000000038000000000000003C000000000000004E00000000000000560000000000000058000000000000005A000000000000005E00000000000000600000000000000004000000000000000800000000000000100000000000000018000000000000002000000000000000240000000000000026000000000000002E0000000000000034000000000000003A000000000000004000000000000000420000000000000044000000000000004A000000000000004C000000000000004E0000000000000056000000000000005A000000000000005C000000000000005E000000000000006200000000000000020000000000000008000000000000000C00000000000000100000000000000012000000000000001400000000000000160000000000000018000000000000001E0000000000000020000000000000002200000000000000260000000000000028000000000000002A000000000000002C000000000000002E0000000000000032000000000000003A000000000000003C000000000000003E0000000000000042000000000000004400000000000000460000000000000048000000000000004C00000000000000520000000000000056000000000000005800000000000000600000000000000006000000000000000A000000000000000E0000000000000010000000000000001A000000000000001C00000000000000200000000000000022000000000000002400000000000000260000000000000028000000000000002E00000000000000360000000000000038000000000000003A000000000000003C000000000000003E000000000000004C0000000000000056000000000000005C000000000000005E00000000000000020000000000000008000000000000000A0000000000000016000000000000001A00000000000000220000000000000024000000000000002A000000000000002E0000000000000038000000000000003A000000000000003C000000000000003E0000000000000044000000000000004A000000000000004C00000000000000500000000000000052000000000000005C000000000000005E0000000000000062000000000000000200000000000000040000000000000006000000000000000A000000000000000C000000000000000E000000000000001000000000000000120000000000000014000000000000001E0000000000000028000000000000002C000000000000002E00000000000000300000000000000032000000000000003400000000000000360000000000000038000000000000003A000000000000003C000000000000004200000000000000440000000000000048000000000000004A000000000000004C000000000000005A00000000000000020000000000000004000000000000000A000000000000000E0000000000000012000000000000001E0000000000000020000000000000002C000000000000002E000000000000003A00000000000000440000000000000048000000000000004A000000000000004C000000000000005400000000000000600000000000000062000000000000000000000000000000020000000000000004000000000000000C000000000000000E000000000000001200000000000000140000000000000018000000000000001E000000000000002400000000000000260000000000000028000000000000003000000000000000360000000000000038000000000000003A00000000000000400000000000000042000000000000004400000000000000460000000000000048000000000000004C000000000000004E00000000000000500000000000000054000000000000005E000000000000000000000000000000020000000000000004000000000000000C0000000000000014000000000000001800000000000000200000000000000022000000000000002400000000000000260000000000000028000000000000002A000000000000002E000000000000003C0000000000000040000000000000005000000000000000540000000000000056000000000000005C00000000000000600000000000000000000000000000000A000000000000000E0000000000000012000000000000001A0000000000000026000000000000002A000000000000002C000000000000002E00000000000000300000000000000036000000000000003C00000000000000440000000000000046000000000000004E000000000000005A00000000000000600000000000000062000000000000000A000000000000000C000000000000001200000000000000140000000000000018000000000000001A000000000000001C000000000000001E000000000000002200000000000000240000000000000026000000000000002E00000000000000300000000000000036000000000000003A000000000000004000000000000000520000000000000056000000000000005A0000000000000000000000000000000C000000000000000E0000000000000010000000000000001200000000000000140000000000000016000000000000001A0000000000000024000000000000002A000000000000002C00000000000000300000000000000038000000000000003A000000000000003C0000000000000046000000000000004E00000000000000520000000000000056000000000000005A000000000000000A000000000000001200000000000000140000000000000016000000000000001A000000000000001E00000000000000240000000000000026000000000000002C000000000000002E00000000000000300000000000000036000000000000003A0000000000000048000000000000004E00000000000000500000000000000058000000000000005A000000000000005E00000000000000620000000000000002000000000000000C000000000000000E00000000000000140000000000000026000000000000002800000000000000320000000000000034000000000000003E0000000000000040000000000000004A000000000000004C000000000000004E000000000000005E00000000000000620000000000000008000000000000000C0000000000000014000000000000001E000000000000002400000000000000300000000000000032000000000000003400000000000000360000000000000038000000000000003E000000000000004200000000000000460000000000000048000000000000004A0000000000000052000000000000005400000000000000560000000000000058000000000000005A000000000000005C00000000000000620000000000000002000000000000000400000000000000100000000000000014000000000000001C000000000000002200000000000000240000000000000026000000000000002A00000000000000340000000000000038000000000000003A000000000000003C000000000000003E000000000000004000000000000000420000000000000048000000000000004C000000000000004E000000000000005000000000000000520000000000000058000000000000005C0000000000000060000000000000000400000000000000060000000000000008000000000000000C0000000000000012000000000000001C000000000000001E0000000000000028000000000000002C0000000000000032000000000000003A000000000000003E000000000000004000000000000000420000000000000048000000000000004E000000000000005000000000000000560000000000000058000000000000005A000000000000005E000000000000006200000000000000040000000000000006000000000000001000000000000000160000000000000018000000000000001E00000000000000200000000000000028000000000000002C000000000000002E00000000000000320000000000000036000000000000003A00000000000000400000000000000046000000000000004A000000000000004E000000000000005E0000000000000060000000000000000200000000000000040000000000000006000000000000000C000000000000001000000000000000140000000000000016000000000000001C00000000000000200000000000000022000000000000003200000000000000420000000000000048000000000000004E0000000000000058000000000000005E0000000000000062000000000000000C000000000000000E000000000000001200000000000000140000000000000016000000000000001A000000000000001C00000000000000220000000000000026000000000000002A00000000000000340000000000000036000000000000003A000000000000003E0000000000000040000000000000004400000000000000480000000000000050000000000000005600000000000000620000000000000000000000000000000200000000000000040000000000000006000000000000000C0000000000000014000000000000001E00000000000000220000000000000036000000000000003C00000000000000400000000000000044000000000000004E00000000000000540000000000000056000000000000005A000000000000005C000000000000005E00000000000000620000000000000004000000000000000A000000000000001000000000000000120000000000000016000000000000001A000000000000001C00000000000000220000000000000026000000000000002A000000000000002C00000000000000320000000000000038000000000000003A000000000000004200000000000000480000000000000056000000000000005A000000000000005C000000000000006000000000000000040000000000000008000000000000000A000000000000000C0000000000000016000000000000001C00000000000000240000000000000026000000000000002A000000000000002E0000000000000036000000000000003A0000000000000040000000000000004200000000000000440000000000000046000000000000004A000000000000005200000000000000540000000000000058000000000000005C000000000000000000000000000000060000000000000010000000000000001400000000000000160000000000000018000000000000001E0000000000000028000000000000002A000000000000002C000000000000002E000000000000003400000000000000360000000000000038000000000000003C0000000000000042000000000000004C000000000000004E000000000000005200000000000000540000000000000058000000000000005A000000000000001000000000000000120000000000000014000000000000001C00000000000000220000000000000028000000000000002A0000000000000032000000000000003E000000000000004E00000000000000500000000000000056000000000000000400000000000000060000000000000008000000000000000A000000000000000C00000000000000100000000000000016000000000000001C000000000000002200000000000000260000000000000028000000000000002A00000000000000300000000000000032000000000000003A00000000000000420000000000000044000000000000004C0000000000000056000000000000005A000000000000005E00000000000000600000000000000000000000000000000E0000000000000010000000000000001200000000000000140000000000000018000000000000001E00000000000000200000000000000022000000000000002600000000000000280000000000000034000000000000003800000000000000400000000000000042000000000000005000000000000000520000000000000056000000000000005A000000000000005E0000000000000060000000000000000000000000000000020000000000000004000000000000000A000000000000000E00000000000000100000000000000012000000000000001400000000000000160000000000000018000000000000001A000000000000001C0000000000000020000000000000002200000000000000240000000000000026000000000000002A000000000000002C000000000000002E00000000000000320000000000000038000000000000003C000000000000004200000000000000440000000000000048000000000000004E0000000000000050000000000000005200000000000000560000000000000058000000000000005E000000000000006000000000000000020000000000000018000000000000001C0000000000000020000000000000002200000000000000300000000000000032000000000000003400000000000000360000000000000044000000000000004E0000000000000050000000000000005400000000000000560000000000000058000000000000005C000000000000006000000000000000020000000000000008000000000000000A000000000000000E000000000000001A000000000000001C00000000000000300000000000000034000000000000003C0000000000000044000000000000004A000000000000004C000000000000004E000000000000005400000000000000060000000000000008000000000000000C000000000000000E0000000000000010000000000000001C00000000000000220000000000000024000000000000002A000000000000002C000000000000003000000000000000320000000000000034000000000000003A000000000000003C000000000000004200000000000000440000000000000046000000000000004C000000000000004E00000000000000520000000000000058000000000000005C0000000000000060000000000000006200000000000000000000000000000006000000000000000A000000000000000E00000000000000140000000000000016000000000000001C000000000000001E00000000000000220000000000000026000000000000002E00000000000000340000000000000038000000000000003C0000000000000048000000000000004A000000000000004C00000000000000520000000000000054000000000000005C000000000000005E0000000000000060000000000000006200000000000000020000000000000004000000000000000E000000000000001A000000000000001C00000000000000240000000000000028000000000000002E000000000000003A000000000000005000000000000000540000000000000056000000000000005A000000000000005C0000000000000060000000000000000A000000000000001000000000000000160000000000000018000000000000001A000000000000001E0000000000000024000000000000002A000000000000002C000000000000002E000000000000003000000000000000360000000000000038000000000000003A000000000000003C000000000000003E00000000000000400000000000000042000000000000004A000000000000004C00000000000000520000000000000056000000000000005E00000000000000600000000000000012000000000000001A0000000000000020000000000000002200000000000000240000000000000028000000000000002A000000000000002C000000000000002E00000000000000300000000000000032000000000000003400000000000000460000000000000048000000000000004E00000000000000540000000000000056000000000000005A00000000000000600000000000000062000000000000000A000000000000000C000000000000000E000000000000001600000000000000180000000000000028000000000000002C000000000000002E000000000000003000000000000000320000000000000034000000000000003A000000000000003C00000000000000420000000000000044000000000000005200000000000000540000000000000058000000000000005A000000000000005C000000000000005E00000000000000600000000000000000000000000000000200000000000000040000000000000008000000000000000E000000000000001000000000000000160000000000000018000000000000001A000000000000001E000000000000002200000000000000280000000000000036000000000000003E0000000000000046000000000000004C000000000000005000000000000000520000000000000054000000000000005A00000000000000000000000000000008000000000000000C0000000000000014000000000000001600000000000000180000000000000026000000000000002C000000000000002E0000000000000030000000000000003800000000000000400000000000000042000000000000004A000000000000004E000000000000005E00000000000000040000000000000008000000000000000C000000000000000E00000000000000100000000000000016000000000000001C0000000000000020000000000000002200000000000000240000000000000028000000000000002C00000000000000300000000000000032000000000000003600000000000000460000000000000048000000000000004C000000000000005000000000000000520000000000000056000000000000005C00000000000000"> : tensor<999xindex>) {addr_space = 0 : i32, alignment = 64 : i64} : !llvm.array<999 x i64>
  llvm.mlir.global private constant @__constant_999xf64(dense<1.000000e+00> : tensor<999xf64>) {addr_space = 0 : i32, alignment = 64 : i64} : !llvm.array<999 x f64>
  llvm.mlir.global private constant @__constant_100x100xf64(dense<"0x5C53ED39D516D83FC69B4DA558ABE03F13045418BE4CE93F00C2D29183E0DB3F3A4A54813C95EF3F70E614B46AA2BE3FE87E823EBBD8CF3F44DC879250EFC93FB08B1BFBD044D13F297D2C7AB33FE73F7C25E82C558FEE3F500A3BC4FF89B13F68725C97FEEDBB3FAE907C421D3BD53F34C32998102BDB3F933A66263F41ED3F1ACBBC860A06DE3F11F2629D7A3AE53F78C2FA0C50F1D83F7E98CA2BF582E13F82979BF8E8DEE73FFC1BFB0E1B67CF3FD03E6742F0C3C33FF46EA5F562FBD53F41C60FD2DF63E53F086122233FB4CF3FCC46EC55157AEC3FD4DAD1E3B754E13F22312E8CB335E53F88CC7017BDFCC63FE8AF081C8D1EC23F0269453D5389E73F4A02425C50B9EE3F40BDFA0BF757A03F5CE917F5481CD53F41FD43CAA7A7EC3F5D5D82E0FF2DEB3FDC01545BDC87D03FEF34FD3EBD36E13FC386EFD32454ED3F471E8BEF3492E83F383298EB2E21C43FDC9335523C19CC3F0040CCF7EB1A2E3F0CCE401C7F9FCF3FCE68DEA7F589EC3FF930C307EF9AED3F51A58932DAD5EC3FAC3F3AA5BE46C13FA42D066E1FD0EA3F382D890959DDDB3FC4A6C784D0A0CC3F25A773E45B88E13FCB683DAD0AE1EF3FBABDEB7CA0B7DD3FA6C3C69FDD8EE63FCBF1C7A07E33E23F34230BE6E8AACF3F94992305B6F6D73F443EEF3A62EDC23F36534490137EE83FB8D594A73536D03F50BF1F153572AB3F10FB3DBAE0F0C23F60E2563E18389E3F8404B5DE68A3C93F109972744CB5A93F80C5704FD992863FCDAAD35A8012EC3FFC15F64A111CE03FC839FAFF01EFC23F009B760E9EEF9F3FF5428F09D304E03F280ACB51EB57DD3F4FA177F15470EC3F40EB1CE18DA5C83F89DCDE1F9437E43FC083A67C40D2B73F8244C64DD2CCD63FEA8FBD92BA78DC3F0E747807E955ED3F9C97510422EEE93FB0CA1989A87BAC3F5E541EC39CD8DC3F1CDE1A4C7841ED3FD404078D9A22C83FC477811F4FA6C73F7870BD285819B33F2517ED8D98DDE93F642D47FAB14ACB3FD1B027C78503E53F23EE33F92638ED3FA4E8AF4479BBCC3FD04B290CDA68D33FA7032A1FFFBCEF3FD8C7202B96F8DE3F8059AACF93C9983F90B0760901D8C33FAF43097CE383E93F4E7112A31088EE3F494E3AD76AB4E03F78EFDC650364D63F193930C73B6CE93F059CBE025680EC3F62749725211AE53FD5DFBC4EFBE6E23F10A96E9CE48FE73F2832C71D85EEE23F6CE5607F5315E43F80035889710FC13FB44A90C0EC58D93FB0B609B7F410BE3F90B4EC0EF37DC03F1650DFD10CD0D13FEEF555B2C7D5D03F2DC148B42401EB3F4874C21F0B51EA3F28684EEFD26FD23F33136BF452E8EF3F34A63EF1FFA5CB3F0F0B1E144E19ED3F1B8E35B99A38E23F5002E8F42FF2A93FFE1582ED0635DA3FA09C1C5A2B95CF3F86DB0172E547EB3FD46347E0245EEA3F54F03649945BE63FA0A7650C5E9EAF3F187B5D0895A4EE3F5001D2117AA5BE3FAAAE52FFDD7DE23F58E2EB034C3EDF3F8E0D5364172CD33FD0058E677F32A83F903C05CAF38FD03F54CCC537C4E8EF3FB4802A461121D53FF1B1A6D7D75EEA3F183FFA0A3A46E13F100BEF4A730DBA3FE0F964FA76B3A23FF4B6C446C793ED3F50A4C6328D95D43FB009A42120ABD93F20CC9B7CABE6D83F9CED8CEBE82BD83F8899B216A878DF3F40799D19295CC43F94DF677E4ED6C13F6AAD6FBDB8D7D73F3687F4DDD249DF3F58BFC76F37B3BA3FF07FA9DD9C4ED53F7EC2B8105EF9D33FDCC8DB1ABDBBD73FD4BC270623B6DF3FECF033E85BC7E33F7424DC1E7C8BCE3F3B9A4220F474E93F823B76C2983BD83FDFC2E19D0C19E83FC0325E2CC23AB33FCAC1A59FD920D03F8B752678B662E83FD0F46376B051A53FB7EA0CA60FF1EC3F989C8F99306AC83F4AFD0A1C5091DD3F30BC95EB6790BD3FE544914C3105E83F989D6EA41201E03F10BFC3F951A1BA3FA09F5C6E8814E23F1C2D960FDE5AED3F4E0B3DAA0A94E43F37464A37C419E93FCC674C244F57EB3FB043B0B1C9FDCC3F124A99586C1DDA3F94A2A1CC2C1ACE3FFB9331675B5EE33F7C4D4319ED21D33F97FFD35B5BBEEC3F4013C7EAFD46BC3F38F1B1B24C0DE83F808B077983D0BB3F74E1A67FA796C93FDBDBF9463EE8E43FA0E6B45C8FC4B03F84B6D33A6E64E83F0D994AD703E7E93F35A0B85B6AF1E73F412237B094E7E33FD492C140ED4DEC3F9FE41EFAAD2BE83F6890E33ED948D23F6B7E949AD9E1E33FF04DC4399A44EA3F507B074B9B75E43F8807235C6346C43F1E4803F065CEE33F8CC8A4F013A1D63F61C797C023DBE33FC89CF40BD783C53F561404EAF47BE63F8C43135D3226D03FE4159999D0A7D43FEE76EA8C29EDD53F6630BDDF987CED3F4AE947C88843ED3F0503300C7F8CE03F9F63434FAEBAE73F88B12CC07A9CB83F061E4B1CE7BEEB3F00C8FCF4FCA4483FC0E978C4839A973FB63EE71BAB34EC3F1639DB1948CEEC3F0452F40B7475E53FF5CC4D0EF189EC3F6F7329C9CBD8E93F0708412127C4EB3FB02283C093F7E43F5DC558C90126E53F401F99E1EB9EE43FEEC600A8B728D13F6D8B9E51B776EC3F5C428918F3DBC93FF66BB6338A19ED3FF05CF75C75D4ED3FB8A88F47927BD53F22E11048099CD93F480535ED14DFC73F11434ADA67A3E23F668A07279854D73FC05E94570D6EA83F77984ACA22A2E43F976EA94EF798ED3F5F42FF03FF7CEC3F14ECF185B14CEC3F747F9425D90FC23FABBFB3937FE3ED3F776523D27BFBE33FEC1CB7695E07EC3F7A9BBA9114BAD23F7ABB7B7E1369DB3F03B33FB67A2FE33F5C48F3B37A26CC3F7193BB09AAFFE73F4A1495721060EC3FDB2190812287EB3F93AA583CB38BEB3FFD4D6DA66770E03FB24E02900505DA3FC5F492DEF628E53F93A7CA8450C9E43F40ABCE6F55AFC13F78D3E0986117C23FE88A9D9824F1DA3FE24312DC0A56EB3FDEF1CFD75E13E93F34BC40567862D43FCB2DADC50417E33F60DAD9C403BCCC3F7B4D1AB400F5EC3F5BB632E91EBEE83FB596BD829574E23F98B7AECBF7ACD43F6A57EEA99BE4EA3F508193D733F5D33F320577601348DA3F806F2A7128138D3FF099BD20CC33B73F42225EF657D9E23F6838A0A43779DF3F08BCF3ABA172C43F16BE3FE27214E93F70F0A14CDBB0E23F2617BCA0520FE53F2A5CD3301D88E33F84FA38116016E93FA833891CE4E5E83F2D66C836D87FEF3FF851F0E54A0AB63F7A501DA3E202D53FA835ACC08FB7C63FDEBF0D070A81E03FDC9753E0D507D43F5E741AB96BCDD83FC094635F2DA2813FF65F30E6D09AD23FB41C1E8A8541C53F902F5FC1611AE03F332450265AB0E13FF04B2E9116F0B03F18541156E945EB3F56D0B54CF9D2E63F295540617311EF3F48D479196459EE3FD18F4F203F58E83FF51EC6379AD7EC3FB06D2A7E6A35B53FF0B7C6EE1AB1BC3F57E170AD0C25EA3FA830F334F844C83F48E0CF4D7C09D73F01D6FB720A1BE83F62447525DDE0EF3F46F7813F5646D13FA056AC474A93923FC2FDF7427EABEE3FD432FB62964FDB3FE0F12E94C0D1DC3FF14D758BCA2AE03F348871C50D22D33F023A521DCFB3D03FF9D17E705CFBE73F6ADA3AC9C499E13F04942E7E9941C03F1890C7FAFBFAD03F608EB1217131D03F606DAD01E5F8BC3F17729AA1986BE33F8E6873B560B8E23F7200CF753C20E53FCE332EA6B32FE63F17D35C525E8DEB3F544BBC75CECEDF3F5CDCB8B8308EE53FC0595E6501DDE53FB02DFDD3E2ACC43FA29B69F7D8D9E13F926ECFAB5BF9D33F8D5EC1502029EC3F6842A399B793E83FC8392450EEE7B93F3C35C9E99B61D03F307CFEFAE6E7B93F5B447C4857FBE93FD23ABA38C3ABE43F2E5ED1433A97D93F505DBE49B094B53FAA0CD65B0FC7D83FC7E807AC6892EC3F15C639FD330AE13FC3A81F5201DFEB3F297E4D3A7AF4EB3F5F9990E77F1AE83F8055F75454CF943F306A45F55F3DEA3FF21A1780C67ED13F758E3C1C4592E53FEE12CA1F6C15EB3F992D27225878E23F375CBBC1B5D9E73F2268D8533CAED93F90E884032A13D03F5CFFE4A0413DD33F084E7A3B9D2BE63FDC8CF3DF99A0D03FA62B15BC1DCDE13F94A177FF0FB5D03F30FFBDCED3A7C73F284213F5378DBC3FE00A0FA288CF923FE6F4913FF23DE63F029997244BDBE93FAF69DE2DB911E03F44A5FFFC3EBDC83FFE0DBB681C1EEF3F18DB2F0DE761C43F58654D4CF802B63F38C2E4D498CBD73F12E0C8CC2216DB3F539AAE973FB2E13FDC019AEA6864C33F704937922683DE3F6FC6A31792DFE43F4019B114F58DB43F2AD0F5A7FC6FE93FF4FD3F6418DDC63F2CD363F5B471C53F35F9C26CC237E13F16ABBFF74E31DA3FE0CF8F729512933FE798BCB59646EE3F00047875ACFEBD3F30690D5F54A1B93F44EA99FECCADCD3F5FE4008591E7E63F6C0B61C5E62ED53F90F7BFAA3AFACA3FF32DC434C78BE53F90E502A345BAEF3F6627B547E2C8D23FFE638C32615AE63F7CD5FF6A601FCD3F742CC67E62CFC93F8000B2FE302F783F501EB0F49671CC3F0D7EEE071835E63F39C23D141E73E73F645030832756E53F4CB66F326DCFCA3F86FAF3FCBDD6D03F4010F13A1E04943F88045888C7FFCF3F4549E097B1CEE53F8350487099ACE83F7D564A72C440E43F72BD7AC96240E83FFEEE6B5E3F9AE03F57A33770F155ED3FECD2887432DFCC3F3D3902929D24E03F9082EB266F01E23F91F29E4AD694E33FDEFAB793E425D93F83C7E7ECF5ACEA3FA80F0B270460B63F796B8A0F8035E43F52147F489261DE3FA4A0D289D4CECA3FD8209813F9EBE33FE5609AA82ED0E63F158FA57537C9E43FDE7A1713520DE33FCECCFCCBDAC8E53F98D041CA1B13B73F1CD0649B7C35D53F5A8972590DA9DA3F159FBE555891E33FC8CA15C9210FB93F867E57ED76D3E63F9A9115BE9A99E03F2C6C91BEAEB4C13F1F2F67702BDCED3F4E8D1EB36262E63F32E1A18B7C65D83F8568E5A98B40E63F24249694F9A3EC3F55D9EB4E1F22EC3FA974443E6E87E93F0087D4C685A7BD3F98E2AFE06004DF3FA2C731A5A352EF3F8A8FEE53C58AE33F642218425CDADF3F049531617C50DB3F8F0A12478344E33F60B397B2675EA33F2AC8B83B91A6DB3F597E2D092812EF3FE8FADDE32078BF3F7EE9E59B77CDE03FC0FABFC582778B3F0AC19E8A1F9BDC3F4C5D5800E34BD33FCA8C6734829CE43F976DD683C6EFEC3F00E2470E4EF1653FE5D1B0083635EC3F7578B021E888E63FA5C8D38DA0CEEB3FB8BE9805C2C1D63F64D4F6359D0ADA3FF0D8D6A1A7B1BC3FE0E0299A51DB953F771F2A1D18C5E93FB95C752C6027E03FC055505D8A82E43F484CC7F3A1EBE13F400D86028505853FFCEADD9F23F2DC3F00EAFFABFA46DD3FD64C4A4E8EB1EB3F7AD48C495785E83F50A3F15D27F2A53F4EE9D29DCDDEE13FE2A920BEB427E23FD00ED37CD798DE3FE48B5D5A69D1C93FA2C0555E89C7DF3F487270ABBBEBDE3FE0E2293CBE89D33F7BCE9A71EC9CE73FA324592A7FCBE43FEC5D014CA4DAD53FD1793A9E44EFE03F0F60E84453B3ED3FECF4F669DEA3DD3FF784673CDEA1E63F1F75232DE3C4E83F831769FB35A3E03F389ADB51C8D5B93FA2B96D911896EE3F23EBEE1F04B1E93FB0C691D296D2A93FC7078D2BDAF8EF3FB8C2A32AC32AD63F91922E99B178EA3F9C710574DABFCB3F18F941B79BC7E43FA8375047D9F1EB3F8A36B16C1DFCD73F4E0FF2FE3304E63F8ABC957E46C5D23F50ECD17E6511AD3FE4F4A29393A4E43FF5D968078B68E13F274170671FEFEE3F5AB5257585FDD93F09A244F0AA70E33FF79853B82A0CE23F62C6320C35E0DC3F865DB91C8516E63F0022A67709065D3F725CC9BCB815DA3FA0EB2850DD3C983F10C29F3B204FC23F049B3E8F283ED63F5093EC128CC0B43F742F9B8552D5C83F4BB835E3B29EE83F511BC0AF2A37E63F6CA32CF0089AD83FC15AB8257546E63F0C184410D07EC83F7DAFF5551FD6E23FD6BE996330C3E03FDE1499F16530EC3FA2B70FF0981BD93F223EBC1EE224E93F004FEFDB8760CC3FA76988CEF5B1ED3FF03C9552C449B73F3E337262F653EB3FEAC2A5ED8251D23FB88F0A775CD1B63F1452DB063D67C63FD8D63DE6F970EF3F3BE326F165D0ED3F840055023126E43F08E75B3C02FEDE3F08437B0E6F3DCF3FA8EB0038413CB83F04156650E27BC73F5EE70C824762D83F22A1B3060FBADA3F8056517D1AEB8E3FCAF8C3F0B649E73F641477DF8126D43F38B92D2A13BED23FA61EDFF03134E63F339FBBADA74BE53FA49632101F58E33FC812A03D4B53ED3FE4A0045AB7FCE03FF51BEDE4121DE03F807E926796DCB63F46D24C418805D33F6A4F5FC96B41E93F822C220E451BE93FF47C3C7C2AD6EA3FE43D52752608E63F9FD6AAED621BE03FEE6768FB9C5BE53F50194EF11C9CB53FE35A0A38891CE63F887DE493591BCF3FE7852B4B0794E13FA0972398DF24C13FE0AC700C9E94AE3FB0100FFD03B3A63F2482DFD2B1F3CC3F8E251EE2DAB3E53F924BCFD18DD6DB3F451D365BCE05E23F31CC75AD24F6EC3F80FEC9709EEC7C3F572125E57E18EA3F809C508ADA37A23F31466FAF05ECEA3F7200EA6C90B7EF3FA02E54EB33E0A73F274E08F263EFEB3FCBAED59671CAE83F7C74CABB0CA2C63FBF9A419C8E6EEA3F40DD4523DF26ED3F3202B01C7A99E53F5B2FC1E4D7B2EE3FAD86B63D04A4E93FC0AEA0D83840883F8824231AA478D23F102B20F8577EA63FC0BA82C5CC87C83F2C684317FA5EC43F0046C8CE85F5EE3FEB8B8884B166E93FDA8384E19F92E13FF53F0B5B400DEB3F46D2D7B01E46EA3F29A85E20B459E83F8AF1638E1AC6EB3FD2397BFEF127D83F14930CCB1ECFCC3F44E470BA909DC03F7B659D33B9E9E23F882CB58A1DEDB63FC413216A8E7ACB3F91F5B1EEFD6EEB3F7A9F419595CADF3F2B8D82D83547EA3FC00E3CEA6D66953F135CB00740A7EC3FF05CA50A8C70BF3F3FE41673533CE73F02CB0D4C179BEA3FC6FB3F575F50E03FE07AECAEED1EC33FFACCC50B636DE03FC999C0CB1836E93FEEE135CF414BEB3F4F5B40872067E43F84B9C4A0B464C43FA4707B4226EBD53F3E5E97630BB6ED3F263D30F76CC5E33F7D21F075B126EA3F0E9CC6F6620DDD3FE093D9F4DEB8E83F8D137568D1DAE43F274A81A752BAEF3F82D612993048D83F0BB4246FE926E93F4AE74E66DC29EF3F9525B80DA532EE3F48D9BE34B674E43F952E77FD35C9EC3FE6F3B1323A4FD43F6B2DF42F5A4FE93F487F3FB655E0EF3F861701B901D9DD3F9CB34FA9E2E8E43F64EE5CBC48AEED3F653C15C9A0BBEE3F2880447A3850EB3F7DE3EA77C9CBE13FD6ACDF1A022DDC3F686BABC47ED8E13F6DC8FF010F00E93F46B1292B7CBCE73FC0649AE48CEBCC3FC84A505E031BBC3F4A781DA3B2F7EC3F6C19BA1D1AA4E73FC29178122FD4DE3FE39095EE1F5AE43F4A43305D4B76EE3FF8BCCF74C845E53F30BC2D4F5549C83FC9CB4FB3D07EE13F7FBF8508D16AE53F905C03791DECC63F7B2BCBD2E2F0E53F46D4E8681528E53F68898302023EBA3F7A1C7FCAB56FE53FFAF4CFE119D8D33F6007CF9C291B9D3FB4FDBAB4F396C23F081A162062F2B23FEAA09E4BA8B8DF3F12A74C0A86E5EB3F2C7A4333D7A4C23F8E2F1429429ADD3F280E25EFCC8CCE3FA0B2BC4491279D3F2E162A399594E13F2ACEF8CB2242D13F20EF55B372D5B13F0DE652BF273BE33F180E88F22409D93F10CE28EAA65DD93FA075E0F126FD923FC81B49F4FDDDE13F68F804E42FC0BE3F541F06DFFBFCE43F405107A83DA8D53F9C633916525BEC3FE8B49958F9C7C43FD3D8D16B53ABE13F206CB6AE9A79A93FAE3F878DE1F9ED3F40A4CFC9A3EBDC3F90D585373E23A83FD584F7239A83E73F96AAE315A7A5DC3F263042A3DA21D13FAD681F53077BEF3F90F2F31F4155BB3F804E2804D9B0743F6A7C1313CE95E83F84C6B2CA1E18CE3FF4EA42714742CE3F06D78B23A9C9EA3F3244D6A24C7AE93F92CDC6050B21D63F7EC3F795B801D53F0ADF77A9E409DF3FDC9BEA2D8B7ADC3FB144DD4727A8E63F3A5499C58557DF3F315F3B5AE036E63FEAE7D13CB1A9D33FF41F15199252D63F36E78E29EA0FDD3FE6D5B89DC505DF3F64B24922E8D9DF3F926C71058072DE3F944A0D770BB4D93F03755D091319EF3FBB1EA91AA73FEA3F7A2B2401534CE93F32B8876BC3A3D83F90935565E73DD63FA47D257F0634DF3F787CF619FA9ED33F320B01E52E3AD73FA68F52270631EA3FEA8D6898A797D03F002DB7D0AAC0AC3FD0643B7F3F4AB03F14DAA869C641E63F35729115A981E63F2401265129A0D33F136A74F2257EEC3F29F529F0B48DEF3F2AD389D18081E73F10E079850D39ED3F541C64AB6B3DEF3F4386C2395C4AEB3FF44A897739C9C83F7EA808EEDA65D73FAC32D36CF54AC23F606F002B4055BB3F2B4A82DFD92BE33F38974C965F76B83F128388D697C5E73F17A6D4546ACFEE3F989D8771D4ECB63FFAC727E00B7DD23F7B51E6812150E13F0C3CAE269B94C23FA3614C41FF9EEC3FCA0BC0879BC4E93F1845B04DA960D03F38B0C11D8EE7DC3F8280B2F4094EEA3F109EAE181DD6CC3F90A6C18D0855ED3F58A4E363EF14C93F2B258B856260EE3F87BB09E6FFA5EE3F7CDEEB5F1D80ED3F6C7CF94EF1FCDE3F10F6F071A375AD3F90F944C4C7BBA73F4423DB894334C13F7037880E0480EB3F46A949A12CCFDC3F76C500140A10D13F72A8280C0136DC3F6EA3C675B0ABDC3FA737141882DEEC3FB28D95E7332FE23F5867C6B1BFAED03F70BD61F73C8ACC3FA02B1B0EECE5AB3FFB803E119673EC3FA86353D460F2BE3F54176E229CFBE13F4839A710F22FC53FFC4995E4E9E5E83F37A0D43B2124E03F29F86F7A238FE83F881C46E59F82EB3F07AEAB8FEADEE53F1301661A3C61E13FFA381392F8CFEB3F8ADFBDE2DDF4EE3FCEE0B8071636D83FB1E96F2732EBE53F10D8EE499F25E13FC0902C2E8BE3E53F92AB5CDBC4B5E33FD6ED8ADA56BDD23F7CB02CCF7BEDD23F1C0114493698ED3FD661771A984DD03F5E9CFDCFD73CDA3FC8A7168BB84DC93F56F844F5E7DEEB3F1480D59770C8C63F7316E5BB3233E53F421FEDBEAA6CD23F582417F896DDDA3F801CC5F90A5C853FF4B7B8CD058BE83F23D2E9D69E71E93FC24905AA790AED3FA16464CFE31CE83F44E625B1A3A1E33F1D7AAFF304E4E43F6833AF0E945BC13FBCEBBB1E9503EE3FC0A3FF8A198AEA3F74865EB4DC16E63F53562D796149E13F68028F25E0D5EE3FF495E7CFBE16C93F6AD0264DD676E23FCC471B448885C33F42F0C0BD7109E43F9053045E90A3DD3F1091B62360F6CC3FD846F9ACE350B23F3EAB9464B37CD83F94627273E9EEC33F16B6F7BCAF4DDA3F3E42D2E04D15E53F384D94179CA6B03F1E841B2B6C95EE3FCCDEF4429B70D03F8A52826E3825E23F0E3A9E90423EDE3FB0DC8A04D795ED3F00411677D727A53F9672E2C45100D93FFF73831655B4EA3F3C5E8D9F5C7ACC3F94A9126DC6B4E23F20EADB4E8D1FC63F8A73FAD3ED40D73F82248E64C996E33FF04602E9EDA6C73F50DC82D40438A43F5A01DA7BB48CDA3FD0B5A288489AB33FC07D68E3B528E73FF0B857A3E951B93FF8CEE0F60D15BD3FA1E2E1835635E03F5D26BB720038E13F68216148F41DD73FD0BE65C37934C53FBD745AC8553BE23FC06F50589B58863F481765C27D9ACC3F70D863231704BF3F34894568E973D63F84A17678437EC23F905549DAC344EA3F9AC2F319396FDB3F9FBFC63A43ACE83F3ECCD8A79C0AD63FE89CC1662AEDDC3FE686B2F8D07BE23FE62681313A07D03FD6D29A1BE0D5E53F555B9E391BCDED3F6C642CF9C569E53F70BC787F6D7CB13FC407AF7C14D2D73FB09DB4E6E593BC3F60C0F1E2DE3EE13F8A80853B7B6BDC3F48A495AEE833D83F41924FC0C24EE93F22C1D7C9812BE43F1AABC2701D00DF3F0C2D2D46735DC13F7C77E6A03778E33F74033AFC81D2C23F203D426A341DA33FB7FE31D88305EA3FCAB8C5D849E8E43F7067EA7405F4B03F5D6724CBCFA2E73F80519018498ECD3F5873D19C09AACD3FF0D66DC346EDC23F44146CEF438FC53F9B68BC178659EA3F158AE9D0C2F3E73FEC063241611AC13FA0593B3D0832DA3F709E23A7F765B93FC4507427D654D43F0FD4A6489F71E13F040F6ADE2BFEDF3F0BA5063E8E45EE3FBC60801AE3CED73FD8965C87E239CE3F554442076FDEEC3F008996FE6CFA883F3199BC50BB82E33FA98D6B97B9CAE33F66829A10B3DADC3FD4E6F015DED7E53F9C0BF9B11EBFC53F5E2209F77491E53F9D59752FE486EC3FFC13BE910AAAE33F2C69EB096302EF3FF4D5F739AD6FED3F95D5E94B025CE53F2076A4338196EC3F2BA90DCDE7D5EF3F98AE208B7FE4CC3F3829311C7B24B03F6885E96A29EBDC3FD4EE5A537899E53F8443D71C77ABC73F43A8A2180707E43F67193CE03890E83F38581EC52B91E93F7A67947A012BE73FC5716A08CD13E53FC7FA07C4A824E33FFED0B2B4A987ED3F6A7DEFE1C08BE83F364D8ECBF775D13FDDB96F2C96A3E03F64FCCDB25338CD3F007A33CB9B8C913F0012241425C0963FBC9A8CCA3E89C73F18B9EEA1547ECA3FDD5132DB9770EA3F008BE423B8C3E73FD0F7BF1BE321B83F9923EB52A1E3EA3F7856D18F96AED93FFA7837C1B16CE43FC9EEB7FFA083EE3F80E45A25AC95DF3F900A629DED5ECD3F345611AEC41EE23FFCC5EBF7812CDA3F4B314A85DDFDEA3FD0EB8F3DE613DE3FF84390013BFAC83FAA07D11DB0AEE53F0381DC3B2AB9EA3F1DD40C768862EB3FDE8D6A100B57EF3FE0F6A0D0D85DAA3F7AF9D9368752DA3FF0461ECEA1B8DC3F3C92F438EC36DB3FF89CF2AC5BF8DF3F6645D4C66095DF3FC01C99BB58D4E53F8A9A0ACF317BD93F32967B74F26DEE3F8C30F58F7805C63FC65C76555D3CD83F5F1709971233ED3F88B4B66D6464D13F0E9248894462D43F002C8DEF09F4573F0C7840D7F77AD83F08D302982835EB3F281C6D0B524CB73FECF472507123E63FE2A72DEE871BE93F194F844D322EE03F382DD51BDF94E43FF40C82245B1CD03F664ACBAE275FDD3F5E5EBB0B5402D73F5FDCED0E0EAFE63F40157596F94ECD3FFCE3A70FD173D13F303009343DBFD43F3DB9BBAD56F8ED3F4891AA4813B0DC3FC09F97FC0AFDA13FDF92B33B6441E43F70731C02BF0EAC3FB9E25AE4EA2FE53F1D64D5D1F2F2E83F847764BBDD93D93FACF4454A15B7CA3FC401D7F13931CC3F5218ED3A8C7DD13F9BBDB9B8CF49E23F2AEA8FD854FCD03FFBBDDD9EFBD0E43F03F203BAA093E53FF7554B016E46E63F19646303C8E7E13F429A6BAE2852E33FF83432B28934DE3F40E44839F57BC93FA8C06B597AE2D33FCCDAC7878789D63F62C1F98778ABED3F60886B884874E83FA08EE60BC66BD73F7459780F07DAEC3F210764FB76D7EE3F902152D05EDFB13F9A5E3E14FBA9E73F52920FCED713D43FC88D21D47725E43F9DD310EC3CD9E53F8E7B3A813D4EDE3F8011D87205A9713F4061DC9257ED843F6FBF394A12C1E33FB4F0841892CBC53F689BB3E6B522B83FC8505FF55904D03F80B1D4D1E4F7A23F8E8227C0EC69E73FDC24EC950109D83FBD9D190FBEBDE03F12DD74C8AB93E83F381BE3074541B23F7C6399745913E63F7EE5AE368D87D33FC0657AFDEF8F993F066497E12BF3E23F7042C26F26F2AD3F30D43938C619A13F1A6189A83BC1D83FB186AE940FDDEA3F9C8E814AD55DDB3F5F5A0C314A81E63FB5C810FFC239E13F8DF11DA9D5E5E23F9F484ED16121EA3FC4A996EF72FFEB3F20FB31E54D569F3FD8C7827D0A87D83FD865DBA65F04E33F58EDF17F942AC23F0018E298CE54A23F649B8520DE46D63FE469B025F0C6C13F2014E1BA57EDB43FAAA8A5FA17D5D53FEA345410C4B2D73FAC0E94DFCBA0E03FF0E17E91D169B63F2047FA09D72EB53F3F6EC1A637F3E23F724D1B90960FDC3F7C67427485D4EB3FD634924A4A54E33F2073795F6A90DA3F00612A3AF986E73FD0C64C64321BC43FFEAB999052E6E93FDF8D7B836251ED3F9012FA647D8DA33F32C50746C1DFDE3F8C72991F2FFACB3FD8F1516D47E3DD3F5AC0D158290ED23FE4643CEB63B2CF3F61AFED7E2773E63F2E0E6FAC5D56EC3FAF1966FB4DC9E93F6121A22063CDE93F3E32D53F06D4E63F3E5E0981708ADE3FECD368840B1BE13F5EE49E466A89E23F4FD8AF322F7AEE3F80AE5B79411ACA3F70BDA4C83B0EB23FE5A4E8400F20EF3FC8EAD014FB6CD73F3FDF8CA3A561EB3F1CA03FD6F495CA3F0C5C6AE4F733C63F78DFE9C202F4BC3FEB2C08D42D11EC3F846AD59CD3CEC63F594C733B7094EA3F5B15EA461B02E83F07D8136B3595E93FC551C90EFD41EC3F2C25002D3092D83F0DACEEB5D331EB3FDDC4C11FA3A6E43F82F3E9DB2CBCD13F305C6B569094B63F607EEF8F2933A83F468850E5261BEE3F01AD9D16572DE33F2E1CEB7F7A07EE3F1819F271CBEEC83FBCEF2F6A00D1C43FE79BA17200C4E03FDFF415FB8F0FEF3FE8C23B9C9BBAE83F1055319AD5B4BA3F00325458E1CAE73F238BB789C9A0E33F726DB38895CEDD3FC154DB6E0608ED3F25B39E3D6B87EF3F1C688201A0D5EA3F2255B90C09E4D03F3A64A5F9E55CD93F846A3E41E1AAC73F6828335CEC3AB63F84A502B6B88DD33F4CD2DD88BDBEC03F6683FCAFD7ECD23FE46CE080D6B2EB3F6114F88C49AEE83F80EA1A4E0484833FC030F9784877CD3F0034B9E2C83CC63FA23EBCB86B1FE53F44B521624BE7E83F74C39E8717D0E73F141836BDBB05D33F1C06013259E9E73F40EE3A111C35873F33D79EF45D48EC3FB6BB178FBB83E03F004541CE7D46CC3F6110EA50D5A9EB3F92B6569E4D91DD3FCBE9312F725BE13FC033F5EEE897D53F3EFEADC73EEBDD3F14028570460EC93F6492DAF5F6B7E73FC8CAEE06BAAFEC3F5E0CFCCE78E3D53FF84D05A8369BB53FE14ED99BD64CED3F4477C8F66838C73FDE297CC8F1A9D83FAC756E4B9B87CF3F98AF0D7CED5AB13F80D64BF5BAD6E53F13A455A97106EB3FADCE1B2F1E94E33FD03C1008DAABB73FC8EA6A8F8F4CB73F68AA9C765E95B23F70624543213AC33FAE8BE5ABA750D63FA69E7F7A782DEB3FCC40B47C2E47E83F1BB3AAB4D481E23F82721466663FE63F24F516EEF234E63F7832720AA104BA3F432AE0EEE37AED3F346AA7A89EA6ED3FC4BBAB003862EF3F6708F17A3C51EE3F5B9C6FBE7884E03F1653623674B9D53FF4564F02BA1DDA3F1062BAADEE13E13F6EA3D4BF8C60D93F08810A54DE73B13F08C6189315F4C33FD81A256EB55AD13FD00937F9BCF7EA3F790DFD28FF8CEE3F9836E27C8460C33F6088B3554576A43F7CB8EEC2F7B6C23F7F697511D3DCEF3F58DB2F41CF51B43FF50799880761ED3F8841738DBAC4C13FE0AAC67BE620EE3FBC7D86DDCB86CA3F4823E1671EB3C13F353F08B1B81BE63F2B87FABDF918EE3F7E83C2AB56B4EC3F48C832B029B8EF3F40E4067F3906973FF072EBA430E9A63F1CA408A922D2E03FF29BA0B0B52DD63F604D232EC22DB73F3CDEDA219388E03FF44A1B63A9DAD93FAC56584420E1CC3F3CEAB4EC8A49EA3F244B53A38C76DD3FACE0A1F67A10D63F0C12CFC3484BDA3FF854FD4162B5D43FB6EA81181995E73F80DE84D4AAB8A33F0030F353665B243F44EAAEC0FA53D63F1D88F5B8B4BBED3FB2B94C000C87D23F980AF5CAC3BEC43FD0E19CD8C07FC73F726DDD0209AAD83FA2DBA908B48BDE3F630BAD202D14E93FB076E5219CADEA3FB26F7C97B821ED3F62D7E2D15E51E43F448E8CE74306CE3F6CC58D1FEA84E53F1CADF007DE1BD03F791074C0F972E43F6F168E11F4ACEC3F27771A7B1C23EA3F492549FA4503E93F103F61E577E6C53FB042C547E03DCC3F2A56B112EDF5DF3FC4CEB70F1BD7DA3FE915F3423E68EF3FB0330DADA3C1C33F5731B93F9D35E23F750131993E97EF3F14577D882ECCC43FCCBCDF6F9295E33F788E32D6333BE13F0C36ED109DF9D63F34DF895A0F7AC33F710554DD730DEB3FF3914A095DBCE43F89940EBCF2F1EF3F3093DDB770DDEA3F78186255D483EB3F48B59E2BD47DCD3F837F8491C4D3E43F30D682317F8DB93F4E8C833ACBDBD73F1C22D29FED69EB3F486A9D1F5CFFB43F20DB03B0F55EA53FBE9F3F9C0981D33F9B2376916AC4E13FBE68EB86541DD33F187AF3AB2946CB3FAC8A0BC6E024C33F3B9E9D741996E83F34EE931BD6E1E73F986AB4170547CB3F9C59C49A2911D13F400BF0A665D7E03F50A3F96F50DFDD3F177678700709E13FF6912B79E6B7E43F4C952FA8B4A1C43F0CAF161D3D6BD93FC7CB9F24D95BE53F58799B447395C13F94F4F714835DE93F4C190C7AD09EE23FAABD9CE61A1FE63F597988E5B901E43F3853DBD3DFD6C93F0D539FFF2395E13FC0729B504DBDB43F72159A94D5D4E73F6C7FEFE94134EB3FFAE06EB37906DA3F009C914D4249D53FED670C73638FE43F66458358A0A3EE3FB13D9B1F8126E93F9035331DAE40DC3FE81CF6534DF7B93FACC7ADDD9424E63F950FE11F1432EB3FFBC84D3E28E7E43F568195ABC5B7E83FB4307213ABABDD3F6B8026EA3C24EE3F3025A1B3B530AA3FBB02462BA9BFEC3F004148EBB515663F33EE24927C62E03F1C6F66E899DFD43FAC498A11F121E13FDC0F5A1FCDF5DA3F288316D3A872DA3F1B1560A729A8ED3F6053C8307200A73F6A1BCED4C86BD73FF0401103930FDA3F7E1B88694A02D83FCABCCBC6440DEB3F52708C21ED84D33F40E87B49995EE83FCCBE9DF9A5FCE93F4CBA9550BDF2E83FC06CC71951818E3F7C4D3A750786E23F6FB46E7B0B55E83F687D255C9DC1E63F10E5326E9FD3A83F72C5805CDC35E33F6E7C8B45BB7CE33FC3A787FEB422EB3FF8C32F02845ADA3F93C6E6D867B3ED3F14FD568C4998CA3FC06EF04E0536CC3FD0C90A0308E9AA3FD06751989DD4C43FCCF11F14FB73D73F8251DBD99BE1D83F75BE62DFDBEEE33FE47890918B52C33F88CD9CE711FAD73F713AF58D26BBE83F35522A73AFBEE83F68A84F2BEA51E43F7096E79E2ECECF3FA8FB2A23E23CB73FB5F5F964AF10E13F628BDDFEDED0DC3F5CF4E347AA8AE73F95648C74B1F6EB3F6FDFE5E7CE19E23FC2A01048F721D83F414BD45C3B4FE33FF0B34DF6723FC23FBCCCF793ED1CD53F4171E45D7667ED3F68EB9AC6BDC6E03F022E0B41EB86E13F90C563F5E3B0E23F62653B242CDAE93FBC9D9EE38875D23FC88D5FCD338BCD3F70AAC282E22BA73F0420C2CEB8C2D23F8AB8170EC8DCEB3F0A019DCC1EE6E43FBE3AC8B966A5DB3FEA5F7EBE925BE83FBF0844A33082ED3FBE42ACFD2055E73F847908B57258C23FFC83E737A657CA3F4C8D6F645B91D33F2E29F261D4ECEB3F75CDF271FAE8E63F40D8E310E5DCC23F7CA866B9E888C53FB871062B2CBFDE3F5758EFE1748DE73F213064683928E13FAA02333B45C0D03F5E06A680B673EC3FA64F50B2AE12D23F2E99AE018A37D73FE9F75A53BCBAEB3F851847AFFAD8EF3FAAD9B07657AEEE3FF6590E8E82BEDC3FC51F76A9D213EC3F87B5245BBFF0EB3F83B42C250FABEE3F35543AFB598CE13F1D86B714D9BBED3FBD9BBE0854EDE03FC4BAFFCF3693EA3F9FB826DB6AAEEE3F56E1C71747C9E83FBE57E8367C03DD3FD0170A1EF489B03F704BE38A2561D53F08A043E06F23DE3FC609761C68D9EA3F1B09790572F8EC3F6934C248DAC0E63F083CA2D191EAB03F32FC19907C8AD83F8088124237E5E53F9635139B0748DB3F93376ADA9796E83F48B5796A1B66B43F972982A5E35AEB3FC0E297E8E5499E3F1E487DE7D97AD43FCB12DBE7D68BE83FBB901FE444CFE83FC33CD46A1733EF3F49238A480990EB3F0CA9186F8F13C53F2031A7A67366DA3FF9966AFB6E42E93F93BB5950E446E93F60783582F210AA3F90F778BC270BC93F7B61A4F5F108ED3F38AA61EC6195E43F79C8B183894CEB3FF871BB7F8998E93F333B0D93A80AEF3F8171A82528D6E43FE4C3D5B6F73AC03FA6DE8E0D885EEB3FEEA1B1091344E23F014BF289867FE33FBAF72019E789D53F1CA4A4D99582DE3F64A6A8152ADBEB3FA06B37D92870A63F83381369092AE03FB4A6EF9ED6C9DB3F0B1814CF7D29E43F5800ED82A48CCC3F10C58C50DF72E13FF51ACBD611C5E33FCA0B15EAE44CE53FF49FE6CD0163C33FC0C1C4214B2ABF3F38E1C4A3BE9AC93FF2A8F6D385B3D63F139E1C169920ED3F8C6E60CC2E76EB3F16C6E2FA1A78E63FD6462122D160D73F80E7EAE3F2D1D43F0CD50A13AEBCCA3F667BE7C639A2E03F54FF99A6D344ED3F8D017C1EA5B9E63F0AD5ACC058B5D03FDE4A6A2EF8B3E93FAD621D97720FEC3F0CB5327B9FB8C93F40ED00DB9564D73FBC91F033C86CC93F204C2CF2353E993F2222791AAEC1E13F1E7A2DDA61F1E93F609CABE92574CF3F808BFD20DE02A93F648AF82C5997EF3F7550FC7D705DEB3F3A380DA595E0D73FA8A950A12773B13FBC1FC4B92279C03F26378CFF3D82D13F70E221A8CCCAAA3FE07335FE18A2993F989AF914F07CE23F38B8493EDECDB53F906B24A82B96B13FF0A6E8F96985D23F5BFBE5A57A8AE23F8DEC8ED44BFEE03F651289059A8CE53FB0574C436772C53F925567596C16DF3F5840305AF928B73FD365F877E381EF3F7496F3DA71F1EF3FC7DB4BA2DF0DED3FA41DA8F0F98BCE3FFD1771ADE12EEC3F3CD70A6CF20AC83F9886C70A9CF7E53F901CF01F011AE03F06177996D881EE3FCE6C28EBC131E93F2C20D8DD4AB3CB3FEA95B8EA04D9E63FDE69A60755C9DA3F0CE2C1C2F75DDB3FFC19266B6E92EE3F3FD179406973E03F52E6A49CAD28D73F2C0BB651CD96C13F5CA4CB19AA2DDF3F00FBB0AC801E653F3DB2022F13FEEB3FCE2442CB898FDA3FF5594FE90700E23F50831BB2A307A93FBAEB0A0504C6E73FBA5FB799752EED3FACB8DE3D15DEC73F40FB889FBA8FE63FBA93795D69C7E73F960E9F02095AD83F71096FFAEA00E93F19B4992D5392ED3FF89819EA40D0C83FF004F49E4459EE3FD396D4BF02EBE53F98F3661AA8F5E33F6EA6CF1291B2E23F002A050036887D3F3CD438C00F5AC23FF3803FCC6370EB3FF49EB189B148C83FC42D836740F4E93F10E335149139A83F2E31512DE221D33FBCB106F9C56EC23F9CBBB7A83350C83FE09B3883C8B9E93F8243DD6FA446DC3F75BD15B5996FE33FFAEED6F5D91CE03FCCDC43319DF1E93FB084375BC30BBE3F5664569E49E2D53F58AFCD6C10BEC23F805C7A05D786D93F420ED5A116F2DA3F3EDBA025A8C1E73F68AE145956BCD13F9DCCA7B5AEFFE33FB419BE1A87CED53FA73309469950E03FD8489A8A1E2EBA3F859CF4E26630E43F71B01FDEB969E83F28619ED140B9C73FBFA15B9B70F1EB3F008F41958765E73FAEEF51DDB9ADD63F1157AD59D4FAE63FE01A2530EF94C93F32130E6AA818DE3F2AE6B46FBC59D83FF3F8D679E41AEA3FFC9B8860828BE43FBAC156EA94D1ED3FC44FAB2662F3D33F981A6DB1FD13D43FDC427BF78D66D93F67E92BCF20D3EA3F966472F839ADEC3FD632114198C9E03F3E64D2A9215BEA3F98992AEF7BB0C93F6AA846D47EFDE13FD83F7E42FD01D43F7060AB9E8810B73F1090C2BDB4A3A63F767A0CF53969DF3FCABCA9370594D03F588164A228FDCF3F78A74CED694CE43FD0725878E071D73F53F8C97D496BE43F1C5CA204FC84D43FE0A3370621A8AF3FAFB65FFC4C15E43FF3716505FEB4EC3FAAA4C5CAC582E53F00A018ECA41FE53F1C77C0DEB54CEB3FC24BA51DF479DE3F75A746004C5DEB3F9A683036592BD83F7C3DBBC6D1A0E63FD3C8863CE182E73F80C9D12952D7D13FBEA0D31E7ED5EC3F407F84EDB4C5B83FDC643986ED19E63FEC935A325AA1CD3FD152F41F96D9EE3FE2B7F4AA541CEE3F98911977E5CDBF3F647881EE209BCD3F3FCDE7189838E83FEC0D5B112F5CD93F0EC8604EE984DA3FCDDA1A977947ED3F0069450DF520C23FEC0384E29EF2CE3FB6E1F98516ABD53F365C294434F1DC3FDBB46CF9C566EA3FF9ABFEC01443EF3F5D1128EDF0CEEB3F17E4746EF83EE73F7DE0D6B44776ED3FE04D45C307D69D3FF8E16A83FBD2C93F600EE703F5799F3F80B8C68A404CDB3FAEEDF879A1C6E33F3F4F95EFAB8EEE3F54D2849EE3B5C93F08079D2864C7B83F1625727DC71CD33F6C4F2CAC8448CB3F6C723EB10E27E83FA046CCFCADC3D53F84AE2B958048EF3F36D0BCEAF023E13F0054ABB8BF1F9D3F26773A11B967D53FB684E536D053EC3F8A96C7221922D03F3D50041C5565E23FE0520DCD67A5B03FD0EF802EAA74D23F8039165EFFBFEB3FA0D2E0EFA08FCE3FA81C052D1599DC3F6C4428E96027E13FF42AA69A5973DD3F88B2A7CC61A3D73FC0EBB4AD27EFBB3F1805FDA353EEBC3F38B6EEFC5D18CB3FA801AB64FEF4C73FC053A76FDED08D3F98C460932955C63F6C36F526B00EEE3F127D074912E8D83F5C4672FC6723E73FF82C4CCE4F45EB3F60305DAC8C13BD3F2BE4D1A2C4C1E53FC8596818C756D33FA0A12007C0C1DF3FDCF75A524F0BCF3FE4F9BB96DDF7E23FCCF269571ACCD23F22A46F13E141DD3FF240F7BDB1DDEC3FA8EB29A8B1A7E73F0120219406EEE03F7DAECF8FEC74E83F9CB41BF4C90ACC3F01C5984E2712EB3FF0BE5BE6DB97AE3FD5B975FFBB2BEF3F0A54B2CDA46FEF3F546F78C3CC9FDF3F27D42320E5CAED3F7D788888F2C0E13F6DB6A764F9FFE43F272AACF438EDE53F727525AECF66E03FB758097062C8E83FC0CCE8462B22953FF41BFDA4FF9FCA3F6214452B807CE03F5CE9EFCC7388C53FA2DFCC47505BE63F8FFCE8D3137FE53F724048677E67EB3FD57ED928046FEC3F958F531751FBE53F91E9FDD39E48E83FF6B78B114B1DD13F5C30407244B4E93FD91ABEE80368E53F086139333B52EA3F5659DFD4F6BFDB3FD88B9FE6A4F2C53FE864C8ED6998EC3F4ADF2EB8D867D03F511CEB5C7F96EC3F84E5A3E28B48CF3FF40E5E7E9CE8DB3F803904DAC89C9B3FD209C3558621D83F03716677CBC3ED3F08E5C6F536E5CA3FA86BA53848A3E23F667702EEEF66D03FDE3140759E58ED3FF8448DAB4B1DB13F0C11B79F1798C33F0CCA316FC53AD63F14E42C06A41FC23FC050C75A8CCA863FF676CF3C2CC6DF3FF81C98014528CF3FE8CA7457D0CEE63FAE2D2F014734E73FDC12802BE349EF3FC09DAC37F5FAD23F0C3AB5765EBBD73F37E673AEBBD3E83FF8BD6F66327AD03F40D2D2754856CD3F894ED4DAD14DED3F27CA4F34DA91EE3F603CB9B959A5D33FE2F0E5FEBDD1DB3F18222EF58A08BF3FB4C37D8020D2DC3F522DDF2D11ABDC3FAE0C53DA4640D33F49E834D7A287E33FE28DDC2EAB33DD3F34A15810B14EE23F2E088A358F7DED3F504EAF04E045D73FD40F2DFC5D9FD03F86B0BD7F7587E13FBA59BB327923D33F7CF79588A78AD53F6026538E4C20E23FE8068427B0BFE33F088E0F268C13BB3FC8A3F4187E4FD23FE0ED9B4CB2C3BF3FE99BAA87DD96E43F4874DA19281CBC3FAA2C5456C10DE83FEA87D65D5FCCDC3F191D29E9A426EA3F2A7827B67047D63F1633EA9C8C9FE03FADF92600867EE33F68500C3FDEE5C63F30DE8C9DF8F4B83F249598213B4BCF3FB2E1054D94F5D13F8D69AF0DCC27EA3F53B30A8D4DBCE23FB40B10684499EE3F54FD0175A474D83F5E62DF76A0F0EC3FE08E0A8A452D953F6D73CC73F6B2E03F8AD797BC955BDC3FE2AF0B0E534AE43F890729C96086E23FD4FD70C361E2CE3F287A6CB31FE3E03F613792A92723EB3F00E6DF2E12F9923FFCC6F6FFCEF9EB3FF040CF4B7F35EB3FC03CC8037ABCDB3F12FFD8C611D2E23F0215236F65F3E53FB9DADDC16B3AE83F992F77CD0173E63F319DFECB72F9E73F24C94E530A44DD3FB73E2DEE6940ED3F7A6DE457188FD33F9404A9428FDFEE3FB2D0979A3075ED3FCA6D9D14BE15E43FB0C2A6846C2CDB3F4457C381AF00C13F28361BF5A7ACEF3F09098D8939B7EE3FC292049FB65FD23F7E7D86CAB7AAE03F2C1D545B7D80E23FAE837E71A52BE23FC86B885BAA7EB83FFCE75EEDD034CD3FC94A104C05F0E23FE9E64ADE0D77E03F68E471EFCC04C53FBEC0B28FABD6D63FA8DF4EC4EC51B53F7BADC0D4E6ECE13F895EF1BBFC7EEB3F377E0B813DE7EE3F84CBDAD49456D23F8E2E7FA65D76E93F716CEA128230E53F48BD95E72F69CB3F056B75482F53E73F00A596D8707FC93FF0B290EC90E6D93FDC2AB14BFB65CA3F3FEBCCC5C4E8E33F9B01CE781EF1EF3FC4FCBBE00A26EA3F138BB459CD05E43FFC541FCA2260C73F00DA632A4BEFA03FA6186453826ED43FB4D354D49A75EF3FBE6AA5294E6CD53FD0CCD14E2334E83F6096D5E2F8E1E73F307472E0F70BB13FE8ABAB87CF60BA3FF76CBB24D2FBEB3FAA5004CF1F3DDF3F805C30EC63BCAD3F96F4A6532D93E63F8AD2100A5DBCD73FCE9C54B5BAE7D83F8ABE5462E7AFE63F3E876A1DBCD2EB3F84661EBB53DBE63F95A7E2EDAE56E83FEC292E750824E63FEAB1A35BEDD5EA3FF26C447E951BD03F549ED6E750A8CD3FF084192C6858C23F0F4F42381B98E43FF06D5D7A0BF6E13FE05AFF437522A93FD8EC3D48C993CF3F34912CFD12CACF3FDB04AC90BA8CE33F6831ACA9C1E8EC3FA9ABF1992FAAE53FE97ED66C7E05EA3F6C1046AC7094D23FF857F3AA95CFEB3F7C13B565CD3FDE3FF4286691C69BE23F101B5325EE88AD3FC1935115E854E33FB08A87809275E73F00F92715A3AEE93F924D8FB1F6AFDF3F7EE2C2A7DDB7E23F54DFC8DE3BFCD43F65F9D2759F2DE83F06B2F94C4C9BE43F54694A9C9234D63FCCA4E5EC0677CA3F02424CA072CEE23FB095832C837FC53F3020D37A2310DA3F6942F746DCB6E23F985D97D21E44D63FB5F00193E734EA3F140554756B5CEF3F8AD409E33288D23FCFB61DB02724E73FAF345B82FF32E33F0BA6C4FD7EBDEE3F30B998C63DA7A03FD037D56B03A9C83FA07777594D6BB03FC3F79BF3DC53E93F707814F1ED0EAF3F94D08200E1B1DA3F63C4BD59147AEF3F0070FF863F5B673F7397CA94E2EEEC3F56C3C687EC58D23FFE1A48552E63DD3F0A31AFE4BBD6DB3FD89AF43A4B8CEB3F13A3EEC2B30DE53F148434AFC661E83F1A6CA310FBF3DC3F5F21114666F3E33FFCFE0683F286E73F9D431E44909AE13F16C28A11770FD43F04787456A8CCC43FB8B78A336478DD3F55DEC622865EE13FF4FDFAD23B40D83FFC17AAD8668FDD3F89FC4AA990A0E03F20E63A0CA6F0C53F0C29D4B8B2A2DB3FCBB8E4DEC56EEA3FC0665D7DA0BF853F995FBFC6882AEF3F03869DEC66A7EA3F64668D634979ED3FC251941B8742DB3F49F89FADF5C0E43FF12F20AAA526E03FD098CF71219BC93FDFFFF47382EFE03F48E1E2A194C0E63F5A2E8727CC73D33F6A8C8206CA5AE53FE49806A3F2C6DC3F2C27DC5AC7D8D93F9C52C062129DE53F6A0F73D63383E13F26101C021DB5D83F16EC8114D50ED33FFEBA47BC6271D93F264822FD2EF6EB3F7EEAE75232B1EF3FA4FC7659795AE03FC0659C1B68E8DC3FDE471D404724DA3FF0EFC9160DF2BE3F2A33725F6E72E33FFE216F1F84F3D33F15E30097B3B2E13F78D0766F92BAB13F945F995B408BDC3FB20815DFFF13DE3FD92DCCFF4FC0EE3F5445A3EA7A35C53F51160F6DB527E23FA03D4F164538C93F0184BEB88B5DE73FBACA2734BCA0E63F7CC9C3C38561D73FF81E2188C851C43FF5E0E4DEE09DE33F257992E74487E43F307FB4CA399FCC3F406778599170AE3FE015612CB359EF3F80952C234608D23FE62F982F4A2AE13FB70D43EF7C9FEE3F03FF6C628FF3E63F787E1481A1E0E83F3C3D03AC7850D13FCA7A28295887EC3F780F0CE6F0FEC63FC3525882AB00E43FB260E0BB18C9EC3F292C89B5C107EA3FF4DF089EB542D83FC05202AF711EC13F57C65CEF49B2EB3F5A95502B9CD5DA3F805CC7E810D5D53F3016DA900A18AE3FC0D25A7B77E99A3F25B69E6B27D3E43F8455E4CD96A5EB3F02EC335891B2E73F553FCD3A025AEE3F8564A34A0DEEE13F6E6768757D0ED33F488572B23B62B93F301F012BCC7BCF3FC6604BE9EA2BD23F91BB1F492DB8EE3F22796BA7FA57DD3F521DE8D7C171D43FB0E505C9849CCB3F4583DAD97350ED3F3E445B58D1B2DC3F400DC06211A6913F91D37305F6E3E33FE09465400E4B973FAFEE3CA0105FE03F6ADAB1379E81D93FC884E0DE7608CD3FA02B113E32B6DE3FB995254FDCB1E33FE44392D572CCE03F7263332ACC4EE93F0B823A851CF5EC3FA9A5AC81EB32E53F60C9B50865F89A3FC46B5585E3C7E03FCC7799DAE8EFEF3F4C75CF9E6A7EE53FE9A4C4F0C2F1EA3F4E20C228922BED3FB464DCDD5585D23FBC0B7B701CE2CB3FF4132A5FD83AC33F90B3DD05EAD8A83F80F9ACC3CBA4A23F78A644D2EFB3C83FAEDF86F45456DB3F6093B46BD0BBBF3FCD2374B0368DE43F4BF37C5CD68FE33FE07E8E722F8C953FC0F3653D0313DE3F9256266D9FBEE33F01AA7D71EB27EF3F4825A8B8BE95D23FDBB8C872A216E33F8C48FF2BFA71E83FE4B127850F1BCD3F8083A0F32F58C33F007F62AF4BC5DA3F5DA80467D34CE23F64AE21DB87BAEB3F48C7A1CA27B6D23F780DA3B3EDB6E53F28E0716D4A4CEE3F1541B2FF539BE83FDC07B040C4EAEF3FCCED4BDAAB46DB3F72675F55FDE7EB3FB233DC9B48D3D23F2C17926CCF96D63F2AEF04CC619DE63F308308B8C815C83F3A7A47844053E83FD4CB7F04673DC63FF2F9CAE04995D13F731B181E69D4E33F1EFF97A87323DD3FE8926E1B02E0DC3F548660406E93C03F7B419A67CF4FE23F91E68FA8BD9AE23FE9B8CAC3685DE13F3867D0B84162B13F37C3EFA152E9E73FC38E6DF7D04FE33FD39D1E1F3BECE83F8C7DBAD6CBA8E93F0285FCCF7115E43FD3F2DD5BD74DE93FF269AFB78D06D83F1C2E75831F71D03F83DEB26C7D80E33FCC7AC35112C6C43F4738BEE3751DEB3F3E733A8BEA4AE63FDD49495F26E2E43FB45EFB47E33EEF3F9C7FF0572B6BE73FA29868FEA482E33F1BB19319C9F7E43FE87555E2739AB33FC2A0C90D1DCADE3FB836F9D4381CBB3F86ADD9ED8B9CEA3FB4AC5498D16ADE3FE752BDCFF1CDEC3F428254D5C7EAE63F827581D27998E43FFCFE9F3C7A42DB3FF4087CEAEF46CC3F0022BD2D03E1D83F92888CB760ECDF3FE09E266B27D2CD3F73BAAC12F920EF3F0C42471AAD71CE3F1A76D533A5A9E83F1C55818B40C0CE3FA9EA9147572BED3F666397F852CBDF3FE05F774C55459B3FC624FCC94D77EF3FD4B42493F567CF3F89FD5196CF09EF3FC45D8C33E82EE43FD06644888CF8D83FB28A7E393837D63F784964EE2770BF3FD2116C8856E8D43F21DB4637AAFDE53FBFDBC2704021ED3F04A7D6414497C63FA2FEC1975D48DB3F1DC60A0B39B3EC3F02854E1F738DE73F66EF3069EEA1E73F3C69B3C1F0E1C83F266E6827E69DD83F297C62B91ADFEE3FC2D1A650DB2AE53F5F46D83BE957E63F7076379003EAB43FCA432884603CD63FD8BB2D69853AB53F4CB0370DFA34C73F8417DD89A6D4D33FB52CC9B523DBE93FB8A616E1CAC9C13F6A3E04A7500CED3F7D9A4959A7C6E13F2544A429600AE63FC05DADFE3EBE8A3FE6B86AA2E201E33F80C13BA6E76EE23F814111E685A4E53F1BDF3C7F5C37EF3F063435FFB6CCE53FEA6A20149027D43FFF4FDF10C5BCEB3FDAC5EF82D91DE53FC90D3FF5FD2DE93FD7ADA5AE43ECE53F92E6C956B9AFEB3F2C9A39F69A09C33F65696CC73F86EB3FB86B555B3949C23F30C7FB0AAF04D23FDED8BD351B07E73FCF23CC51D34BE83F188F44F5CAF0BD3F7AAB91636C61DC3F97003D936740EC3FD2C0385D2ADFE43FB4EC621C22BBCF3F8E68F5999B33ED3F84EC54218676C33F1AE11E260B4BE63F555B8E1EBA4CEE3F984D95C99640D83F80AF415A6628E73FA47536012F1DC93F01B3D623AEDAE03FB0DD888E6D15E43FC06D5D26D7CFA43FD06B237BAC9EBD3FE0A0233A14D2D73FEECCD960E1D0E83F825252BDB9C8D93FA023F01A89AECD3FFBCBF67F8008EF3FF6294EA1830FD93F76F78D7A0607E43FA046A733E67F923F8045DE74EF68C33F95875CEAF651E23F28041CA6268BEC3FDAACCB93738DDA3FE8DBD34E25A3EE3FCA928DC6B575EB3FD78B688E4CE3E33FD29F6FC212BFE43F889D0B70404EE43F48D9C22D25A3B13FC0F2E2BC0EF6A83F7F575F6ADCFCE83FB04D04C0D8DBC33F94152C4C9EE2CE3FD990BBEF6E35E53F6C1C8C5F2913D43F1DF164ED87C5E33FAC09B2B13478EA3F61D248C2A980E83F685886470D1DB83FC23F0C9308E8DF3FAF8E26692417ED3F8B825C34C1A5EB3F7CD88D5ACC31EF3F0AF33C73BE84EC3F714261384F56E23F684BD9154E58BF3FC8CB24779400DD3FBFAD5B9FFF69ED3FFEC9E5434119DF3F0FEBB781B3BCE33FDEC8EF4457F5EE3FA35E5071F74CE53FD21A42C5ECC7E33F09BF31E142FDEB3FB454C16607CCD73F50F039A8CF36AF3FF1E542A2BA5AE23FC12AB307C172EB3FB83DC87C1232E43FC87091F6DBFBC13F74E9AAFA44C2C23F16D8FBEE7E0DEB3FE05773CD9DCCA53FC8EE91AAACBDC93FF809A252A1D2C13F3EE0F424464BDA3FB42F47E9CC39C33FC03342FFE9A7AC3F78AA61C64BDDB13F14BF86F57C19CD3F164638A9420FD73F9AED4513F412D43FA408AF4EA078DD3FCC10833D0B5CEE3FEDF386A29BB9E03FBE134A51426BDB3FD24BBABE8E87DA3FDDBC5384D490E13F602039ACD6A59E3F049FF14B26D9ED3F304870738B7EEC3FCE4D2C5D163ED83F2683ED021949D33F58F28552E41FC83F730898D5F5C8EE3F1D4EC86155F7E43F8EC85A36A16CD83F40B2629985048A3FD1F7BE5458EAE23F5F1316E80D30E93F54A08776E9A7C93FB756AA4CB3FEE83F7EB8BA15A67FE63FD49FE9FE0989DB3F702722FF733BD33F1684600FCFD5E73F88AE10D6F09EC53F12F68BD2AE86E73FCAF73FDCAA78DF3F9183A167726EEC3FE06DEBE0AF94B33F97F19BDB52F5E33FB006AB532420EB3F8839E40C9CB5BD3FD693F4D109B6D23F1CD2D09473A5D73F40DEDD261F01B83FA73797C94F63E13FA22321E5C770D33F1EA928D49BEBD73F68F25A62F07AE33FAE7971BD004CEA3F7CAF050DBFD2D93F9F08DFDC52F0EB3FA86012F9A7FBCC3FDCDEAF7D451FC13F9C7A84945BE1D63F2EE8D940D9C0DD3F713FAB0D3350ED3FDEABABD667D6D43F9FF43ADE52CCE83F8D823D60C9B8E83F141F8E9D7C36C33FB421DB6C175BD03FC04D91CDEC91C93F08D32B117B2DDA3FB056103D4087C93F71E545090DEFEF3FA114C12D2647EE3F123F7A964859DB3F987152D64B48D13F5EE6A775D3D1E23FC285EBAD5EC5EF3F300D0DEFC3D3D83FEE545AD54677D83F3A23153D8B19D83F029DC3A6D8B7DA3F4C5EF64B9DC8D23F9837B03E5AD2C93F21E5B4450DEEEC3F9050A202C5C7DE3F6005A6FA8DB99C3F4041E6C69133A63F74C88EF29DEDEA3F4A4CBFD75AAEEA3F36D7260844B3E53FD6148F2D6E01D23F9005A919DEC3AC3F8EA9BECD99CEED3F0478A0D0402DCA3F317747C05B93E83FF1F14D9B17B8E13F8CC926B6DCC9C73FCF53C5EEC1D9E93FD63B6E2FD2D5DA3FA4ED2DB9E1F6DA3F80BB3A4865A28E3F200ABB3B7E46B53F3214C496B6D3DA3F94218657D250D63FD0114156BDD1A33F151A6213AFDFE33F9A5A4ABC47BDDB3FF8EE9BEFF3C6D73F8661CA33D6A3E03F2BF743125DA9E33F7D60822DF964E93FFECD605FB7C9EA3FC20882AC4FA5D33F28F94891D1D1BF3F98CE41AC4E89BB3FFBF9034C6044EA3F6F5D7129289CE83F527C49409384D13F151AF2A83342EA3F8B8E71295F2CEA3FF8FAE7CB8865D73F535540FD6EB5E73FAE7D32859AF3E63FEE2EB50D918CD53FB419D7F58793D43FDCC94C553188D13F0003F0B87FE0D63FF5911C77E327ED3F5437C4F75417C73F826E742C3E63E13F78244435D04DCE3F64920C6E39A9D83FC7DC63EDACB5E53F886987722499E93FC4A15A11D491E43FF8BC9F09F626C13FC082271C34C3B63F68A10D323769B53F391C30B0DCDBEA3FA58508AAC52AE03F887B83534E0DC03F08E82B61C6E5CF3FAEC44F619372EA3F705D7877D9A8EA3F71A869AB959DE03F086E0244F940BA3F2A5979D715D1D33F643E89ED8048E33FA2681872C05AEB3FE653D8C0F17AD53F1FD1FCEF90EFED3F0C186CFCDF2AE53F301E63BBB181A13F4849BB8BEB3EB53F225EE86B2CD1E73FBEC1CE96BA52E43F250F9F3ED6A1ED3F40570FECD57D8E3F58FBE0531507E93FC27E4106F31AD33FB8019793BFB1C63F566E3FDF9A23E43FD07C34A60C41CE3FA66DFD1D4FEDEF3F7138F991BA03EA3F5CC52AC55EC8CA3FA9A1B946AFDEE73F4E88805A81A6D03F38E10D6992AEEF3F9087AC3DFE7FAF3F3E80FC003B69D53FBC694CA29289CC3F142AC8F3CA43D93F85AA31B00799E73F8FFDC7D3FEA0E63F05433A25CFE7E33FC7206749F83BEA3F3AE1C308FA1BEA3F4E519938ECFED83FF0A410517EABA23FA802F8420702CA3F85AD9B4B8075EA3F78151CB39850B53F18CC7D18C85ED93F940BEFFB6A87DF3F157B8BB58A0FE53F86F431745A9BDE3FBE22404F0388D33F24EC2C6BA913E53FF44BD4764E32CD3F4A7505301D16E73F7135B5D1DFACEE3F9CC3EEA5E67BC93F73D832C3878AEB3F539AF8B65C8CEA3FBDF6C580BBE7E93F81298D0825CEEE3F086E4735DB95E53FE0888C38A778D23F506D3AF3380BD33FB0B205CE826BE23FC0E5A78783F4DB3F2DEC4722BDF4E63FA84C89EB63B9D33FD87E7AC24AD2C43FCAF02DDA83F3EF3F8C1DEAC90FE1E13F6DF6E37F803CEC3F8096FB89B093A33F122961484E1CD63F201BF949FC6DAC3F6DAF4F25B664E83F33160E84A880E23F007685745467843F1CD49C7BB5C8EB3F1EA95F9EC680E63F062B44F1C5E9EC3F916279EE5D83E23F74E33F2C2DBCD23F35CD4226E241E83F1CE66095DDF3E53FB0ACFACD190EB93FE0C0E05622B0C83F7C466F341AABDB3F82C764DEE463E63F82ABD93AEEF6DB3F0883B362C2B2C33FE440C93E2E4ED03F27629DFDD732EF3FD5ED307584B7EF3FEC6EADD5D1C0E53F52EC01A2A325D33FE7BE3A503179EA3F30CEB761C5D5AF3F04D1997B4107E23F381358B90486C33F30953C99429EEC3F22E126F12A00D53F6FFBC3E3B22EE33F246672F3C9CAE03FC8B5DB1093A8E13F1C665EB404C3DA3FFE7CAF1EAEF8EB3F2AC77FAF735AE03F36C62EEACBFAEC3F16E160FA2759DE3F96BDDCAAD5ABE43FD0873E1C8DDDA43FF428B3855733E63FAC34F03A7247CE3F80035CD41C83E33F271D6033C525EB3F9C6ADA42653CED3F88FABA26758AE93FE077C4E841A9D23FBF0FA89B5F45EE3FC00F5BDC615FED3F1B879E799138E93FB314883F1245E23FDC511158CF48C33F8715E3BFEF5CE63FE899313C94A6DB3FB5AAED1053C2EB3F36890D7D618DD83F0ABA0E14F3F6DA3FD1F3A62DEDA0E23FCCAB220549C9DF3F94B1F52FC33BD23FD64993BC863DDF3FB831E6AD9FC8DD3F604DC1796547A93F401B2BD8B299E13FDC640A87137AD83F1EB56169AABFEF3F80585506E114A43FDC32BC4D0DECDF3F96288B39BF40EA3F4421D5A235B7CB3F6A8B72BBD241D23F06FDC65D11BEEA3F778658F9FA0EEB3FC9A5850EA0DFE43F2E29674DD664E83F669F31AC9439D53F249D1D9F76E3DE3FB2EA93143606D03FC88C4CBB6F0AE03F746433C6A87EEA3F45AD1E57901CEC3FC8C7814E8484B23F50FF0A886DA1ED3FACA32EF8BF36E23FCCFD66CD803EDF3F5C7744BA2739E43F551D412DC9EEED3F8484A6019055DC3F0E478F32439CE03FCCA49B43CE82C73F9408C2DDFD30C93F92F95D82C7ECD23F6ED6086047B7E53F84B2F174A0C0D53FD582DE712874E23FAE747AEDC33BD23F15DD2B101EECE53FE99BC2224005E13F76B5D4C1DDE7DD3FA8592940842EB13F5461BFD98DB1C93F94CC52F09C64E03F97C9CE7EBEABED3F5436183C7627D73FC0E31DF3643C863F781B40705E45B63F0A6AF26F89F5D53F8BA13A816453EB3F21CBCB77BAB7E13FD0932357C63CAE3F412CB8D0D75CEB3F94B8EA152238DA3F5F45CE94CB56E13F3C8240C0D0DDC93F9FD6E3B8810CE43F2CBCC369D183EB3FCC0B8C662BD1C93F90142431477ABD3F7D2F7261A93DEB3F214FF02443ECE33FAAE64BA4BC9FED3F7C09E115E5A2C03FF61E740CBA9DE63F50A55C3E0718AB3FC0AB6866D3A5EB3F24761EADE372E63F18C1B1BF7B6EB53FF05892D7B66BEB3FA8D1295F33E9C63F4C4E6154016DE13F808B82172935D63F73E348BCB0BFEC3F508E6A7D2F7DA23F5067E2149DF6BE3FD59195790A1CEF3FA02AB8E70C7EB13FCE7C96251C49E53FD25AD4A17875E83FAF42F2FAE6DBE73F3A25ACE8B6D6E63F1C21A81864CADA3FAE708DE08ACAE53F648386015070C33FC804E27C6744E93F4814E9655AC8DE3FE917B54FF528ED3F5ABCCB39BE41D73F90E4AD50D190A63F54BA8F9F3291E73F5ED0B3216122EB3FB03F9DD2AF59EF3FE42D20CE338DC13F3592D32E6017E33F947830A24356CE3F544EE72D3EBADC3F6029A918F7A29B3FB49D1988D80ACE3F7EE52C4A3BEBD23FC0DE7294859D8E3FCC215ECC1439D93F30FFE096A80BB23F2E4E1F26C96AD53F90EB50A8FE14E13F9E565AC81DB8D83F9C608FB58E3ACF3FD59A4B3E0761EA3F38E71683812AB43F7C39ED04DC7BCE3F5A1DF689A22EE63F44A6C2C5BE88C63FF41D54278622CC3FE01B1E01F045DF3F60CE8CF6763BC23F7CA75E97916CC53F30B8E7FDC85BDE3F9807F85CA577C73FB2C10D6C8F37E63F10A05D6E51A9BE3FB704F8537C92E43FC011D4FC37D68C3FA83F8465F0CFDA3F58F14FAD3CF5C83F201DEB311A2CA33F7DC03D08EC8DE23F12574221EB82E43F83E5947009D6E63F007155A27E78BF3FF6D8208529B8D83F381512DDC85ED13FA0B347DD11B4EA3F5F6D71D5923BE53F67968F1F20C0EE3F8F9C9EE71CA8E23F15C572101169E43F502DAB7D7D83DB3F7AC1ADA8B27DE83F34D572BE8D8AD63FF0882AFB74B8DB3F64F012F43B81C03FB7F56FE7C1EBE23F38929E5AB7E3D13F708AD833A1F5C23FFC73487432D5D63F2857F258D806E33FFC0CEA585B5BDF3FD865228E3CDAEB3F64EA3BEAEAC8C63FD517CA4D37F6EB3F21346D20A25FE23F6B176F7C12B4E43F446EEA1F5C54D63F8012DD962A0ECD3FBCC875BE73CACA3F602A5E502C67BF3F6068BAEA49BACE3FB00F66E69AE0EB3F426B93F7E2C3E23FC92BB2353127E93F67E8516B61CBE53F35BEC6CBE008E53FC0F70FCA77F4D23F409829B42C19A33FCE41058BD428E43FC69928B00614ED3F5D68C678153EEA3F88925F098720BD3F595BF8F9C116EC3F1D3A21D0003CEE3F54B78A358D92DD3FD8652A9E4A71D93FB49BE48D16BFC83F5C683C26C9C3EA3F8AFDE795E2BED63FDA32BF7FB113EF3F3C1CD326D01AC53F9EEB9971E74FDF3F10ECC2FA5D84B13FA4E223E46282D93FDBFC1976D888E73F9416D3D49FDBCC3F87C01FD8E7C8E13F18BEC6EB099BD93F4205EC03C139E43FDC71499622B0CB3FC9B0323A8A20E93F5A1C8F861EC3D93F5668EA80C924D43F7EC105134B5FD73F7034A8B314CFEE3F80050CE33C09863F19E6B65549CFEF3F505315A2FF23BA3F50EB82120E60C33F20774A7D6DE1EF3F0DF2CA30DECBE93FF04008B5E866EA3FDCD3233E2C06DD3FD92FBC496DB7EE3F4E89857589B9E93FB16EE83E4F69EE3FAC0DCA1A9007DD3FB8D0009B001BC33F58567E7C85BBE73F59F8413A6050EC3F4948EFD25358E23F4A8E9561C784D43FAAD8D81CC9F3DE3F7BF7B43FC485E33F28973D338BFEEA3FB832B6DE8062E43FB8F6980ED4C2C73F040067F510E4ED3F93E683721DF7E53F28CA3696F037E73F1090C1064FC3D03F6E3CC2261AE7D83F7ADE1D72C83BEC3F09F9DEAB2F89EC3F7DF4594C06CEED3FBCD5225371D9CC3FEEA391E0959BD63FBABF716C88E9EF3F5A6767CA5CE8E43FBE73B1DE8665DC3F12B8D46B36F0E83FC898CA0B8973DC3FA6763F85421EDD3F161CEAE08D9EE23FCD980F344397E13F9E0AB63B0A0EE03F3919AE0749F9E43F620BE9A8F080E33F0F72033B5B6DE53F387AC7B2550AB63F4C5A24D0AE28ED3FB092A9531823E03F992C30D2D023E83F59BC7B9E0853EB3FF4B7DCF9BBC6E53F00BDC9CF1DFA6F3FB1AFFCDAB0FEEB3F23358C27DCC9E23FF037B5D54A34D93FE46A86946EF6DE3F6B6E475E6618E03FC0100C14E739DB3FBC8461C99D2BC63F1B1CFC6A863BEE3FE08F504C3411E93FF87D02D46256D23FB8B14ECE4DB3B83FB0CD24ADAE04DA3F81A318A12FA7ED3F88B648A11C8BD03F88C80B3824E5EC3F3606AE523B08D73F9011644F6BF7A93F009DC321D86BE03F78A50A6098D4CF3FE082D6EFD315CE3F70FC23794724B93FCA824733317CD53F641A3C8CBE54C83F30CF0476E6DDBC3F5E57D535A6BFD23FF43F11ABB675C33FD0F01D9C0ABDBE3F23A081671AD3ED3F57615D6CB09DE23F591135D52AACE73FFCCFCAC7E2B3E13FD87ED233CC20B03FB9A7CDD0B18CE93F6AEFCDD8C52DE83F7F4D939D4EB8EA3FDB3E85FC51D1E73F6AE06700908DDF3FF3744BAF0DA1E93F0711987F9C2BEC3F507D6F3CFF27D83F9CBB75FC81E8DD3FD4B5500BE2B3C43FF9F0AC836385E03F5818420D8EF4BE3F963D8FABAA48E73F5C8A822AB407D43F94AF1F7F1F61D53F3CF5FBC842C1EC3F3ECD26A16747DD3F7B6842AA9CF2E33FB64B9EA35D20E23FAEBEB93D8752E83FBB63A62A1EE8E23F18736F44378DEC3F2315D150FB9DE23F7591C4E7E76EE63F60EAE960F8A3A03F4145C70C62AAE83FA09FFC3CD279E43F08AB37EB78CEC13F6B7046A79735E53FB6521C47AA82D93F5392D6B77281E23F0609D4013F1EEB3F1C126B531C68DA3FA2CFC7F4B421DE3F2DAF98B2D468E33F04DE6F4542FCC43FF8043E36559ABE3F0EDD0BA2E5CBD43FCC94A3491E07E83F9A0393A58828E93F0037B2414534A73F8F0F2A8E2BCEE13F2A020DEEDBEBEB3F77BFF26748B5E43F20A1AE6F536DE13FEF41D6081A6DE13FA0406EAE9AF4AD3FE4914C4A8504E83FBAE8D9C8A28CDA3F384C21FD8DF3EE3FE1B89F34AA8CE53F86F32A3BAF3EE73F30E8AFE94543AB3FD43DFDDE163ADD3F7C31D706474AD33FA0D335209984CB3F38BD67BC349BB93F8B3679EA826AE03F564098623D38E93F2A2A90028207D43F029393CC91E5D13FD0A857ACE369B33F097CA9A8A90EE53F9CEF454E80DFD13FF661E6053EA8DD3F14E2BACCC0C7D53FD0883C60251EAC3FC878E58BB97CDE3FBB6BBC43F2D6ED3F998EE2CCC33DEC3F2E70123FD089E23FAA8C026205EED43F6A9027F47FF4E13FB688529BEEA9E63F90AC42C53DD0BB3FE80BB4DE2DDAC13F707534452160CA3F2FC31ED8FAB1ED3FBE39A798EB18DA3FDEF79ED1FF8ED13F087C1765ABD4ED3F88786C487117C83F903B8864DA6FDB3FBD483B5E5E9CE93F924B6E646CE1D03F7BDF1DCD1744EB3FE333A35864F1EF3FA75C54E43068E53FC497218E5DE5E83F8263CD6BE0D1E93F806784907BEBE03F2EA2FA1E93F1E83F48A50F3256FABC3FB0B0F1CE21BEDC3FCCD68A0CA477D13FC044E69DCE33BA3F8082B5996D1BA03F7D76FFC79703E93F8A0652FEA29ED33F4AB332A8A7B3E53F1235CB14246ED43F5FA38C2B7099EC3F26E1BE8B37A3DA3F1083F1A3AE64B53FE7D719AF67F8EE3F21EA4A52723EE93F32C25119B750E73F2E73CFE9DC17D73FA0A6541028A8B23FD822E6729DB8BB3FA159E86304D5E23F7827D84E1F7BBC3FD02AE4A786DFAF3F9400DACB80E9C13FD2D838F23DD0E93F6FEA3DD08838E43F1D23098B86E4E73FD04BEBE78ABAEA3F992DCAB752AEEE3FB177F97A6DD9E43F2B0059FE37C4E83FFA7FD19847F2E23F085A250B71D6B33FF221ABBB7706D83F8E89F7387078E93F3C01F1E26C1BEF3F4E8CB0F44541E63FEC4FFEE3A940EA3FD6866A6B3460DD3F4EF7CA42F10DEE3F2E6EE7D0C316E13FD75CFA97CD21EC3F088287D669E6DA3F976D6B59A2E5E13F846C13D35597CA3FAE67FCA186A0E53F0250BF134CD9DC3F4000D2D73BF0AD3F00386CE80AA5783FB2DE7FCDA5E7E13F6811EA8B898ACF3F5E0654A37999D13F42266AD140DDD93FAE1FE63DB481EF3F082A72417B3CCB3F0AC0BBEDE108DB3FBC75160F5601DB3F280C77BA1094C23FC04FD31F8A91A93F1CCF8AA5B459C93F4A07A2E342FEE63FC811F9A01F3EEF3FF90AD81DF2AFED3FFB1090EB7DF1E03FE9011493A58FE43FD55924181CE9EE3FA0744771138E923FA0573BEE2255DA3F1C5661C1E564EC3F949294E3C2ADCA3FDAD55EE09024DB3F44A4F7105A54EE3FFA2A6705608DDF3F3CCB9BEC5860E63F5AE5EBA7E3C6EE3F8C3F70AE8723CA3F5C582F18296FE73F703D3281CF61EF3F8018E1BBEFC3B43FDEDA71B41227DB3FE61496A12DB7E23F88E76C63E382C63FD030E0659418B23F2DD57C229820E03F3D2D6791654EE13F506B1D20EBE3D03F0AD135AE7301D13F003FA4FBDC24943F48B9F8C61ED4D83FF329B9CEE9C7EC3F249EBA052E1CDB3F07B5770BD4D2EB3F265C9F6619FFDF3FB6F7F966B957DA3FF272034A5867E03FD81082656C61C43F2A384C0CA9BCE93F6C811AEAA36AD33F7E8F8DAEC287D73F001C6D3A911FB93FE0BE46E13ED4EB3FAE489858B3B2DE3FEA0FE566171EDF3FCC54D8CD1F09E63F7ED99086CBDAE03F58E65EB271E4B53F20711C6C6DF0BE3F08E08048F9BFDD3FDD2B88309013E33F9FF295CC8DE0EA3F3A845D9D3510E93FC0A28A119928A13FEE636D1C9908DB3FA3872BA1AD6AEE3F4FECFE5DD7E0EB3F04D0B0659222C53F34153A5FF63BCE3FA2ECD7CDA694E43F7637427D93ECDA3F3C29C7B86B9CDB3F04E6B6E9E1A6EF3F382CD0D55B3EB73F6D4164837F2AEE3F7FDEB8D83D6CE03F06DD928556EDDB3F76821D615FAFEF3F102E7F29FC20ED3FD00AEF58A04FC03F00EB88CB3E8C753F6C4B096CF72AD53F004545EC6EF4D33FD88748D948FDD63F2CB4C1FC1F29D43F947D70090DE3E83F3C252F430729EA3FFEA9A0FE2F82EB3F33AFC839F173E93FCD457D91F70AE03FF832BF637393B93F1A55B7742465E43F45B06645B204ED3F0A8F1140EFBBE33F6640D4F8C865E13F4A69FBE2BB24DB3F2E90BA694090DC3F6843C60ECA69DD3F78E14A313E79DA3F6E650A4FF085ED3F80866F09C645AE3F1B3639BE6F69E83F9F814293D073EC3F08967205406FD73F53DA60EF4F33E33FBFF1752CFF03E53F0CD290F0DF94D53FB6E1DC521705DC3FC8B9D6FA90C7D63FFE34E6CA8A64DF3F4D5F3D904A5AEC3F3991ADF5F8F6E03F60EA43B71D12B63F060EA71BE1DDDC3F5DE8F2A01E09E53FF2962BA0151BEF3F13D47C9A01E6E33F205726422EB0C33F27B41D2870FBEC3FA875ECC55A35B53FE4C836E51CFEE53FF9DC836BDE66E23FA8126B8C1FA8C13FB8DBA2085202ED3F0FEB59391B34EC3FB5C4FA32DD6DED3F22F9605B2628D93F365D94ECC956E83FEC8132A33062CA3F676319E965E2EC3F7A59FE87E120ED3F6A7F2F8DF870D73FDFF268211BFEEB3F788C2B5EB912C13FC2029A3056B8D83FC07F89E83A67BB3F10F84343567EC13FD0B1CC53EE16A53F857F2DB6CFF4E73F5E53C9C55CFFEE3F2CD859F68A5FE73F27DFBBE90B93EB3FA46CF23DDA4BC93F7C352F47792AC03F4EA983ECFDD0EC3F5EA7791A2114EC3FDE5A1695B928D93F72716ED8AE07D33F23B63A1E8BF1E13F42546A93C93CE23F407970453FB6B03F6DDC8AA5B8EDE63F04224EAD908DDE3F8A532ECB27B6E73FFC280B2EE14AC03F98E2BF39DAD4CC3F25A8756EDDFBEF3F1A592ACFA981E83F23E36DA366BDE83F4CEB259F35EAEB3F083FE42C873FD63F86B33AE455A1EC3FD82AFA7DB950B83F5D7BFD07F5D5EC3F7AA89A9BB4B0D33FF0A58B8D5AE5C43FB0F2C2695D70D23FE7D258FD13EEE73F452A3DDD5993E33FDE499D39595BEF3F57A50267362AEA3F2C8A392A5285D43F0073A8BC8849DE3F90859CEA4B67B93FA545DC1B9E6EE33FF46FA41C1A0ADC3FEC5133B545D2CE3FEA98AE656923D83FC04EDBF04CD8B53FEDFE6E01A831E73F42549C0A3B4EE43F3BF3006815E3E43FF8BC1C8730A9BA3FCCE9FED68AACE13FEC2C080C75FED33FB58B556B3648E93F8A770986E242D33FBDC0ADC00D62E93FB8571B68661ABB3F97C45A00A70DE43F8C458FC3554ED83F1D9C935B70BAE33FF507584B05C7E93FD4A4FD929A9CD93F909D5FE887C3EE3FBBFB1B541808E53F46F44D9232EDEA3F53F1808B2A0AE23F63AD9A243B3AE93FB05E1C163278D13F82E3BD050DC2D23F9848060B821CC73FF86BABCBFABAE83FCC943957B98DC83F84900E87AAD9C23F73DF9A1A6E77E33F84BA52B288E8DC3FD6FA0F79C507E83F279D371D195AEC3FADF0F68152A3E03FB0CE17EB8D00AB3FD012D0E2E6E5B43F1898B0DD0AA2BC3F643EA620D2B2C93F9F22C5D47E61ED3FD58F52EFD90FE13F00BDC9C46BA1723F7FBE2DF28493E23FF6B53858AA0AE23FCE412E7E5220EE3F925E9ACA468FE43FE0DC84B00C8A973F1E3BAF6EB865E43F1CD744DFFA29D53FAC84A038B30BEE3F40584D97664C8C3FF67D202EF76DD03FFA1775768B51EE3F53969A38CD09EC3F345DFAA1A20CE13FE8BE6E568C9BBF3FDE24B813DDA6E23FA8B1FEDD9C97E43F38ED58282E8CC73FA39611D46045EB3F8A5F9920A7ABD03F3C42091994E7E33F4DB7DE48ADB7E53F6007F02D53B6C03FAC89EEBB5BE8C73FE6C0FEE24E97EA3F5007F0CF8AD3D83F80FD1B7318A8CB3FBCFE60506156E33F7E95F220D02BD13F953C17FD9547E03FAEC569742BB8D43FEB33A2815D2AEB3FE095D3A33EA1EB3F40260DE66415B43F7477ACF0AFBED63FE44B07E76271D73F9E9FBA1474A2EF3FCA60F8DC2012E73F190BC6CCC210EE3FB5D00263ED67E23F84A3E6D8717EEE3F7C544226AF1ECC3F6273AFECA0C1D03FC2FE295612D8D63F28A3571FC062BE3FE037F930B53EC23F10378C1EE137E53FF0B6D726B391EA3F207810EA8665ED3FAC309C38D130DD3F153C9601E526E03FA056C475192AD83F6EE4F4C82060D73F00A044235834D53FE4E1110D167DD23F548AFB639B68D13FACE6906738C5D23F5B122F6A9F0FED3F804EA7FCB0169F3F27345A4E251AE73F407502B9C1F3B23FC8A409CBB586C33FB018266B0FEBC03F0BAA7247052FE03F10C6B9B3AD7BD23F12D723913CAEEE3F7CCF00CE179CDF3F83B9DA858CE8E73F2E90F86B6D0AEE3F106073220A8BB63F4E4DAAB7F0D4DC3FC4674FDD026EE83FB4FE35D0E519EA3FDF28AB9A89A2E73FE869F248F9EBCF3F13B75CBB5275EC3FEEB79028E3D6E13FA15C344E2112EF3FF020BC319A0FD73FD4372E822D4BC23FE0D92FC0B6F9E83F0048855B06FA633FA8C6AD23D621E13FE08102C4200F9C3F31CDC663D6A0E73F086F54C062D5EC3F12A4E4792DB6EF3FCB51FF204D81E13F8065631CFAE88E3FFC3405D6E4DED53FC408EAA8B0D9C73F8F1DE9D653D2E53FA89E1D8F7DA7C13FD0A82F8D8453DB3F922DB7C52578DC3F966627A05029D03FA830DD4186AFE73F74AD6556DFA6D73F0F816AC6AD67EF3FDC3DD165B783E73FA8D1A802C359BD3F3DEAB199FAF0E53F38E2E40F0713E33FF8A6877183A9D33F4CD29BC1D82CCB3F409707D6E7EEA13FBDC6095CBA47E63FE048C17E89FDC83F28B8F73936D7D43FAE9D26948154D33FEF8DD065BB80E43FA079E550DC22953FF29CA580A4E0EB3FBAB5D5576A3CDB3F58B2B2446C59CE3FF8788D77A312B03F4084A2AA9458C73F004BA9CAEEBCE23F78F8E48460BCD23F887014DAC93CBB3F818C658B287EE73F00E534CA63ADB63F288EDFBB30C0C33F680D58A41C0FEA3FCADD0AF6B9CBED3F68848F554360D23F7C6475C15DBEC53FDA36A4573211DB3F4ED98A716E12E23FDFF6D2866CFCEB3FC2897AB8A2F2E73F2E49C89CCB26E83FCAEDF01468B4DC3FC6B705399A34D53F78A10F19C650CF3F25BC7025EA7CE13FD3EDF46E4776EA3F93ED6BDD98E1E03F7434D6EFF0D4E83F3BC437096E93E93FFA078004E09EE03F33A3CDFD6BFAE73F70772AE087FEE43FF0AC20F3DFADBA3F984D62174F35E63FE86FB8F6AC3DE83F0013FFCC63BBCD3F48E23D3E0912E03FB824D35A794AD03F9411A3A0491DEE3FA54E453ADE82EC3F4D6D398035A5E33FE4BEC9A847FDEA3FE0F2AB72D102E23FFA72661D2EADEF3FD202CCEF65CDE93FDC689E50E82AD73FE43DCFB5A380C23FD7718CF18439E23F68A1B4DBA6EBE73F18E4347DF1D8C33FD25B6E5E148CE53FDC008658C4A8CF3FB2068B37352CED3FB0A4469EE598C83F4F389111E438EC3FE45CA5E90036E53FC81FFDFD0387DD3F0C9AC5AEFDF4D63F9D4F06D3A257E13F4DD7417072B3E43FF6929E6DCB66EA3F693AC5F38AF8E73F2409814A3A8DC73F9033EB2C5ED6AE3FF9DC48CE81B4E63F3F804C674B8FE53F879A1FEBA9EBE63FA4E643309DA3D23F7610C50D18A8ED3F5E871006A081E93FC0DD999E23F3913F46A93D135F1EE53FE49A2A3C373FC03FD0CE29F0CF93C53F5D746DE80AEAE43FDCF43C306854DE3F68E3E882263AE73F56B21C12840EDE3F687106F98A12B83F982A0A123EE3D93FB29B5697A0F3DB3F140CD46BC3F8DE3FE9F057C504B2ED3FA0FBB960FDB2D43F960B35510FE5E63F482406E0C06AB43F76DB20B6750AE73F0A8F2B5385F6DD3FE0D01D28287BD63F4DD39E6A4E57E03F28F0257DB09EB73FA698A27219CFEB3FB0A01CA644A6BE3FB0E367B5E6C2A83FE01BF7AB1FEEB93F70E7F490E971B83F0094D1ED36BADF3FDB7904252F88E83F14B0820CCDA2CD3FE9294E3BB969EB3F21C79D15F20DE53F80F7D38D83C47F3F4DC76BD3A190E03FE84EFFABFB9ACD3FD9D2A3A2371AE13F7794821E8B37EC3F906E3ED0DE06D73FF208FA59B4ADD73F70223705E51FC73F18AF4C2F1AB5E43F78DB860A1110C53FD4E58EE07533C53F30CE87AFEB11C03F488312723459C43F0A4B86E09196DC3F90F08A8571FEE33F4A85282A1539DA3F40EF42B3CC609C3F4009B091E69AE93FA00A05DF6DFBAE3F2ADB1F062C98EC3FDF0F2C87807EEF3F8DE61CF07F75E63F790952FC4A19EA3F8A61BDAC826FD23FE4F45F5D409DE03FFA36E08E98D4D43F60DCD35397ABD13FA645632991D6D93FA4C25948B085D33F541D7F3137C4D23FBE7713220833ED3F9AEB12B27425D33FC09B0B32EC41CE3FBA4378A7BD42EA3F1FDE78DD8A08E83FFAEDAF005E70E23FB0B9370BF072C63FFE748C4D2853E43FF61197746E48D03F6870B26071D2D53FA8892B1CC575BF3F0EB5C65F737AD33FA0FCAA91023E9B3FDC3F9F33331FDD3FE2396538E3ADE23F7A8EC53F400CE83FA4E0EFEF2C1BD03FEE4469258C1DEE3F1A9A262D402ADA3F62BBBC1D0764E43F4FA73BE2ED4AEF3F3D67372CA5D5E03F9C13E3F1402AD23F42EBD5A5E7E8D03F60EE8EB290C2DC3F3872996C2071B73F3CABD56F8148E23F468699B6CEA5D33F08F4783E49F7B13FC2CC8765D72CDD3FE41A6CB076A7D33F0C8192B342DBEA3F7DB09749C2F1E43F5A753DEADFA6D33FCB8C487963EFE03FB381D0BB1E93ED3F02F47C4DF213D23F4653545C02CCDC3F88B5E40787CABE3FC4873E692415C43FB47776B3AED3E13FB4EA4E7A550DCC3F2478A72BFFD2E23F9809BAC9D137B03F61A0CF6E3376ED3F567C4C350A29D23F63FA32F86114EA3F654ACEBC60B2E23F8279C955B99DDB3F1C1F41B08E95EB3F978A6BC63CE2E13FE971D4B1D91FEF3FC89E2D6E45BBDA3F342E91DDD5F0C23F6A5DEA02C352EE3F1849094DECB2DD3F1ED7F113922CD63F3B33229132D9E63FF8CB424BDB35BB3FFCD0B76CD78CC03F5A89DB85714ED93FBE535005209CD73FF885D13D45D1E93FF2769F675039E43F003BCF2192B6753FC4E6CEE196E8CD3FF6A4266B610CDD3FEC1B12B13EC6EC3FA0A3225D7414D23F06386FA37886D13FC8715158A927BA3F58EFD58E194AD13F803DA4510AFDEF3F787371DECABBB73F1E8C1F030C73EC3F540F7FD7CD32CD3FE86B987A2BE8EB3F30190CB422DFE63FE09E593C625BCF3FF4646D79D0B0CA3F38598AF7D38FBA3F9A559672A6B4DF3F10951415FBD7C73F009411ADB561E43F7F5F786556B1E23F086454DFB72CB73F80AC02FAD24BEC3F88B82C580D6DB23F21CCFE9433F3E03FB0517E105FA1D83FFEA07FE67C2BD13F06856B290699DC3FD41AB49DE627D43FB08F46226F7CEF3FC0E5AB745A5EC13F287D5AB608A7BA3F6467C69300F0EB3F9CF51CF1CCE9D33F14070C70BFBFCD3F951C61DD1894E83F0115BF6BE8B2E93F907648E02514B93F18AFE61E01ADBF3FBE888C5D7481E73F9138486A2210E33F83474F6F7D95EB3F48C82147837ABD3FA3C8F4664AB6EC3F667589B9DCF6D63F3D8564202858E53F801C15CA3383C73F284F237CE9CDC73FE4C5F1D21D8EC13F73A15D5A1FE2E93FBE58FD73395BDD3F76CAA5C9532CD73F1E90D576092EEE3F7CABF88E16CBE03F0C4FBE7585CCE93FD03BF2356C1DC93F688728A8442CE83FB89C0C8EB95DC13F98FCEC4F4828C63FFCCF8CE93364D63FE55050794969EE3F89DDA6E3CF0CED3F96A04B993ACEEC3F8E2AC301C917E23F8446F9B752CDC73FE0F23FE8F3D39F3FF8938B3C9BC6C23F8FF8EAC18795E13F60E0DB07DCB2B03FBAE44D10DF3FEE3FAA3C3204BC9DD63F17F09F99E59DE73F0C52CBB9FA12CF3F2417C6510416C83FC03E7E534913D73F7C9E78717C92D63F908EDEAD3D24A33F8AFBE55AD60BEE3F121001534ED2E43F351E30E52473EC3F36F43FB5140CE23F3495364A7EE0EE3FB85BDAF025CDE03FCE0D3E00B0EFE33F833FB19077E0E93FEADAF4DE177EE23F5069F2CC1894D03FF0A7C6F4CDEFCE3F5067338613E2D03FF081F4536B45B93F40FC711C1E34DE3FD6FDB5F8BF42ED3FA4AE3770674CD23FBBEECFC32304EF3F5078F0746F1ED83F22844CECE243DD3FE81F4B3D5BF8CC3FA4A3394F4A74CC3FA616783F4A91D93FF43F5EA44CF8DC3FD571770E180AE23F326ED33EE845E93FDC27D39AB5A4E33F7CDDEACF355AE63FC281B3FDE4F3E83F7ED5F95C9797DB3F27A4627AADD6E33FC1BB70ADCF71E33F6559C05BB945EB3F908FEDF83628D23F8C727D89A2A0DB3FB5FB060744D0EE3FFC02A9A389CAC63F6C9F6451CEDDCF3F8C6A46E576FCCB3F22261B35578BE23F7B82CA4F80CFE33F248E4312634AC83F556B63FF78CBEE3F549A972562ECED3F9E2B64992697DF3F0AB020923674DB3F705F28BAE17CD33FE4E21BF8C2BEE83F704B3D683CFCCC3FF1349D117E58E43FDBF145DD6B07E33F10C73257FFD0DB3FEAF335A442ECD73F8A56FA2CD02ED13FF24BD85B1734DB3FC658BD57A6D2DE3FBE2F7403B2D5E43F0EA435C82595D53F3FC111DE7738EB3F680E52E40318D13F3360FCF56BC5E63F93E9EB69EBEEEA3F937CF9260564E23F96948940ACE1D93FB0C0DDC553CEDA3FB8C72B24DA26EE3F9A6EEFAE321EE13F59AD51CECEE3EF3F68A1D77D8A7DD33FF03E335BFB23D23F522184E1D921E23FADD1925E04B8E43F36E3ACE12AA2D13FB5C97776C3E6E03F6C82801B1269C63FB63FB1D63ED4D33F788361DD13D6E73F4832FDCFC032D13F0675CA73200CE33FCCD065191235ED3FFC5301324310E73F908E18CE6D38BC3F914E9A08FB00EF3F0477A0616C60CB3F443AEB9EE960EC3F1C4F7FF2A9A0DD3F986ED3D989BCBD3F80FD9F3EF4F8D53FF546D5EA4D0DEE3F150F6FBA5F9FE13FF0B507241550E83F1EDD5C4936A3ED3F7D4DBF23B678E13F34151481D69FDE3F70FB72E74262E13F00DF9E203C13D63FE0736DD798FB9D3FF4056C9682EAC13F38C789719DBEEA3F5C4EC716F8F0DE3F4E2772DDECBDDC3F9E8AD1A2388EE83FAC8BEBAEC6F2D63FAB517C66EC59E73F4CFDE9B99477E43F8808BE555A66D53FB3F5CCE3A862EF3F60BE1D7DB0B4B93FD2812311C46FDB3FA0A32FD7B7F4E13F001BC2584787ED3F7E95193D97BEDB3F00C023871B18CA3F43A2F79C5E32ED3F3912F2674527E33F709A65D7B1C8DB3F20527F3684E0A23FC4957D635969E33F4B7D694DFA26E83FDC8E33D30973DD3F46422CCF7C97E03FC2BD38BCC293E33F3490D7B50486E23FE03F32C83F40B63FDB608F0A5AE4EE3FCBEE2E0C4041E73FDBEC71588E2FE03F9052FDEB222FE63F38EA1A06708EE13FCAB0F85255C4DC3F1BB3CEBC69D4EC3F97F4EA9CE253ED3F0507334BA9BFE73F4CEC24C0B166C83F3EDC91672B74E03FE7A1A3B47338ED3F269C8B032DE2D73F5427469F2D45C93FFCE4E68A2218D23FCFE067206840E63FDAAA5ED97C55EB3FA4B173F2FF11DE3F3A0A6D295C0BDF3F44A84A3B9899EF3FE1384CA943AFE53FA2162663E8DCD53FD85B8AD02CD5C53F6A38DAC0345BEB3F602C32FEEADCD43F4E33018DAAEED33F877D253B1C52E23F5A28E593A72CD63F40739720FF34913F0864277C6F29EC3F94038574A550DD3F34F86A62ECCDC93F40A3CE925ED6E63FD4AC6F5B8777DD3FA27070B74C9CD53F7289B191AEC7DE3FFC4E5C492BD7CC3F067CCDD1DCDCD63FCC82E8EEDFC5ED3F84713B587D4CCF3F10807C95C97CBD3FD86B6B9CED55CF3FB04DB67F2BADB03FE1950DEAD15CEC3F74E7817E6BCCE73FB2EB098BDFE3E73F88F07D1D2681E73FBCCCE041965CC13FDCCB871D2581D53FD0A60A65200FBA3F62FFD13074D9D83F0E07EDB25A75D93F274471221F75E33F94DF47357146CE3FD4BDE4846124D13F5CC8501DC06FE33F596A7384C9B4E23FBE5826F96709D93FF26062099157D93F99559FCA20A0E13FC08B7CB8A5CFAB3F00ACEFD59B9E403FFBC916568C90E53FA8D7FB6A51D4D63F6C8B17CDA0ECC33FF4A3DD1971E3CC3FA263B258E8F2E13F8008593B6915A63F270F282212F1E63FD2D62FDF490BD93FC8E905D30B2ECF3FE1335DC1FC1CEC3FD70FBE6E1390EF3FEA5178C06DFBD83FEC69C98284A3E73FECDC32FA5067D13F73164704F476E63F8E5F68D7635CD93F6C523CACD95AC33F10C76FE138F6DC3F7290B4A29083D83FEDE8522BE2E7ED3FADC401F77B88E83FC8D714176B57C93F07F64612A164E13F350E2774BA83E13FA3DB0A3272B8EE3F1BB6E96094B8E83F3E227CF04725D43F3BE62FDCABDCE53F71F264AAD3E6ED3F244A4C993B3FEC3FC1A6C12674C6E63F6464E54BB54AC63FCAE8E96296A6EF3F85F46A5FFDC0E43F8B4ECF8718EFED3FD6AE098C6FCCE83FD8FD52AE44BDD43F301FBCA8AED7E63FDD4506DEF906EF3F74EF40B7AC40DE3FA69F1D83AD28DD3F20EFB5689E899D3F7FA524890736ED3FE7887C381D87EF3FBC085FCDDD77EE3F852AD816357AE83FC8A514BF5559BC3F8097B895082FE63F3650F6D7D75CEC3F461BC1979C3FE03F81CC25016B73EC3F559B8A5E4957EA3F18224B3E1357CF3F1490AD27FFD5DC3F2516BD00ECE0ED3F64C8D6DD5298EA3F204B70110DACE63F2024E97F804EB03FA88DA05B2ED4EA3FFECCD49B6B25DB3FAD1B733A70E5E03FED4073FCCE8DEB3F22C967437F1ADB3F46E47A87A303D63F73F7051D279AED3FC291FC23235DD43F8C6C4FBB409FED3F7C8C91AC0251D53FE1157AC914B9E53FD00F1B436232E43FCBD50386E8B1E43F50F9770BDD61D23F7C09AAA02FACC53F10F3497FF5EDC93FF09E4629BACEC33F5052D6B079DAB53FC0302B0D6ED9903FF890D18CD14AE43F958D6F47F091E53F785335BD341DB43F40DD70850F50BC3F163ECEB1DCFDD53FB017A88D0469C23F441196F9F0B3E23FA753246BCEA9ED3FA5BAA98FCA61EE3FF0A765080DC7D63F0F7C53934184E23FBDA8085C4069E33FE093EE685C7FE53F9867CC29784CB03F98D9FBF7A7F6EA3F48D76F08A13CE43F9536D73D7D30E53FCBCAC8B8875CEF3F60D9D4E290D1953F0BDE9BDA7C87E13FF1193B62ED9AE13F374CD022EEF1E53F06A7D6DB525CE73F385A61D285B8CB3F52DAA116C8FFD93FB22A756A4348DE3F3034248B01C3A63F1622BC455B0BE43FE0C35EE4648FE53F0E79D234EC03D93F808B399C9416BF3F841796A52288C43F54D98335EA85D73F005D9AD3EE54903F45917EE63DB9E03FDFF042E969BBE63FE6636583BD16E53FEB7A20A282C1EA3F0059C4194501CB3F4C75F6549E96D13F13A440D6C8A2E83F308B6E7526A5AD3F05C4EEB9F413EE3F88AB5B52251EE13F7D086A93DA89E83F14584816519DEF3F740C93FF9238CF3F9D84B7748D3DE43F74A35A14FE07E83FA1E4CC724223E13F3C72DB86027ACE3FB13241E32FEAE03F2849D99642B6E03F6046AC8AD6F9933FA0EF81F5E27BD03F27421A9C5ED8E33F1C784B8B2AB2CC3F40EE17CA4006BA3F3BB14DA73672ED3F50B3A6E3F706E03F4A45EBC296AAD63FCCDE66B2FBB2EA3F3CC09FD25076C83FAB4F939A1801EE3F6FE0E3BD23B6E93FA99EADDEC30CE73FB7436A9794D3E03FC091938910A3863FD1841139BC06E13F60A65FB4C816CB3FE84F6C0508ECC93F3573AA186B0FE03F2CF1674092DEE63F0094294F26ECD03F51F90F5894EEE43FE3C643F52FC9EC3F507F51DFCFECDE3FB4AE48BA49AEE23F1A25F5CFD971D83F686248ECF189E63F3B0C3B2104D1E83FC401C8A0D373EC3FF76567463FE5E63FA308F752DACEE13F01F732EDBAC2E73FC725CAD628FBE83F6D1736F5E968E33F867F9E12E099E83F48B15B497744E93F86E11347EE11E33FEA665FA05EC9ED3FDF4083C99690EC3F0E498033CC35EB3F3C4AD29F2F3EDD3F5F2CBC28B900ED3FAF4E0F724079E03F743A2BD46CF7CB3F1FD6321E47FFE93F3949838620D8EF3FF6A23730C005E33F68DDA3ED6BE8B53FF2F460BBCC93DD3FDA67A9D6E837ED3F53DBD64D5204EC3F006C011E621C593F818126670E09E83F0436223FB69BCB3F98F78A7278B7B43FFCE6547FDBD1DB3F444D13C8C01DE53FB6B8A3B24EDCD23F59133CEB0478EE3F1CB5F4580749D83F520B9D3EE91DDA3F440C76D9FF28ED3F5C690F57BB33C13FD92B27ED9512EF3F0E70F69997B0EA3F448E2B4F57CCDF3FE8DD650EAD93C33F9BFFEAA2B7E0EA3F960DCDD6486EE83F40FBAFF36A90D93F8C75B317A029EE3F568FFF06DB7EDE3FDE1D7471F3B4E23FD8779C701700CD3F709ADE5FE44FAC3F485CF4C90A57D83FDA8F35473A7ADF3F056F515A48E3ED3F748A814F01BAD43F8614E5AA8E94D23F5080D4EF2C1BE53FB0E5414E63D0B13F0FD8CFF3A0A1E23F780E39F40682B33FBE6A1B7D5009EA3F00F0C71EF729C33FE8DD318209C3CA3FF8158B59DCA7D73FE8A61727A7C0E83F03B4A3F12B99E63FBC0ED7DA7738CB3FBA52C3126F6BDE3F03598A824417E83F58970F1F70DEC13F45CC92CED239EF3FEC9BA89921A0EE3FD0B59A7EFBF6A53F721429AFE478D03FF3469DE6C718EF3FA2E55B8886D2D63F48483010C888E23F59E2A3A770FCE13F00F2BE345B9ECF3F20E89411915EED3F68A25D9F0E00E13F7C6BD8372C64EC3FA82A71BA6A1EEB3F668628E94638EE3FF48A278BFA87CF3F72D59EBA4EF7D43F367265E08596DA3F7070C57E3DBCBF3F18763AD4B701D43F4B72EEBD1A99E03FCD3A8CDFE59EEE3F306DDDBEFC38DF3F2C298FB99706E83F184BFBD3D2DBCB3FC5E538CC0D8BEE3F123A55DF0613DE3F8B61504458E0E53FD830F479E2E6DB3F457D4C326ACEE63F611ACDFE05EAEF3F2CA87C4385B5D93FC054F5EDAB20973FA84174AFE669C03F5E4A47900967D83F5AA0B41A6B53E53FB842A8EC1665EE3F789A2A96E31ECF3F23D698ACED43E93F126E48323A99DA3FAE7FA50F2577D43FA7795ADBDB82E13F6C336315732DD73FC088752B2825C33F466BD6C52C62DC3FB9FC2BB75BE7E53F0009D5703293B23FF918113BB285EC3FC760C985FC72ED3F600415E79B1BA03FF0D5551CEAD8BA3F2EE99E20E128DC3FC1A5D36F520BEE3FFC12FACF4E63C33F3A0A1A376FDBE73F9D8D34964FE3E73FB7A48733BAEBE13F60C89EC9F3A0A73FEC9463FAA974D93FF875DBE0E8C1E73F845A50951CFFE73F9CD64C3F0E78CD3FB2D3A1D6A0DEE73F03D76C8BF825E33FECE2A1452F0FDD3FDFD4678FAB6FE33F2336DD46214FE03F4E7ABFF7D627DD3F3D2B65107637E13F0EABE82717FFD93FB090F69F59E4DE3F90985F3FBBDEAB3FECFC0B452EE0D73F103FA6D2E5F4CD3F0C8A1F743963D63F040F9743D190DF3FC19083FCAABBE63FE5EF036476A9E13F2C8CA99E38DDC93FAD1FDBA5B519EF3F726347819202E13FD1B3F9401B66E53F32CE3599C705DC3F8532B05DAFBCEF3F36E723470848EA3FF467A776CCB6C63FF14CAE89F905E73F08F6A087CF9AC53F24EE768877A6D53FB0142EDAFC5BC43FC3D540103F81EE3F80C65138C8C3733F89FE51F1A38BEF3F3F8A1395CD6AEC3F08D616E142E6E83F70DB66E9C657DC3F532C391D8ACAEB3F1CA30049AF11DF3FE0A4C0B6588B9F3F978A6608734AE63F2C5F34959456DF3F9483DA60CFB5C13F51234D344741EF3FF0D0D8D4FE2FCE3F3016B3020BA1ED3FAA501ADCBE29D23F1C2C400D25BEEB3FC2E0393DADE4E93F0BC404CCC8ECED3F2CE968C32CD7D83FAE9453A4E01AD03F3834AF6151A2BD3F4673EBE8C31CE23FEEAE784AE12CEF3F86E4B38EDC9AD33FC5D4EA077975E13F95848758FF2EE03F18BB621F5ED2D13F9822FCACC218C93F88EC7FCA4D60E43F083804B3206BBA3F3C811A2FBE8BDE3F0C29B913BAE1CC3F601316B10F63BF3FE636B945AEACD73FB95C3E05FCA8ED3FB09B531ED645CA3F186AA5D8B7EAE23F3850832E20AFD03F8EABADB313D9EC3FFC27809CF1AAE93F68C5A3D149D3EE3F9F09427368F4E93F3A58D0FD82B3D53F20EAB2D1A538E03F32B7D514D8D3E53F20F4602904FFE03FB07368BD5557CB3F8819DFB76591DE3F448ED177E38CC83F88F5F4B07136BC3F9C454F1B32E6E13F40754638D684E93F40E991A646A69F3F082DCE2113B6DF3FF866BF5DB937E13F44AE5A30FA2AD53FE2DDBF29D8D0DB3F7B8A83AB6000E43FCAFA06DE708EEA3F6B8009888F36E13F7B9C864E346BE33F80FE474C171AD43F002846ABEBB05B3F3E180C28ABC1E93F52FD8FE2D3D9EA3F40A243AEE801AC3F34B916EDE13ED03F6023C3006514C53F74028F8C37BCEA3F6010E1BBA208D63F245719E7C62FE53FA98F35B414D0E13F50DC90F0D21FB33FE14AD1A2F483E13F3CB2B685BD99C83F64E62DDB36D1DA3F6DFDDD62C16FE33FB0955183AF0CC83FF4A39664EAF9C33F50758DA1C605D43F8CDD408CC1E7D43F86859FD9A23ED93FF0B0057BBF0CC83F9277EE084A0FE63F5066CFD3D28FE63F509648629FFAD13F1EA25C6F1E47D43F942E929D44BFED3F1FC68295FF80E93F481E87C7E366CF3FE418CD8D2E44D93F0021A445158E703FEDA79BAF60D7EC3F08FC76AAD1A7C53F93C468627F9DE33F27119E297F5CEB3FC2C35E276411D63F40042D44BF6A8D3FA8046417B815D43F34378BACF89DCC3FE05F2F1618BAAB3F7B1380F5040BED3F86B7D1BA49F7EE3F0003BA5C5687693FA0DE5DC784A4D23F7E06177FB655D53FFCC37E1698ACEE3FD17B3B228EA6E23F9FCF20E8548DE73FB54F0695DB1FEA3FC5F84F095E7FEB3FB97C9CB7A7D4EC3F888D8CE50C3ECC3F8044BC3E34A0B83F21ADE544B0BCE03F018C86CF9C51E63F7491E15BE628EC3FC902C137951BE63F76ADEBF5DC09D43F9A157535A2DCDB3FC97ED055421FE23FF43C80BE4F0FED3F5C466AC75DDAE53F1510BFC217F3ED3F387103A725E9CF3F2E3A714F2A44EF3F7DC460F30E71EF3F4CF35106E4B0E63F385A0255F6CAD53F487605A2D977B93FF1079C44CFA1E03FD62370DA3DBED33F19E0226A75DBE33FF410175B2B83E23FE07A8A33E520EA3F166967B5E440D33F4D621FFD5BF3E03FC3AD24829BF5EC3F9D65E360B642E23FF034FC0129D2C93F40C7AB8B11ED933F4521E04CF964EC3FFBB2C5DEABC7EB3F0A0737F045D0D33F5D11A91B2C25EC3FCC27027BD0C7CD3FB07574195AD9D33F9866A6671813DA3FEC75B3E2847FEB3F3AD7C730A7D9DC3FAA030C6EEBEADE3FA13ADE136285EB3F08AD70A92A34E23F2A25C01F6612D13F4C0B40AC9177C83F2D3FB11A4B5DE63F4726C0C2F695EE3F2208E668AA6DE23F508E9DC953F9AA3FB05AE8ACAECACC3FF87B9F7A6A44CA3F566E20D80BE0DD3FFCCC3FEB4C4FDC3FDC633E491F99C23F5AAF5469AE92D73F20F7450AEEAFC73FA81E67708828BE3FC45E6B48F933C23F008A9EE292F8DF3FC5EC654A4960E33FFF41C4AC227FE03F312CFB00406EE63FE806635651B3C43F50A4046211CDB33F6FA91EB2888BEC3F5E396C2C9891D63FB9D7F4845CF9E53FC09F243CE550B33F8444FDB43DF1CE3FEB6B1B5A9B9CED3FB86184D96868C63F30E5A56C6F48E03F942920EFB86BDF3F40104C330FC7DD3F12D7334A758EE73F3A5DD84E055CE93F2E793A0BC527DC3F151E0B731CBEE63FA9A7D281CFEBE93F5045B50FDABDCD3F73C26E0637C8E33FAC212DEE0497D73F2FEE8FAB4513ED3F2A8E652532B4D23FA3B2A6EF7892ED3F178144CB57D8E13FBEA1A26C9C6DE83F06CF99F533C8D73F0A7FF38EA61DE83F40A57214A797DE3FC6D3215D032CEF3F732E652930A3E53F1CB4F90D6530D53FF40898FE5C27E13F5725C2455D34E03F2C8DA178B904DA3FC0925284F4E8E53F0F508FB605EFE13FFA1AF82A37AFE73F1037D9AEE712AB3FAC6B579C43FADB3F20785CAB8A3DBB3FFB62A06687D1ED3F5608EEBE1FB2DE3F68AA1AE65608E23F9248F22F3F83D23FE0977168A13CB53FF0B5B8219DBDC63F327ED964AD02DA3F05F8B16C10A3E43FF05EF1078EBDD93F6DBF79600233E03FA973A7F60D1EE33FBA6B23A6629AE43F1C474C22F8B4D93F60AFC5DBC0879B3F5EACFA07F5BBE83FA5AFD449D639E03F4780DE4F9B25E43F545CE0E3C49BCE3F485F7712FC2DE33FC0D81D4AEAAAC43F247DCB8AA4A0DD3F18089FD9BD1FD73F44B6EE0E90C7DD3FBE432CAD1144EC3FF059F6746D77B63FE0A0E38B248BDC3F3A05BACDA83AEB3F986343D5EB0AD43F0A04F93E6274DD3F84690D9862B2DB3F33554AC34F6AEC3F5C481866377AC33F81705EEEB108E53F04C233037C35C43F2458B1E82577D23F9E16DCE6993CD23FEE0C0F3CBD79D33F05F554B8B9D8EB3FC867281BE87CEC3FB9597D007EF2E43F924735A97083D03F6AF402D751AAE63F0EEF67AC4524EC3F1420462E2E46CE3FB02FFA15BAA2D43F3AC6E485B2B5E13FBFB22BEE5DECEE3FD9C70BAB6013EE3F4967888A703FE43F00D0E8FD8142E83FF75C904AF293E43FD0F8B7A81A64EB3FB6B6E09D1D1CDF3F3C60A662F9C9D63F6D8B99FADD7FE63FF0AF4EBD1CDEC43FB0F75529D5E8BB3F9AB87F8FEE15E33FB47C01AE0B72E13FB5C2685924CFE53F4CE535E39F83C53F705122F11705E43FEC72AFA27CFADB3FD80B890C461FDD3FE4D87827233FEE3F79E7C724A7BCEF3FCED9BF806B64E43FDD3FCC6DDBADEF3F58468570879FD93F5989B6138BB2EB3FB7D50F6AFEBBEE3FD34F5E27D370EC3F7C2ACC9B3B1CCF3FB03DE420C767B33FD4F4E69A1D0FD53F2042097BDCF2A63F7671FA201B73EE3F2095069EDB12BE3F6DE6758D7503EF3F80F62919C2C8A63FB8CA4852DD4EE53F2F2171CC74A6E13F009DDA6F252BDC3F0CCA9BF298D2DC3FC406C3422590E53F9B866FC6BAE6EA3F52F3BE1F95DDDB3F84530AF44E9CD43F83511118189CE93FAB4788933CEFE63F2ADFCC2D3D99EB3FA049462FD9A0E83F2640A4C143A1EA3FAACDD9981410D93F48C72E600EAABC3F6044653FF061973FB404027F85CCE13F8C5BF5F3F99BDC3F92DAEBAA13D6E03F563FBB004982E73F2A3BC3F854BFE43FF433EF0BE11AE23FA0CAC2D1DA47C23FF09A3E24FE1CDB3F748C2A502547DE3FD7E97783587FE73F704947EF42A9D33F66DA9D5D46F2D83FEC7AB8C6900DD63F80F53FF017B5BA3FD849B2D8D182D23F1220475333B8E43FF99773051A26EC3F44EB07EE7686E13FDECE9D9546D0E73F48CE913103C7C53FE20D182CB672D63FE84F63B75436B73FD474C585860FEC3F3071892683CDB23F8BB88C6F3A08ED3F58E5D5CF6FD4C43FA103653478A0E93F0095160A8471CC3FF0CFCA0A009FED3F50A7889FE8AEBA3F5EB6643AF35EE83F80E6EA25D9C2AD3F389C9A0617B0C13FD4EA7CF808A3C63F30C124EEBAA1CF3FD806F14CD41DC13F3AB4CE4C343EDD3F0A986CAF5ECFDF3FDCD34C49D694D03FB274DCA89F4BE13FC69722182D24D43F8862E69F3E1BC13F9F10F597BF37E73F8A10797A4EB8ED3F74877ED39D7EEB3F45E9F7EA013BE53FF00502185339A63FEAC2C1E9DC1AE53FC8D1995B2634E13FC0F6F7786B8AA73F7C6E97E3D3EBD53FB8E57611067AD63F7ABDACBBFD01DA3FE68CFE32D632DB3FC082FC685E5AD53F12911E4BF83CE83F92D5EFADA736DE3F400D74F23B2AA63F573B15D4705BE13FE0812502B3D3A43F687463E98C58B53F14A68262EE11E23F9484F33CA694D83FE8C0DB5F73C8BC3FD6DA14F9E7D2E03FF8724CC93FAADC3F9DF294F577B3EA3FA4C0FE53F5BDED3F59E7FD2D2D16E13FCCCEF6B3F417DA3FA0D47E0BB8DBCC3FC203793FEBF4D03F36D3D1A4F437D73F9B5D30658BDFE63F6317996F6F33E63F60E3BA15B5D6AA3F696041362011E43F1304FFB2C9C4E83F96342681AEDCD93F886A4E277913B03FA49F9205161FC43FE0C3F9317E3DD43FD0460859F070E73FE84688061D91D53FCC15BDC4B9DCD73FFB1AF9EDCEA3E93F7E8CC58F0954DD3F20A1941757CCBD3F3F8603B889F2E83FED74CBA4E9EFE23F30B49B0F6E03C83F80F863A7E60E753FDC7A6D7DF685DA3FFAB1E5F40A61DC3F478F8FC3BFD4E63F20FF31C5A436DF3F903781EC4615A93F7FE49E1BB56DED3F3CF622513FE9DA3FA74D6B04972AE03FFC53E09B5D55D93F9526FB71293DEC3F3C262B8CDB97E93FA885851E4755CD3FD8F6F68688EDE93F94CCCE5216A8CE3F79C3F01496E6E93FFF9DC25922DCE73F36E32F30404AD03F00272BDBD1F0D13F346C5AF06A50D53F74C2D9C25056D63F39CF326F0A27EB3FFD61DD5FDB6DE33F89CAEBD2E970E03F3ACBD3ACCC28E83F2272CA2F3F30D13F80F76D1D647DDB3F8972E45ECC57E53FC650BE346742DF3F40DE744906C8C83FC0334781D317BF3FA4FFE32E43BFEF3FEEBFD6DEA206E23F5341A0CC90CBEE3FB8A53A7AD36FDE3F00C0434EC4F8273F790D0D0076EFE33F50D8F76E8FDBD83F66CE8A3E779DE13F9B9207A34694EA3F6CF3E1D62815CE3F688CECB45A88BF3F0A1A828D031CEA3FED2C9CAAA1B2E73F57606C133973E23F3612E561B072D33F65E4FD2876F5E13F285C1B04AF8ADF3F9EBDBAA78FB0EF3FA5BB4E9B159FE73F15CA5B436138E33F3004241D6F18A13FFC0596C6EB16DB3F1C5D976FF17AD43F3FEC0FFD442CE93FA9CA62255141EE3F1018B6F9C9B6B43F222D461056C4D83F77EF5EE95706E43FF0FB2943CA82A33F6C6D8517D800C33FE5556F876506E03F506F528BEE27C33F8C63422C5C50DA3F90B73F0DCC47AD3FF8E66969014EB93F110F3A2A5CDEE63F8C1E4F5878BAD13FE6FBA828130FE53FD0B762B94F37AE3F1F6EE60F132BE63F80A9DC32211CD23FFF8187A39989ED3F6C21D0BF9D22D33F440F92B16F29CC3F2ACE83A7D546D73F54791D1389CBD73F8821BFFC8701EA3F5D49C10197AAE63F2BF28F420FDFEC3F80D77D076B07BE3F2C69ACC39570DD3F68EAEC77431CD33F80236C25C684983F798423CAD35EED3F20FB453B9ED9C63FAB2CA3446E6DE23F08F8083AB265BE3FE6722192BBEDDE3F3057A8267CAECC3FC0FB20F64D4AC43F2230ADA62FAADB3F50D821D0FE06B53FBC0BF0274AD8D43F323D065D3036DD3FD061CF74AA03BB3F577B407717BAE13FC4842372C5DEC03F824997A929EEE63FB6490C1ED0AFD03F2B9BF959F607EF3F34B9D2F0C2F4E53FA0CC0286897BDC3F74D250353202C13F34347B5496A9E73FD9573ED0A423E93F7F4F1DD9E2EEEA3FF0944BC6E89ACA3F6E6ED9B0B13BDF3F80FF58AD39479A3F85EFE352253AE93F6D3B6D972263E43F0402800F64BFC63F986E2B8FA113D73F443622341C03E83F4408A6423C12D33F18E3BA02C0D6D63FD0DB26D49F0DA83F9CDEA6280A91C93F508F4B01EC3EB33F50A49545D713EE3F95ABD0971F97EB3F2646CFC47C54E43F14329090B127E33F0657BF0200CFEC3F401E16E5BE59E03F2874AFC14F1CB73F203E9A0082DE913FDE1646A03BC8D23F50235BDD64ACE23F2EF155F02961D43F8DDB92C35517E83F552B325DB912E53F305A23F83AC0B83F14E6F53E2CA6D33FDC314B65B147EB3F78E41A64DF60B93F09DBF1200DFDE83F702818FB3BEBB53F2E1FD5C18B43DC3F56F7F4243255DC3F168C7ED65684DC3F15B07C5EA6C9E73FB4B02E19A005CC3F1E1677E626CBDC3FAC1AD7BD0CB4D43FA88F111B071ED03F2CADEBFDD794E93FC06EB113A1F2B43F92DBD8D5D77BE53F20060BDBDF14EE3F261BE278A265EC3FCB55DAB67F13E23F5444675C42BFE13F8C05DB9E4F05E03FD74264FEE314E43FFC7CFE6AEBD5D83F0F06359B726DEC3F209ACF3813B5BD3F905C6EB2807BB53F1E4D76345F99E23FB28C860649F7DB3F38503DFCFBB2CA3F2F3D6460BE8EE93F705DDFBF3220BD3F1E81A77E1AE9E73F36C5F4F25CADE23FEFC5AC699B43E73F6B3C91AD5871E33F063D440A79E3D13FB62073C2F27BD53FC057EE83DAECCA3F4008EBA7EE49B73F3C871877B149D93F503EC6DB782EE23FD07D286E91DCC53FBCB0425332E8C43FB7354EFE0F90E63F90E8186B3BAAD73F3C0B8698489ACB3FACA7B03B99A1D63F56EF03EA6332DE3F60FC7D0D964AEF3FB3A69E9FE06DE23F1048EF466B1BBC3F708E409E06AAD03F564EC0E0AA48DB3FC2B77FAEF2B0DD3FB4FCB7E6CDFEDB3F762CE6B18E46DC3FD653C51DFB5CDF3F7A0B09790DDCE73FF152CBEFDF22E43F9618A596AEA2D73F2175D9A11B5FEE3F0AC7D75A9F84E23FE0997A6D202BBC3FACC398417C5CC03FEABD79A207B5D93FBC79F93F5E4ED03F8A92FBFFC59ED63FB8A518C172D4D63F13E43F1E8F8BEB3F183F70AD2D3AED3F88A12D3C4468D83FDC7717635651CB3FFD90658ABF8AE23FC6856C02F504E93F7A12582D928DD93F60C1D7B156E3A23FA462D3FD78A8C83FF22AA98DE5E6E53F040D4A8534CBE83F04FE99E995E1DC3FF9C8D16C1D9BED3FE00933E9B030EA3F3AF948ADEAC5DD3FC8C06E1E0A7DEB3FBE79BBA8B462ED3F74BAB0848933C43F6F33A05184E9E73F4A866685F37DE43F746A52EBCDD7EF3FD515B10533CDEA3F6889DC7AE20DED3FC379CA47333DEA3F0376B1B966BCEF3F89A13B4A43F9EF3FE4E8A418142BE03FC0B4B3E8DD43873F7C29B9AB2960ED3FA042DC8746E8AA3F0CD88FC0C1D7CB3F7E4B8EBEC4B5D23F6CAF9C0E6ABACF3F1C48EDF6A136CA3FC23EDC7FD1E1D83FD279BAFC0CC3DB3FBC4116FE6421EE3FD4C722D5A7CEC13FECDE50EF9A97CC3F088EE514A8ADE53F9068C9A2D3BFE63F50C336870668BE3FC01E7163F482D43F30DD5501043AC53F306C1D72F872E43FCCDFFA40B5B9E83F6F1F74424E83E13F1152321C9520E13F8A8FA12C8992D03FD667DCB7A919DF3FD8B8A8932C04BB3F99786B28D5B6E33FD093BACDBD98C03FD3E392DBC6E3E53FE80110CA75CAD73FC889F795F90FE33F2D2F10340D9EE63F300A809F332CA33FAB34710D3DEFEC3F0B6C47E28842E93F9C55F4147FDCED3FE0367D74F775A53F059AFCC6A166E03FC054D9874745D53FAC2CA54F970EE33F3C1B67984B12C43FDABC80254BE8D13FD263AF0C3A04D63F49F7ABF925B5E33F63377B6B9FDAED3FF1E27DA093C2E33FD4DF2C928EAEC13F3A55BE1ABE82E83F780E3FEE7ABFCB3FB322CA7CB05AE53F0032BDDE7335A33FCAB6C01C13A3D73F00E758E22E8D743F65FB4B229DE3EE3FC0F4A467147CAD3F1E52A03CED3CE43F1724957A5471E73F7C2B0BF6D8ADE93FC328FB81BC4FE63F0FCBB3A19CB0E53FC75521E6B016E33F60A02425BB7AB53FA633F57BEAE9D43F74E6D4A3F789D33F98B76827F4A3E73F68D866831E6EDC3F6C757AF7B13DE33FFF7157009B8DE13F84CBE9FF40FEC53F54C6E8DB37A9D83F83126C9AD6F1E73FF801B8329491B73F605C3AD72674A23F6A43A965E8B8EB3F9C0285760F26CE3F78A46FE70112EA3F0CD9561D5340EF3F33601F2C8EA0E43F007C2489C1A2993F809BD320D5057C3F1A44268CF39FEB3F50BA548D39C4BB3F527D13646751D93FBE7448E18AA2D53F64658484FBE6D43F9007C02E836AB33F5484A9F55120C73F055D99AB4F57E73FD0B3393F820BCF3FC853873A5732CF3FFA29C7552AD7D03F7DAD4237956DE73FD249CDC4E7D8E63FF852A10605C3E13F278A93C17623E23F090988FD6E75E53F38DBAC535B9EC23FEEA5FE2B444EE63F90E0148071B6C23F8CDE0EF4873AE93F65A3F84705BBE53F14C823DF8C87D43F0877FAD85C13E13F484214483316D13F57DA51BA07FDE73F5AB208408A61E33F0131E85B7F06EC3F249321DC4268E73FC080E479F185D23F204E30818F34E03FA2D54C3F8C4FEB3FC0C4C19C6075D83FDF9EC4276205ED3F4C88E1465CEEE33F567B992A0D20D13F5C1DEA5A8C6ED03F4413BB6CFDF1C53FB47CFDA64A84CF3FA05925C97878913F85C765020610E23FCEDD2CC5AE53DC3F1907375D552BE83F5C361BB52503C53FC0FE57BBD99B813F9C817F555A3BDD3F326C518D93A9EA3FC37BE76351ACED3F60A4AC10B394B53F2D4E467CE5C9E73FA73598D7314BE13FBD63F785F219E63FB01FB1D2621BD33FF24F10DCE76ED23F919D258FAD61EB3F708DFE1B0242A63F7AB4328B5614E63F7AC09026478BDC3FC0C206AAA467A83F411A9EEA4FA3EE3F3FDE74AD606FE13F94515AFEA798CA3FAA9A7A417F75E43FE2787C456095E63FC8AE0800436ED13FE26923AF51ADD13FD9763848D05EEC3F60C0324C275ABE3F1A0FBB510B8EEB3F902622A43568C23F8A3250366653DC3F807D1F1F1869E63FA251DD3078DED93FFAF6E8B89CFAE73FC855E488F0D8DF3FE08B87E81CC7B03F980B334F0526CA3F222DF1104E63D53F3CF74E994210C63FB8A715C9AAA0CE3FCE2F217B3476D33F619E5074CCB0EF3F621A958D0708E43FBC171CB72074CC3FA87E19412BF8BC3FA438253553BCD23F282F033732FFCE3FDA0296B03CD3E33FE985E5A953D5E83F807F5C5DABA7D23F3756F50A47A5EF3FFFE29ECACCA8EE3FF2F3A2306FB5DB3FD8888104E50DB23FA8FFCE217185BE3F1BE90BFD16E7EA3F116A261282ADEF3F8800AFFEB78ED13FD584125FF0B8EF3FA3980BCF93D5E93F81CD264FA07BEB3F961D1C2A9FECD33F1199ADE0B1D1E43F3CF591DDCF86EB3F729BA2D87081EF3FBE61C954A615ED3FACCD0B96E1EECE3F4EC22C79CCA5E23FFEAB43D98200E23F56F49037F23AE93FC20105586EA9D43F205035187498963F7AD1534F7B70EC3F80A0AA9E4A8FAB3F8AA8BD25E005D43FB67C90EFA2B0D23FA6A76A8424B9D93F44D1E9DE21EEC73FE44742246DD7D73FB7F5B22B8929E43F94CE30142D52C43FE46CFA39B72CC43F4D66352BAA7BE33F08D421363896B23F00DE08897EAD8B3F873F1A52DE23E13F6040FFA4CDF2E43F12009CCBFE64E53FFF66C577DEE8E63FA3E0CFD65B53E63F3963A74452B2E63F4DD8BF2DC374EE3FD8B6CC1C5874C33FE589E4E39A0BEC3F00F44C808D0D933F90882E448233D73F1EF95A79362CEF3F1F23B7B894C4EA3FF447432A498DDE3F665D1715E289D43F9DD63F5EAFB9E53F9A7F48AB30B2D53F3F67CB36A5DCE73FE7F0F0E881E3E13F17F3E3DE6D8BE33FA8D60BA2F1A1DE3F18FFF077D286D53F9B470238C396E53F46346014B3C6D43F94EDF816DD5ECC3FE344B83DA66AE83F728BEF8347A7D03F3CB2FC3DE991D23FD863182A6E86D93F98473AE8CAEEB73FD75834F28BF4E33F8811298EE7FCEC3FCE8F65F1AFF8D53FAA56394585C6D73F58C18C599AE8EB3FA7613B69CF70EC3F2D07BCA20053EF3FC8575C721DADEE3F7A17C1ED17DDE83F1CAC4FA09917EC3FE0E149E9670D993F8CF69239113AE53F20CED06F0D5B9F3F943C97B2A72BC03F60836C5BA75F933FE8A46BDE339EC93F4B0E7C95EF7AE63FFA4B58A2188CD33FD03CD5E2B9C8B13FAA903937093DE03F85AC127CA5B4ED3FC483F815E021EF3FE02854A83B3C973F45A0C2948F69E33FE5123D826411ED3FDA4DF0655214E93F6459721A5386CC3FB44B8FBD2B6CD43F1EA8C5EDE86BDF3F34D828276BD9C13F5EAB7370EB5EED3F0C78C2C5B2C3CC3F40E44253A72AA43FF0B782AB48AAC23FDA1564BF8A53DA3FDCBCB75EDA4BE03F10CDA77438A1C13F1A30DAECD818DB3F31A645D7EA66E03F385912FA28D3C83F2817EB5ED397B93FBC45B24FD254E63F8658E63BC4C7D53F149951C76886E83F3529E37306DBE83F4C790858099EDD3F1AAD856E7EFBDC3F80B666551993A63F4D61F05F59E6E73FC0E5F49ACFC2803F6BFE07D3A277EA3FC7D6E5DDF15AE93F00F7926B1FA4D13F1CF5D82BC634DD3F9E6208653952D63F982FB84FA647CE3F987C738EDAB6E63F6040E5EBE24A9F3F34F59531F717C83F65A82AA56251EE3F2095211E47BDDD3F440CD899703AD63FA8F0E171F19BDD3F9891B70B6363E43F18D94D005AB4C83F1E275B05B182E13F64239DCD0541DE3FFD9AA59CC45FE43F0EE458C42110EE3FF46F95226089E33F005684C0CFE8B03F887D1BD96ECBDD3FE0C505D3696FDC3FD87967BE4006B33FB3CA26F119BEEF3F8735BAA9112FEE3F5F3898E7A083E93F707B275B0DEDE23FAF40B8B1584DED3F5AD7F6CFEC33E13FD09C790ECBDDA33F7003EEC9491ABC3F0CA3B816EC5EDF3F8A9E21DF1AB5E73F9BD6EA8A7D93EC3FC452416764D9D83F408E82ACD710A83F4019E698F539953F6A9A19FB43AEE43F30384E7642A2AF3F782EE5924C30E43F8CEC955F024BC43FE90FDDE0344EEF3F30F73E120E4AC03FF36F64E21F25E73F2BA1F744DA0FE03FC0C9B384EE89B33FAAA82F36E1CDE53F466B8B91B39EE93F709524DFB37AA53FAC2C89F306F7CC3F95B45FFC59CEE33F4252AC649171D53F3E8ED677175BEE3F0AC574804505EE3F3BBD67F180FEE53F4499B6D1BBE1D63FDC71A9039CCEEA3FBD1FC235925DEE3F806BF268FDDBCB3F79D3D4650017EC3F3A80426A7052E63F7ABA23487096D13F92CDDE3C1336DC3FE6153746BE47ED3FDA9281184A00D33F9A292D0790F4E83F884DF20681A9C53FEA6D22B3D46DD03F03C2C931D9E7EE3F82325C55D9C8DE3F32218A88F36DD13FFF8938FC89E3E73F7A931A9E0186DD3FBC3883EFF627E93F40A00A15659D9D3FD94F18D7AA14EF3FF02ED6711976D33F5EC0AA37215BD93F90E7CE747712BA3FAFB305B9A386E73F88272915E958D23F003A4B02F159C53F20CF6A250B5FDB3F3EE1307F6FD5EC3FCAB4D14E23AAEF3F26498FD43932D83F4BEDC546E9A9E33F0CD752C2CCE1E63F646F7E14B3AACF3F2234054B440FE23FC872511443B3E33F303EC3649D3EC73FBC00D817615FC43F6532A0673060E83FA4C4FCD6A9BECA3F687113449620E13F0ED883AA610DD53FC2E450987608D83F1F53E7E8274CED3FD0329CEBAF34CD3F829B328D3411EA3F98111BDF17D9CF3F105AFF07707EAB3FDFBEC4A4AF53EF3FDDE72AFA3BF6EC3F88904C06BBDCC63F8265D8BE7253DB3F60837E4ABFDBD83F004043691BB4BD3F6C29DDCADFE7C03F6ADBB6D80721E13F00CA73EDDAB9E33F5CCAA34E359DCB3FC0131F109220CF3F321BF5480529D63F50FBCCEC1C7EE93F7A4695C4FF26D43F7A2175F65424E03FB0495B64FBA5D73F33A7DE61DD0CEF3FF5332BB362A2ED3F285C3D4990DDC13FC8BFAF3A8BA2C83FC4954BAFC71CD83F548A9E025DA9E43FDC36FD025848CF3F58CFD4040FCDD93F39F0ACF1C58BE03F80DC6A7AC476D23FA65DF3BDC85ADD3F6684EDAC4751EE3F9E9E7B65DDE7D63F7EAB47DDB485EC3FDE15A89916B0D03F61234E4689BDE73F576D26CC47EEE43F10A7E33F439DA63FF6D54374E125E73FA17F4AC26695ED3F44E30A67E603DA3F2475B2C12B4ADA3FC01C1222B001E33FE4C3B8FF425BEA3FF32BB4AEFA6BE13FD254D1725E0AED3F6E3059B85FFBDD3FBC18806A7E4CD63F645E2818AA8ED03F58D3348727ACE23F749AAF12F637CA3FCA3264BCDA38E53F1D7F93B8B3BBE13FBC8F901BF638C53FE03A8B75905CC53F324F1206EA4FD63F4823A2F05274B83FA5AF0851E2AEE63F5A6E0F8219D5D53F74CAD2E6FDB0CF3F50D278B86C5AB03FCE35D0D46882EA3F30CB44C6A849AB3F34C9E9DB0C27E33FDC754D42D674C03FB892C2C808A7B53FF48589F92D4BCF3F1A1ABACFB3ACEE3F74986BDC4E08D63F5704B98D4A49EB3F3DD3806990C8E83FC7B66D4CC18EE53F2121E7A8F865E83F5C17BDD04198DF3F24E71CAF95EAD53F3CA1EF6EBBDECC3FE4D57EC77703CB3F5BA11D795A6DE33F7515A8B28B88E53F28D36DC9CFC0E83F6BCD52296A1FE43F08E9D7215507D43F53A23D58B3A3EA3F001473BC4142C23FD06D4215F6D4B63F34EFBCABA10ECC3F26F5D90144CCDF3F066EFD31CD52E13FB54920B47165E03F5913C53F96DDE93FCBB2AD531883E73F382F869FAD21D93FA8ECA58AE04EEC3F1D1780CD8E55EA3F4A3033B44E8FD73FBE201774A9C6DB3FCE9A2FB7B76EE83F00BDA10E7C8C723FE82999F834C9B93F5662E512A893EB3FC6F775F653A0EA3F53C862F928AAE33FB43F752FE5D0E03FDCE87459A626C93F89CA231804B5EF3FDBCF1F618148E73FC6A134B0FA11EE3FB453B9AE2287CA3F48177F4040D5CE3F6CC73A3929B8ED3FDAA39C2BDD9CEE3FE13AFEFA295EE83FB4D7EE299D26E73FC042C486E54A9E3FE8AE3FBA999FE13F961911E563D0E43F604583CEB309C03FE575D2384EDEEB3F721639853A3CDF3FC8F5F4B6A2F4BF3F7A185A789610EE3F3B8C38D5823CE33F58042B30CB1DE93F9CF11E8DD8CEE03F0C61ADD8930DEA3F1E3AC7C2D451D03FD4B8CF0C946CC33F6FB6A8E7B6D6EC3F0821AD600D2BD93F945EA091CC1BC13F3017109A4785B43FC4DEC76429C2CE3F62B71265292EEF3FD4868D8EA39CD03F1C09EC210CBEE33F9E126F2CD5BFED3F8AE83D05E15EEC3F3E74FC545FBDD13FD0F89E2576E5EB3F421693997BD6ED3F64AC06658536D83FCACE0BDC3C9EDF3F4C4936D50687C03FB8AA928E2F65DC3F5842F0F97936DE3F77414EAB6A40E83F61A6FC57E5F7E43FA0D5018E2D48B23FC50424D83F55E03F150710792AD8E53F008E13858E428F3F2914A4058B44E53FD1B6694E750DEC3FA3F2A