module {
  llvm.func @malloc(i64) -> !llvm.ptr
  llvm.mlir.global private constant @__constant_101xindex_0(dense<"0x000000000000000037000000000000005C000000000000008000000000000000BC00000000000000EB000000000000000D0100000000000048010000000000006F010000000000009401000000000000CD01000000000000EA0100000000000013020000000000004E020000000000007802000000000000A502000000000000E0020000000000000103000000000000290300000000000064030000000000008D03000000000000B203000000000000F30300000000000024040000000000004F040000000000008704000000000000B004000000000000D5040000000000000C05000000000000340500000000000060050000000000009B05000000000000D405000000000000FA05000000000000310600000000000053060000000000007406000000000000AE06000000000000D80600000000000003070000000000003A070000000000005A070000000000008107000000000000BF07000000000000E0070000000000000808000000000000470800000000000067080000000000009208000000000000D108000000000000F7080000000000001F0900000000000059090000000000008609000000000000A909000000000000E709000000000000110A0000000000003B0A0000000000006F0A0000000000008F0A000000000000B90A000000000000F20A000000000000120B000000000000330B000000000000700B000000000000940B000000000000B80B000000000000F90B000000000000260C000000000000530C0000000000008D0C000000000000B30C000000000000DD0C000000000000150D0000000000003A0D0000000000005F0D000000000000A10D000000000000C40D000000000000E90D000000000000220E000000000000470E0000000000006A0E000000000000A60E000000000000CD0E000000000000EE0E000000000000240F0000000000004B0F0000000000006C0F000000000000A30F000000000000C10F000000000000E60F0000000000001D10000000000000331000000000000054100000000000008F10000000000000B110000000000000CF1000000000000008110000000000002A1100000000000054110000000000009311000000000000"> : tensor<101xindex>) {addr_space = 0 : i32, alignment = 64 : i64} : !llvm.array<101 x i64>
  llvm.mlir.global private constant @__constant_4499xindex(dense<"0x000000000000000003000000000000000600000000000000080000000000000009000000000000000A000000000000000C000000000000000F00000000000000120000000000000014000000000000001500000000000000160000000000000018000000000000001A000000000000001B000000000000001C000000000000001E000000000000001F000000000000002100000000000000220000000000000024000000000000002600000000000000270000000000000028000000000000002A000000000000002D000000000000002F00000000000000300000000000000033000000000000003400000000000000360000000000000039000000000000003A000000000000003C000000000000003D000000000000003F00000000000000400000000000000041000000000000004200000000000000450000000000000048000000000000004A000000000000004B000000000000004E00000000000000510000000000000054000000000000005500000000000000560000000000000057000000000000005A000000000000005D000000000000005E000000000000005F0000000000000060000000000000006300000000000000020000000000000004000000000000000500000000000000070000000000000009000000000000000A000000000000000D00000000000000100000000000000011000000000000001400000000000000160000000000000018000000000000001E0000000000000020000000000000002500000000000000270000000000000029000000000000002C0000000000000031000000000000003300000000000000340000000000000035000000000000003E00000000000000400000000000000046000000000000004C000000000000004E00000000000000500000000000000052000000000000005700000000000000580000000000000059000000000000005A000000000000005B000000000000005F000000000000006000000000000000610000000000000001000000000000000200000000000000070000000000000009000000000000000A000000000000000B000000000000000C0000000000000010000000000000001400000000000000150000000000000018000000000000001F00000000000000200000000000000025000000000000002C00000000000000300000000000000033000000000000003400000000000000360000000000000039000000000000003A000000000000003B000000000000003D0000000000000043000000000000004600000000000000480000000000000049000000000000004C000000000000004D0000000000000050000000000000005300000000000000580000000000000059000000000000005C00000000000000620000000000000063000000000000000000000000000000010000000000000003000000000000000400000000000000060000000000000009000000000000000A000000000000000B000000000000000C000000000000000D000000000000000F000000000000001100000000000000120000000000000014000000000000001500000000000000170000000000000018000000000000001A000000000000001B000000000000001E000000000000002100000000000000220000000000000024000000000000002500000000000000270000000000000028000000000000002A000000000000002D000000000000003000000000000000310000000000000033000000000000003600000000000000380000000000000039000000000000003A000000000000003C000000000000003F00000000000000420000000000000043000000000000004500000000000000460000000000000048000000000000004B000000000000004C000000000000004D000000000000004E000000000000004F000000000000005000000000000000510000000000000054000000000000005500000000000000560000000000000057000000000000005A000000000000005B000000000000005C000000000000005D000000000000005E0000000000000060000000000000006300000000000000030000000000000008000000000000000B000000000000000C000000000000000F00000000000000100000000000000013000000000000001400000000000000180000000000000019000000000000001A000000000000001B000000000000001C000000000000001D000000000000001E000000000000002100000000000000220000000000000025000000000000002700000000000000280000000000000029000000000000002C000000000000002D000000000000002E000000000000003100000000000000340000000000000038000000000000003A000000000000003C000000000000003F000000000000004000000000000000410000000000000044000000000000004700000000000000480000000000000049000000000000004B000000000000004D000000000000004F00000000000000500000000000000051000000000000005200000000000000540000000000000059000000000000005D000000000000005F000000000000006300000000000000000000000000000002000000000000000A000000000000000B000000000000001600000000000000170000000000000018000000000000001D000000000000002100000000000000230000000000000024000000000000002600000000000000270000000000000028000000000000002A000000000000002B000000000000002F0000000000000030000000000000003300000000000000340000000000000039000000000000003A000000000000003B000000000000003D00000000000000450000000000000048000000000000004A000000000000004C000000000000004D000000000000004E000000000000005200000000000000530000000000000057000000000000005900000000000000000000000000000002000000000000000300000000000000040000000000000006000000000000000700000000000000080000000000000009000000000000000C000000000000000F00000000000000100000000000000012000000000000001400000000000000150000000000000018000000000000001B000000000000001E0000000000000020000000000000002100000000000000240000000000000025000000000000002600000000000000270000000000000028000000000000002A000000000000002C000000000000002D000000000000002F0000000000000030000000000000003300000000000000340000000000000035000000000000003600000000000000370000000000000039000000000000003B000000000000003C000000000000003F0000000000000040000000000000004200000000000000430000000000000045000000000000004600000000000000480000000000000049000000000000004B000000000000004C000000000000004E00000000000000500000000000000051000000000000005400000000000000550000000000000057000000000000005A000000000000005D000000000000005F00000000000000600000000000000061000000000000006300000000000000010000000000000004000000000000000500000000000000070000000000000009000000000000000C000000000000000F000000000000001400000000000000150000000000000017000000000000001C000000000000001D000000000000001E000000000000001F0000000000000022000000000000002600000000000000270000000000000028000000000000002B000000000000002C000000000000002D0000000000000030000000000000003500000000000000360000000000000037000000000000003E000000000000004000000000000000410000000000000042000000000000004500000000000000480000000000000049000000000000004A000000000000005300000000000000550000000000000059000000000000005B000000000000005E0000000000000061000000000000000000000000000000010000000000000002000000000000000500000000000000070000000000000008000000000000000C00000000000000120000000000000013000000000000001500000000000000160000000000000019000000000000001A000000000000001B000000000000001C0000000000000020000000000000002200000000000000250000000000000026000000000000002900000000000000310000000000000033000000000000003400000000000000350000000000000041000000000000004200000000000000470000000000000048000000000000005000000000000000510000000000000054000000000000005500000000000000560000000000000057000000000000005D000000000000006100000000000000630000000000000000000000000000000200000000000000030000000000000004000000000000000500000000000000060000000000000009000000000000000B000000000000000C000000000000000D000000000000000F000000000000001000000000000000110000000000000012000000000000001500000000000000170000000000000018000000000000001B000000000000001C000000000000001E000000000000002100000000000000230000000000000024000000000000002500000000000000270000000000000028000000000000002A000000000000002D000000000000002F00000000000000300000000000000033000000000000003500000000000000360000000000000039000000000000003A000000000000003C000000000000003D000000000000003E000000000000003F0000000000000041000000000000004200000000000000430000000000000045000000000000004600000000000000480000000000000049000000000000004B000000000000004C000000000000004E000000000000004F000000000000005100000000000000540000000000000057000000000000005A000000000000005D0000000000000060000000000000006300000000000000010000000000000006000000000000000B000000000000000D000000000000000F00000000000000100000000000000015000000000000001B000000000000001D00000000000000230000000000000024000000000000002600000000000000270000000000000028000000000000002F00000000000000350000000000000036000000000000003A000000000000003D000000000000003E00000000000000450000000000000047000000000000004C0000000000000056000000000000005700000000000000580000000000000059000000000000005B000000000000006200000000000000030000000000000005000000000000000A000000000000000D0000000000000012000000000000001400000000000000180000000000000019000000000000001A000000000000001B000000000000001C000000000000001D000000000000002100000000000000240000000000000027000000000000002C000000000000002D000000000000002E00000000000000350000000000000037000000000000003B000000000000003C000000000000003D000000000000003E000000000000003F000000000000004200000000000000460000000000000049000000000000004C00000000000000500000000000000051000000000000005300000000000000550000000000000056000000000000005700000000000000580000000000000059000000000000005B000000000000005E00000000000000610000000000000062000000000000000000000000000000030000000000000004000000000000000600000000000000080000000000000009000000000000000C000000000000000E000000000000000F0000000000000011000000000000001200000000000000140000000000000015000000000000001700000000000000180000000000000019000000000000001B000000000000001E000000000000001F0000000000000021000000000000002400000000000000270000000000000029000000000000002A000000000000002B000000000000002D000000000000003000000000000000310000000000000033000000000000003500000000000000360000000000000039000000000000003A000000000000003C000000000000003D000000000000003E000000000000003F000000000000004000000000000000420000000000000045000000000000004700000000000000480000000000000049000000000000004A000000000000004B000000000000004E000000000000004F00000000000000510000000000000054000000000000005600000000000000570000000000000059000000000000005A000000000000005B000000000000005C000000000000005D000000000000005F000000000000006000000000000000630000000000000001000000000000000200000000000000050000000000000006000000000000000A000000000000000C000000000000000D000000000000000E000000000000000F0000000000000010000000000000001300000000000000140000000000000016000000000000001A000000000000001B000000000000001D000000000000001E000000000000002100000000000000250000000000000029000000000000002B000000000000002C0000000000000032000000000000003300000000000000340000000000000038000000000000003F0000000000000042000000000000004400000000000000450000000000000046000000000000004D00000000000000510000000000000053000000000000005500000000000000580000000000000059000000000000005A000000000000005C000000000000005D000000000000006000000000000000620000000000000000000000000000000200000000000000030000000000000004000000000000000500000000000000070000000000000008000000000000000D000000000000001000000000000000110000000000000012000000000000001400000000000000150000000000000017000000000000001C000000000000001D000000000000001E00000000000000200000000000000021000000000000002300000000000000240000000000000025000000000000002700000000000000280000000000000029000000000000002A000000000000002B000000000000002C00000000000000320000000000000033000000000000003600000000000000370000000000000039000000000000003D00000000000000460000000000000049000000000000004D000000000000004E00000000000000570000000000000059000000000000005B000000000000005D000000000000005F000000000000006000000000000000610000000000000000000000000000000100000000000000020000000000000003000000000000000600000000000000070000000000000009000000000000000C000000000000000E000000000000000F0000000000000010000000000000001200000000000000130000000000000014000000000000001500000000000000160000000000000018000000000000001B000000000000001C000000000000001E000000000000001F00000000000000200000000000000021000000000000002200000000000000240000000000000027000000000000002A000000000000002D000000000000002E000000000000002F000000000000003000000000000000320000000000000033000000000000003600000000000000380000000000000039000000000000003A000000000000003C000000000000003D000000000000003E000000000000003F000000000000004200000000000000440000000000000045000000000000004600000000000000480000000000000049000000000000004B000000000000004C000000000000004E000000000000004F000000000000005100000000000000540000000000000057000000000000005A000000000000005C000000000000005D0000000000000060000000000000006300000000000000040000000000000007000000000000000B000000000000001100000000000000160000000000000019000000000000001C000000000000001F0000000000000022000000000000002400000000000000260000000000000029000000000000002C000000000000002F00000000000000320000000000000033000000000000003400000000000000370000000000000038000000000000003E00000000000000400000000000000042000000000000004500000000000000460000000000000047000000000000004B000000000000004C000000000000004F000000000000005000000000000000540000000000000059000000000000005E000000000000005F0000000000000002000000000000000500000000000000080000000000000009000000000000000A000000000000001100000000000000120000000000000016000000000000001A000000000000001F00000000000000210000000000000023000000000000002400000000000000280000000000000029000000000000002C000000000000002D000000000000002E00000000000000310000000000000032000000000000003400000000000000370000000000000039000000000000003A000000000000003D000000000000003F0000000000000040000000000000004200000000000000430000000000000046000000000000004D000000000000004F0000000000000054000000000000005700000000000000580000000000000059000000000000005D000000000000005E00000000000000600000000000000063000000000000000000000000000000020000000000000003000000000000000400000000000000060000000000000009000000000000000C000000000000000D000000000000000E000000000000000F0000000000000012000000000000001500000000000000180000000000000019000000000000001A000000000000001B000000000000001C000000000000001D000000000000001E000000000000001F00000000000000210000000000000022000000000000002400000000000000250000000000000027000000000000002A000000000000002B000000000000002C000000000000002D000000000000002E000000000000002F0000000000000030000000000000003300000000000000360000000000000039000000000000003C000000000000003D000000000000003F00000000000000420000000000000045000000000000004700000000000000480000000000000049000000000000004B000000000000004C000000000000004D000000000000004E0000000000000050000000000000005100000000000000540000000000000055000000000000005600000000000000570000000000000058000000000000005A000000000000005D000000000000006000000000000000620000000000000063000000000000000000000000000000030000000000000009000000000000000A000000000000000C000000000000000F000000000000001100000000000000130000000000000018000000000000001A000000000000001D000000000000001E00000000000000200000000000000023000000000000002400000000000000260000000000000027000000000000002A000000000000002E0000000000000033000000000000003500000000000000370000000000000039000000000000003A000000000000003C000000000000003D000000000000003E000000000000004000000000000000430000000000000044000000000000004600000000000000470000000000000049000000000000004A000000000000004C000000000000004D000000000000004F000000000000005100000000000000540000000000000057000000000000005B0000000000000002000000000000000400000000000000050000000000000008000000000000000B000000000000000C000000000000000F00000000000000110000000000000012000000000000001600000000000000170000000000000019000000000000001A000000000000001D000000000000001E000000000000001F000000000000002200000000000000250000000000000027000000000000002B000000000000003000000000000000350000000000000038000000000000003A000000000000003D000000000000003E000000000000003F0000000000000040000000000000004200000000000000460000000000000048000000000000004F000000000000005200000000000000550000000000000059000000000000005D000000000000005E00000000000000000000000000000003000000000000000400000000000000060000000000000009000000000000000C000000000000000E000000000000000F00000000000000100000000000000011000000000000001200000000000000130000000000000014000000000000001500000000000000160000000000000018000000000000001B000000000000001D000000000000001E0000000000000021000000000000002200000000000000240000000000000026000000000000002700000000000000280000000000000029000000000000002A000000000000002B000000000000002C000000000000002D000000000000002E0000000000000030000000000000003100000000000000320000000000000033000000000000003600000000000000380000000000000039000000000000003C000000000000003F000000000000004200000000000000440000000000000045000000000000004600000000000000470000000000000048000000000000004A000000000000004B000000000000004C000000000000004D000000000000004E00000000000000510000000000000052000000000000005300000000000000540000000000000057000000000000005A000000000000005B000000000000005C000000000000005D000000000000005E0000000000000060000000000000006100000000000000620000000000000063000000000000000000000000000000020000000000000005000000000000000D000000000000000E000000000000000F000000000000001000000000000000110000000000000012000000000000001300000000000000140000000000000019000000000000001E000000000000001F0000000000000023000000000000002500000000000000270000000000000028000000000000002B00000000000000300000000000000031000000000000003300000000000000360000000000000038000000000000003A000000000000003B000000000000003D000000000000003E000000000000003F0000000000000040000000000000004100000000000000440000000000000045000000000000004E00000000000000510000000000000052000000000000005300000000000000540000000000000055000000000000005600000000000000570000000000000059000000000000005A000000000000005C000000000000005D000000000000005E000000000000005F00000000000000610000000000000063000000000000000100000000000000020000000000000004000000000000000A000000000000000B000000000000000C000000000000000E000000000000000F00000000000000100000000000000012000000000000001400000000000000150000000000000016000000000000001A000000000000001B000000000000001D000000000000001E000000000000002300000000000000260000000000000029000000000000002A000000000000002D000000000000003000000000000000340000000000000038000000000000003F000000000000004400000000000000450000000000000049000000000000004A000000000000004F0000000000000050000000000000005100000000000000530000000000000056000000000000005700000000000000580000000000000059000000000000005A000000000000005B000000000000005D000000000000006000000000000000610000000000000000000000000000000300000000000000060000000000000009000000000000000B000000000000000C000000000000000D000000000000000F0000000000000012000000000000001300000000000000150000000000000018000000000000001A000000000000001B000000000000001C000000000000001E000000000000001F0000000000000020000000000000002100000000000000240000000000000027000000000000002A000000000000002D0000000000000030000000000000003200000000000000330000000000000034000000000000003600000000000000370000000000000039000000000000003A000000000000003B000000000000003C000000000000003E000000000000003F0000000000000040000000000000004200000000000000430000000000000044000000000000004500000000000000460000000000000048000000000000004B000000000000004D000000000000004E0000000000000051000000000000005400000000000000570000000000000059000000000000005A000000000000005B000000000000005D000000000000005E000000000000006000000000000000610000000000000063000000000000000100000000000000020000000000000004000000000000000600000000000000070000000000000008000000000000000C000000000000000E00000000000000100000000000000012000000000000001300000000000000140000000000000016000000000000001A000000000000001D000000000000002200000000000000270000000000000028000000000000002C0000000000000033000000000000003500000000000000380000000000000039000000000000003B000000000000003C000000000000003F0000000000000040000000000000004100000000000000440000000000000047000000000000004D000000000000004E000000000000004F000000000000005000000000000000540000000000000057000000000000005A000000000000005B000000000000005D00000000000000610000000000000063000000000000000300000000000000060000000000000009000000000000000A00000000000000120000000000000013000000000000001500000000000000170000000000000019000000000000001A000000000000001B000000000000001E00000000000000240000000000000025000000000000002A000000000000002F00000000000000300000000000000031000000000000003500000000000000360000000000000037000000000000003C0000000000000040000000000000004200000000000000450000000000000046000000000000004700000000000000480000000000000049000000000000004A000000000000004B000000000000004F00000000000000510000000000000055000000000000005F000000000000006100000000000000620000000000000000000000000000000100000000000000020000000000000003000000000000000400000000000000060000000000000009000000000000000C000000000000000E000000000000000F00000000000000120000000000000015000000000000001700000000000000180000000000000019000000000000001A000000000000001B000000000000001E0000000000000020000000000000002100000000000000240000000000000027000000000000002A000000000000002C000000000000002D0000000000000030000000000000003100000000000000330000000000000035000000000000003600000000000000380000000000000039000000000000003A000000000000003C000000000000003F0000000000000040000000000000004200000000000000430000000000000045000000000000004600000000000000480000000000000049000000000000004B000000000000004D000000000000004E0000000000000050000000000000005100000000000000540000000000000057000000000000005A000000000000005D000000000000005E000000000000005F00000000000000600000000000000063000000000000000100000000000000020000000000000004000000000000000500000000000000070000000000000008000000000000000D000000000000000E0000000000000011000000000000001200000000000000140000000000000018000000000000001E0000000000000022000000000000002300000000000000250000000000000027000000000000002C000000000000002D000000000000003200000000000000360000000000000039000000000000003C000000000000003E000000000000003F0000000000000041000000000000004300000000000000440000000000000048000000000000004B000000000000004E000000000000004F00000000000000560000000000000058000000000000005A000000000000005D000000000000005E000000000000006000000000000000620000000000000063000000000000000000000000000000010000000000000003000000000000000400000000000000050000000000000006000000000000000A000000000000000C000000000000001200000000000000130000000000000015000000000000001600000000000000170000000000000018000000000000001A000000000000001B000000000000001D000000000000001E000000000000001F000000000000002000000000000000240000000000000026000000000000002A000000000000002B000000000000002E00000000000000330000000000000036000000000000003D000000000000004000000000000000410000000000000044000000000000004500000000000000470000000000000048000000000000004E000000000000004F000000000000005100000000000000570000000000000059000000000000005A000000000000005E000000000000005F000000000000006000000000000000630000000000000000000000000000000100000000000000030000000000000006000000000000000700000000000000080000000000000009000000000000000B000000000000000C000000000000000F0000000000000011000000000000001200000000000000140000000000000015000000000000001700000000000000180000000000000019000000000000001B000000000000001C000000000000001D000000000000001E0000000000000021000000000000002400000000000000260000000000000027000000000000002A000000000000002C000000000000002D000000000000002E000000000000003000000000000000320000000000000033000000000000003600000000000000380000000000000039000000000000003A000000000000003C000000000000003D000000000000003E000000000000003F00000000000000420000000000000045000000000000004600000000000000470000000000000048000000000000004B000000000000004C000000000000004E000000000000005100000000000000540000000000000057000000000000005A000000000000005B000000000000005D000000000000005E0000000000000060000000000000006100000000000000620000000000000063000000000000000200000000000000030000000000000004000000000000000600000000000000070000000000000008000000000000000C000000000000000E000000000000000F000000000000001200000000000000140000000000000015000000000000001600000000000000180000000000000019000000000000001A000000000000001B000000000000001C000000000000001E000000000000002000000000000000240000000000000028000000000000002A000000000000002B000000000000002C000000000000002F00000000000000300000000000000032000000000000003300000000000000340000000000000036000000000000003A000000000000003C000000000000003E000000000000003F00000000000000400000000000000041000000000000004200000000000000430000000000000045000000000000004700000000000000480000000000000049000000000000004A000000000000004B000000000000004D000000000000004E000000000000005300000000000000540000000000000059000000000000005A000000000000005B000000000000005C000000000000005D000000000000005E00000000000000600000000000000063000000000000000600000000000000080000000000000009000000000000000E0000000000000013000000000000001C000000000000001E000000000000002200000000000000250000000000000026000000000000002700000000000000280000000000000029000000000000002C000000000000002E000000000000003100000000000000330000000000000034000000000000003500000000000000360000000000000037000000000000003B000000000000003C0000000000000043000000000000004500000000000000470000000000000049000000000000004B000000000000004C000000000000004F000000000000005100000000000000540000000000000055000000000000005600000000000000580000000000000059000000000000005A000000000000005B000000000000000000000000000000020000000000000003000000000000000400000000000000060000000000000009000000000000000C000000000000000E000000000000000F00000000000000100000000000000012000000000000001500000000000000170000000000000018000000000000001B000000000000001D000000000000001E000000000000001F00000000000000210000000000000024000000000000002500000000000000270000000000000029000000000000002A000000000000002D000000000000002E0000000000000030000000000000003200000000000000330000000000000034000000000000003600000000000000370000000000000039000000000000003C000000000000003E000000000000003F000000000000004200000000000000430000000000000045000000000000004600000000000000470000000000000048000000000000004A000000000000004B000000000000004E0000000000000050000000000000005100000000000000540000000000000057000000000000005A000000000000005B000000000000005D000000000000005F00000000000000600000000000000063000000000000000400000000000000060000000000000017000000000000001C000000000000001E000000000000002000000000000000220000000000000024000000000000002500000000000000270000000000000028000000000000002B000000000000002C000000000000002D000000000000002E00000000000000340000000000000035000000000000003600000000000000380000000000000039000000000000003E00000000000000410000000000000047000000000000004A000000000000004C000000000000004D000000000000004F000000000000005200000000000000550000000000000059000000000000005D000000000000005F000000000000006200000000000000630000000000000000000000000000000400000000000000060000000000000009000000000000000D000000000000000F00000000000000150000000000000019000000000000001B0000000000000021000000000000002400000000000000260000000000000029000000000000002A000000000000002D0000000000000033000000000000003400000000000000380000000000000039000000000000003A000000000000003B000000000000003C000000000000003D000000000000003E000000000000004300000000000000470000000000000049000000000000004D000000000000004F00000000000000550000000000000057000000000000005A0000000000000062000000000000000000000000000000020000000000000003000000000000000600000000000000070000000000000009000000000000000B000000000000000C000000000000000F000000000000001200000000000000130000000000000015000000000000001600000000000000180000000000000019000000000000001A000000000000001B000000000000001C000000000000001E0000000000000020000000000000002100000000000000240000000000000026000000000000002700000000000000280000000000000029000000000000002A000000000000002D0000000000000030000000000000003300000000000000360000000000000039000000000000003C000000000000003E000000000000003F0000000000000040000000000000004100000000000000420000000000000043000000000000004500000000000000480000000000000049000000000000004B000000000000004E000000000000004F000000000000005100000000000000540000000000000055000000000000005600000000000000570000000000000058000000000000005A000000000000005D000000000000005E000000000000005F0000000000000060000000000000006200000000000000630000000000000001000000000000000400000000000000060000000000000008000000000000000D00000000000000100000000000000011000000000000001300000000000000150000000000000018000000000000001B000000000000001C000000000000001E000000000000002000000000000000210000000000000026000000000000002B000000000000002C000000000000002E000000000000002F0000000000000033000000000000003500000000000000380000000000000039000000000000003B000000000000003C000000000000003D000000000000003E000000000000003F0000000000000040000000000000004200000000000000450000000000000047000000000000004C0000000000000053000000000000005400000000000000570000000000000058000000000000005A000000000000005B000000000000005C000000000000006200000000000000040000000000000005000000000000000600000000000000080000000000000009000000000000000D000000000000000F00000000000000120000000000000014000000000000001A000000000000001B000000000000001D000000000000001E00000000000000200000000000000022000000000000002500000000000000270000000000000029000000000000002A0000000000000030000000000000003100000000000000320000000000000035000000000000003E000000000000003F0000000000000042000000000000004400000000000000470000000000000049000000000000004A000000000000004B000000000000004C000000000000004F00000000000000520000000000000054000000000000005600000000000000580000000000000059000000000000005B000000000000005C000000000000005F0000000000000062000000000000006300000000000000000000000000000001000000000000000300000000000000060000000000000009000000000000000A000000000000000C000000000000000E000000000000000F000000000000001000000000000000120000000000000013000000000000001500000000000000160000000000000018000000000000001B000000000000001E000000000000001F000000000000002100000000000000220000000000000024000000000000002500000000000000270000000000000028000000000000002A000000000000002B000000000000002C000000000000002D000000000000003000000000000000330000000000000034000000000000003600000000000000370000000000000039000000000000003A000000000000003C000000000000003F00000000000000400000000000000042000000000000004500000000000000460000000000000048000000000000004B000000000000004D000000000000004E0000000000000051000000000000005400000000000000550000000000000057000000000000005A000000000000005B000000000000005D0000000000000060000000000000006100000000000000630000000000000003000000000000000500000000000000080000000000000009000000000000000B000000000000000E00000000000000110000000000000016000000000000001C000000000000001D000000000000001E000000000000001F0000000000000025000000000000002A000000000000002C000000000000002F000000000000003200000000000000350000000000000037000000000000003E000000000000004200000000000000430000000000000047000000000000004B000000000000004D000000000000004F00000000000000540000000000000056000000000000005C000000000000005F000000000000006100000000000000630000000000000002000000000000000300000000000000040000000000000005000000000000000600000000000000080000000000000009000000000000000C00000000000000130000000000000016000000000000001700000000000000180000000000000019000000000000001E000000000000002100000000000000220000000000000024000000000000002500000000000000260000000000000029000000000000002B000000000000002D000000000000002E000000000000002F00000000000000300000000000000033000000000000003400000000000000360000000000000038000000000000003B0000000000000044000000000000004C000000000000004E0000000000000052000000000000005300000000000000540000000000000057000000000000005F0000000000000061000000000000000000000000000000010000000000000003000000000000000600000000000000080000000000000009000000000000000C000000000000000E000000000000000F000000000000001000000000000000110000000000000012000000000000001500000000000000170000000000000018000000000000001A000000000000001B000000000000001C000000000000001D000000000000001E000000000000001F00000000000000200000000000000021000000000000002300000000000000240000000000000027000000000000002A000000000000002B000000000000002C000000000000002D000000000000002E000000000000002F000000000000003000000000000000330000000000000034000000000000003600000000000000380000000000000039000000000000003A000000000000003C000000000000003D000000000000003F00000000000000420000000000000043000000000000004400000000000000450000000000000048000000000000004B000000000000004D000000000000004E00000000000000510000000000000052000000000000005300000000000000540000000000000057000000000000005A000000000000005D000000000000005E00000000000000600000000000000061000000000000006200000000000000630000000000000000000000000000000100000000000000020000000000000003000000000000000A00000000000000110000000000000012000000000000001300000000000000200000000000000021000000000000002200000000000000270000000000000028000000000000002B00000000000000300000000000000031000000000000003200000000000000350000000000000039000000000000003F0000000000000041000000000000004200000000000000430000000000000049000000000000004A000000000000004C000000000000004E000000000000004F0000000000000055000000000000005A000000000000005D000000000000005E000000000000005F000000000000000000000000000000020000000000000003000000000000000500000000000000070000000000000009000000000000000B000000000000000E000000000000000F0000000000000014000000000000001600000000000000180000000000000019000000000000001F00000000000000200000000000000021000000000000002200000000000000230000000000000024000000000000002A000000000000002B000000000000002E000000000000002F0000000000000030000000000000003A000000000000003D0000000000000046000000000000004700000000000000480000000000000049000000000000004A000000000000004C000000000000004E000000000000005100000000000000520000000000000058000000000000005D000000000000005F000000000000006000000000000000610000000000000000000000000000000300000000000000040000000000000005000000000000000600000000000000080000000000000009000000000000000A000000000000000B000000000000000C000000000000000F0000000000000011000000000000001200000000000000130000000000000014000000000000001500000000000000170000000000000018000000000000001A000000000000001B000000000000001E0000000000000021000000000000002200000000000000230000000000000024000000000000002500000000000000260000000000000027000000000000002A000000000000002B000000000000002D000000000000002E0000000000000030000000000000003200000000000000330000000000000035000000000000003600000000000000380000000000000039000000000000003A000000000000003C000000000000003F0000000000000042000000000000004400000000000000450000000000000048000000000000004B000000000000004D000000000000004E000000000000004F0000000000000051000000000000005200000000000000540000000000000055000000000000005600000000000000570000000000000059000000000000005A000000000000005D000000000000005F000000000000006000000000000000620000000000000063000000000000000400000000000000060000000000000009000000000000000A000000000000000F000000000000001100000000000000120000000000000020000000000000002100000000000000230000000000000026000000000000002F00000000000000300000000000000033000000000000003A000000000000003B000000000000003E000000000000004100000000000000420000000000000043000000000000004400000000000000460000000000000049000000000000004F0000000000000050000000000000005100000000000000570000000000000058000000000000005B000000000000005F000000000000006100000000000000630000000000000000000000000000000100000000000000080000000000000009000000000000000D000000000000000F0000000000000010000000000000001200000000000000140000000000000015000000000000001600000000000000170000000000000018000000000000001A000000000000001B00000000000000210000000000000022000000000000002B000000000000002C000000000000002D000000000000002E0000000000000030000000000000003400000000000000350000000000000037000000000000003B000000000000003C000000000000003D0000000000000043000000000000004500000000000000480000000000000049000000000000004C000000000000004F0000000000000052000000000000005400000000000000560000000000000058000000000000005A000000000000005B000000000000005C00000000000000600000000000000063000000000000000000000000000000010000000000000003000000000000000600000000000000070000000000000009000000000000000A000000000000000B000000000000000C000000000000000F0000000000000010000000000000001200000000000000130000000000000015000000000000001600000000000000170000000000000018000000000000001B000000000000001D000000000000001E000000000000001F00000000000000200000000000000021000000000000002300000000000000240000000000000025000000000000002600000000000000270000000000000028000000000000002A000000000000002D000000000000002F00000000000000300000000000000031000000000000003300000000000000360000000000000039000000000000003C000000000000003E000000000000003F000000000000004100000000000000420000000000000045000000000000004600000000000000480000000000000049000000000000004A000000000000004B000000000000004C000000000000004E000000000000005000000000000000510000000000000053000000000000005400000000000000570000000000000059000000000000005A000000000000005C000000000000005D000000000000005E000000000000006000000000000000610000000000000063000000000000000600000000000000070000000000000009000000000000000A000000000000000E0000000000000010000000000000001A000000000000001B000000000000001D000000000000001E0000000000000024000000000000002600000000000000270000000000000029000000000000002A000000000000002D000000000000002F0000000000000031000000000000003300000000000000350000000000000037000000000000003C000000000000003D000000000000003E0000000000000040000000000000004300000000000000460000000000000049000000000000004A000000000000004B000000000000004E0000000000000051000000000000005200000000000000550000000000000058000000000000005E00000000000000620000000000000063000000000000000A000000000000000C000000000000000D000000000000000E000000000000001500000000000000160000000000000018000000000000001F0000000000000023000000000000002400000000000000260000000000000028000000000000002A000000000000002B000000000000002E0000000000000030000000000000003500000000000000360000000000000039000000000000003A000000000000003B000000000000003C000000000000003E000000000000003F0000000000000043000000000000004400000000000000460000000000000048000000000000004A000000000000004D000000000000004E00000000000000510000000000000052000000000000005300000000000000570000000000000059000000000000005B000000000000005D000000000000005E0000000000000063000000000000000000000000000000030000000000000005000000000000000600000000000000080000000000000009000000000000000A000000000000000C000000000000000D000000000000000F000000000000001200000000000000130000000000000015000000000000001600000000000000180000000000000019000000000000001B000000000000001C000000000000001E000000000000001F000000000000002000000000000000210000000000000024000000000000002600000000000000270000000000000029000000000000002A000000000000002D000000000000002E00000000000000300000000000000031000000000000003300000000000000350000000000000036000000000000003700000000000000380000000000000039000000000000003C000000000000003D000000000000003F00000000000000420000000000000045000000000000004600000000000000470000000000000048000000000000004B000000000000004D000000000000004E00000000000000510000000000000054000000000000005600000000000000570000000000000059000000000000005A000000000000005C000000000000005D00000000000000600000000000000063000000000000000100000000000000030000000000000005000000000000000600000000000000080000000000000009000000000000000F00000000000000100000000000000012000000000000001400000000000000180000000000000019000000000000001B00000000000000220000000000000023000000000000002400000000000000250000000000000028000000000000002A000000000000002E0000000000000032000000000000003500000000000000380000000000000039000000000000003A000000000000003B000000000000003E000000000000003F00000000000000410000000000000043000000000000004400000000000000450000000000000046000000000000004B000000000000004D0000000000000053000000000000005400000000000000550000000000000058000000000000005B000000000000005C000000000000005D000000000000005F0000000000000062000000000000006300000000000000010000000000000005000000000000000600000000000000070000000000000009000000000000000F000000000000001000000000000000120000000000000013000000000000001B000000000000001D000000000000001E00000000000000210000000000000027000000000000002C000000000000002E000000000000002F000000000000003100000000000000320000000000000033000000000000003600000000000000370000000000000039000000000000003B000000000000004000000000000000460000000000000048000000000000004E000000000000004F0000000000000055000000000000005A000000000000005B0000000000000060000000000000006100000000000000630000000000000000000000000000000200000000000000030000000000000005000000000000000600000000000000080000000000000009000000000000000A000000000000000B000000000000000C000000000000000E000000000000000F0000000000000012000000000000001500000000000000160000000000000018000000000000001A000000000000001B000000000000001C000000000000001E000000000000001F0000000000000021000000000000002200000000000000240000000000000027000000000000002A000000000000002B000000000000002D000000000000002E000000000000003000000000000000310000000000000032000000000000003300000000000000340000000000000035000000000000003600000000000000370000000000000039000000000000003A000000000000003B000000000000003C000000000000003F0000000000000042000000000000004300000000000000450000000000000048000000000000004B000000000000004C000000000000004E0000000000000050000000000000005100000000000000540000000000000056000000000000005700000000000000580000000000000059000000000000005A000000000000005C000000000000005D00000000000000600000000000000062000000000000006300000000000000000000000000000001000000000000000300000000000000060000000000000009000000000000000B000000000000000D000000000000000E0000000000000010000000000000001400000000000000170000000000000019000000000000001D000000000000001F00000000000000200000000000000024000000000000002500000000000000260000000000000027000000000000002B000000000000002D00000000000000340000000000000037000000000000003A000000000000003B000000000000003C000000000000003D000000000000003F0000000000000040000000000000004100000000000000450000000000000048000000000000004B000000000000004C000000000000004D0000000000000050000000000000005100000000000000540000000000000059000000000000005B000000000000005C000000000000006000000000000000030000000000000005000000000000000A000000000000000F00000000000000120000000000000013000000000000001400000000000000170000000000000018000000000000001E000000000000001F00000000000000250000000000000029000000000000002A000000000000002C000000000000002F00000000000000300000000000000031000000000000003200000000000000340000000000000039000000000000003B000000000000003D000000000000003E00000000000000410000000000000042000000000000004300000000000000450000000000000046000000000000004B000000000000004C000000000000004F00000000000000500000000000000052000000000000005300000000000000540000000000000057000000000000005A000000000000005B000000000000005F0000000000000061000000000000006300000000000000000000000000000003000000000000000400000000000000060000000000000009000000000000000A000000000000000C000000000000000F000000000000001200000000000000150000000000000018000000000000001B000000000000001D000000000000001E000000000000001F0000000000000021000000000000002200000000000000230000000000000024000000000000002500000000000000270000000000000028000000000000002A000000000000002C000000000000002D000000000000003000000000000000320000000000000033000000000000003600000000000000380000000000000039000000000000003C000000000000003D000000000000003F000000000000004000000000000000420000000000000044000000000000004500000000000000470000000000000048000000000000004A000000000000004B000000000000004E0000000000000051000000000000005400000000000000560000000000000057000000000000005A000000000000005C000000000000005D000000000000006000000000000000630000000000000003000000000000000C000000000000000D000000000000000F000000000000001A000000000000001C000000000000001E0000000000000020000000000000002200000000000000230000000000000024000000000000002A000000000000002E000000000000002F0000000000000030000000000000003100000000000000340000000000000038000000000000003C000000000000004500000000000000460000000000000049000000000000004B000000000000004D000000000000004E000000000000004F00000000000000550000000000000057000000000000005C000000000000005D000000000000005E00000000000000600000000000000001000000000000000300000000000000040000000000000005000000000000000700000000000000080000000000000009000000000000000F000000000000001100000000000000120000000000000013000000000000001500000000000000180000000000000019000000000000001A000000000000001E000000000000002200000000000000260000000000000027000000000000002B000000000000002D000000000000002F000000000000003000000000000000320000000000000033000000000000003400000000000000380000000000000039000000000000003B000000000000003C000000000000003F00000000000000440000000000000045000000000000004D0000000000000050000000000000005300000000000000560000000000000059000000000000005A000000000000005B000000000000005D0000000000000060000000000000000000000000000000020000000000000003000000000000000600000000000000080000000000000009000000000000000B000000000000000C000000000000000E000000000000000F0000000000000010000000000000001200000000000000130000000000000015000000000000001700000000000000180000000000000019000000000000001A000000000000001B000000000000001E0000000000000020000000000000002100000000000000220000000000000024000000000000002600000000000000270000000000000028000000000000002A000000000000002D000000000000002E000000000000002F0000000000000030000000000000003300000000000000360000000000000039000000000000003A000000000000003C000000000000003D000000000000003F00000000000000400000000000000042000000000000004500000000000000480000000000000049000000000000004A000000000000004B000000000000004C000000000000004E0000000000000051000000000000005300000000000000540000000000000057000000000000005A000000000000005D000000000000006000000000000000610000000000000063000000000000000600000000000000070000000000000008000000000000000B000000000000001000000000000000110000000000000013000000000000001400000000000000170000000000000018000000000000001A000000000000001E0000000000000025000000000000002600000000000000270000000000000029000000000000002A0000000000000030000000000000003500000000000000360000000000000038000000000000003C00000000000000400000000000000045000000000000004A000000000000004B000000000000004C0000000000000056000000000000005D000000000000005E000000000000005F000000000000006300000000000000010000000000000008000000000000001000000000000000130000000000000017000000000000001A000000000000001B000000000000001C000000000000001D000000000000002500000000000000270000000000000029000000000000002B000000000000002D00000000000000310000000000000036000000000000003A000000000000003B000000000000003D000000000000003E000000000000003F0000000000000041000000000000004300000000000000470000000000000049000000000000004A000000000000004B000000000000004F000000000000005600000000000000580000000000000059000000000000005A000000000000005F0000000000000000000000000000000100000000000000030000000000000005000000000000000600000000000000080000000000000009000000000000000C000000000000000F000000000000001000000000000000120000000000000015000000000000001600000000000000170000000000000018000000000000001A000000000000001B000000000000001D000000000000001E000000000000001F0000000000000020000000000000002100000000000000220000000000000023000000000000002400000000000000250000000000000027000000000000002A000000000000002D000000000000002F0000000000000030000000000000003100000000000000330000000000000034000000000000003600000000000000380000000000000039000000000000003B000000000000003C000000000000003F00000000000000410000000000000042000000000000004500000000000000470000000000000048000000000000004A000000000000004B000000000000004D000000000000004E000000000000004F00000000000000510000000000000054000000000000005600000000000000570000000000000059000000000000005A000000000000005D000000000000005F00000000000000600000000000000061000000000000006300000000000000060000000000000008000000000000000A000000000000000B000000000000000F000000000000001100000000000000130000000000000014000000000000001800000000000000190000000000000020000000000000002200000000000000270000000000000029000000000000002A000000000000002D000000000000002E000000000000002F000000000000003200000000000000330000000000000035000000000000003600000000000000370000000000000038000000000000003A000000000000003D000000000000004100000000000000460000000000000047000000000000004B00000000000000510000000000000052000000000000005C000000000000005D000000000000005F00000000000000630000000000000004000000000000000600000000000000070000000000000008000000000000000A000000000000000E000000000000001000000000000000110000000000000012000000000000001500000000000000180000000000000019000000000000001B000000000000001D000000000000001F000000000000002300000000000000250000000000000027000000000000002A000000000000002D0000000000000034000000000000003C000000000000004200000000000000470000000000000049000000000000004A000000000000004C000000000000004E000000000000004F00000000000000520000000000000053000000000000005A000000000000005D000000000000005E0000000000000060000000000000006300000000000000000000000000000001000000000000000300000000000000040000000000000006000000000000000700000000000000080000000000000009000000000000000A000000000000000B000000000000000C000000000000000D000000000000000F0000000000000012000000000000001500000000000000180000000000000019000000000000001B000000000000001D000000000000001E000000000000001F0000000000000021000000000000002200000000000000230000000000000024000000000000002700000000000000280000000000000029000000000000002A000000000000002D000000000000003000000000000000310000000000000033000000000000003600000000000000380000000000000039000000000000003A000000000000003C000000000000003D000000000000003F0000000000000041000000000000004200000000000000430000000000000044000000000000004500000000000000480000000000000049000000000000004B000000000000004D000000000000004E000000000000004F00000000000000510000000000000052000000000000005300000000000000540000000000000055000000000000005600000000000000570000000000000058000000000000005A000000000000005C000000000000005D000000000000006000000000000000610000000000000063000000000000000000000000000000040000000000000008000000000000000A000000000000000C000000000000000D000000000000000E000000000000000F0000000000000012000000000000001300000000000000140000000000000015000000000000001600000000000000190000000000000024000000000000002500000000000000270000000000000028000000000000002C000000000000002D000000000000002E000000000000002F0000000000000030000000000000003100000000000000340000000000000035000000000000003600000000000000370000000000000038000000000000003B000000000000003F000000000000004000000000000000430000000000000047000000000000004C000000000000004D000000000000004E00000000000000500000000000000051000000000000005400000000000000560000000000000059000000000000005C000000000000005F000000000000006300000000000000010000000000000003000000000000000700000000000000080000000000000009000000000000000A000000000000000C000000000000000F0000000000000010000000000000001100000000000000150000000000000018000000000000001C000000000000001D000000000000001F0000000000000020000000000000002200000000000000230000000000000024000000000000002500000000000000280000000000000029000000000000002C000000000000002F000000000000003400000000000000370000000000000038000000000000003A000000000000003E0000000000000041000000000000004A000000000000004B000000000000004C000000000000004E0000000000000052000000000000005500000000000000570000000000000059000000000000005B000000000000005C000000000000005E000000000000005F00000000000000610000000000000062000000000000006300000000000000000000000000000003000000000000000600000000000000070000000000000009000000000000000B000000000000000C000000000000000E000000000000000F0000000000000010000000000000001100000000000000120000000000000013000000000000001400000000000000150000000000000018000000000000001A000000000000001B000000000000001D000000000000001E0000000000000021000000000000002400000000000000250000000000000027000000000000002A000000000000002D000000000000003000000000000000320000000000000033000000000000003400000000000000350000000000000036000000000000003700000000000000380000000000000039000000000000003A000000000000003C000000000000003D000000000000003E000000000000003F0000000000000040000000000000004200000000000000450000000000000048000000000000004B000000000000004E000000000000004F0000000000000051000000000000005300000000000000540000000000000057000000000000005A000000000000005C000000000000005D000000000000005E00000000000000600000000000000062000000000000006300000000000000010000000000000005000000000000000600000000000000070000000000000008000000000000000B000000000000000C0000000000000014000000000000001500000000000000170000000000000018000000000000001A000000000000001C00000000000000200000000000000024000000000000002A0000000000000030000000000000003100000000000000380000000000000039000000000000003B00000000000000400000000000000042000000000000004300000000000000480000000000000049000000000000004B000000000000004E000000000000004F00000000000000500000000000000054000000000000005600000000000000580000000000000059000000000000005A00000000000000610000000000000062000000000000006300000000000000000000000000000001000000000000000200000000000000050000000000000006000000000000000F00000000000000110000000000000015000000000000001700000000000000180000000000000019000000000000001B000000000000001C000000000000001D000000000000001F00000000000000200000000000000022000000000000002500000000000000280000000000000029000000000000002B000000000000002C00000000000000360000000000000038000000000000003B00000000000000400000000000000041000000000000004500000000000000470000000000000048000000000000004B000000000000004D000000000000004E000000000000004F000000000000005600000000000000570000000000000058000000000000005C000000000000005D00000000000000600000000000000062000000000000006300000000000000000000000000000003000000000000000400000000000000060000000000000009000000000000000C000000000000000F00000000000000100000000000000011000000000000001200000000000000150000000000000018000000000000001B000000000000001E000000000000001F0000000000000021000000000000002400000000000000270000000000000029000000000000002A000000000000002B000000000000002D000000000000002F0000000000000030000000000000003300000000000000340000000000000035000000000000003600000000000000370000000000000039000000000000003A000000000000003C000000000000003E000000000000003F00000000000000420000000000000043000000000000004500000000000000460000000000000048000000000000004B000000000000004E000000000000004F000000000000005100000000000000520000000000000053000000000000005400000000000000570000000000000058000000000000005A000000000000005B000000000000005D000000000000005E0000000000000060000000000000006100000000000000620000000000000063000000000000000200000000000000030000000000000007000000000000000C000000000000000E0000000000000010000000000000001100000000000000170000000000000019000000000000001A000000000000001F0000000000000024000000000000002500000000000000270000000000000032000000000000003700000000000000380000000000000039000000000000003A000000000000004100000000000000430000000000000045000000000000004600000000000000470000000000000048000000000000004A000000000000004C00000000000000500000000000000051000000000000005200000000000000560000000000000057000000000000005E000000000000005F000000000000006100000000000000620000000000000063000000000000000100000000000000020000000000000006000000000000000700000000000000080000000000000009000000000000000E000000000000000F000000000000001100000000000000160000000000000017000000000000001A000000000000001B000000000000001C000000000000001E0000000000000020000000000000002200000000000000230000000000000028000000000000002A000000000000002F0000000000000031000000000000003500000000000000360000000000000037000000000000003F0000000000000041000000000000004200000000000000430000000000000048000000000000004A000000000000004B000000000000004E000000000000004F00000000000000530000000000000055000000000000005C00000000000000000000000000000002000000000000000300000000000000050000000000000006000000000000000700000000000000080000000000000009000000000000000C000000000000000D000000000000000E000000000000000F000000000000001000000000000000120000000000000015000000000000001600000000000000180000000000000019000000000000001A000000000000001B000000000000001C000000000000001E000000000000001F000000000000002000000000000000210000000000000024000000000000002700000000000000280000000000000029000000000000002A000000000000002B000000000000002D000000000000002E000000000000002F0000000000000030000000000000003200000000000000330000000000000035000000000000003600000000000000370000000000000039000000000000003A000000000000003C000000000000003F0000000000000042000000000000004400000000000000450000000000000048000000000000004B000000000000004D000000000000004E000000000000004F0000000000000050000000000000005100000000000000540000000000000055000000000000005600000000000000570000000000000059000000000000005A000000000000005C000000000000005D000000000000005F00000000000000600000000000000061000000000000006300000000000000020000000000000007000000000000000C000000000000001200000000000000140000000000000018000000000000001A000000000000001B000000000000001C000000000000001D0000000000000022000000000000002300000000000000250000000000000027000000000000002B000000000000002C000000000000002D000000000000002E000000000000003500000000000000360000000000000037000000000000003A000000000000003C000000000000003D00000000000000400000000000000044000000000000004500000000000000470000000000000048000000000000004A0000000000000052000000000000005C000000000000005D000000000000005E00000000000000630000000000000004000000000000000D00000000000000170000000000000018000000000000001A000000000000001C000000000000001E00000000000000250000000000000029000000000000002A000000000000002F00000000000000310000000000000032000000000000003400000000000000350000000000000036000000000000003700000000000000380000000000000039000000000000003A000000000000003B000000000000003C000000000000003E000000000000003F00000000000000400000000000000043000000000000004500000000000000490000000000000054000000000000005500000000000000560000000000000058000000000000005B000000000000005E000000000000005F0000000000000061000000000000006300000000000000000000000000000001000000000000000300000000000000040000000000000005000000000000000600000000000000080000000000000009000000000000000B000000000000000C000000000000000F000000000000001000000000000000120000000000000013000000000000001500000000000000160000000000000018000000000000001A000000000000001B000000000000001D000000000000001E000000000000001F0000000000000021000000000000002400000000000000250000000000000027000000000000002A000000000000002D0000000000000030000000000000003300000000000000340000000000000035000000000000003600000000000000380000000000000039000000000000003A000000000000003B000000000000003C000000000000003F00000000000000410000000000000042000000000000004500000000000000470000000000000048000000000000004A000000000000004B000000000000004D000000000000004E00000000000000510000000000000052000000000000005400000000000000550000000000000057000000000000005A000000000000005D000000000000006000000000000000630000000000000002000000000000000300000000000000040000000000000007000000000000000A000000000000000B000000000000000E0000000000000012000000000000001A000000000000001D000000000000001E000000000000001F000000000000002100000000000000230000000000000027000000000000002A000000000000002D0000000000000031000000000000003200000000000000340000000000000036000000000000003C000000000000003D000000000000003F000000000000004000000000000000460000000000000048000000000000004A000000000000004C000000000000004F00000000000000510000000000000055000000000000005600000000000000570000000000000058000000000000005B000000000000005D00000000000000030000000000000004000000000000000B000000000000000C000000000000000F00000000000000140000000000000016000000000000001A000000000000001F000000000000002200000000000000230000000000000024000000000000002600000000000000300000000000000033000000000000003500000000000000360000000000000038000000000000003C000000000000003E000000000000003F0000000000000045000000000000004600000000000000480000000000000049000000000000004B000000000000004D0000000000000050000000000000005200000000000000530000000000000055000000000000005A000000000000005C000000000000005E00000000000000620000000000000000000000000000000200000000000000030000000000000006000000000000000700000000000000080000000000000009000000000000000C000000000000000E000000000000000F00000000000000110000000000000012000000000000001300000000000000140000000000000015000000000000001600000000000000170000000000000018000000000000001B000000000000001D000000000000001E0000000000000020000000000000002100000000000000230000000000000024000000000000002600000000000000270000000000000029000000000000002A000000000000002B000000000000002D000000000000002E000000000000003000000000000000310000000000000033000000000000003500000000000000360000000000000039000000000000003B000000000000003C000000000000003D000000000000003E000000000000003F00000000000000420000000000000043000000000000004400000000000000450000000000000048000000000000004B000000000000004E000000000000004F0000000000000051000000000000005400000000000000570000000000000058000000000000005A000000000000005D000000000000006000000000000000610000000000000063000000000000000300000000000000070000000000000009000000000000000A000000000000000C0000000000000011000000000000001400000000000000150000000000000017000000000000001B00000000000000210000000000000022000000000000002500000000000000280000000000000029000000000000002C000000000000002F0000000000000030000000000000003500000000000000370000000000000038000000000000003A000000000000003C000000000000004000000000000000410000000000000044000000000000004500000000000000460000000000000047000000000000004A000000000000004D000000000000004E000000000000005000000000000000520000000000000053000000000000005400000000000000580000000000000059000000000000005E00000000000000060000000000000009000000000000000C000000000000000D000000000000001500000000000000180000000000000019000000000000001A000000000000001B000000000000001C000000000000001D000000000000002100000000000000230000000000000024000000000000002500000000000000260000000000000029000000000000002F00000000000000330000000000000034000000000000003500000000000000360000000000000037000000000000003C000000000000003E0000000000000040000000000000004100000000000000440000000000000048000000000000004C00000000000000500000000000000058000000000000006100000000000000000000000000000003000000000000000400000000000000060000000000000009000000000000000B000000000000000C000000000000000D000000000000000E000000000000000F00000000000000100000000000000011000000000000001200000000000000150000000000000018000000000000001B000000000000001D000000000000001E000000000000002100000000000000230000000000000024000000000000002600000000000000270000000000000029000000000000002A000000000000002D000000000000002E000000000000002F000000000000003000000000000000310000000000000033000000000000003400000000000000360000000000000039000000000000003C000000000000003E000000000000003F0000000000000042000000000000004300000000000000450000000000000048000000000000004A000000000000004B000000000000004E00000000000000510000000000000053000000000000005400000000000000570000000000000058000000000000005A000000000000005B000000000000005D000000000000006000000000000000630000000000000000000000000000000100000000000000050000000000000008000000000000000A000000000000000B000000000000000D00000000000000100000000000000011000000000000001200000000000000170000000000000018000000000000001A000000000000001B000000000000001E000000000000001F00000000000000210000000000000028000000000000002A000000000000002D000000000000002F000000000000003000000000000000380000000000000039000000000000003A000000000000003B000000000000004300000000000000450000000000000049000000000000004B000000000000004C000000000000004F0000000000000053000000000000005400000000000000560000000000000057000000000000005A0000000000000060000000000000006300000000000000030000000000000009000000000000000A000000000000000B000000000000000D000000000000000F000000000000001100000000000000150000000000000019000000000000001B000000000000001C000000000000001E000000000000002000000000000000210000000000000029000000000000002C000000000000002F00000000000000320000000000000033000000000000003900000000000000400000000000000045000000000000004B000000000000004E000000000000004F0000000000000051000000000000005200000000000000560000000000000059000000000000005A000000000000005C000000000000005D0000000000000061000000000000000000000000000000030000000000000005000000000000000600000000000000070000000000000009000000000000000B000000000000000C000000000000000F000000000000001000000000000000110000000000000012000000000000001300000000000000150000000000000018000000000000001B000000000000001C000000000000001E000000000000002100000000000000220000000000000024000000000000002700000000000000280000000000000029000000000000002A000000000000002D0000000000000030000000000000003100000000000000330000000000000034000000000000003600000000000000370000000000000039000000000000003C000000000000003E000000000000003F000000000000004200000000000000440000000000000045000000000000004600000000000000470000000000000048000000000000004B000000000000004D000000000000004E00000000000000500000000000000051000000000000005200000000000000540000000000000057000000000000005A000000000000005B000000000000005D000000000000006000000000000000630000000000000001000000000000000200000000000000060000000000000007000000000000000D00000000000000100000000000000011000000000000001500000000000000160000000000000017000000000000001E000000000000001F00000000000000260000000000000028000000000000002C0000000000000031000000000000003A000000000000003F00000000000000410000000000000048000000000000004F000000000000005000000000000000510000000000000054000000000000005500000000000000580000000000000059000000000000005A000000000000005B00000000000000610000000000000001000000000000000200000000000000040000000000000009000000000000000B0000000000000010000000000000001100000000000000120000000000000015000000000000001C000000000000001D00000000000000210000000000000022000000000000002300000000000000260000000000000029000000000000002B000000000000002C000000000000003300000000000000370000000000000039000000000000003C000000000000003F0000000000000041000000000000004400000000000000450000000000000047000000000000004E00000000000000550000000000000059000000000000005B000000000000005C000000000000005D000000000000005F00000000000000600000000000000061000000000000006200000000000000000000000000000003000000000000000500000000000000060000000000000009000000000000000B000000000000000C000000000000000D000000000000000F00000000000000110000000000000012000000000000001500000000000000180000000000000019000000000000001B000000000000001C000000000000001D000000000000001E000000000000002000000000000000210000000000000022000000000000002400000000000000250000000000000027000000000000002A000000000000002D000000000000002E0000000000000030000000000000003300000000000000350000000000000036000000000000003700000000000000380000000000000039000000000000003C000000000000003F0000000000000042000000000000004500000000000000470000000000000048000000000000004B000000000000004E000000000000005100000000000000520000000000000054000000000000005700000000000000580000000000000059000000000000005A000000000000005D000000000000005E000000000000005F00000000000000600000000000000061000000000000006300000000000000000000000000000005000000000000000F0000000000000014000000000000001500000000000000170000000000000018000000000000001E0000000000000024000000000000002E0000000000000031000000000000003200000000000000350000000000000040000000000000004100000000000000480000000000000049000000000000004B000000000000004C0000000000000054000000000000005600000000000000630000000000000007000000000000000C00000000000000150000000000000018000000000000001C000000000000001F0000000000000022000000000000002600000000000000280000000000000029000000000000002A000000000000002B000000000000002E000000000000002F0000000000000031000000000000003300000000000000360000000000000038000000000000003A000000000000003B000000000000003E0000000000000040000000000000004300000000000000480000000000000050000000000000005100000000000000540000000000000057000000000000005C000000000000005D000000000000005F0000000000000060000000000000006200000000000000000000000000000003000000000000000400000000000000060000000000000009000000000000000B000000000000000C000000000000000F000000000000001200000000000000130000000000000014000000000000001500000000000000160000000000000018000000000000001A000000000000001B000000000000001C000000000000001E000000000000002100000000000000220000000000000024000000000000002600000000000000270000000000000028000000000000002A000000000000002C000000000000002D000000000000002F000000000000003000000000000000330000000000000034000000000000003500000000000000360000000000000039000000000000003C000000000000003D000000000000003F00000000000000400000000000000041000000000000004200000000000000440000000000000045000000000000004600000000000000480000000000000049000000000000004B000000000000004C000000000000004E000000000000005000000000000000510000000000000054000000000000005600000000000000570000000000000059000000000000005A000000000000005D000000000000006000000000000000610000000000000063000000000000000A000000000000000C000000000000000E000000000000001000000000000000110000000000000016000000000000001E00000000000000200000000000000021000000000000002300000000000000270000000000000029000000000000002B000000000000002C000000000000002E000000000000002F000000000000003000000000000000350000000000000038000000000000003C000000000000003D000000000000004000000000000000430000000000000048000000000000004A000000000000004B000000000000005000000000000000570000000000000059000000000000005A000000000000005C000000000000005F00000000000000610000000000000062000000000000000100000000000000020000000000000004000000000000000B000000000000001400000000000000160000000000000018000000000000001D000000000000001E000000000000002000000000000000220000000000000023000000000000002500000000000000270000000000000029000000000000002A000000000000002D00000000000000370000000000000038000000000000003C000000000000004600000000000000470000000000000048000000000000004A000000000000004D00000000000000550000000000000059000000000000005B000000000000005D0000000000000061000000000000000000000000000000030000000000000004000000000000000500000000000000060000000000000009000000000000000C000000000000000D000000000000000F000000000000001200000000000000130000000000000014000000000000001500000000000000170000000000000018000000000000001B000000000000001D000000000000001E000000000000001F000000000000002100000000000000220000000000000023000000000000002400000000000000260000000000000027000000000000002A000000000000002D000000000000002E000000000000003000000000000000320000000000000033000000000000003600000000000000380000000000000039000000000000003B000000000000003C000000000000003D000000000000003F00000000000000400000000000000042000000000000004300000000000000450000000000000048000000000000004B000000000000004E000000000000004F00000000000000510000000000000053000000000000005400000000000000570000000000000059000000000000005A000000000000005D000000000000005E000000000000005F0000000000000060000000000000006300000000000000040000000000000011000000000000001200000000000000180000000000000019000000000000001A000000000000001E000000000000001F0000000000000020000000000000002100000000000000240000000000000025000000000000002B000000000000002C000000000000002E000000000000002F000000000000003000000000000000330000000000000037000000000000003B000000000000003D00000000000000440000000000000048000000000000004A000000000000004B00000000000000500000000000000054000000000000005500000000000000580000000000000059000000000000005C000000000000005E0000000000000060000000000000006100000000000000000000000000000004000000000000000600000000000000070000000000000008000000000000000A000000000000000C000000000000000E0000000000000011000000000000001200000000000000130000000000000017000000000000001C000000000000001E00000000000000210000000000000024000000000000002B000000000000003100000000000000320000000000000036000000000000003A000000000000003B000000000000003D000000000000003E00000000000000400000000000000041000000000000004500000000000000470000000000000048000000000000004C000000000000004D000000000000004F000000000000005000000000000000510000000000000052000000000000005500000000000000570000000000000058000000000000005C000000000000005D0000000000000060000000000000006100000000000000000000000000000003000000000000000600000000000000080000000000000009000000000000000C000000000000000F000000000000001100000000000000120000000000000015000000000000001600000000000000170000000000000018000000000000001A000000000000001B000000000000001E00000000000000210000000000000022000000000000002400000000000000260000000000000027000000000000002A000000000000002B000000000000002C000000000000002D000000000000002E000000000000002F000000000000003000000000000000310000000000000033000000000000003400000000000000350000000000000036000000000000003700000000000000380000000000000039000000000000003A000000000000003B000000000000003C000000000000003E000000000000003F0000000000000042000000000000004500000000000000480000000000000049000000000000004A000000000000004B000000000000004C000000000000004E000000000000004F000000000000005100000000000000520000000000000054000000000000005500000000000000560000000000000057000000000000005A000000000000005B000000000000005D000000000000005E00000000000000600000000000000062000000000000006300000000000000"> : tensor<4499xindex>) {addr_space = 0 : i32, alignment = 64 : i64} : !llvm.array<4499 x i64>
  llvm.mlir.global private constant @__constant_4499xf64(dense<"0xB37DC85BAE3623406EDBF7A8BFB6204060217365502D0B406DE525FF93FF0440DE57E542E57721407847C66AF3DF1340F12E17F19D1817404DDA54DD235B234038F3AB3940B02240EEED96E4802D1540F7CDFDD5E33E22405C74B2D47A5F0340D882DE1B4300F73F0892770E65480140C79DD2C1FA0F1D40789961A3AC1F084023F59ECA697F214078CF81E508790A4064CA87A06AF4EE3FEBFF1CE6CBEB0F406133C005D9920A40890CAB782333114028D192C7D37A2340DD5F3DEE5BEDFD3F359886E123D22040C1A90F24EF3C0640876A4AB20E270440DBE044F46BEBF83F3448C153C8B51E40AB5E7EA7C9AC2340B24813EF00DF1F406214048F6F1F204074B515FBCBDE2140ADC266800B8A234055BDFC4E93012040815D4D9EB24220404FE960FD9F0307405D6E30D461D520400492B06F27F923406B6116DA394DE23F1CEA77616BB6DB3F81D1E5CDE1AA2040537B116DC7540F401D3A3DEFC6421E400C056C0723761440E960FD9FC35C06408FAB915D69712140E738B709F7CAD83F51F4C0C760C5E63F4966F50EB733114055DAE21A9F09FA3F3D7E6FD39FBD2040377172BF43E113407AC6BE64E3810B40F6EE8FF7AA15EA3F70CFF3A78DAAF83F6BD619DF1747214099BC0166BE731340E86B96CB46AF204009FD4CBD6EB10940A67F492A536C1740005471E316530140ED66463F1A8E024036035C902D0B094006137F1475C623406C04E275FDE214409BE5B2D1391F1C4021E527D53E5DF13FD53E1D8F19681D40F2CEA10C55612340618A7269FC5216406CB41CE8A1D60F40D6E1E82ADDBD21407AC2120F289BF53F252367614F3B0D403E5C72DC296D1C4060C77F8120001C40608F899466C31A4000C974E8F45C0B40EDD632198EB71240B39602D2FE771540799109F835B22340437573F1B7BD0A40F8C610001CFBE83F9BFEEC478A88F63F14EAE923F0971340F46E2C280CFA1F40AD18AE0E80781840B403AE2B669422408A5A9A5B218C0F406AF6402B30741A40D13B1570CFF3E53FF705F4C29D0BBB3FC971A774B0C62140DAAD65321C2F0F40AE9E93DE377E2040AFD007CBD8E01F40C98E8D40BC8E0F407A5567B5C09E0440BDC5C37B0E4C2340CC0A45BA9FA322403C3080F0A1C4E13FD3DB9F8B860C1D404D124BCADD270D4019E8DA17D0CB0240F646AD307D2FFC3FDCDAC2F352510340F4160FEF39902340E6948098848BFF3F90A339B2F2CBEE3FA9BD88B663CA0140567DAEB6620F1F400919C8B3CB570140282CF180B2791B4043C879FF1F671640F4177AC4E8F90440221CB3EC49E00740D905836BEE68ED3F9C33A2B4375814400397C79A91D11C40CD920035B5EC0F404B1E4FCB0F5CDB3F261B0FB6D83D22402C0DFCA8863DFB3F8928266F80591F40D3D9C9E02899164087C0914083ED05407E8FFAEB1596104031EE06D15AD922409CC420B072E8EE3F2B86AB0320AE1F40EA58A5F44C8F20405116BEBED6250C40DC4B1AA375B4034027DBC01DA893F13F5A46EA3D95F312407FF5B86FB54620406117450F7CEC19406D5853591476EE3FEF586C938AE603405000C5C892391E4041EF8D2100B81F4029CB10C7BAD80240BC5983F7553915408C2D043928E10F4055C03DCF9F16044058E71890BD062240D4B5F63E55A5004033198EE7336016401503249A40310540D174763238C22240AFB2B6291EF70840F8325184D4ED1E4055151A8865DB20406FD39FFD48911A404208C89750811540FEEE1D3526D41640BDC804FC1AE9234025E99AC9375B1E40A3570394867A0A40EAE74D452A0CED3FE605D847A76EF13FDAE385747808E43FFF1F274C180D1E403D64CA87A02A1540D993C0E61CBC1040FC389A232B3F0E40D89B189293090A400FD1E80E62E72340B0045262D7261E40833463D174F602409B8E006E16AFE53F5CC823B891AA204042B3EBDE8AC40E40909F8D5C37A5F73FE27668588CBACE3F9ACC785BE9750040EDF2AD0FEBAD2240E4DBBB067DA12040FB5DD89AADBC0640FE9B1727BEBA0C40DC4AAFCDC6CA1140292499D53B4423403C32569BFF572040D5230D6E6BBB18400BD1217024D022405E9CF86A47A11240C748F60835B31240E3AAB2EF8AD017403ECDC98B4CC004406AF5D55581EA19407F1475E61E5A2340739EB12FD960204012FA997ADD322240E9465854C4491640200890A1637711400C569C6A2DC420404AED45B41DB30F407217618A720904408BE1EA0088BBD33F6AC18BBE8234E23F1B683EE76E17114010AE80423D7DE33FF4A44C6A68FB224072C5C551B9092240C0AF912408E719409F39EB538E49EC3F8509A359D91E06402FF834272FD211402A3A92CB7F7020402A6F47382D981840698B6B7C268B1A4069006F81048D2240A7AFE76B96032240684293C4922A23404D6551D845D1FB3F7E18213CDAF8014016DA39CD024D104009FF2268CC04144051A04FE4493203409E0B23BDA8BD1E4034643C4A255421401EDC9DB5DB2EFF3FB0C6D97404E01F40B5FD2B2B4DBA1B40FC8C0B07429A2340D2C43BC093D6F83FEC1681B1BE81C93FCAC342AD694E16404E42E90B21470640494A7A185A2D1F4030BDFDB968D815402B155454FDEA0D4022895E46B12C1F401F477364E5BF20407AC7293A929B1D40AAD216D7F84CE03F232F6B62819F1C404FADBEBA2A70164037A5BC56422F2340994528B682861A409AB1683A3BB91B40ED2AA4FCA4AA1A409B046F48A302FE3F7250C24CDB9F0C4016FC36C4784D0D404B77D7D9901F1340EB3A545392751540BF27D6A9F25D1840D829560DC25C0A4036ACA92C0A23204086E63A8DB4D41E40DD5F3DEE5B4D0140FA2B64AE0CDA23407632384A5E55204044FCC3961E5D1D4085B01A4B581BBF3F4337FB03E51614402BA6D24F383BF03FB0C56E9F5566F93F0806103E94880040965E9B8D957804401DE5603601861840A08CF161F6821240E1B88C9B1A481E402FC37FBA81F21440ADDEE17668B81840921FF12BD6E011402AE620E868CD2340A06B5F402FFC164008CC43A67C581E40D1CFD4EB1601F33FA0A70183A40FFD3FBC77D49810032240776A2E3718EAC83FB0E2546B6116C83F890CAB7823C321405A7F4B00FE29CD3FDC0F78600061F23FCD58349D9D0C114087A757CA32C404402D7AA702EE292340CD203EB0E3EF1240CDB051D66F8E20403F1A4E999B4F14407FF78E1A134216403EE76ED74B53E93F0306499F5641174091B6F1272A0B10401899805F23891F408CBD175FB4070C40CBBA7F2C44C7FA3F390D51853F0B234023DA8EA9BB721E4095287B4B39BF1140645C7171541E1140906B43C538BF1D409293895B0531A03FEA211ADD414C08400934D8D47994094079E57ADB4C45F63FD55C6E30D461F03F7366BB421FE420402844C0215469FB3FA9D903ADC0A01C40838AAA5FE9FC0C4010AD156D8E732040FB912232ACE2DB3F36EA211ADD11184074417DCB9CB62340F3C81F0C3CC723406EFC89CA86951640174850FC1833F83FFA5FAE450B900740D0F0660DDEEF2340EFE192E34E890A408BC3995FCD010D40535BEA20AF271F404B033FAA617721402AA73D25E73416405A48C0E8F2C61A40B1DB679599B2224019AE0E80B82B14407AFCDEA63F7BEC3F15FDA199272F214000C63368E81F0540969526A5A05BE03F29CE5147C795F63FD89DEE3CF15C1F4081CD397826841440EFFE78AF5AD9044069AA27F38F0E21403656629E95A41A400EA0DFF76F3E1940FDC1C073EF61E73FD49CBCC8043C1140753DD175E1670A40363AE7A7388EFE3FA80018CFA0211440AED689CBF14A0140DEC7D11C591912402A7288B83995B43F65726A6798FA10407497C4591135CD3F3F355EBA498C1B40F373435376FA22400475CAA31BC1104095D4096822AC0C40EC8497E0D4271C40751DAA29C99A1C400CAD4ECE508C1040029CDEC5FBB107401FF64201DBC103409BE3DC26DC732240001AA54BFFDA204094C0E61C3C331040456458C51B091B40139ED0EB4FE2D23F707841446AA2234037C2A2224E971140FBEB1516DC5F114098A59D9ACB8DF33FDAACFA5C6D6519406D3997E2AA0215405AF44E05DC131F40A2B8E34D7E0BE73F003ACC971760D53F357F4C6BD3381240A437DC476E9D1E40B9AB5791D101FE3FCFA2772AE09E0340CEFE40B96DB72340800EF3E5051023401EDC9DB5DBAEED3FB2D991EA3BFF16406D1CB1169F82E13FEACE13CFD9B21D40FA25E2ADF36FD93F4626E0D748120D40868E1D54E27A22407FA65EB7083C1140F9A23D5E48672240EE93A30051F0224038143E5B0707E23FA016838769CF1F40F792C6681D5D2040B1A4DC7D8E8FE03F6971C63027E821409F1EDB32E05C1C40280B5F5FEB320640488787307ED2204094BC3AC7807C1040E770ADF6B057FF3F07EA944737D21040D7DD3CD521B71B402FE1D05B3CDC224062A2410A9EE2204000C5C89239B60D40F23FF9BB77341E40B2D6506A2FB22040CAC2D7D7BAF41B40E2E82ADD5D67E43FC9E9EBF99AF51840211D1EC2F8A90F40CE531D72335CEA3FC1525DC0CBEC1640CBBA7F2C44270740C70E2A711D1B20407FA2B2614D351440E5805D4D9E72FC3FAA2B9FE579201C400B444FCAA4260D409C19FD683865E13F86376BF0BE2ACD3F083C3080F0E108408159A148F7730C4042B3EBDE8A5C2240098D60E3FAF7F03FF3E32F2DEAF317402507EC6AF27411404A42226DE34FDB3F357F4C6BD3D8DC3F47AD307DAF911940711FB935E9A61D4068942EFD4BA218402FDE8FDB2FDFFD3F7E5704FF5B192340DC476E4DBAADFC3FC30C8D2782881F402121CA17B470054002A08A1BB7681840865451BCCA3A09408E8F16670C131B4038C0CC77F013D23F63D009A183CE054013109370212F1F404B75012F331C1D40709A3E3BE0BAED3F19AF795567E519409A43520B25BB2140D714C8EC2C7AC73FA515DF50F85421409835B1C0575402406A2E3718EA501D40DDEEE53E392A0E40EDF2AD0FEBCD0740CC086F0F42101240E1D40792770EE83FE1085229760C21408A3A730F095FEF3FACE28DCC23AF2040A88B14CAC2DF2040804754A86E8E1040CD203EB0E3FFF43FD6743DD175010D4047AAEFFCA2341840878C47A98427DC3F75C93846B29713402EAC1BEF8E4C1340C2DEC4909C7C1C40414AECDADE3E1C400BB6114F76531C4002D53F886448E23F63D4B5F63E051040295C8FC2F5581240B13385CE6BECFD3FCAC2D7D7BAB420404C1AA3755435DE3F68942EFD4B12FA3F9274CDE49BED00409AEAC9FCA3DF1A40E43098BF42761040EA93DC6113790A40C0B33D7AC37D1D40D68C0C72173116402DB0C7444A530D4084640113B82D2040EB3BBF2841CF1E40AA45443179E31B406BD8EF8975AA1440A69883A0A3251140A8C64B3789A10140B6BA9C12107B2240C0B33D7AC3DD0A40D784B4C6A0B30A40A1DAE044F4DB124094331477BCE91C40F67AF7C77B9D2040BD546CCCEB6823406000E1438916F83FA4C7EF6DFA631340622EA9DA6E822040FF5A5EB9DE862240B5FB5580EFD61D40105839B4C89E2240944C4EED0C8B2140CF328B506CF52240878BDCD3D53D074078EDD286C33221400E6ABFB513952040787AA52C43D42040E831CA332F1722409D66817687540E40C9CC052E8F4515404757E9EE3A1B09404606B98B30E51B40BD564277491C1C40F81BEDB8E1770D40DB4E5B2382D1064018CC5F2173351840552FBFD364C6C53F98DD9387859A034011A62897C61F1440E8A4F78DAFDD1B40508BC1C3B4EF03404BAFCDC64ACCE63F77A04E797433174059DDEA39E9DD1040B6A0F7C610D8214018EC866D8BD214408DD0CFD4EB96F63F174A26A776060640ED2DE57CB1970F40E4BCFF8F137617406F48A30227FB07408EB0A888D3F91240FA7ABE66B9ECE23FA31D37FC6E6A104099F1B6D26B0321402A01310917621B405B5F24B4E5BC1D404BAFCDC64A2C20403E7782FDD739E83F8E40BCAE5FB0F53F61C1FD80074622402025766D6FB70D40E8D9ACFA5CED0C400A83328D2697FD3F766EDA8CD3C01340469561DC0DE21D4065506D7022DA0040B073D3669CE6204048C0E8F2E6401340EFC9C342ADE9224097C80567F0E71D4054E0641BB8331E4015747B4963540E409B1E1494A2C51440139B8F6B43C50F405D6DC5FEB25B044066A19DD32C601340ADDA3521ADB1E63FFA6184F06863194092037635794AEB3FD7BE805EB8F3FF3FB66455849BDC1F40664CC11A67731640425DA45016F62340E6046D72F8A4933FE083D72E6DA81B40C66CC9AA08071D401B62BCE655CD1C4077137CD3F469114070CFF3A78D8A13404E6210583974FB3F67B62BF4C1621140D49810734915F83F7F6C921FF19B1240EC504D49D6E10040F59CF4BEF1B51C40C1C93670079A1140A243E048A0611D405EF58079C8C41140ECA2E8818FE11F40B89388F02FFA21406682E15CC33C1B40B0AF75A911DA1340967B8159A18020400DFE7E315B920E4078280AF4898423400D349F73B7FB1440A1F5F065A2F822408E7747C66A031D405DF92CCF832B144001A43671727F2240E415889E94212140EF552B137E690440B77A4E7ADF78034094675E0EBB3F134038842A357BB01040E882FA96395D12400A14B18861D71740615111A7938C01409414580053C60F40A950DD5CFC9D11401C5E10919AFE22408BFCFA2136D8FF3F14B4C9E1938EF53FCFA0A17F828BE33F7FDE54A4C2F80B40A087DA368C621940BEA3C684988B1140252191B6F1E70140A3E8818FC1BA144014799274CD240640448B6CE7FB5123408B506C054D4BE13F3831242713B7E13F95B54DF1B8E80D40A01518B2BA950B40BC783F6EBFAC1540EDD286C3D2E02140A857CA32C42922409CC3B5DAC31E0640D218ADA3AA49FB3FC63027689303FA3FB9E177D32D3BCC3F1975ADBD4F8D20402F87DD770C0F19407024D06053071E40ED2B0FD25384214042D0D1AA96F41B40A91611C5E43D1A405567B5C01E431F405AD427B9C3E618404A41B79734D62140F1D4230D6EEBFA3FE1EB6B5D6AC40040A0DE8C9AAFB203401B4AED45B43D1F40D6389B8E008E21409087BEBB95F5194065C746205E871240F357C85C19E41440B189CC5CE0021840EB55647440E215405454FD4AE7E31640177E703E754C0B407D3CF4DDAD1422406745D4449F4F0C40AC8E1CE90C0C1E40F54C2F31962920402E54FEB5BCC211407C7BD7A02FBDD63F7FDC7EF964A50D40D82C978DCEB90840682101A3CB832140C93B8732548D2340878C47A984171540645B069CA5641B408D43FD2E6C4D0A40880D164ED2FCD93FD5B2B5BE48281D4013656F29E7FB22400951BEA085542040191EFB592C8512401D1D5723BBD2D23F58569A9482262040CFD90242EBD11F40467A51BB5FA50C40C0098508382404405A0D897B2C0D1E402BD9B11188D7D93FBB09BE69FADC1640895E46B1DC021A40BB0F406A13371440DBDC989EB0C4D43F77A04E79748B20402A52616C2188F13F323A2009FB661F40338CBB41B456DF3FBABDA4315AC7E73FB459F5B9DA2A154035B22B2D239504403A596ABDDF6820401A8BA6B393911240930035B56CADF43F29594E42E98BEC3F738236397C421E401B62BCE6550D2140D9092FC1A90FF73F0BEE073C3078204068942EFD4BA2104048DDCEBEF2901240EFE2FDB8FD021140F4BF5C8B160821403291D26C1E87FF3FBCAE5FB01BD61C4035B39602D25E0C40B39AAE27BA5E134061FE0A992BC31C40999D45EF548005407D586FD40A53F83F2D25CB4928CD1040757808E3A7F1EF3FA2D5C9198A9B17404FEB36A8FD56184035B56CAD2FB2114084BD892139E122401B81785DBF582240E6CAA0DAE0A402403C2D3F70955F22401B4CC3F011A11D405CE84A04AA6F18402C11A8FE41E400407F2F8507CDAEFC3FEEB5A0F7C6D0164054724EECA1DD0140FED64E9484642340ADBF2500FFDC2140D508FD4CBD8E21409B8E006E161F22404E8061F9F3AD1F401FBAA0BE650E0A40346953758F8C1E40E4D6A4DB12190340AB22DC6454A9224011E0F42EDE0FEF3FA7406667D12B22408177F2E9B10D0140681F2BF86D4821403E213B6F63431C402A1F82AAD1CB0840A2D0B2EE1FDB1640C85BAE7E6C121C407BBB253960971240280B5F5FEB520F40CF876709322217405C3AE63C636F1C4072FC5069C45C1040363E93FDF334DB3F6D57E883652C0940A839799109F8DD3FA7AD11C1380815402FE065868D4A2040BEC0AC50A4FB194085949F54FB34F13FAA9B8BBFED49FD3F103D29931A5AE13FB62BF4C132D62240971B0C7558A1F03F64963D096C8621401DE4F56052FC1440B1FCF9B6608901404489963C9EB62040473EAF78EA11E23FD3F4D901D7551140BC04A73E907C0D40C1029832701822406DA983BC1E4C1840A5F3E15982DC1F40DE8E705AF0221F407FDC7EF964451540BA675DA3E5800A40C4CDA96400081B402810768A55831D40DE72F56393FCF33FDC48D92269071D4013471E882C522240713D0AD7A30023405C751DAA2969194059F78F85E8901F40D4BA0D6ABFB50E40DC0DA2B5A2CDF73F359886E123C20940E92807B309B005402DE8BD310440F53FA243E048A001F73FBB2A508BC16306406D00362042FC13406552431B80CD1540BEF8A23D5EE02140AEB8382A3729224097C4591135B10240B2A19BFD81422340BB287AE063900540C784984BAAB6C53F8D63247B840A1240F54883DBDA021140936E4BE482CB2040240F441669A2F73FEE4108C89760154037E2C96E6664134061342BDB87AC1540A306D3307CB41A40B2135E8253DFFA3FFA0D130D5270E03FB876A2242452EC3F0BB77C2425CD22404F5DF92CCF03FE3FD95C35CF11991940FE463B6EF81D134052EDD3F198311E40605969520ABAFF3F67EF8CB62A3912407B1002F2253420405AB741EDB7C6194081D07AF832310B40022B8716D90EF93FA12E52280B3F05401D2098A3C7AF0D4037DDB243FC430A403A5B40683DEC184052EE3EC7478BB33F0874266DAAEED23FF436363B52DD1640D655815A0C5E234071C79BFC167D0C4082700514EA890F403849F3C7B4A61F40AF78EA9106971F40C284D1AC6CDF1A40252191B6F117194031B1F9B8360415409240834D9D070540B1169F0260FC22403DEFC682C2800640100874266D7A10409D2E8B89CD871A409B1BD31396881040C9552C7E53D810404D486B0C3A81014005508C2C99E30D4059DAA9B9DC6006401EC3633F8BC52140D3D9C9E0287906402942EA76F6451D40069E7B0F979C1040B34291EEE77404409FC728CFBCDC1140E146CA1649DB1340B43C0FEECEAA1C40868E1D54E22A154019761893FEEE2140D6C56D3480B7F03FC233A14962291640674815C5ABB423401C0B0A83327D1D40C289E8D7D66F0E404AD05FE811B31A40D787F546AD801F40ECA4BE2CED341D4058C51B99470E23400E12A27C41AB1A4066BD18CA89E62140B1524145D56FF23FFCE1E7BF077F194086C954C1A8A40C405DA96741282F154032AD4D637BCD0940C9C7EE0225DD21405F7F129F3B511D405CCAF962EFD51A40E605D847A73E1040747973B8560B2040F12F82C64C820E40750305DEC9771940A0185932C7021240176536C824230D408D429259BDD31F407E8AE3C0AB751640C8D2872EA8EF14409B75C6F7C525E53F87E123624A4419406478EC67B114DD3FC9CA2F83318A2240F4FE3F4E98082240D2FBC6D79E391A4060915F3FC476214018778368ADE802409162804413C02040B343FCC3967E1D401651137D3E3A13404C8C65FA25E2F63F7E18213CDAB8F13F99F221A81A3DE13F3E97A949F086FE3FD6A71C93C58D1140A67C08AA46AFF23F63635E471CB2D73F50A8A78FC0FF06400F7EE200FA8D154046B6F3FDD4682340492D944C4E65214041102043C73E13405DFC6D4F903820403E75AC527A9E2140DCD5ABC8E8A00B405723BBD23272144087F8872D3D7A1740043752B648522240CE8B135FEDA81440C3BAF1EEC8E82240A5164A26A7061A40F24064912696234054FF20922187FA3FD4B66114040F0240B83EAC376A551D400EDC813AE5D10140CF85915ED4EEFD3FC6DB4AAFCDC6214078465B9544061940087767EDB603214010CAFB389AB31F404F3BFC3559A3F83FD4D2DC0A61A52240268BFB8F4C271940261C7A8B87D7204049641F64593012402843554CA5DF1A40EE940ED6FFF9F73F7F164B917C25603F666B7D91D096EF3F7D073F71002D1F40A88AA9F4132E23406478EC67B1341D408121AB5B3DCF214022AAF067787320400B5EF415A419D43F279F1EDB32801D408C4CC0AF91941A40B89047702365F33FC0B4A84F72B71840382C0DFCA8961740A1A014ADDC8BE93F0C01C0B1672F0440FF76D9AF3BBD0340FC5580EF366FE03F11E0F42EDEDF22408B19E1ED41D81C401BD99596917A1B406798DA520779E33FDCBDDC2747511240D3F8855792BCEE3F26512FF834F715408AE5965643BA2240A27BD6355A7E12402B306475ABF72240548F34B8ADBD1B4034F279C5531F1A40C7F65AD07B63C23F39F06AB933D3F33F2D08E57D1CBD204031B1F9B836A41C408E5C37A5BC56CC3F5797530262721440C005D9B27C1D1740B7627FD93D79E93F03081F4AB4E4ED3FFD4B5299622E09402CEFAA07CC8B234064EB19C231BB2240CD920035B51C1940C0EC9E3C2CCC234087DC0C37E0931B40D99942E7354E2040A915A6EF35941940D86322A5D9BC12409F55664AEB4F1F4066DAFE9595D61D40ED0C535BEAE01540738236397C920940AD4D637B2D781940EEE87FB916CD0540F86EF3C649111E405D35CF11F90E034015731074B46A1C40EE5D83BEF40620407427D87F9D9BC03FCF68AB92C87EF23F430070ECD9431740897E6DFDF42F154050560C5707A00740F04FA912654F22407156444DF4790A40C5387F130A9113402A8C2D0439D8214042B3EBDE8AC41840CC2555DB4D282340F7CDFDD5E3BE0F4054E0641BB8531C403BFBCA83F4342040AB59677C5FA4204001A3CB9BC35505407863416150A6104009151C5E10B121407FC00303085F07404DBED9E6C6F416400DA661F888881540965F066344A2F83F2E1F49490F430940CB64389ECFE00A40D811876C203D0F407365506D70A2E53FB5FE9600FCD3E33FF2608BDD3EDB1C4027327381CBA312407EAA0A0DC4D20840554CA59F7036124079B29B19FDE8F83FB187F6B182FF15402CEFAA07CC731A40DB899290489B1040E8A4F78DAFBDFF3F54539275381A19405437177FDB130A401F6ADB300A02F23FE7E099D024B1EB3FBD8C62B9A56518400D6D00362082F93FB2852007258CFA3FCC99ED0A7DB01340751F80D4264E1D40BABA63B14DCA1140B14E95EF19912140560C570740542040E99D0AB8E7F1204075C7629B54341040AC72A1F2AF6D21407BF99D26330E1E40E1CFF0660DCE1F40A46E675F79102340642310AFEB67154016BEBED6A5C6F03FA8380EBC5A2E2340B83EAC376A651C40B1A4DC7D8E8F0240965984622B8803401B4982700514E03FC45A7C0A8031FA3F93DFA293A5D6EF3FD331E719FB92FF3F55DFF945095A04401021AE9CBDF3F53F6E162F168648EC3F0C3B8C497FCF0040D6FECEF6E81D15408CB96B09F9A0D33F72FA7ABE6639EF3F15C78157CB9D1D40C828CFBC1C960D405C936E4BE4721D4025E82FF488A11F408E01D9EBDD5F1A4053245F09A47C21406308008E3DFBFC3F9FCBD42478B3224086200725CC6C2040B0726891ED7CC33F414640852368124004C93B8732041E408C31B08EE3171C4068CBB91457AD21404298DBBDDC071240B282DF8618EFF93F9775FF58880EE13F94F7713447760940499F56D11F8A10401EA7E8482E5F18408010C99063EBCB3F93FC885FB1660E40B4942C27A1FC2340FD84B35BCB64F23F016E162F161E2340D2544FE61F3D144015E46723D7CDFB3F5D18E945ED2E1340A0336953758FE33F5704FF5BC9FE1840FA47DFA469D01A40306475ABE7AC2040E144F46BEBC714402F6EA301BC651D40259012BBB65702405D8940F50F72214057B439CE6DC21C4018B14F00C558194025E82FF48891FE3F12A0A696ADF5EC3F6C770FD07D691A40C53D963E74311E40EA25C632FD321740713C9F01F5161740AE6186C613C1F03FC365153603642240D46531B1F978F43F965984622BE80B408AC8B08A37A21F40B247A8195245C53F76525F96766A0A40CC0C1B65FDE6F13F2DD0EE9062701640F8FE06EDD527014016DA39CD029D20406B990CC7F3412340B804E09F528D2340537765170C6E1440087250C24C5B0F4077103B53E85C01400E2E1D739ED11640FFAF3A72A4C31C4056D4601A868F1E401D774A07EBBFFD3F4A0A2C80298B234034F8FBC56CB92240965984622B68D63F6E179AEB34D2FC3F6CCEC133A1E90540956588635D5C1E4052BAF42F49A51E40E162450DA6010B40B7973446EB281C4072C0AE264FE91040334E4354E11F13409DB81CAF40042140FF04172B6AB00A40611A868F88591340E0826C59BE6E1340D3DC0A6135D61140B2D826158D95134051137D3ECAA80940EE27637C983DE33FC6DD205A2B0A16406283859334FFF13F522CB7B41AB22040DB6B41EF8D21F83F43CA4FAA7DFAFF3F4CC11A67D3411840A81ABD1AA09C2340E4BD6A65C2EFFF3FCA4FAA7D3AB62140A661F88898421E4008C89750C11115407099D36531C12340D921FE614B572340F793313ECCEE1C4076FD82DDB055224087F9F202EC63F23FFD9FC37C79E120408DF161F6B29D214031EC3026FD0D2340711B0DE02D90E33F789B374E0AF3124065FB90B75C7DF83F0684D6C39749F03F4D1421753BCB1E40FA43334FAEB9154064C91CCBBBAA064000E65AB400DD1A400169FF03AC051F4025E82FF488292040A2B2614D65B10D40BA2EFCE07C7221406458C51B99478E3F01193A7650C9FE3FA112D731AE18064050C8CEDBD8ECDC3F7E5182FE42AF044062F54718065C1640D5230D6E6B1B19406E30D461851B2240293FA9F6E978EC3F459E245D3339F23F35D42824999523408A93FB1D8AE20D4062F3716DA818D43FDA59F44E052C2340E82FF488D19B2140BE4EEACBD2CEEB3FAC1DC539EA582240A438471D1D170B4026C79DD2C1FA1040F6402B3064AD21403CBCE7C072941F407808E3A771BF144028F04E3E3D561C4021787C7BD7A0FB3F63D4B5F63E752040BFD364C6DBAA1840687A89B14CAF1040DC9C4A06802AFB3F14AFB2B629762340EDD5C743DFDD1E40E02A4F20EC14CB3F1F9DBAF2591EE63F2AC6F99B50A80740B96E4A79ADF41740E3A59BC420501740E2CAD93BA39D1240DCB930D28BDADF3F5F7CD11E2FA41640FED478E926B1F73F0917F2086E741B406E4C4F58E2E115405A80B6D5AC231D40317BD976DA9AFA3F392A37514BE31D408E5A61FA5E43F93F9C3061342B7B0C40EDF5EE8FF72A1F403811FDDAFAD91A40EDF1423A3CF41C40978FA4A487392040D921FE614B6F1540ADA23F34F3A40840E73922DFA58412407D94111780C6024008CA6DFB1EB51E4006BD37860020FF3F068200193A160440467BBC900EFF2040FF5A5EB9DE5602400BD5CDC5DF461D400BB8E7F9D3B62140083D9B559F3B1940F9A3A833F7001040F14927124C651640F1A1444B1E27204018B49080D1450640723447567EF9234070287CB60E6E1A406B459BE3DC26C63F938D075BEC960E406669A7E6728313409B728577B940224048E2E5E95CF92340F4A44C6A68F32240C58EC6A17E570A40F1B8A81611B51A40226C787AA5142340B70DA320789C1B40A48CB80034DA1840FD69A33A1D8821406094A0BFD0C31D40E0BE0E9C33621C40200BD12170C41C405C59A2B3CCE22340904E5DF92CBF1A404BCD1E6805E61140DAFE959526850F402D05A4FD0FA01240F9484A7A18BA02403C670B08AD772240DC627E6E681A1A408AE6012CF2932140697407B133651340D95BCAF9625F12409CA4F9635A3B0A4063EDEF6C8F5EEA3F0B2593533BB31440BF99982EC4822140EE0912DBDD031240E42F2DEA935C1240B83B6BB75D982240A452EC681CA221402B4EB51666811440132BA391CF2322407EACE0B7217E2140CAC342AD693E07400E30F31DFC9422407FF6234564481240894160E5D002044085D1AC6C1FD20640E50AEF72117F13402F35423F539F144046088F368EA82340F910548D5E4D18409B3C65355D4F2040CDCEA2772A601A4055C03DCF9F861D400A48FB1F60DD1D40E5B7E864A9F5FD3F4DBC033C69210740FCC6D79E59B21D406A4FC939B1171A4069519FE40E5BF83FC0B4A84F7247F53F33E202D0285D9A3F834D9D47C5FF1D40EC2E505260C10A40C022BF7E887D134006802A6EDCD21D409B70AFCC5B351440A1698995D1681E401B2D077AA8AD0240A08A1BB7989FBB3F64ADA1D45E6403406E50FBAD9D8801403CD862B7CFAA0340A67B9DD497451C40817A336ABE4ACC3F16BF29AC54F01740F1BA7EC16E58FA3FC0D02346CFCD1E40E04735ECF7B41440CD920035B56CDE3FDA0418963FFF1F40882AFC19DEECF73F7FA5F3E159A217403E3E213B6FE3F33F90BC732843651E40213CDA38626D124028D53E1D8F491740BE69FAEC80BB2140D1967329AEEA1C40E0DBF4673FE21240BABDA4315AC70140315BB22AC2ED1640BB0D6ABFB513F03F9015FC36C41804403849F3C7B4961640D960E124CD6F1040B32616F88A2EFA3FE90E62670A2D2140C26D6DE179E90440A9674128EF631340B0E2546B61D609403AE63C635F121D40855D143DF0511740749A05DA1DA21C4034D8D47954DC19406F0ED76A0FFB2040350C1F1153620A409E7E501729541F40D313967840E91B403DEFC682C220154001857AFA08E421404242942F686115400D6C956071780E4012A1116C5C5F1940EE4108C89790084037548CF337F1184053245F09A49418403E78EDD2868307405CC7B8E2E2681C4055320054716305402DB5DE6FB4A31C407AC8940F41551740BF44BC75FEED923F0A9DD7D8255A2140D2A8C0C936D01840B5E0455F411A20402A3BFDA02E92184089247A19C5B21240030AF5F4118821400806103E945819407E350708E6981F40BC033C69E15A22409E279EB305F41B403E7B2E5393601D40ECF65965A6B40840AA9A20EA3E0020403EE76ED74BF3094027DBC01DA8231740D2FC31AD4D23F03FA2B5A2CD71C622400A100533A6E0FC3F1B9DF3531C47FC3FA67D737FF538E03FE8A562635E2712405DFA97A432A51540D097DEFE5CB4194007B13385CEDB21408CD7BCAAB35AD13F946DE00ED429BB3F26AAB706B60A00401E8A027D22AF0440377172BF4339234052F01472A51EE23F14CFD902429B1E4081CF0F2384E70240661536035CD02140C19140834DDDF83FCCD42478436A1D40E2E82ADD5D6F22403C139A249654064071AE6186C6530340DEC9A7C7B6CCF83F90882991446F0240AB764D486BDC21405F251FBB0B1C2240408A3A730FC12140878C47A984A711404DF4F928231E19409BADBCE47F121540FDF50A0BEE272040FD31AD4D634B154078D4981073C9034048E17A14AEB72240DD274701A200134062D9CC21A905F43F200C3CF71E9E2140E27327D87F6D2140F37519FED32D11401FBDE13E728B1B40E8F86871C6302340CCED5EEE93B31540EE98BA2BBB60F13F346612F5824FBB3F06D9B27C5DB61B408B8D791D710802400B9755D80C2821400795B88E7115214059DC7F643AC41040FBE93F6B7EEC10402250FD83481622402618CE35CC502140E1EEACDD76C1114018062CB98AA51F408B506C054D4BEC3F56D3F544D785DE3F1D3EE94482B91A404F93196F2B1D1540075E2D7766721B4081785DBF60471640990D32C9C8F90E408CF2CCCB61571D40BAA0BE654E770240E61F7D93A6411B400C5BB395974C1B40499C155113ED1A40242713B70A821440ED478AC8B04A03409C887E6DFD74EB3FDAC69FA86C381C400B0DC4B29943EF3F425BCEA5B812224050E449D235532340AF5DDA7058722340F3CB608C480C2140616EF7729F1422409C8A54185BA81A40137EA99F37651740B7B41A12F7D8E53F5725917D90552140299831056B8C1A40A1F831E6AE75224045D4449F8F32F03FA0C37C7901C61C4088A06AF46AC02240A30392B06FA7E63FF6ECB94C4D3220405473B9C150C70640D2FD9C82FCBC184034677DCA3159B83F17618A72694C1A40D47FD6FCF8FB1540009013268CF6164029E78BBD17F72340FF942A51F6D6FD3F67D65240DA1F0140B9A6406667110A404EF04DD367670740A3ACDF4C4CD7F33F98689082A7501C40FB05BB61DBB2114066683C11C479074077D66EBBD0DCE63F20459DB987FC224057D0B4C4CA181F40C4B12E6EA3610640F086342A70422340118DEE2076461740B665C0594A160B40BFBB95253A4B2040575A46EA3DF5194093FDF33460E01A402C7E5358A9501940821B295B243D104036583849F3971E4027A3CA30EE6604402FC37FBA81620D40D5D00660038203409C89E942AC0E174099654F029B3B23400C772E8CF4620F40A0DFF76F5E3C17400876FC170802DF3F8F39CFD8978C2040E49EAEEE58ACF43F56116E32AA4C1C401AFCFD62B6C40C40D34D621058491640272F3201BFF620403CF54883DBCA1840CA501553E9E7F33FD5B2B5BE48F818405586713788360B40BAA1293BFD301F40392861A6EDDF20400D8AE6012CB205408DD0CFD4EB96F73F0A82C7B7770D0D408B37328FFC712140359A5C8C81ED2340C4978922A46EF33F960854FF20721C402997C62FBC3A2040C4EC65DB693B13409561DC0DA26513403271AB20061A1B4069A7E67283C121409E060C923EADDB3F724F57772C761840CDCEA2772A382340C32CB4739A850B407C61325530DA234046EBA86A82680440EFE2FDB8FD72E33F03B68311FB2C23402C6519E258B70D40D73043E389201D40593673486AA120406EBF7CB262B8EB3F61E124CD1F53E83F2DD2C43BC0D31A40B70DA320781C00402C7FBE2D586AF43F4643C6A354C204407FBDC282FB01F13F185E49F25CFF14407AFEB4519D5E22404852D2C3D0E220403F74417DCB2C1040630E828E56F508404C3448C153480E40B8CA13083B650240514A0856D54B0D40F4DDAD2CD17918407288B83995AC0D40B43EE5982CE62340C442AD69DE9108406FD74B53048811409ECE15A5849021406649809A5AE6184012F8C3CF7F2F1A407349D576137C174024473A0323EFFB3F242713B70AE2114025085740A1FE144068E7340BB43B0E40744012F6ED840D407FBDC282FB111C4017B83CD68C542040D68F4DF223FEE83FA96917D34C1720401F2BF86D8871E83F03780B2428EE1F4058E6ADBA0E750E4021ACC612D6C61B4036221807970E094035ECF7C43AAD224032ACE28DCC23DB3FDA1EBDE13E022040C9CC052E8F751E407BBC900E0F11154076FA415DA450C43FA73B4F3C677B2240F46F97FDBA531A40F59F353FFE7200403D618907944DCD3FA6D590B8C7C21840492C29779F430B404276DEC66647FB3FC9552C7E53D80740BEA25BAFE9E10F40DBC1887D02581940F7031E1840C81B402507EC6AF2341440917D9065C1C4BB3F6FB88FDC9ABC224017A06D35EB8C2140998235CEA6E305400C9414580013F63F58E36C3A02580840CA349A5C8C810440A6B6D4415E4FFB3F31EBC5504ED422404F1E166A4D931540593332C85DC414406FF607CA6D7B0440E4839ECDAA4FEE3FB24AE9995E921F409A25016A6AA91540425DA450160E1440BDC5C37B0E2CE33F793A57941282D03F9AB51490F6C72340D1CE691668F7EE3F8BE255D63685214042B28009DCBAE43FED48F59D5F341F4001F8A7548962214062C092AB58BC05409529E620E848204024D06053E7611B40DC2DC901BBCA1A40EEEBC0392302224021037976F9DE224035D252793B521E409D0DF9670651054076C1E09A3BFA0340295C8FC2F5281A40B1DCD26A48D420406D74CE4F71AC13408BA4DDE863FE17404145D5AF74662240766D6FB72407CA3F97C5C4E6E35AE13FB5C4CA68E4632140302AA913D0842340CD902A8A57E916408FDFDBF4673FCA3F9CA223B9FC8F2240EE5C18E945AD1B4034A149624939EC3F2B6A300DC39F2140543541D47D301440AC8E1CE90CDC12401ADB6B41EF0DF63F2D793C2D3F900540DC0E0D8B51D7B63F126745D4