module {
  llvm.func @malloc(i64) -> !llvm.ptr
  llvm.mlir.global private constant @__constant_100x100xf64(dense<"0x9B3C65355D4FDB3F2EC896E5EB32C63F7364E597C118813FD1CC936B0A64BA3FDFFAB0DEA815DC3F7AA52C431CEBE23FE7C6F484251ECE3FDB148F8B6A91EB3F268C6665FB10ED3F4147AB5AD251C23F888384285F50E93F45F5D6C05609D03F448B6CE7FBA9EC3F622EA9DA6E82D13F771211FE45D0783F6F675F79901EE53F8BDD3EABCC94D63FED0C535BEAA0E73F4D2EC6C03A8EA73FAA81E673EE76EE3F6D1FF296AB1FDB3FF6ECB94C4D82973FE3E13D079623EC3F83DC4598A25CE43FCC96AC8A7093E43F836DC493DDCCD83F24986A662D85EA3F76FF58880E81E33F78F01307D0EFAB3FAA9ECC3FFA26E03F9F724C16F79FEC3FFA5FAE450BD0D63F93C6681D55CDEC3F1F680586ACEEEE3F950ED6FF39CCDE3F005471E31673E23F904E5DF92C4FEE3FFEEE1D3526C4D73F344C6DA983BCEE3F6DC9AA083799E73FAAEFFCA2047DEC3F01BF4692205CEC3F732EC555655FEA3F05C1E3DBBB86EE3F5A0EF450DB86DB3F9BADBCE47FF2D33F33C51C041D2DE23F06BCCCB05156E43F0DE198654F02C53F80BA8102EFE4A33F6803B0011162E23FD658C2DA18BBEA3FD388997D1EA3EB3FA22424D236FEDA3F417FA1478C9EE33FE259828C808AE53FBF0E9C33A2B4DC3F613596B036C6D13F508E0244C18CE43FFE2B2B4D4AC1E53FB5DC99098673E53F4F92AE997CB3AD3FB5FB5580EF36B33FB11A4B581B63C53F2B155454FD4AAF3F99D53BDC0E0DD33F04CB11329067D13F338CBB41B4D6E43FD540F33977BBA63FF435CB65A3F3EA3F4DA088450C3BD53FAE2990D959F4C23FC5E57805A227E93FEC504D49D6E1D53FE2395B40683DEE3FEDD5C743DFDDE33F5DA626C11BD2DB3F7F6DFDF49F35B73F8AAF7614E728E13F451152B7B3AFD43F3EB2B96A9E23D93FB2F50CE19865D43F34DAAA24B28FEA3F0E2F88484DBBD53FBE4BA94BC631DA3FCD77F01307D0E33FB8CA13083B45EC3F1842CEFBFF38C53F2366F6798CF2D23F0A14B1886107EB3F3AB2F2CB600CE73F69E4F38AA79EED3F36902E36AD14E53F0B96EA025EE6E13F57EE05668522D33F323ECC5EB69DB23F5C7347FFCBB5E63FC636A968ACFD7D3F6ADAC534D3BDBE3FD15B3CBCE740E13FB20E4757E9EEED3F7FA31D37FC6EEA3F685C38109205DD3FB79A75C6F7C5C13FA2D5C9198ABBEF3FA7B1BD16F4DED03F85B69C4B71D5E53FD15D12674554E63F3FA7203F1BB9EE3F27DA5548F949EE3F4128EFE3680EE53F0438BD8BF7E3EE3F8C834BC79C67B83FADA580B4FF01D73F82E50819C8B3DD3FE9297288B839EA3F54E41071732ADC3F66F6798CF24CE63F2009FB761211EE3F03965CC5E237AD3F9B711AA20AFFEE3FF92CCF83BBB3D53F3659A31EA2D1D63F79CDAB3AAB05EF3F62F54718062C893F8BA6B393C151EC3FA54E401361C3B73FFC3905F9D9C8CB3FDF52CE177BAFEF3F2BA226FA7C94DA3F022A1C412AC5CA3F9E279EB30584D73F58E4D70FB141E23FB89047702365CF3FF56915FDA199D53F166C239EEC66E03FBBD23252EFA9B03F93718C648F50EB3FBB5F05F86EF3C43F03D0285DFA97943F0796236420CFDF3F9BFF571D39D2493FFA9AE5B2D1B9EB3F31EC3026FDBDEF3F787E5182FE42DD3FC93CF20703CFED3FB0726891ED7CDC3FE5F1B4FCC055E03F2BC3B81B446BB93F58A9A0A2EAD7EE3FB83B6BB75DE8E63FB29FC552245FB53F569E40D82956CF3FD5AF743E3C4BA03F861DC6A4BF97C83F516B9A779CA2E03FEB8CEF8B4BD5E03FD449B6BA9C12E83F84D558C2DA18BF3F21E692AAEDA6E63F55A4C2D84210E93FAD889AE8F351DA3FC85C19541B9CD63F691EC022BF7ED43FDF6C73637AC2E83F228B34F10E70EB3FFE0A992B83EAE33F62F6B2EDB4B5E23F5A65A6B4FE96E33F595018946934DC3FF2CEA10C55B1EF3F82ACA7565F5D653F0F0BB5A67947E63F94A0BFD02346BF3FF8FF71C284D1D03F70CFF3A78DEAD43F884677103B53DD3F1904560E2D32E33F410E4A9869FB973FCD8FBFB4A8CFE03F7555A0168387DD3F7C2B1213D470E53FF0FD0DDAAB8FE63FBF47FDF50A8BEB3F994528B682A6EE3F9143C4CDA964D93F11DF89592F86B63F6BBB09BE69FAAC3F651D8EAED2DDC53F917D9065C1C4CB3FE22021CA17B4DC3FCA37DBDC989EE03F1EDD088B8A38C73FF98557923CD7EA3F9C8BBFED0912D33F8A3DB48F15FCC43FA3CEDC43C2F7E43F579753026292E93F588FFB56EBC4DD3FD21C59F965B0E63FCBF3E0EEAC5DE23F3C2EAA454431D63F50C6F8307BD9D33FE27492AD2E27ED3F6EDC627E6E68D23F9BABE63922DFDC3F73D53C47E4BBAC3FA9FA95CE8767C13FBC4049810530C73FCAE2FE23D3A1EF3FD09B8A54185BE63FE388B5F81400EC3F1BDA006C4084D43F54E6E61BD13DD23F662E7079AC19EC3FDECA129D6596EF3F8C9E5BE84A84E93FA87004A9143BEA3FB5DE6FB4E386D63F942EFD4B5299DC3F399B8E006E16D23F8F8CD5E6FF55DB3F05FA449E245DD13F892991442FA3D33F94C151F2EA1CD13F4E42E90B2167E13F965984622B68E33F44F982161230EB3F25E82FF488D1EE3FBA32A8363891E23F70438CD7BCAAEE3F47C9AB730CC8EF3F49F6083543AAE03F26512FF83427E93F0D1AFA27B858E83FF0A5F0A0D975DF3F469A780778D2CA3F3067B62BF4C1D53FB08EE3874A23EB3FC367EBE060EFE73F0B462575021AEE3FD427B9C32632BF3FAB97DF6932E3E83FFC8BA0319328E33FF86F5E9CF86AE73F0E164ED2FCB1E43FEE3EC7478B33EB3FF6ED2422FC8BDB3F3B6EF8DD744BEC3FBAA46ABB09BEB53F4241295AB917D23FFD67CD8FBF34E03F579753026212D33F57056A317898D83FB5368DEDB5A0EA3F62DA37F7578FE13F2DB0C7444AB3B93F58C6866EF687E93FBBB72231410DD33F9AB1683A3B99E73F39EE940ED67FED3FCC7B9C69C2F6E73FB003E78C286DE93F5C8E57207AD2E33F6286C613411CE23FA7069ACFB9DBC33F06499F56D11FC63F14083BC5AA41E03F5F5FEB5223F4E83F8FFAEB1516DCD43F53CF8250DE47E43F219221C7D633C63F6077BAF3C473C83FEECEDA6D179AD13FE869C020E953E33F960854FF2092DA3FDE59BBED4273CF3FBDA60705A568E43F12F758FAD085EB3F04E275FD82DDDE3FAF230ED940BAE83F30630AD6389BB63F666B7D91D096E83F74417DCB9CAEE83F62F71DC3633FB33F2634492C29F7E63FA087DA368C82D43F8330B77BB94FD13F59A7CAF78C44C23FC1A739799189E33F4CE0D6DD3CD5BD3FD5592DB0C7C4E73FD13FC1C58A9AE03FC2C3B46FEEAFED3FF7915B936E4BCC3FF37684D38217E13FE1ECD632190EE93F46D09849D40BD63F1EC4CE143AAFED3F77871403241AE93F04AA7F10C990D43FEBE1CB441152E23FBA675DA3E540C53F53AEF02E17F1C53FCFC0C8CB9A58EA3F09C556D0B444EA3F67EDB60BCD75ED3F0EF450DB8651DD3FC3EFA65B7688C13F84F41439445CE03F38143E5B0707DB3FB29DEFA7C64BED3FE603029D499BDF3F378C82E0F1EDE53F34D6FECEF6E8E53F3A933655F7C8E43F740987DEE2E1D33F29CDE67118CCE43FD17AF8325184D53F957EC2D9AD65DC3FB2F1608BDD3EBB3FE9F17B9BFEECD23FC713419C8713983FF88A6EBDA687E43F429770E82D9EEF3FC2A6CEA3E2FFD43F06F1811DFF05B63F58ACE122F774EE3F28603B18B14FEE3F4C1762F54718E33FB3D30FEA2285823FF8A75489B2B7E83FD8101C977153D03FEB0088BB7A15C73F25B20FB22C98C03F8B34F10EF0A4C93FB33F506EDBF7E93F8046E9D2BF24EF3FBF6378EC6731E83F7BF5F1D077B7D13F55DB4DF04DD3D63F38D89B189293E93F0BCF4BC5C63CE43F2497FF907EFBD33F2C634337FB03C33FE198654F021BEA3F3B72A43330F2923FC76471FF91E9E73F89EFC4AC17C3EF3F850B79043752CC3F997E8978EBFCCB3FDA8D3EE60302DE3F959EE925C632D63F25034015376ED83FEEE87FB9162DE03F5837DE1D19ABA53F011764CBF2F5E73F6AFB57569A14E73FA8ACA6EB892EEA3F7E54C37E4FACDF3F0E863AAC70CBD93F486E4DBA2D11E63F7B1684F23E0EED3FF0A7C64B3789D53FAB9674948359E43FF6285C8FC2F5B83F3F1C2444F982BA3F47938B31B00EE23FF3E7DB82A5BAC83FCDAD10566309CF3F5DC2A1B77878D63F29EACC3D24FCE53F0E6954E0641BDB3F325871AAB530E93F7156444DF4F9CC3F8065A5492968E33FA565A4DE5339C33F79EA9106B7B5B93F0EDC813AE5D1E93FD5592DB0C744E63F4AD1CABDC0ACCC3FC713419C8713B03F14AFB2B6291EDD3F5A0F5F268A10E83FCD7344BE4BA9C73F44C362D4B5F6EB3F02486DE2E47EDB3F1618B2BAD573DE3F6798DA520779E63FAA0D4E44BFB6E63F2DCE18E6046DCA3FECDD1FEF552BEF3F035DFB027AE1CA3F1E705D3123BCDC3F2AE3DF675CB8E13F3E7AC37DE4D6B43FB345D26EF4B1EF3FC64FE3DEFC06E63FD42CD0EE9062CE3F4B0169FF03ACD03F8BFA2477D844C03FFA7B293C6876E03F8940F50F2219CA3F7CB94F8E02C4EF3F2D42B115342DDA3FBADA8AFD65F7E53FD5E76A2BF697C73FAF7C96E7C15DE03F8F537424977FE53FC669882AFC19DB3FDDEA39E97D63E23FF984ECBC8D4DE73FA6F27684D382E63FCF8426892565E23FCC2555DB4D70E03FD50792770E65B43FF19E03CB11B2E23F0F289B728577E13F836A8313D1AFC93FB648DA8D3EE6DB3FD8F335CB65A3EA3F779FE3A3C599E13FB0C6D9740470E43FC5025FD1AD57E03F037CB779E3A4D63F441669E21D60E33F3128D3687231BE3FD5EAABAB02B5E43F4ED4D2DC0A61D23F58AD4CF8A57EEB3FB11875ADBD4FCB3FDBC35E2860BBE93F5DA5BBEB6CC89F3FEA7AA2EBC20FE63F6075E4486760D43F2E54FEB5BC72D73FA5F78DAF3DB3CC3F1EC2F869DC9BD53F910DA48B4D2BDE3F88D68A36C7B9EE3F3C855CA96741E13F9B1DA9BEF30BE73FD9EC48F59D5FEF3F36CB65A3737EE03F7976F9D687F5E23F06BAF605F4C2A53FEF004F5AB82CE73F535BEA20AF07D33F0BD28C45D359E23F56F487669E5CAB3F94675E0EBBEF883FE8A562635E47E63FEDD632198E67EC3FB6847CD0B359C53F7F2E1A321EA5EA3F231631EC30A6E33FCD3E8F519EF9E53F31242713B70ACE3FA0E238F06AB9EE3F016A6AD95A5FDB3F0D7217618A72CB3FFEEDB25F77BAEC3FA9BD88B6636AE13FB0045262D7F6E23FA3772AE09E67ED3F2025766D6FB7D03F782975C93846C83FACE63922DFA5843FA1681EC0223FE23FFD304278B4F1EA3F17A06D35EB8CD73F3CDEE4B7E864D23F990F087426EDE73F8CF50D4C6E14EC3F6AC18BBE82B4E03F6F0D6C956071C83FDDEF5014E893EC3FAE2EA704C424E63F457F68E6C935CB3F41BCAE5FB01BE03F9AB67F65A5C9E03F6D020CCB9FEFEE3F8AAE0B3F389FE43FDECCE847C329E63FF1845E7F129FCB3F1FA166481545E73F09185DDE1CAE953F47382D78D157DB3F5A475513445DEA3F38842A357BA0753FE99E758D9603B93FFF0758AB764DD23F2FDD24068195EA3FF702B342916EE23F745DF8C1F9D4C73FAE4A22FB20CBC83FACE463778112EE3F28486C770FD0E73FBB9D7DE5417AD63F89D1730B5D89D73FFFB27BF2B0D0E13F0D501A6A1492EF3FC345EEE9EA0EE13F30F488D1730BD23F5704FF5BC90EE03F96986725ADF8E93FD671FC5069C4EE3FC4EBFA05BB61C73F05C24EB16A10963F24D1CB28965BEB3FF017B325AB22B43F56F487669EDCEB3F1973D712F241DE3FFB3DB14E95EFCB3F0A100533A6E0E73FD5CE30B5A50ED23F9AE95E27F565E03F0FF0A485CB2AD83F98A608707A17E13FD09849D40B3EDE3FD1217024D060BF3F4966F50EB743EA3FE199D024B1A4E93F809BC58B8521E43FB4E89D0AB8E7E13F395FECBDF8A2C73F58E4D70FB1C1923FF146E6913F18D73FD74E9484445AEA3FDEC9A7C7B60CDA3F693524EEB174E53F2BFC19DEACC1E53FAF777FBC57ADD13FFF23D3A1D3F3C03F0C5A48C0E8F2EB3FFC3905F9D9C8E33F371C96067E54D53F664D2CF015DDAA3F54AA44D95BCAED3FF81BEDB8E177D33F50357A354069B03F3B70CE88D2DEE03F925D6919A977E53FF8FA5A971AA1C53F81EA1F443264E03F32B08EE3874AE73FD0285DFA9724ED3FAE9FFEB3E647E13F2F14B01D8CD8973F3C6C223317B8CC3FA27C410B0918C73F569A94826EAFEB3F006F8104C50FE93F35D4282499D5DE3F7A8A1C226E4ED23F378AAC3594DAE83F037CB779E3A4E23F5C566133C005E33F05FD851E317AEF3F5648F949B54FD83FBD35B0558245E93F5298F738D304E73F8E942D9276A3E83F55302AA91350E03F22C495B37746D73F6B9A779CA2A3E53F28D53E1D8F19E63F91813CBB7CEBD03FC495B377465BD63FDEC83CF20703D43FCBD58F4DF2238E3FA94D9CDCEF50EE3F76C24B70EA03EF3FC04010204347E93FBB29E5B512BAD13F7F83F6EAE3A1A73F6E35EB8CEF8BC93F59897956D28AC33F637B2DE8BD31DB3FAA656B7D91D0EF3F3B35971B0C75BC3F99D36531B1F9B83FC2BE9D44847FD03F171230BABC39AC3FF04FA912656FC93FD2A6EA1ED95CDC3F8F352383DC45B03FA92F4B3B3597EC3F1E1A16A3AEB5E93FB9A981E673EED83FE52A16BF29ACEC3F87C3D2C08FEAEE3FB8E68EFE97EBEC3F01857AFA087CE73F8DB5BFB33D7AD13FE2AE5E454687E03F5E143DF03158D03FB1C403CAA6DCE03FC4EDD0B01875D73F57B5A4A31CCCEC3F4F9143C4CDA9CE3F122F4FE78A52C83F08AEF204C24EDB3FAE669DF17DF1E23FCD76853E5846EF3F0DFFE9060ABCD73FA79201A08A1BDD3F53E751F17FC7E13F0B5F5FEB5223C83FD270CADC7C238A3F67D7BD158909CE3F0B0E2F88484DD63F51DB865110BCE43F904946CEC29EDF3FD2510E661360CE3F2009FB761211E93F933A014D840DE63F3CDEE4B7E8E4E03F98309A95ED43DD3F8A1F63EE5A42D53FE36DA5D76663D63F39B5334C6DA9C33F9C6A2DCC42BBE63FE21DE0490B97DE3F088F368E588BE73FE6779ACC785BB13FBC04A73E90BCB33FB29DEFA7C64BEE3FF5A10BEA5BE6D83F0E1478279F9EE33F5340DAFF00EBE23FF2086EA46C91EF3F2429E96168F5EB3F45813E912749D63F77A22424D2369E3F8065A54929E8E13F0FB8AE9811DED03F944A7842AFBFEC3FBDE0D39CBCC8DD3F718DCF64FF3CDD3F250516C09401EB3FBAC0E5B166E4E03F5DE2C8039145BE3F15C5ABAC6D8AE73F8D28ED0DBE30D93FD88349F1F109D53F1F4AB4E4F1B4C43FF12E17F19D98C73F9694BBCFF1D1D83FBAD7497D595AE73F15E126A3CA30CC3F832F4CA60A46EB3F9CA4F9635A9BDE3FE59997C3EE3BC03F29CB10C7BAB8E43FA4AB74779D0DE03F21B0726891EDBC3F478FDFDBF4E7E13F595018946934EA3FBD72BD6DA642EB3FE4D6A4DB12B9B43FF981AB3C81B0ED3F01A260C614ACD33F3E9468C9E369DD3F53910A630B41D73F637FD93D7958C03F0457790261A7DC3FD80FB1C1C249C63F9F573CF54883E93F2158552FBFD3C83FC57421567F84DB3FB6F63E558586EA3F4D81CCCEA2F7E63FD2E28C614ED0D23F6A847EA65EB7E93F1CCEFC6A0E10BC3F572426A8E15BD83F37AAD381ACA7D93F9DD843FB5841E23FFF91E9D0E979DC3FCEFFAB8E1C69E03FA515DF50F86CD03F6D37C1374D9F8D3F9ACFB9DBF552E93FF2D24D6210D8E03F3546EBA86A82C03F8E91EC116A86B83F8CDCD3D51D0BE93F2D78D1579066E63FD6355A0EF4D0EE3F9D64ABCB2901D83F99BA2BBB6070E83F9E29745E6397D93F302FC03E3A75E63F9966BAD7497DA13F1899805F23C9EF3F293C6876DD5BEF3F5B069CA56439E33F1633C2DB8390EC3F2A1E17D522A2783F9DD497A59D9AD83F03EACDA8F92AA13FFAEFC16B97B6EB3F295E656D53BCEC3F5AF3E32F2DEACD3FE4C0ABE5CE4CD73F757286E28E37CD3F25EA059FE6E4E93F0A4966F50E37E43F6B7EFCA5457DE43F53E751F17F47CC3F485167EE21E1E13FD74E9484445AEA3F9A43520B2593D63FC30E63D2DFCBEA3FFA449E245DB3EA3F58E2016553AEC23FD7187442E8A0EF3FA88C7F9F71E1E23FC3A04CA3C9C5D53FF31B261AA4E0E93F9CFA40F2CE21E13F1D5723BBD232DE3F8E7406465ED6CA3F9ACC785BE9B5B13FEC6B5D6A847EE53F0954FF209221D93FBD6DA6423C12E33F9F7763416150EA3FB3B794F3C55EEC3F2785798F334DDB3F5C001AA54BFFA23FE5B67D8FFAEBD43F8FC4CBD3B9A2CC3F97361C9606FEE33F25E659492BBED63FF30181CEA44DE23F9F909DB7B159E93F5A0D897B2C7DD93FFBAE08FEB712E13F59130B7C45B7ED3F69705B5B785EC63F793BC269C18BE13FE7C6F484251EC23FDC2A8881AEFDE83F98DD9387855AD83F1B84B9DDCBFDE53F70CFF3A78DEABC3F36902E36AD14C03F52D4997B48F8E53F60CB2BD7DBE6E43F8121AB5B3D27D93FA9DA6E826F9ADD3FC97553CA6B25D23F54E0641BB803D33F6D8C9DF0129CE53FAF0B3F389F3AE83FAF40F4A44C6AE23FBF49D3A0681EE43FF5A10BEA5BE6BC3F49A297512CB7D63F78B5DC990986AB3F7380608E1EBFD13FC13BF9F4D816E13FCDE9B298D87CDD3FAB2006BAF605D33FC07B478D0931EF3FB64AB0389CF9DE3FD50627A25F5BD13F1B800D881057DD3FD66EBBD05CA7813F6EA6423C122FE53F3E5A9C31CC09AA3F1E6CB1DB6715EA3FE083D72E6D389C3FFA0CA837A3E6DE3F223317B83CD6E53F048E041A6C6AEA3F404F0306499FE93F3C6876DD5B91EC3F6CB41CE8A1B6DA3FD636C5E3A25AD53FD4B5F63E5585DE3F03250516C094913FB5DC99098673B93FCFA3E2FF8EA8DD3F15FDA19927D7EC3F04E5B67D8FFAE43FD82C978DCEF9C33F9B559FABADD8EB3F3DEE5BAD1317E53F5BEECC04C3B9EC3FC2A563CE33F6D93F87F8872D3D9AD73FAA7F10C99063D93FF0164850FC18CD3F5FED28CE5147D33F1CCF6740BD19853F22FB20CB8289E43F96404AECDADEB63FA80183A44F2BE73F60ADDA3521ADB13FD46531B1F9B8EC3F2766BD18CA89C63FD68C0C7217E1EA3F3E062B4EB516963F3BC269C18BBED03FC971A774B0FED53F08E9297288B8C93F5376FA415DA4EB3FB39597FC4F7EEB3F69C36169E047B13F6A34B918036BE13FA583F57F0EF3E63FC6A695422017EA3F12D89C836742C13FF8C3CF7F0F5EE83FA7AD11C138B8E03F4FB16A10E6F6E33FB262B83A00E2C03FD9AF3BDD79E2EE3FD591239D8191DE3F0F45813E9127B53FC3D7D7BAD408D03FDAACFA5C6D45EC3F3A083A5AD512EF3FC1E61C3C139AE23F4C7155D97745E03FEE60C43E0194ED3F6EBE11DDB3AEE93F011764CBF275D53F9ED2C1FA3F07EE3FDCF3FC69A33ADA3FB51666A19DD3E23F66BD18CA8976953FE8120EBDC5C3E73F1827BEDA511CE63F971C774A07EBC93F1CB62DCA6C10E53F2AC76471FF91D53FB134F0A31AF6DF3F465B9544F641D23FF86F5E9CF86AEF3F51DEC7D11C59BD3FB9C667B27F9EE83F0586AC6EF59CDB3F4451A04FE449D53FDAE21A9FC9FEE23F34D93F4F0306A13FF46DC1525DC0D63F09FEB7921D1BE53F556B6116DAB9E33F5871AAB5300BDB3F57E883656CE8DD3F234DBC033CE9E03FFA27B8585183E03FF3C64961DEE3D03F4FC939B187F6B53FB459F5B9DA8AD03F34BC5983F755E83F0D18247D5AC5E53F904946CEC29EE53F0A1346B3B2FDE83FE88711C2A30DEE3FBF805EB873E1ED3F2AC423F1F274D63F5E4BC8073D9BDE3FD80C7041B62CCF3F85949F54FBF4E93F58AEB7CD5408E33FBA313D618987E23F1F300F99F221D23F9E094D124BCAB53FD68F4DF2237E953F5BB6D617096DE63FC571E0D57267E13F4CDD955D3038E33F4CE2AC889A68E73F4EB6813B50A7DF3F3C6BB75D682EEA3FBB641C23D923D23F9A0645F30016E13FB519A721AAF0E33FCD7344BE4B29E63FEC1516DC0F78DE3FC79DD2C1FA3FE53FA30392B06F27DA3F9ED32CD0EE90E13F37DF88EE5957E53F21904B1C7920E93F000000000080E33FAB3E575BB1BFB03FBD564277499CE53F04594FADBEBAC43F36C824236761BF3F73F4F8BD4D7FE63F325871AAB530BB3F6AC020E9D32AE93FD04719710168DF3F581F0F7D77ABE73F252191B6F127AA3FB3CEF8BEB854DE3FC939B187F631ED3F0727A25F5B3FDA3F03B2D7BB3FDEAB3F69E21DE0490BB73FEE27637C98BDEA3F8EAF3DB32440EE3F85950A2AAA7EA53F69368FC3607EE83F0ED76A0F7BA1C03F81E9B46E83DADB3FE20511A96917E73FC91CCBBBEA01DE3F5ED72FD80DDBAE3FA872DA53724EE23F7767EDB60BCDA53F132BA391CFABEA3F8FFCC1C073EFE73F20990E9D9E77D83FA03715A930B6DF3FEF004F5AB8ACE33FB83EAC376A05EB3F9888B7CEBF5DEC3FFE7BF0DAA50DAF3F6B48DC63E943DF3F10069E7B0F97D03FCAA5F10BAF24A13F5396218E7571EA3F75ADBD4F55A1D23F40A6B5696C2FEA3F57E9EE3A1BF2DF3FE659492BBEA1D83F2C0FD253E410EE3FBA32A8363891EA3FBEBF417BF5F1D83FD3D85E0B7A6FC03F66BE839F38809E3FC4060B2769FED33F800BB265F9BAC83F61C5A9D6C22CAC3FEFE2FDB8FD72E43FF75B3B511292E73F676490BB0853E63F677FA0DCB66FE03FB8AD2D3C2F15EC3F0A4AD1CABDC0DD3F1570CFF3A78DEA3F89618731E96FEC3F513239B5334CE93FA0E1CD1ABCAFE83F488787307E1AEF3FEDB776A22424D63F73672618CE35D73F0EDC813AE5D1E83F37161406651ACD3F93FFC9DFBDA3C83F53211E899727EC3FCD3B4ED1915CEB3F8EAED2DD7536ED3FFA7FD591239DC73FEB8F300C5872B93F03EE79FEB4D1EC3F9ECE15A58460D13F3D7E6FD39FFDE93F37DDB243FCC3C03FD05E7D3CF4DDD63F45D7851F9C4FD43F11FE45D09849C63FA4E2FF8EA850D43FBB0B94145800C13F10E84CDA54DDAB3FD07CCEDDAE17E43F74982F2FC03EED3FD8D5E429ABE9C43FA5A487A1D5C9D43FDBBE47FDF50AE13F529ACDE33098C93F91BA9D7DE541E73F9F724C16F71FA13F7D91D09673A9E93F0057B2632310CF3FBCCADAA6785CDF3FBF47FDF50A0BE33F68757286E28ECD3F22C7D63384E3E73F52465C001AA5DD3F5401F73C7FDAD33F56F487669E5CDC3F5FB532E197FAEE3FC45C52B5DD04C33FD9AF3BDD79E2B13FB5DD04DF34FDE73F91EF52EA9271B43F22FAB5F5D37FC63FAF777FBC57ADEB3FDDB3AED172A0BB3F668522DDCFA9EC3F3E5C72DC291DDA3F1C28F04E3EBDE23F65A54929E8F6D63F164CFC51D499D93F0740DCD5ABC8E73FD2890453CD2CEB3FF4DE180280E3E43FE2CD1ABCAF4AEC3F94FB1D8A027DDF3F78431A1538D9B23F1C25AFCE3120B73FF0E0270EA05FE83F70CFF3A78DEAD33F9450FA42C879DF3F5AD93EE42DD7EA3F5C8E57207A52EF3F9F01F566D47C653FD9EDB3CA4C69E63FBD6E1118EB1BB83F8E93C2BCC799E83FB1DCD26A48DCE43F641EF9838167E53FAF09698D4127CA3F70EA03C93B07E63F349E08E23C9CDE3FB3412619390BE23FA779C7293A92D93FA4A833F79070EF3FB81D1A16A3AEDF3FC5C9FD0E4581E53F7FA5F3E15982DA3F897E6DFDF49FE83F33E197FA7953613FCBDB114E0B5ED53F177E703E75ACDD3F7C8159A148F7933F902FA182C30BD13F99BB96900F7AE93F7B4CA4349BC7EC3F94A2957B8159D53FBEA1F0D93A38EC3F1D91EF52EA92C13F34D93F4F0306A13F329067976F7DEC3FB2683A3B191CC93F3737A6272CF1ED3F99BA2BBB60F0EE3FAA0A0DC4B299A33F1D9430D3F6AFEF3FE527D53E1D0FE03FA5D93C0E83F9E73F6F63B323D577D33F4B033FAA61BFC93FA41820D1048AD03FF10F5B7A3455E83FDDEBA4BE2CEDC63F3ACC9717609FEF3FC72AA5677A09E13FE0826C59BE2ED03F952A51F69672C63F4D8237A45181EF3F6CEC12D55B03D13F4B9352D0EDA5E73F0AD9791B9B1DD63F21E527D53E1DEF3F76A8A624EB70EE3F30478FDFDB74EC3F6DAD2F12DA72C83FA33EC91D3691EA3F9E996038D730C33FA5D93C0E83F9D23F245E9ECE15A5EB3F459F8F32E202CA3F991249F4328AE83FCA54C1A8A44EDB3FD0B9DBF5D294EE3F92E68F696D9AEB3FEEB5A0F7C610E83FFB07910C39B6BA3FC1525DC0CB8CE83F518369183EA2E43FA7069ACFB9DBD93FA393A5D6FB8DDD3F49809A5AB656E83F098D60E3FA77DB3FCFDC43C2F7FED43F0F5EBBB4E1B0EA3F60CAC0012D5DD23F962023A0C211943FBD8A8C0E48C2EF3F29AE2AFBAE08CC3F8099EFE0278EEC3F1EDE736039C2ED3FCA32C4B12E6EE43FD6C743DFDDCAD13F601DC70F9546A43F00E2AE5E45C6ED3F5471E316F3F3E93F94A12AA6D24FD23F938FDD054A0AE43FE7C41EDAC78AEF3F338CBB41B456E03F21E7FD7F9C30E03FFA0AD28C45D3D23F06BD378600E0C03FA75CE15D2EE2E03FBD0166BE839FEF3F3D0FEECEDA6DD43F53CBD6FA2221E43F2AAC545051F5EA3F664AEB6F09C0DA3F1FD95C35CF11C53F581EA4A7C821DB3F70B378B13044DC3F5B5B785E2A36E13FD1CB28965B5AB93F1F813FFCFCF7D43F6B47718E3ABAE53F60E97C789620E53FF6B6990AF148E53F3DD52137C30DE83F0D8CBCAC8985E83F73DBBE47FDF5CE3FED4ACB48BDA7D93FE1EF17B325ABC03FE57B46223482E33F7CF0DAA50D07EE3F13286211C30EE73FA648BE124889D13FC710001C7BF6C23F66683C11C4F9EA3F795DBF6037ECEC3FB2135E82531FE43FBB7CEBC37AA3C43F5AF624B03987EB3F96CB46E7FC14CB3F020F0C207C28A13F39F1D58EE21CA53F9FAF592E1B9DEC3F9B728577B908E53F67D7BD158909DA3F6EC1525DC0CBD03FACFF73982F2FD73F3BC43F6CE9D1E53FCE3461FBC918E23FFE2955A2ECADED3F07CF842689A5ED3F213B6F63B3A3EB3F82E673EE76BDC43F0B0A83328D26E13F9AD024B1A45CEE3FD00CE2033BFED03FB37BF2B0506BD43FE8A38CB80034CE3F791F477364E5EE3F111B2C9CA4F9E43FF65FE7A6CD38B13F3AAFB14B54EFE53F8A90BA9D7DE5D23F320400C79E3DE53FA80183A44FABD23F99F04BFDBCA9E43F61A758350873CB3FA7AE7C96E7C1E13F82AE7D01BD70D93FC7F65AD07BE3EE3F892991442FA3DD3F5ABA826DC413EC3F0874266DAAEEED3FC85BAE7E6C12EF3FCE16105A0FDFE73FED7DAA0A0DC4AA3FF3E670ADF6B0DE3F3140A20914B1EB3F98689082A790AB3F2FA86F99D3E5ED3F0D37E0F3C308D03FAB5CA8FC6BF9E53F06802A6EDC62EB3FF294D5743DD1DF3F66BCADF4DA6CEC3F5A2BDA1CE7B6ED3F467A51BB5F05EA3FED48F59D5F94E73FD7F6764B7240EB3FFF5A5EB9DE36A33FD61BB5C2F4BDBE3F994A3FE1ECD6E63F876F61DD7877B83FEB73B515FBCBD03F3BE466B8019FD93F59BE2EC37F3AE23F04029D499BAAD93F382EE3A6069AC33FEEB25F77BAF3DD3F3C1405FA449ED23FACC77DAB7562EB3F832F4CA60A46D43F226E4E250340D03F8C9FC6BDF90DB33FC614AC71361DA13F5471E316F3F3EF3F65506D7022FAE23F750305DEC9A7E83F29ED0DBE3099EF3F41118B187618EE3F93A7ACA6EB89E13F514A0856D54BE23F98158A743F27E63FEDF5EE8FF7AACF3F129F3BC1FE6BEB3FD26EF4311F10C83F0DA661F88898B63F82C7B7770DFAEF3F0DA837A3E62BE83FED0DBE30992AED3F27C0B0FCF9B6A03F399CF9D51C20983F9259BDC3EDD0C03FFB22A12DE752CA3F21753BFBCA83E13FD3A57F492A539C3F45F641960593EE3F9B3A8F8AFF3BAA3FAF27BA2EFCE0D03F8461C092AB58E63F7905A22765D2EC3FB45BCB64389ECB3F8D45D3D9C960E23F1B4CC3F011B1E73F1E17D522A298CE3F399B8E006E96EF3F0C7558E1968FD13F8EE89E758D96CB3F2106BAF605F4CE3F0F4757E9EE3AE83F062D24607479E33FE91038126830EB3F8B4F01309E41D83FE542E55FCB2B973F20EC14AB0661DF3FF73C7FDAA84ECF3F3161342BDB07EB3F265646239FD7E03FDCB75A272E47E13F17B83CD68C8CE63FC30C8D2782B8E13F10E6762FF7C9DE3FA5BF97C283E6EE3FD8B969334E43DF3FA41B615111A7BF3F78EC67B114C9D53FCB694FC939B1D43F79EBFCDB65BFB63FA9BC1DE1B460E53F8E95986725ADA03FA7E67283A10EDE3F21C9ACDEE1F6EA3FD976DA1A118CE93F912749D74CBED23F64C91CCBBBEAEC3F33A48AE255D6E43FC53D963E7441EE3F7D3ECA880B40EB3F1DACFF73982FC93F2A73F38DE89ED93F1CB62DCA6C90993F68EBE0606FE2E73FACFE08C38025D43F8CF7E3F6CB27D23F399D64ABCB29DC3FFDF49F353F7EEB3FCAA5F10BAF24CB3F4B1FBAA0BE65D43FE14389963C9E763FC74B37894160E53F1C60E63BF889EF3FC879FF1F274CDF3FDC4603780B24D83F84D89942E735D33FE065868DB27EE33FF9F4D89601E7EB3FED0C535BEAA0E03F363B527DE717DE3F04E5B67D8FFAD23FF12C41464085D13F19E6046D7278EC3F0B613596B0B6EE3F4E7D2079E750C43F61889CBE9EAFCB3FE14389963C9EEC3F47718E3A3AAEB63FEC87D860E124BD3FA9D903ADC010E23FA0C37C790176E03F26FDBD141E34DD3FC991CEC0C8CBEB3F0B462575029ADD3F64027E8D2441E53FE10852297634CA3F8E791D71C806DD3F19CA897615D2EA3FA0DD21C50089C23FE38BF678211D8E3F79E75086AA98D63F05C078060DFDEA3FE7DF2EFB7527E13FFAB9A1293B7DE53FF7AC6BB41C68E23F060E68E90A36E03FCC61F71DC3E3EB3F7BA35698BED7DB3F1405FA449E24E13FBE33DAAA24B2E63FBAF94674CFBAB63FA2B8E34D7E8BE63F613596B03646E73F809A5AB6D617D03F61FC34EECD6FEF3F705D3123BCBDE83F15E5D2F88557E93F1BBCAFCA85CAD63F684128EFE368DA3F0AB952CF8250D23FFE2AC0779B37EB3FDC4AAFCDC64AEC3F7D7A6CCB80B3843F0247020D3675AE3FF91400E31934EA3FE1CFF0660D5EEA3F0D54C6BFCFB8ED3F2882380F2730EF3FFCFCF7E0B54BDB3F9F758D96033DD83F3CA41820D184EE3F9163EB19C231DA3F7077D66EBB50E23FDF3312A1116CDD3F83A5BA809719D33FD960E124CD1FE43F621399B9C065EF3F4B766C04E275D03F13F1D6F9B7CBA63F7A6CCB80B394CE3FD5CA845FEAE7DE3FBB438A01124DA83FE3361AC05B20E13F57CC086F0F42C63FD7A19A92ACC3E23F093543AA28DEEA3F55F833BC5983DC3F2446CF2D7425DE3F4512BD8C62B9C53FF54BC45BE7DFEA3F64CC5D4BC807AD3FB6DAC35E2860C53FFC709010E50BD43F1349F4328AE5C23F6A6AD95A5FA4E93F45D95BCAF962C53F7923F3C81F8CE93F59F8FA5A971AD93FCBA145B6F3FDDE3FD9EA724A404CDD3F71766B990CC7E63F9B38B9DFA128B83FB14F00C5C892D83F9CF86A47718EE03F6F2A52616CA1E33F244223D8B8FEB93FB01BB62DCAECE63F041C42959A3DD53FA9A0A2EA57BAE23F0A4D124BCADDE03F7E1B62BCE655E73FA96A82A8FB00AC3F9F2287889B53D33F6EA296E65688ED3FE1F08288D4B4E13FCFF57D384808E43FB891B245D26ECC3FADA23F34F3E4A23F80B9162D40DBE53F1B48179B568AE53F6EE00ED4298FCE3F9F724C16F71FE13FA3923A014D84C53F0953944BE317D83F4EB9C2BB5CC4E43F60048D9944BDDD3F83F755B950F9C13FDAE55B1FD61BA53F95F430B43A39E63F2BD9B11188D7ED3F61C43E011423D03F37FB03E5B6FDE03F7C98BD6C3B6DE33F97749483D904DB3F85ECBC8DCD0EEC3F88D9CBB6D3D6D93F66101FD8F15FD63FC7B8E2E2A8DCDA3F11C64FE3DEFCD43F5CACA8C1340CEA3F0D5531957E42E53F1E1840F850A2E03F4A99D4D00660D63F3BC3D4963AC8ED3F54E57B462234DF3FFDDCD0949D7EE53F8A3F8A3A738FE93F9B5775560BECDB3FB58CD47B2AA7D43F11A7936C75B9EB3F36751E15FF77E63F21E7FD7F9C30E53F609335EA219AEA3F10069E7B0F97D63F77F700DD9733D33FE08442041C42EC3F64778192020BE73F2B86AB03206EEB3FDD989EB0C483E13F89EB18575C1CED3F99A0866F61DDD03FF78E1A13622EEC3F5CAFE9414129E23FDD79E2395BC0EA3FCB2BD7DB662AD23F80812040868EE63FD57ABFD18E1BEE3F205D6C5A2904D93FD47D00529BB8E43F2B1213D4F02DDF3F4CA94BC63192E43F29232E008DD2B53F6840BD19355FDF3F2BBF0CC68844B53F35EB8CEF8B4BBD3FA2427573F1B7D13FAA0D4E44BF36E83F5F99B7EA3AD4E53F3541D47D0052C93F2905DD5ED298EC3F30D7A20568DBE23F1FDAC70A7E1BB63F95B7239C16BCD03FA6D3BA0D6ABFC53F63601DC70F15ED3F85D21742CEFBE73F7EC85BAE7E6CED3FE109BDFE24BEE33F4435255987A3A33F5DDE1CAED59EED3F1956F146E611EF3FF6F065A20829EC3F2C82FFAD64C7DB3F438EAD6708C7E23F23A12DE7525CE43FF261F6B2EDB4C73FBF45274BAD77E43F0E4DD9E90775613F45A0FA07910CEA3F3048FAB48AFEDB3FC6A695422097E43F3CBF28417FA1CF3F2BBD361B2B31E83F0EF8FC304278D13F7B8505F7031ECC3FD55B035B2558CE3FED612F14B09DE83F17A06D35EB8CB33F40A54A94BD25EE3FDB148F8B6A11DA3FC689AF761467E03FF5A0A014ADDCC53F01DA56B3CE78E13FAFCF9CF529C7DA3FA7E7DD585098EB3FA4AB74779D0DE43F5C55F65D11FC9F3FDFC325C79DD2A93F2522FC8BA031EE3FEC17EC866D0BEF3FDA006C4084B8E73FE6E61BD13D6BEF3FF6285C8FC2F5B03F541B9C887E6DC93FDD955D30B8E6EF3F3196E9978837E03F3332C85D8429DA3F6728EE7893DFBA3FC040102043C7E53F575D876A4AB2EB3F8656276728EEE53F7E1CCD91955FD13FE7ABE4637781E03F912A8A5759DBEF3F0A80F10C1AFAE93FD3122BA3914FE23F74B515FBCBEED83FD13B1570CFF3DD3F8DF0F62004E4E63FB742588D25ACC73FC63368E89FE0B23FC153C8957A16E63F0A68226C787AD43F5551BCCADA26E33FD1782288F370EB3F8104C58F3177EA3F9E29745E6397C43F098B8A389D64AB3FCB82893F8ABAE63FEA3D95D39E92E23F46CD57C9C7EED93FA3E9EC647094B03F2EC72B103D29DB3FEBAA402D068FE33F5837DE1D192BE23FEA25C632FD92E83F9274CDE49B6DD53F03B00111E2CAC33F2B357BA01518E13F8CF2CCCB61F79D3F315D88D51F61ED3F0B992B836A03E43F29B000A60C1CE13FDFA3FE7A8505EA3FB685E7A56263C03FBCEA01F39029DE3F051555BFD2F9CC3F003CA24275F3EC3F016DAB5967FCE73FB5C2F4BD86E0EA3FD78A36C7B9CDEB3F942EFD4B5299EF3F231631EC3026C93FA54FABE80F4DEB3FD89AADBCE47FE43FE14048163081BF3F384A5E9D6340EB3FE4BCFF8F13A6E63FA8E331039571E13FE318C91EA1E6E43F755776C1E09AE33FDDB243FCC316E63FE146CA1649BBA13F4DBD6E1118EBA33FA379008BFCFAA13F0B0C59DDEA39EF3FCCED5EEE9323ED3FD9AF3BDD79E2E73FA0336953758FD13F28D6A9F23D23B93F77D844662EF0E03FF96706F1811DE43F88F19A577556D73FA6608DB3E908EA3FFBE93F6B7EFCD73FF8DEDFA0BDFAD73FBF823463D1F4E23F50C422861D46EA3FE40F069E7B0FBF3F3C86C77E164BE73F302FC03E3AF5E43FD124B1A4DC7DDC3FCCB73EAC376AB53FB6D617096DB9EE3F1135D1E7A30CE43F18CE35CCD078EF3F42959A3DD00AD83F742502D53F88D73F9FE74F1BD5E9E53F52B9895A9A5BD83F3F55850662D9C03FE910381268B0D23F221ADD41EC4CEE3F10751F80D4A6E93FA359D93EE42DD63F5320B3B3E81DE63FE338F06AB933D43F57EBC4E57885EC3FC4B29943520BE93FEAB298D87C5CC73FBC5D2F4D1160EB3FB39943520BA5E23F86C954C1A8A4E53F02D6AA5D1352ED3F1B8524B37A87C13F4791B58652FBEF3F62F71DC363BFE13F672B2FF99F7CE33F61E0B9F770C9B93FDD24068195C3E23FCFF753E3A59BD63FDAC87553CAEBE73FBCB20B06D7DCD73FD7F6764B72C0CC3FBC9179E40F06E73FB6114F763323EF3FA58636001B90EE3F7C2766BD18CABD3F01158E209562D83F7FA4880CAB78D43F2BA1BB24CE8ADB3FA3923A014D84D93FE868554B3ACAD73F1DAA29C93A1CA53FA5660FB40243E93FD1031F8315A7EE3F4D86E3F90CA8E93FB9E177D32D3BE23FDDEEE53E390AB43F01158E2095E2E73F08E753C72A25E43F7619FED30D94ED3F6C04E275FD82EE3FEBFF1CE6CB0BED3F5BB39597FCCFEE3F4E2844C02154A13F800C1D3BA8C4EE3F321EA5129E50E43F8A1D8D43FDAEEE3F19E76F422102D93FFC1D8A027DA2EF3F624B8FA67A32DA3F80D3BB783F6EB33FEA5BE674594CE33FEA3F6B7EFCA5953F15C5ABAC6D8ADD3FA92F4B3B3517E43FC26A2C616D8CE13F9FCC3FFA264DDC3F490ED8D5E429ED3FA69BC420B072D23F3694DA8B683BCC3F16A6EF3504C7D83F5DE15D2EE23B813FCE4F711C78B5EB3FE42D573F36C9D33FE7A90EB9196EB03F0936AE7FD767D53F6D3656629E95E93F8F1CE90C8C3CE03F168733BF9A03B83F05C1E3DBBB86E93FA4A5F2768453E33FA723809BC58BEE3F13F241CF6655E43F5EF415A4190BE83F8A0453CDAC25EE3FB9C5FCDCD094E23F178046E9D23FED3FDE3B6A4C88B9DA3F31242713B70AD53FF564FED137E9EF3F50E449D23513EA3FE8154F3DD2E0E63F4D840D4FAF94EB3FE4839ECDAA4FED3F431D56B8E5A3ED3FA583F57F0EF3D13FEFC9C342AD69CA3FA6423C122F4FD43F363FFED2A23EE03F2AA73D25E744E53FE3546B6116DADC3F24B6BB07E8BEBC3F4DA25EF069CEEB3FD5E940D6532BE43FC47B0E2C47C8E63F4374081C0934883F7B15191D9084A53FF52A323A2089EA3F111B2C9CA479EE3FB74604E3E0D2B93FED815660C8EAE33FCC423BA75920E53F3128D3687231D33F2B84D558C25AE43F126BF1290046E13F86376BF0BE2ADF3FF2B391EBA614E93F54C554FA0967E03F795A7EE02A4FBC3FD4B5F63E5585C63F8D7A88467710E73FDAE21A9FC97EE53F9E98F5622827EA3F94A2957B8159ED3F57B439CE6DC2CF3F05A73E90BCF3EE3FCD04C3B98699EE3FB685E7A56263C23F0C3A2174D0A5E63F87C1FC153257E83F4B21904B1C79CE3F12D90759164CEB3F9605137F14F5EF3F4A438D429259D83FCD5A0A48FB9FE03FAFD2DD753664E33F3C4B90115061E83F02F1BA7EC1EEE33F2D08E57D1C4DE73F82583673486AC53F003961C26856ED3F90847D3B8908E83F0D51853FC39BEE3FFF93BF7B470DE83FCA349A5C8C01E23F1A89D008362EEC3FB9A81611C564EF3F4F0647C9AB73BC3F87DBA16131EACE3F895DDBDB2DC9D63F69E388B5F814D33FFC1C1F2DCE18E33FDCD781734614EA3F228AC91B60E6E43F6666666666E6EB3F69E04735ECF7D33F24986A662D85EC3FC631923D42CDCA3F1E537765178CEA3F2CB6494563EDDF3FD2AC6C1FF296EC3F75ABE7A4F78DD33F923EADA23F34E43F6E4E25034095E93FB5E21B0A9F2DE63F5A2BDA1CE736D93F53AF5B04C6FAD73FF0F8F6AE415FB23FDFA5D425E318DE3FCC96AC8A7013E33F8639419B1C3EE73F73F22213F0EBE43FD61BB5C2F4BDD33F91D26C1E8741ED3FBC02D19332A9EC3FC90050C58D5BDD3F8179C8940F41E83F4F232D95B723D63F815B77F35487E13F85949F54FB74E23F59897956D28AEB3F0BD462F030EDB33F060FD3BEB93FEC3F11A62897C62FED3F20B8CA1308BBE73FFE9E58A7CA77E23FB9AAECBB22F8D83F75E4486760E4EF3F61FA5E4370DCE33F7BBB25396057D43F1C2444F98216ED3F1618B2BAD5F3E53FD88349F1F189E03F0B08AD872F13AD3FE17CEA58A5F4A43F4AB3791C06F3EB3FF2B1BB404981D93F7A1B9B1DA9BEE63F3A90F5D4EAABBF3FBEA3C684984BCA3FCFA44DD53DB2C33F832F4CA60A46EC3F035C902DCB57EB3FE4C0ABE5CE4CD33F74B33F506EDBE83FC64E78094EFDE73F5EBEF561BD51B33F48A30227DBC0CF3F69C4CC3E8F51CA3F6FF1F09E03CBEF3F34F790F0BDBFC53F8C81751C3F54D13F3D9B559FAB2DE33FB4006DAB5967D13F8ACDC7B5A162EF3F8AADA0698915EA3F22533E0455A3DB3FFAB836548C73EF3F36751E15FF77EA3F1C075E2D77E6E83F42942F682101E53F4DA3C9C51858E13FDAACFA5C6DC5D73FF8544E7B4A4EE73F56B60F79CBD5C73F2C7FBE2D58AAC93FB91803EB387EC43F4AECDADE6E49DE3F4224438EAD67E13F7BBB25396057B73F1C9AB2D30FEACA3F0D17B9A7AB3BA63F465B9544F641D93F8EAED2DD7536E03F90BC732843D5EB3F3CF9F4D89601D63F897AC1A73979A93F51A3906456EFD93F1283C0CAA145C63FEBAD81AD122C9E3FDA70581AF851DB3FF12DAC1BEF0EE93F93C3279D48B0EA3F341477BCC96FB53FBCB0355B7949EF3F5AF5B9DA8A7DE53FE658DE550F98CF3FF88BD9925511CA3FE674594C6C3E9E3F86C954C1A824EB3F770FD07D39B38D3F55A181583673D73F47E350BF0B5BE23F67800BB26579E73F8733BF9A0304A33F6937FA980F08D63FC6151747E526D63F3F58C6866EF6DF3FDA58897956D2E73F1D554D10751FE33F7495EEAEB321D83FEF9062804493EA3FD192C7D3F203DC3FCDAFE600C11CB93FD12346CF2DF4E63F23BA675DA3E5C23FAC3B16DBA4A2D43FFEBAD39D271EEC3F98FC4FFEEE9DEE3F7EE02A4F20ECAC3F9FC893A46BA6EF3FB91AD9959691EB3FC8EC2C7AA702B63FC440D7BE805EDE3FD8F15F200810EA3F2E1F49490F43EE3F134548DDCEBED33FF4C0C760C5A9ED3F9B3C65355D4FE73F1FD61BB5C2F4DE3FD7DF12807F4AD73FAB96749483D9E63F8CDCD3D51D8BBD3FAE0CAA0D4EC4E23F2F87DD770C8FEC3FD13DEB1A2D07EB3FD6A71C93C5FDDF3F939048DBF813753FB7973446EBA8E43FAFD007CBD850EE3F10ECF82F1084EB3F182312859675DA3F802C4487C091E73F3DD68C0C7217E63FEAB298D87C5CEB3F9CC58B8521F2EF3FA77A32FFE81BE73F616F62484E26B23FB70DA320787CC93F4F1F813FFCFCB73FF790F0BDBF41E33F8CBB41B45634E83F4759BF99982EE53F986A662D05A4DD3F6FBDA60705A5C43FD0B4C4CA68E4E23F75AF93FAB2B4D53FE607AEF20442E53F43554CA59FF0E53F221B48179B56BE3F1EA67D737FF5EF3FE222F7747547E23FF31FD26F5F07E93F5B4414933740EF3F9EEA909BE186E63F0A65E1EB6BDDEA3F2367614F3B7CEB3FA3CEDC43C2F7C03F62F3716DA818E13F52D4997B48F8DD3F99D36531B1F9D03FE5417A8A1CA2EC3F5473B9C15087AD3FE4486760E465E33F0F4757E9EE3ADD3FEF54C03DCF9FE03F0FB743C362D4DD3FC7DADFD91E3DEF3F6EBE11DDB3AEDE3F765089EB18579C3F1268B0A9F3A8EF3F8EB1135E8253E13F8D261763601DEB3F6FBDA60705A5A83F992EC4EA8FB0ED3F0F4240BE840AE63F3EEC8502B683D13FFD4B5299620E923FD12346CF2D74D53FD26EF4311F10EF3F3DBB7CEBC37AE53F0EBE30992A18E83FD769A4A5F276D13F7235B22B2D23D03F3D0E83F92B64AE3F97FE25A94CB1EE3F4C530438BD8BCF3F0C74ED0BE8859B3FB5334C6DA983E73F840CE4D9E55BD33F895DDBDB2DC9DB3F7AC6BE64E3C1DE3F475A2A6F4738D43F2522FC8BA031AB3F679AB0FD648CDC3FBF64E3C116BBC13F6B6281AFE8D6C33FCE33F6251B8FE63F1D5A643BDF4FD43F344A97FE25A9B43F03ECA353573EA33FFC34EECD6F98C03FD447E00F3FFFE63FB6BDDD921CB0DC3FC423F1F274AED93F2E1B9DF3531CCB3FF6402B306475C13F9A40118B1876E13F3EEC8502B683713F501DAB949E69EB3FF3052D246074E53F1D7233DC80CFD23F8124ECDB49C4E43FF8A8BF5E61C1E83FF629C76471FFE93F07EA94473742E23F8429CAA5F10BD33F7C0F971C774AB33F9F3E027FF8F9EB3F136404543882B83FA62A6D718DCFD13FB22C98F8A3A8B73F4792205C0185E13FD95F764F1E16EB3F109546CCECF3B43F11C5E40D30F3DC3F28F04E3E3DB6E53FDEE522BE13B3E73FC991CEC0C84BEE3F64E60297C79AC33FEE76BD344500E03FAA7F10C99063EC3FD1967329AE2AD03F84BA48A12C7CD93F98BF42E6CAA0E63F18E945ED7E15E93F198EE733A05EEC3F6F2EFEB627C8E13FB360E28FA2CEEA3FB3614D6551D8E03F4A41B7973446DA3F86200725CCB4B13F492C29779FE3A33F166C239EEC66AE3F03098A1F636EEB3F4D6551D845D1BF3F639CBF098508E43F3A0664AF777FC03F7CD5CA845FEABF3FDCB75A272EC7EF3F52616C21C841DC3FDF8C9AAF928FED3F0C5872158BDFE13FAA9ECC3FFA26D63F7A36AB3E575BE53FF0366F9C14E6B93FBFF2203D450ED63F80D4264EEE77ED3F73D9E89C9F62E63FAC38D55A9885D13FFFEC478AC8B0C03F556AF6402B30CE3F091A33897AC1EC3FE4141DC9E5BFE23F9032E202D028DA3F1230BABC395CD53F711FB935E9B6D83F8602B68311FBE83F09FCE1E7BF07E83F552FBFD364C6E13FBEC0AC50A4FBED3F7C0E2C47C840B63F723447567E19C03FF838D384ED27D03F9738F2406491CA3F9F94490D6D80E83F4C530438BD8BBB3F64B0E2546B61CC3F7FA31D37FC6ED43F376C5B94D920C33FDB334B02D4D4E83FEEB089CC5CE0CC3F5C1FD61BB5C2D83F49BDA772DA53D13F9679ABAE4335E93F286211C30E63D93F1D39D2191879B93FBEBD6BD097DEDB3F7EC9C6832D76D03FF168E388B5F8D73F3337DF88EE59C13F83328D2617E3E23FDDCF29C8CF46D13F92AF045262D7C03F685A626534F2BD3F31074147AB5AC03F03E962D34A21EC3F5C001AA54B7FE63F48FC8A355CE4D53FB891B245D26EE53F855E7F129F3BD73F7DEC2E505260B53F7FDFBF797162E23F14B35E0CE544DA3F5951836918BEEF3FD86322A5D9BCE23F29779FE3A3C5893F3447567E198CB93F717495EEAEB3C73F0EA14ACD1EE8E63F63D174763238EC3F5A12A0A696ADB13FC3D66CE525FFE73FF870C971A774DF3F7CD2890453CDEC3FA73D25E7C41EC43F26E318C91EA1EE3F5055A18158B6EF3F40A6B5696CAFC33F6D3A02B859BCD93FAED85F764F1ED73FC43F6CE9D1D4E73F06465ED6C402DC3F20EBA9D557D7E93F753BFBCA83F4743FE811A3E716BAC43F7CF0DAA50D87AD3F416326512FF8E33F7AE2395B4068DC3FECC20FCEA78ED03F36CEA623809BE43FC328081EDFDEC13F66BFEE74E789E23F560E2DB29DEFD43FB4739A05DA1DED3FFF03AC55BB26EB3F446E861BF0F9E43FDF6FB4E386DFD63F7D073F7100FDC43F317A6EA12B11B03F7C444C8924FAEA3F6AF816D68D77E33FB071FDBB3EF3E43FBB61DBA2CC06693FE63C635FB2F1BC3F1B9B1DA9BE73EC3F48A98427F4FADA3FD28BDAFD2AC0CB3F512E8D5F7825E43F446D1B464170EF3F8C4AEA043411EF3FF2B4FCC0559ED63F91459A780778C23F65FD6662BA10E53F2DEE3F321D3AE23F4E98309A95EDD03F3430F2B22696EC3FA7C98CB7955ECF3FD4D688601C5CD73F54742497FF10E73FCE8AA8893E1FD23F68CBB9145795D33F26512FF83427E83FB01BB62DCA6CDB3F5A2A6F4738ADEE3F0C3B8C497F2FDF3F0D8AE6012CF2D93FD255BABBCE86D43F373811FDDAFAD43FD464C6DB4AAFC93F956247E350BFED3F649126DE019ED83F3694DA8B683BD23F323B8BDEA980AB3FCB10C7BAB88DD13F117008556AF6D13FD1CE691668F7E83FCD7344BE4B29E33FF9D7F2CAF536E03FDA1D520C9068EF3F2E1EDE7360B9E63FF148BC3C9D2BDC3FD82B2CB81FF0DF3FE8BCC62E51BDD03F0684D6C39709ED3F369545611745E83F857CD0B359F5E03F444DF4F92823E43FA702EE79FEB4CD3F54C4E9245B5DE43FD540F33977BBEC3FA9F8BF232AD4E33FB0AD9FFEB3E6CD3F645C717154EEEE3F59A7CAF78C44DF3F941458005386E73F7EA83462669FEE3F577BD80B05ECEC3F53B4722F302BBC3FDA5548F94935E03F384E0AF31E67BA3FA661F8889812B13F815F2349102EE33F5B3FFD67CD8FD63F8E3D7B2E5393D83F1478279F1EDBC83F381268B0A9F3D63F39984D8061F9E33F4CC11A67D311903F5E9D6340F67ADC3F6CAF05BD3786DB3FBBB4E1B034F0933FC0232A543717E73F6C7A50508A56CC3F44DFDDCA129DE83FE469F981AB3CA13FFA9B508880C3E63F4354E1CFF0E6E03F1E6FF25B74B2B83F145D177E703EB93FF69672BED87BED3F79AEEFC34142D83FEDD45C6E30D4BD3F450E1137A792D13FAE6708C72C7BD33FFE7C5BB05417BC3F3E92921E8656E63F02F390291F82A23F7940D9942BBCEC3F02B859BC5818DC3FAC38D55A9885D33F247F30F0DC7BD63FAA285E656D53E93F313F373465A7C53F69006F8104C5EA3FA06CCA15DEE5E63F558671378856EA3FF2EA1C03B257E03FE9F351465C00C43FDAC534D3BD4EED3F10E84CDA545DEB3F5378D0ECBAB7C83F350BB43BA498E03F7619FED30D14D93F390D51853FC3D53F94162EABB019EF3F16A1D80A9A96D33F97C5C4E6E3DABC3F1CEBE2361AC0AB3FE833A0DE8C9ACB3F726E13EE9579D13FB39597FC4F7EE23F221ADD41EC4CD03FB11A4B581B63E93F7EC51A2E724F873FD97C5C1B2AC6EA3F87FBC8AD49B7D03F4B033FAA613FE33F30B8E68EFE17E03F7B832F4CA68AEF3F289EB30584D6D23FABE7A4F78D2FE23FFD8689062978CE3F38F8C264AAE0E33F7974232C2AE2CA3F86A92D7590D7E53F1B67D311C0CDD03F11548D5E0DD0E33FB0E595EB6D33EE3F5E4C33DDEBA4EF3F98DA520779BDE93F31276893C327E83F790261A75835A83F74CE4F711C78B13FC05C8B16A06DE93FEC6D3315E211ED3F185DDE1CAE55E33FC689AF761467EB3F1DC9E53FA45FEA3F87FD9E58A7CADC3F4CC11A67D311E13F7EA7C98CB795DA3F9A417C60C77FE43FA48B4D2B8540DE3F7769C3616960E53FD333BDC45826E73F4015376E31BFEF3FFDDB65BFEEF4E03F2F87DD770C8FCB3FF1F109D9791BD93F45BDE0D39CBCD13FE3DD91B1DAFCC33F0A67B796C970E43FCEFE40B96D5FEC3F081F4AB4E471E63FEC34D252793BED3F193A765089EBEA3F3DB83B6BB75DD13FDEC7D11C59F9B93F4089CF9D607FE73FFC8C0B0742B2DE3F8A01124DA088AD3F37FB03E5B6FDE93FC79C67EC4B36EE3FBD35B05582C5D43F1FA0FB7266BBDA3FD386C3D2C08FD53FA81C93C5FDC7E73F1F645930F147EC3F4BCB48BDA772AA3F3FC6DCB5847CE33F76DD5B9198A0E63F369545611745CD3FFB03E5B67D8FD93F327381CB63CDD13F2CF3565D876AC43FAFB321FFCC20EF3FE6CC76853E58D13F43E73576896AE13FC6A695422017E53F2CB81FF0C000D73FE28FA2CEDC43E63F9291B3B0A71D9E3FE50CC51D6FF2D53F4B5AF10D85CFD03F6AA67B9DD497CD3F31CD74AF93FAB23FC422861DC624E83FB8955E9B8D15E23FA629029CDEC5C93F3E26529ACDE3EE3FC47762D68B21EC3F1EE1B4E0455FCB3FE8BB5B59A233EF3FEE258DD13AAA8A3F94F6065F984CDD3F7F4E417E3672B93FD0ED258DD13AE13F61A758350873D13FCEA78E554ACFD73F8D4468041BD7CB3F6F7F2E1A321ED73F4CAAB69BE09BE33FBA8102EFE4D3E13FBED9E6C6F484C73F72FA7ABE66B9E63F3524EEB1F4A1ED3FA8DF85ADD9CAC13F2F302B14E97EC83F9C3061342BDBDF3FFC1D8A027D22EA3F7786A92D7590973FD19332A9A10DD53F9C8BBFED0912EE3F36CEA623809BED3F44DFDDCA121DEC3FA629029CDEC5C13FDE205A2BDA1CE03FBD70E7C248AFE83FFFE6C589AF76DD3F3F19E3C3EC65E73F4C5299620E82CC3FD23AAA9A20EAE83FDD990986730DEB3FB8770DFAD2DBCD3F3F8BA548BE12DD3FAA61BF27D629E63F1DE736E15E19EC3F4E97C5C4E6E3DD3F242A5437177FDD3FBF0CC68844A1953FCEC7B5A1621CED3F51137D3ECA08EB3F069CA5643909A53FEA5A7B9FAAC2E23FB3295778978BE53FF2B1BB404901E43F136404543882E83FE41071732A99E33FEFAB72A1F2AFD53F6B60AB048BC3E83FE5F04927124CB93F9D9FE238F06AD03F168733BF9A03B43FD7F6764B72C0A63F0211E2CAD93BD43F8EE89E758D16EF3F965F066344A2CE3F1FF46C567DAED43FA379008BFCFAE73F61342BDB87BCCB3FD11F9A7972CDE33F25ECDB494478E23FC11F7EFE7BF0D33F45A165DD3F16D03FF5D72B2CB81FE83F4D6551D845D1D83FC05E61C1FD80EC3F7DCEDDAE9726E23F46088F368E58DF3FB58828266F80C73F2385B2F0F535EE3F4E9D47C5FF1DCF3FDF15C1FF56B2E33F483140A20914DC3FF5B9DA8AFDE5E83F6346787B1082E43F6DACC43C2B69CF3F4BE5ED08A705E73F77F86BB2463DE23F71A94A5B5CE3BF3F49111956F146D33FC64D0D349F73A73FDCF126BF45A7E93F6A6798DA5207EC3F1D386744696FD13FE09EE74F1BD5CF3F2942EA76F695E53F70ED444948A4E73F2E1B9DF3531CCF3FF59CF4BEF1B5DB3FE813799274CDD23F111C97715303D23F55BFD2F9F0ACE03FABCC94D6DF12E13F4ACFF4126399EA3FBB9A3C6535DDE63FD926158DB5BFD73FAE9D280989B4DB3FC1374D9F1D70C13FF2EA1C03B2D7E73FA7255646231FE23FCBBE2B82FFADD53F81CF0F238447D33F95D8B5BDDD929C3FA4AA09A2EE83E13FCFD90242EBE1C73FE22021CA17B4C63FA62A6D718DCFB03F4487C0914083D93FBC5D2F4D11E0DB3FDBDB2DC901BBDD3F49D9226937FACE3F000000000000ED3F7901F6D1A92BEA3F9C1551137DBEE03F9964E42CEC69DA3FB4AED172A007E03F86AB0320EE6AEB3F861C5BCF108EBD3FE9D500A5A1C6E43FCD565EF23F79E73F02D6AA5D13D2E93FCA1B60E63B78E03F965AEF37DA71E63F82548A1D8D43E73FDA5548F94935E63F27C286A7574AEF3F8907944DB9C2EA3F9A232BBF0CC6E23F645B069CA5E4EA3F6150A6D1E462E93F3CF54883DBDAEE3F1F813FFCFCF7E13FA7B393C151F2A23F3ED00A0C59DDE13FDE3CD5213743EF3F01FA7DFFE6C5BD3FB24813EF004FBA3F5307793D9814EC3F92CB7F48BF7DEE3F78B5DC990986C53F2FA4C343183FD63FB28009DCBA9BDF3F653733FAD1F0EA3FA5BBEB6CC83FE23F47567E198C11C73F8751103CBE3DED3F3C9F01F566D4DD3FA070766B998CE83F677C5F5CAA52EC3F4165FCFB8C0BE33F7978CF81E508E53F0169FF03AC55EA3F307F85CC9541EC3F28D192C7D372EA3F226FB9FAB149D23F5C035B25581CE33FE7340BB43BA4CA3FD6C9198A3BDE943FD7868A71FE26E53FC713419C8793E73FC05B2041F163E73F32022A1C412AC53F323B8BDEA900E13F3ECDC98B4CC0E23FAE6708C72CFBEE3F3083312251E8ED3F63B5F97FD591E53F486AA164726AD03FEC87D860E124DF3F82C5E1CCAFE6D33FE066F1626188E33F24D6E253000CEA3FF030ED9BFBABB73F3EB14E95EF99EB3F3F90BC732843B13F386744696FF0EE3FF0A5F0A0D975DC3FED9C66817607E13FD2A8C0C93670D93FB6A0F7C61000CE3FBDC282FB018FE93F93C49272F739DD3F28806264C91CE03F2E1A321EA512D73F7104A9143B1ADB3F00FDBE7FF3E2BC3F7E1D38674469E33F8BAA5FE97CF8EC3F79060DFD13DCEE3F3F90BC7328C3E43FE6AF90B932A8D43F6DE525FF93BFBF3FA8C7B60C384BC93FF8A75489B2B7E83F2BFBAE08FEB7BE3FD13C80457E7DEA3FEF5696E82CB3C03FA60EF27A3029BA3F919BE1067CFEEF3FA950DD5CFCEDE03F38F92D3A596AEA3F1A16A3AEB5F7EB3F5646239F573CC73FB2F677B6476FE23FAA7EA5F3E159B63F696FF085C954C53F386A85E97B0DE93F27A5A0DB4B1AD33F02D53F8864C8E83F024A438D4212E93F048E041A6C6AE43F7D7896202320E33F2827DA5548F9ED3F618C48145AD6DB3FDE205A2BDA9CEE3F23DC64541946E13F9A94826E2F69E33F6F9C14E63DCED43FED66463F1ACEE33FF701486DE2E4C83FE719FB928D87E93F5A80B6D5AC33DF3F511553E9271CEB3FA54FABE80FCDDC3FE00ED4298FEEE43F801134661275EF3FE6577380608EC83F9C8713984EEBE93F4242942F6821E03F1A1A4F04711EBE3FBDE0D39CBCC8B83F8BA9F413CE6EDA3F9D81919735B1D43F8F6E8445459CA63F1EFCC401F4FB9E3F38F8C264AAE0EB3F8BFD65F7E461D13F060DFD135C2CE63F84D6C3978922BC3F05BF0D315E73E73FF6F065A208A9E23F01C3F2E7DB02EF3F28B517D1764CD03F6F29E78BBD17D53F8B4F01309EC1EA3F441669E21DE0E03FF1F109D9791BBB3F2AFF5A5EB9DEDD3F1A6B7F677BF4D73FC1AA7AF99D26D23F3A419B1C3EE9C03FE481C8224D3CEE3FA323B9FC87F4DC3FB6494563EDEFCA3FB64B1B0E4B03DE3F6058FE7C5BB0EE3FF240649126DECB3F84674293C412EF3FEFC9C342AD69E83FA629029CDEC5E73F83DBDAC2F352D13FF3AACE6A813DC83FE09D7C7A6C4BE53F1B2FDD240681953F8F334DD87EB2EA3FE76F4221020EEE3F5EDBDB2DC901D83FA794D74AE82ED13FD1CB28965B5ACB3F0B9755D80C70B53F342E1C08C902AE3FE21E4B1FBAA0E33F20CF2EDFFAB0D73F58AEB7CD5488D23F037D224F922EE63FDA3C0E83F92BC03F579412825575EE3F7E8CB96B09F9DE3F14B4C9E1934EE93F882EA86F99D3E73F87FA5DD89AADA43FF4C308E1D1C6CF3F425C397B67B4EC3F0118CFA0A17FE83F3BFE0B040132E93F2D978DCEF929D43FFDF84B8BFA24973F47054EB681BBE03F3A3B191C25AFDA3FEDBAB72231C1E73FDAFE959526A5D03FD0D2156C239ED23F5C397B67B455C73F378E588B4F01E03F730F09DFFB1BC63FC0B4A84F7287E33FD5CDC5DFF604A93FA5A0DB4B1AA3E23F9E978A8D791DE63FA1478C9E5BE8DE3FD384ED27637CA03FFF08C3802557D33FE88711C2A38DC73F6DC9AA083719E23F4A41B7973446DF3F3E25E7C41EDAE03F6C7C26FBE769CC3FEA7937161406C13FFAB836548C73E93FB5DE6FB4E3868F3F740D33349E08DF3F3DB665C059CAEA3FA60EF27A3029E93FD5AE09698D41E33FD13DEB1A2D07E53F6C5B94D92093E53FFDF9B660A9AEE23F7E703E75AC52BE3F857D3B8908FFC03FA0FEB3E6C75FD03FD21BEE23B726DD3F0057B2632310C13F7575C7629B54D13F1F645930F147C13FDECA129D6516EA3FE99AC937DB5CEB3F6E8AC745B588ED3F1C9947FE6060EE3F70ED444948A4C33FE0D8B3E732B5E43F874F3A9160AAB13FF0A31AF67BE2E33F1B7FA2B2614DDD3FA968ACFD9DEDD73FE7E3DA5031CEDF3F28B9C32632F3E23FC39B35785F95E63F7A1D71C806D2953F5C2041F163CCE23FAD510FD1E80EEA3F3602F1BA7EC1E63F84D72E6D38ACEC3F38143E5B0707DE3FB3EF8AE07F2BD43FCD751A69A9BC5D3FB5C35F9335EAEB3F530438BD8BF7E23FDC114E0B5EF4E03F6326512FF834DC3FD9EDB3CA4C69ED3F1878EE3D5C72E33F53245F09A4C4E33F8CF678211D1ECA3F7097FDBAD39DBF3FCB48BDA772DAA33FD10836AE7F57E23F9529E620E868D13F2D776682E15CCF3F29CB10C7BAB8E83F973AC8EBC124E63F562AA8A8FA95E93F861DC6A4BF97EC3F33C005D9B27C7D3FF4531C075E2DEA3F61DEE34C13B6D23FF5A10BEA5BE6EA3F4850FC1873D7623FD34B8C65FAA5E03FD998D711876CE83F3FE42D573F36A93F37FFAF3A7224E03F6FD39FFD4811D73F041BD7BFEB33D93FA4A833F790F0CB3F0DFE7E315B32EF3F849B8C2AC338E13FED815660C8EAC83FB75D68AED348DE3F457F68E6C935E33FAE105663096BE13FAC1F9BE447FCEF3FEEB25F77BAF3EB3F4339D1AE42CACB3FE61E12BEF737EB3F0ED940BAD8B4CA3F5649641F6459D13FA5F8F884ECBCC13F3599F1B6D2EBE03FD76B7A50508AD73F1F813FFCFCF7CC3FBDE13E726BD2CF3FB6D617096D39E13F9CE09BA6CF0EE63F8BFA2477D844CC3F6F2BBD361B2BE83FD4D17135B2ABE83FD06053E751F1A73F2A560DC2DCEEE63F8ACDC7B5A1E2EF3F14CE6E2D93E1EF3F964220973872E93F5DC5E2378515EF3F9F5A7D7555A0D13F202A8D98D967E53F0FD4298F6E84C73F33164D672703E43FE9BAF083F3A9E83FBB9A3C65355DDD3F033FAA61BFA7EA3F1E882CD2C43BDA3F595018946934C33F97FE25A94C31EF3F64027E8D2441D93F2D98F8A3A833DC3F85B35BCB64B8EE3F88F546AD307DDE3F45B8C9A8328CEC3FACA92C0ABB28D83F416326512F78E43F7D923B6C2233DD3F5AB8ACC26680DE3FB9533A58FFE7EE3FE6CE4C309C6BCA3F658D7A884677EB3FA60F5D50DF32D73FB3CF6394675ED83F10768A558330EA3F84807C09151CEC3FE63C635FB2F1D83FC32E8A1EF898E53F3C4ED1915C7EE63F981936CAFACDE33F4C1938A0A52BD73F0A67B796C970B83FCFF9298E032FEA3F4815C5ABACEDEC3FA2B77878CF01E13FEC34D252793BEB3F1D588E9081BCE23F9566F3380C66ED3F9013268C6665BF3F0E2F88484DBBEC3F6EFB1EF5D72BE13F15AC71361D019C3FD90A9A965819D83FE19BA6CF0E38EA3F0188BB7A1519B93FF9D85DA0A4C0EF3FE63C635FB2F1E63F9B00C3F2E7DBEC3FFC6F253B3602913FA0C03BF9F4D8EB3FE15F048D99C4E53F3DB5FAEAAA40ED3FE2AC889AE8F3DB3F7903CC7C073FEC3F286211C30E63EC3FE2CB441152B7E13FC4CE143AAFB1D83F3C4F3C670B08B53FEDD79DEE3C71EC3F8E20956247E3E73FB517D1764CDDEE3F857B65DEAA6BE33F21E692AAED26883FD906EE409DF2D63FC251F2EA1C03C03F7DCC07043A93E13FA0FA07910C39EC3F938AC6DADFD9C83FF7ADD689CBF1D93F84B872F6CE68C33F11A62897C62FD83F70B54E5C8E57E43F17EFC7ED974FD03F768D96033DD4E93FC5ABAC6D8AC7B53F28D4D347E08FE83F77137CD3F4D9A93F967B8159A148E43F1171732A1900DC3F4D2D5BEB8B04E03F611A868F8829DD3FDE718A8EE4F2DC3FCB0F5CE50904E13FE25B5837DE1DB53FFBB1497EC4AFA03F69E04735ECF7EA3FED116A865451C83F30F2B22616F8EE3FB2BD16F4DE98E23F7023658BA4DDE73F94BE1072DEFFD43F9BC6F65AD07BD03FE4688EACFCB2E83F3944DC9C4A06EF3FA41820D1040AED3F54742497FF90E93F94F6065F984CC93F00AC8E1CE90CA43F3293A8177C9AEF3FFCA6B0524145D23FB47570B037B1E53FE97C78962023DB3F878C47A98427943F1A4D2EC6C03AAE3F923D42CD90AAED3FAF97A60870FAE83F8BA71E69705BE43FCCD3B9A29410C03FF304C24EB16AE03F38F3AB394030D73F72F90FE9B7AFE43F69E1B20A9B01D83FB954A52DAE71E33FE3A9471ADC56EB3F75E8F4BC1B8BE03FE84D452A8C2DCE3F4B732B84D558E03F83DF8618AF79B93F0514EAE92370EF3FE23D079623E4EA3F55F65D11FC6FEF3F685E0EBBEF18B63F94DE37BEF64CEA3F59DC7F643A74A23F90831266DAFEB93FC0ED0912DB5DE23F74EE76BD3445B43F418177F2E931E13F6458C51B9947EC3FAFE9414129DAE33FF3052D246074DB3FB1FD648C0FB3E53F6C088ECBB8A9ED3F952A51F69672EB3F5A7EE02A4FA0EE3F7FDFBF7971E2E43FEFAEB321FF4CEB3F6005F86EF3C6CF3F8EE6C8CA2F83C93FD15CA79196CAEB3FB58828266F00E03F3ECBF3E0EE2CEB3FB5C35F9335EADD3FA648BE124809ED3F9FCC3FFA264DBF3F01A1F5F06522EE3F333674B33FD0E23FE6E8F17B9BFEB03FE606431D56B8EF3F38A110018750A53F9A95ED43DE72CF3FA7CCCD37A27BD83F6C06B8205B16E53F2F35423F53AFE23FD7C056091687EE3F21AE9CBD33DACE3F231631EC3026E53FBDC5C37B0E2CA73FFB73D190F128DA3F13D6C6D8092FD73F9487855AD3BCE33FAA9ECC3FFAA6E93F7A8D5DA27A6BE83FC138B874CC79C43FDD611399B9C0E63FE8DA17D00B77C23FF488D1730B5DC53FE109BDFE243EEB3F7BF99D26335EE23F9293895B0531DB3F9F2287889B53CD3F0A2DEBFEB110C13FBDA94885B185CE3F715AF0A2AF20E43FAA4544317903E93FF982161230BAC83FF2ED5D83BE74E33FE3C62DE6E786B63F07616EF7729F8C3FE1EEACDD76A1DF3F9A79724D814CEE3FCF6A813D2652CC3FCE4F711C7835ED3FB6476FB88FDCE93F7E6FD39FFD48EB3FAB3E575BB1BFC83FCCF09F6EA040E53F69AD68739C5BE63F124DA088450CE53F37FB03E5B67DE53FC6DB4AAFCDC6D53F5796E82CB308BD3FD6C743DFDDCACA3F6D1B4641F0F8C63F2D5C566133C0C53F5A0F5F268A90E43FE2CB441152B7BB3FEF1B5F7B6649D33F26FDBD141EB4E23F32022A1C412AD03F89B2B794F3C5DB3FA1F48590F3FEDF3F1B2B31CF4A5ADC3FF299EC9FA701EB3FBA6587F8872DDC3FAD3594DA8BE8EA3F45A165DD3F96EB3FECBDF8A23D5EE43F280EA0DFF7EFE63FB728B3412619EA3F8109DCBA9B27E63F5ABA826DC493D73F0264E8D84125C43FC2C2499A3FA6E43FF94B8BFA2477D63FFCFF3861C268CA3FBC5B59A2B3CCD93F4014CC9882B5E93F19E59997C3EEE13F483657CD7344E03F4C35B39602D2EF3FDAE6C6F48425E73F0D7041B62C5FE73F6E85B01A4B585B3F95F430B43A39CD3FB5A338471D1DCD3FA3586E693524BE3F7EC34483143CBD3F611A868F8829E63FCA880B40A3F4EA3FD7FA22A12DE7BA3FC3B986191A4FC63F04594FADBEBAEA3FF3203D450E11D43FEBFCDB65BFEEC63F30478FDFDBF4CD3FFA5E43705C46EB3FC5C6BC8E38E4E13F9835B1C05774EB3FB0045262D7F6BA3FCADDE7F86871E43F3DD34B8C65FACF3F429605137F14CF3F7BBFD18E1B7E973FD313967840D9C03F0B992B836A83B73FE57FF277EFA8DE3F299831056B1CEF3FA37554354154E33FA65F22DE3AFFCC3FA4E194B9F9C6E33F6E1970969265EA3FE7FBA9F1D24DEC3F9413ED2AA4FCE93F5260014C19B8E03FB7B244679945B03F7024D06053E7DF3F0490DAC4C9FDD63F61A92EE06586E03FB96FB54E5C0EE23F9850C1E10511DE3F4888F2052D24C63F620FED6305BFE53FFA9AE5B2D1B9E43FA2D45E44DB31EF3FB01BB62DCA6CE63F8E90813CBB7CDC3F035C902DCB57EF3F73F38DE89E75C33F301004C8D0B1D93F8997A77345A9E63F04A9143B1A87DF3F359A5C8C8175E73FB5A84F72874DE23F8A027D224F12EE3F0A647616BDD3E63F508E0244C10CE03F77137CD3F459E13FDA1EBDE13EF2E13F0C03965CC5E2DC3FABD0402C9B39EF3FF390291F82AAC13F12A0A696AD75EE3F0247020D36F5E03FDE3AFF76D9AFD63FD3122BA391CFC13F7923F3C81F8CE93F82C5E1CCAFE6DA3FF27D71A94A5BEA3FE4C0ABE5CE4CD83FDAAB8F87BEBBCF3F95641D8EAED2B13F172AFF5A5E39E23F1B4AED45B49DE73F69E55E6056A8EB3FA1BDFA78E8BBDB3FF46C567DAEB6DF3F384888F205ADE23F6BF294D5743DD83FC2C1DEC4909CE73F7903CC7C073FD43F2B85402E71E4A13F56F0DB10E335CF3FDCBB067DE9EDEC3FB282DF8618AFED3FA46DFC89CA06E03FA6457D923B6CC23FF0A485CB2AECE73F04029D499BAAD73FB0928FDD054ADD3F3D9E961FB8CADB3F4B766C04E2F5E23FFF5BC98E8D40DF3FE55E60562852ED3FAB984A3FE1ECB23FD95DA0A4C002A83FF78F85E810B8E93FBB46CB811E6AE73F97ADF545425BCA3F26A77686A9ADE43F7BC1A7397991E63FC4EC65DB696BED3FB900344A97FED13F7731CD74AF93EC3F0C207C28D192EC3F99107349D5F6EC3F63096B63EC84E53FD2890453CDACB93FDC2E34D76924E43FB0AA5E7EA7C99C3F96B1A19BFD01E33FF92CCF83BBB3D63F074147AB5AD2E93F3BC8EBC1A478EF3F1D01DC2C5E2CE43F938B31B08E63ED3F187D0569C622E03F309C6B98A1F1ED3F5C02F04FA912D93F8CF50D4C6E14CB3F3B53E8BCC62ED83FCC5EB69DB6C6E83F14CFD902426BE53F08CA6DFB1EF5CF3F4F948444DAC6EE3FD0D6C1C1DEC4603F72FDBB3E73D6D83FE9D1544FE61FDE3FECBFCE4D9B71D23F4014CC988235BA3FA647533D997FEB3F0647C9AB730CC03FCB660E492D94EC3F41B96DDFA37EE93F91D26C1E8741EF3F73A087DA368CE23F22C7D6338463D43F4D158C4AEA04D23F2EE411DC4859EF3F3F19E3C3EC65EA3FE063B0E2546B913FD04543C6A354DF3F7B849A215514EE3F4359F8FA5A97D53FDB19A6B6D441EB3F643BDF4F8D97B23F7B4E7ADFF8DAE63FC8D11C59F9E5E73F9F1D705D31A3E23FB6D617096D39E73FFCE07CEA58A5E73F6A15FDA199A7E93FCB1132906717EE3F19AA622AFD84BF3F7EC685032159ED3F6A6803B00111E73F19AC38D55A18EB3FCE1ABCAFCA85E03FE811A3E716BA523F5C72DC291DACEF3F36C98FF8156BDC3F137CD3F4D901D83FEF74E789E76CE33FA3409FC893A4C93FE9633E20D019EE3FBA6A9E23F25DE23F15562AA8A8FAC33F50C3B7B06E3CE83F395E81E84999DD3FA10F96B1A19BD53F8DF161F6B26DEC3FDE718A8EE472E93F3F8EE6C8CA2FC73F2B85402E7164EA3F75E8F4BC1B0B9A3F84B7072120DFE63F187C9A931719E83F064A0A2C8029DC3F6D3997E2AAB2DC3FE2EA0088BB7AE13F6E6E4C4F58E2B93FD8BAD408FD4CD33F97C80567F0F7DF3F5930F14751679E3FDD43C2F7FE06E73FF4FDD478E926C13F00C45DBD8A0CED3FAAB706B64AB0D93FAE62F19BC24ACF3FFBAF73D3669CDF3F45A165DD3F16E73F309B00C3F2E7BB3F7653CA6B2574DD3F3AE8120EBDC5DF3F5E656D533C2ED43F3BC269C18BBECA3F55BFD2F9F02CE53F14AFB2B6291ED33F5665DF15C17FE63FAE2EA704C4A4E23FBB438A01124DE23F4BCCB39256FCED3FED2DE57CB1F7DF3FE8F692C6681DE33F3ACE6DC2BD32E63F080264E8D841EE3F2C8194D8B5BD7D3F5C74B2D47ABFD33F0E828E56B5A4DF3F2BA1BB24CE8AD03F7AE1CE85915EB43FE95F92CA14F3EB3F53AEF02E17F1EA3F7A71E2AB1DC5BD3F3FADA23F3473E93F420A9E42AED4C93FA96BED7DAA8AE93FC3F2E7DB82A5BA3FC51F459DB987D93FCB811E6ADB30C43FF0DFBC38F155EE3F3927F6D03ED6E93F01A1F5F06522E33F1E882CD2C43BE63F16C3D5011077E93F17BA1281EA1FD03F32ACE28DCC23EE3F94A300513063E03FB3D1393FC571D73F5760C8EA56CFB13F2F505260014C693F95456117450FC43FEFE53E390A10E33FA297512CB7B4EB3F0DC347C49448DC3F52B648DA8D3EE53F4582A966D652C23FDE054A0A2C80C53F9E4143FF0417DD3F677DCA3159DCE73F03098A1F63EED93F703E75AC527ADD3F1F49490F43ABD93F8330B77BB94FC43F804754A86EAEEA3F8124ECDB4944A03FC78157CB9D99D03F412D060FD33EE53F8E01D9EBDD1FD13F8CBE823463D1DA3F85CD001764CBEE3F33FB3C4679E6EB3FF5D72B2CB89FEA3FB2DAFCBFEAC8D43FCE88D2DEE00BDD3F8693347F4C6BED3F74266DAAEE11E73FC1012D5DC1B6E43F6F9C14E63DCEC83FAF5DDA70581AE53F7E6FD39FFD48CD3FA587A1D5C919C63FA915A6EF3504EF3F16A6EF3504C7D93FCB4A9352D06DE23FDCA0F65B3B51B23F516B9A779CA2DC3F7CF0DAA50D87CB3FEC6CC83F3308E93F444DF4F928A3EA3F4F0647C9AB73D83F2D93E1783E03DE3F005471E31673E73FFEB627486C77CF3F88B839950C00DC3FE09EE74F1BD5E53F7F17B6662B2FD93F94BDA59C2FF6EE3F93C9A99D616AC13FBEBF417BF5F1DB3F3E22A64412BDD13F9F3D97A949F0D33FB07614E7A8A3E93F5531957EC259E53FF8FD9B1727BEEE3F6B44300E2E1DC73FAB048BC399DFEF3F0C1F11532289E13FFF774485EAE6CC3F7CF1457BBC90E13F8B6B7C26FBE7C53FDACBB6D3D688EC3FFC1A49827005CC3F931B45D61A4AD13F645DDC460378A33F4084B872F6CED63FC806D2C5A615ED3F912C6002B7EEDA3F9F3D97A949F0C63F5C751DAA2949E73F2BDCF29194F4DB3FD93D7958A835C73F043752B648DAAD3F8C2C996379D7EA3FCD1DFD2FD7A2C13FEC34D252793BA23F4E098849B810E33FEBE40CC51D6FE13FDAAD65321CCFD53FF31B261AA4E0DA3F0B444FCAA486DB3F75CB0EF10F5BAA3F55A357039486DD3FD8648D7A8846CD3FF5A276BF0AF0E33FD3307C444C89DD3F0A4966F50E37E83F53CDACA580B4E73F2060ADDA3521EE3F9FE3A3C519C3E13FD27135B22B2DD63F7782FDD7B969CB3F310917F208EEEB3F72C5C551B989C23FFDBD141E34BBB63F280F0BB5A679D63FF5F3A62215C6B63FAB798EC87729E33F0B7F86376BF0E13F8C2D043928E1EE3F3B511212691B9F3F554D10751F00EF3FFA2B64AE0CAADE3FDC0DA2B5A24DE03F28D2FD9C82FCD13F7A6CCB80B314E53F3C1570CFF327E03FEE3D5C72DC29CD3F5E2EE23B31EBE43FD99601672959BE3F3B6F63B323D5973F4D13B69F8CF1D63F083A5AD5920EE03FB0ABC95356D3D13FF0C34142942FC83F14200A664CC1E83FED9FA70183A4C93F263ACB2C42B1553FA0A4C00298B2E23F18CE35CCD078DE3F5ED5592DB047EB3F8FE046CA16C9E53FF46C567DAEB6DF3F5801BEDBBC71E23FCFF57D384888DD3F1F4B1FBAA03EE03F8C101E6D1CB1E43F20B8CA13083BAD3F9032E202D028CF3F58CB9D996038D43F310C5872158BCB3FB5A84F7287CDE13F79B130444E5FD83F685BCD3AE37BEB3F698CD651D504D63F33C005D9B27CB53FF31DFCC401F4EE3F4014CC988235B23F2D7C7DAD4B8DD63F8FFCC1C073EFDB3FD731AEB8382AC93FDC7EF964C5F0E73FD4D688601CDCE13FBD38F1D58E62ED3FBAD8B4520864EA3F070C923EAD22E33FFCE4284014CCD83F31B77BB94F8ECE3F4FAC53E57B46C43F5019FF3EE3C2CD3FD9D0CDFE4039E33F6A34B91803EBE73F7C0BEBC6BB23EE3F79CA6ABA9EE8D13F30134548DDCEB63F55336B29206DEB3F2FDE8FDB2F9FD43F1D59F9653046E43F99B7EA3A5453EB3FE083D72E6D38EB3FADFBC7427408EB3F388600E0D8B3E83F00ADF9F19716DE3FA1681EC022BFE13F0EA48B4D2B05E13F3885950A2AAAD43F32207BBDFBE3A53F75E789E76C81EE3FBB7F2C4487C0E33F1DE8A1B60D23EA3F17F3734353F6EA3F9E42AED4B3A0E63F33A6608DB3E9CC3FF0181EFB592CDB3FB6476FB88FDCEB3FA5D7666325E6E83FC2C073EFE112E83F5FEE93A30051D33FE7ABE4637781EF3F543BC3D4963AD13FBCB376DB8566EB3F67EE21E17B7FCB3F3F55850662D9D63F3337DF88EE59E43F527E52EDD371E93FAB251DE56036E23F9ED2C1FA3F87A93FC993A46B26DFCA3FA1BAB9F8DB9EB83F7C9E3F6D5427E73FAEBB79AA436ED83F8EE6C8CA2F83D93FA79201A08A1BEF3F789ACC785BE9D83FE5D18DB0A808E23F3485CE6BEC12B53F41800C1D3B28E13F99F1B6D26BB3B93FB5A50EF27A30C93FDE04DF347D76DC3FC51C041DADEAED3FA1496249B9FBC63F1FA0FB7266BBEF3F787E5182FE429F3F3EEB1A2D077AD03FE3A430EF71A6D23F548CF337A190EB3F8D9C853DED70E53FCEAACFD5566CE03F44A2D0B2EE9FED3FBF982D591561EA3F312592E86514E43F47E6913F1878E53F601DC70F95C6E73FEF59D7683950ED3FAD4D637B2DE8D13F7901F6D1A92BE43FA9177C9A9317EB3F9F008A912573EC3FF2B6D26BB3B1E33FC3F5285C8FC2B13FB43D7AC37DE4E43F000341800C1DE53F4C18CDCAF621C33F406A1327F73BDD3F1AF9BCE2A947DB3F6CE9D1544F66E63FA7406667D13BCB3F751E15FF7744E23F80289831056BD03F33A31F0DA7CCDD3FA7203F1BB9EEE03FF41ABB44F556EE3FF73B1405FA44D93F30A182C30BA2E23F3F58C6866EF6B73FCE1951DA1B7CE13F1A4D2EC6C03AC43FEA043411363C8D3F2C6684B70721E93FD926158DB53FE63FB76114048F6FE13FA2F0D93A38D8EA3F21AF0793E2E3EC3F020F0C207C28DA3FF7764B72C0AEEA3FABEAE5779ACCC03F44BE4BA94BC6D43FBDAC8905BE22E53F94C0E61C3C13B63F80B6D5AC333EEA3F5A12A0A696ADD13F5C1C959BA8A5993FB37DC85BAEFEE13F700A2B155454B93F8D0B0742B200EB3F766D6FB72487E13F81B229577897BF3F992B836A8313C33F2CBCCB457C27D23FC66B5ED559ADE63FD234289A07B0C23F153944DC9CCAE53F82E7DEC325C7CB3FD7C3978922A4D73F800F5EBBB4E1E13FC6A695422017E73FC504357C0BEBE63F14CC988235CED03F42D13C80457ED03FA5A31CCC26C0D23FDAC69FA86CD8E93FE4A08499B6FFE23FCFF8BEB854A5D73F62F9F36DC1D2E13F9B70AFCC5B755D3F66A19DD32CD0C43FC689AF7614E7C03F637D03931B45D13FBDE3141DC9E5EB3FEC33677DCAB1E83F1B81785DBF60EB3FFE0DDAAB8F07E53F6B7D91D09673DB3F1C5C3AE63C63D83F1EA67D737FF5E53FCC7C073F7100DE3F12A27C410B09C03FB01F62838593EC3F742843554CA5BB3F158C4AEA0434DF3F0B08AD872F93E03FFACF9A1F7FE9E23F3A3FC571E055E43FD40D1478271FE13FB5A84F72874D943FD106600322C4E33FA9C0C9367007CA3F2A52616C21C8E73F1233FB3C46F9E13F465D6BEF53D5ED3F06D7DCD1FFF2EA3F9DB98784EFFDD23F66A032FE7DC6DE3FC4793881E9B4CE3F35EF38454772BD3FA96C58535914CE3F92AD2EA704C4EB3FE4D70FB1C1C2E33F09C03FA54A94DD3F804754A86E2ED23F18CC5F2173E5E23F8E1F2A8D98D9EA3FD5CF9B8A5498ED3F0742B28009DCEB3F65FCFB8C0B07EC3F7364E597C198E73FA0336953758FC43F6CCCEB884336703FDCD9571EA427E73FA8A78FC01FFEE03F37363B527DE7A73F679E5C5320B3EA3F2367614F3BFCE53F9EB64604E3E0E83FDE72F56393FCA83FE0641BB80375D63F821C9430D376E83FF96871C63027E13FDAC69FA86CD8E83F817A336ABE4ADD3FE621533E04D5EC3F1E6FF25B74B2843F268E3C1059A4E33F4F3BFC3559A39E3FFEB627486CF7EE3F579412825575E53F543882548A1DEA3FBE66B96C74CECD3FDBDFD91EBDE1D83F1BD7BFEB3367DE3F751E15FF7744E93FDFC2BAF1EEC8E53FBB29E5B5123AE03F8995D1C8E715CB3F12F8C3CF7F0FDA3F0740DCD5ABC8E83F59FB3BDBA337D23F126C5CFFAECF7C3F95EF1989D008E23F938FDD054A0AD53FFC1BB4571F0F9D3FDD43C2F7FE06DB3F4C6BD3D85E0BCA3FE42EC214E5D2C43F28F1B913EC3FEA3FB212F3ACA415E83F618C48145AD6DC3F0F27309DD66DC43FCEA623809BC5E03FE4A25A441493E23FA1F48590F3FE8F3F7C2B1213D4F0DD3F020CCB9F6F0BB63F65A71FD4450AE03FBF9D44847F11D63F498446B0717DE53F5F99B7EA3A54DF3F0341800C1D3BA03FAF0B3F389F3AEE3FD13FC1C58A1AD43FAF3F89CF9D60EE3F8A929048DBF8DD3FB3CD8DE909CBE73F92B3B0A71DFE6A3F5E81E84999D4E03F57410C74ED0BC23FC18F6AD8EF89D43FAC1C5A643B5FEB3F0A2DEBFEB190ED3F3468E89FE0E2EC3F938FDD054A8AE83FFA97A432C59CED3FCCD1E3F736FDD73F740AF2B391EBE83FC8EBC1A4F878E73F9888B7CEBF5D863FA2F0D93A3858EF3F992D5915E1A6EF3F2F87DD770C8FC33F3CF71E2E396EEF3FA0FCDD3B6A4CD43F9F724C16F79FE73FD61D8B6D52D1C63FEB909BE1067CEB3F0CC85EEFFEF8E63FC2BD326FD5F5EF3F7C629D2ADF33DC3FF702B34291EEEC3F95F25A09DD25DE3FCCB56801DA56D63F4390831266DAD03FB6BC72BD6DA6E23F48E00F3FFF3DB43F494A7A185A9DE63F506F46CD57C9D73F5001309E4143C33F7FF8F9EFC1EBE43F6806F1811DFFB93F72A59E05A1BCED3F51A04FE449D2DD3F5A828C800A47D03F2A8D98D9E7B1E33FF19E03CB1132E73F8F52094FE875EE3F5A7EE02A4F20C63F9B7631CD74AFC53FB98D06F01648DC3FF566D47C957CAC3F3412A1116C5CED3F0FF0A485CB2ADE3F7C7DAD4B8DD0D53F596B28B51751E43F4AD3A0681E40ED3FC092AB58FCA6E33F6519E2581737E63F8BC6DADFD91EEE3F292499D53B5CE43FA0C552245F09D53F06BEA25BAFE9D23FFB57569A9482CE3F63EDEF6C8F5EEF3F9A5B21ACC612763FD78A36C7B9CDEE3F99F4F75278D0EC3FB1E1E995B20CA13F5C21ACC612D6963F20B58993FB1DE93FA663CE33F625EB3F4D874ECFBBB1D43F93C49272F739E73FC1012D5DC136D63FC042E6CAA0DAE63F6493FC885FB1D13FF6083543AAA8E93F0E15E3FC4D28E83F9626A5A0DBCBEA3F03CFBD874B0EEE3F38BA4A77D7D9C83FBF7D1D386744E33F4A5D328E91ECCF3F4B02D4D4B2B5E83F1442075DC221E33F2463B5F97FD5D33FD461855B3E92D53F77F69507E929ED3FC05FCC96AC0AEF3F7B14AE47E17ADE3FA67D737FF5B8CD3F4E0E9F7422C1AC3F575A46EA3D95C13F2A1C412AC50EE43F000000000080EC3FFFB27BF2B050D53FB8205B96AFCBDD3F463F1A4E999BBB3F43E1B3757030E43FCADDE7F86871D33FF5A276BF0A70E73FB5DFDA899210ED3FEE2422FC8BA0EF3FA0336953758FD63FD673D2FBC6D7DB3FECC1A4F8F884ED3F855D143DF0B1EF3F916456EF703BE63F83A3E4D53906C23F0CC85EEFFE78E23FBA68C878944AB83F11A8FE4124C3E23FCB660E492D14EF3F12178046E9D2CB3FA0FCDD3B6ACCEA3F3FFD67CD8FBFD53FF5D555815A8CE23F8CDCD3D51D8BC13F94A0BFD023C6E83FAEBA0ED59464DE3FBADC60A8C30A873FD25625917D10E23FA912656F29E7D03FEB01F390291FE43F670DDE57E542D03FE89FE062450DDD3F6F2A52616C21A03FEA961DE21FB6B03F43AA285E656DEE3F111C97715303E33F1555BFD2F9F0EE3F0C3A2174D025DB3FA6D3BA0D6A3FED3FDD94F25A09DDDD3FF778211D1EC2CE3F4C88B9A46ABBEE3F93020B60CAC0B13F85B1852007A5E33FD27135B22B2DDF3F4640852348A5DC3F5A9BC6F65AD0D43F9E7939ECBE63ED3FF94A2025766DD63F309E4143FF04E13FAE282504ABEAD13F37FC6EBA6587DA3F4DF6CFD38041E13FABCC94D6DF92ED3FA794D74AE8AEEF3F151C5E10919AEC3F0B613596B0B6E83FF2E9B12D03CEBA3F7F68E6C93585E73F4EED0C535B6AE13FB9FB1C1F2D4EE83F4B917C259012A33F800F5EBBB4E1DB3F618BDD3EAB4CEE3F4FE5B4A7E49CE53FB98C9B1A683EBF3F14950D6B2A8BDE3F8C4AEA043411C83F55F833BC5983973FBB5F05F86EF3EF3FB685E7A56263CA3F55A016838769C13F59C4B0C39874E03F2670EB6E9EEA803F9F3E027FF8F9C13FB4E386DF4DB7E53FC364AA605452DC3FB7291E17D522C43F5A68E7340BB4D23F7BA35698BED7B43FD8101C9771D3E33FA5F622DA8E29E03FC64E78094EFDE23FEE26F8A6E9B3D73FAC74779D0DF9DD3F1A8BA6B39341EE3F6211C30E63D2C73F2B8881AE7D01CD3F39B69E211CB3E03F037976F9D607EF3FA16AF46A80D2B43FB5A4A31CCC26E43F82902C6002B7DA3F35EECD6F98E8E43F325706D50627CE3FF6B4C35F9335CC3F747ADE8D0585C93FE44C13B69F8CC73FE659492BBEA1DF3F2FA699EE7552D23F0553CDACA580BC3F5245F12A6B9BE73F834F73F22293E93F69C36169E047E23F21787C7BD720E43FE6EAC726F911EE3F4014CC988235C83F65ABCB290131ED3F59130B7C45B7C83FAD6C1FF296AB8F3F8716D9CEF753E93F055262D7F676EB3F71766B990CC7DF3F2C616D8C9DF0DB3F2CD7DB662A44E63FC51EDAC70A7EB33F66F84F3750E0DF3F535E2BA1BBA4E53F2EAA45443179EA3F8FFB56EBC465E43FF65E7CD11E2FD63F5C7347FFCBB5E33F545227A08930EB3F83DA6FED44C9ED3F6FF1F09E03CBD73F8E78B29B19FDD93F0ADAE4F04927AA3F08228B34F18EEC3F1137A79201A0B23F4D31074147ABB23F56EF703B342CED3F5C57CC086F0FE43F8DCF64FF3C0DED3F6C5CFFAECF9CC13F3C4D66BCADF4EF3F2C8194D8B5BDD43FE29178793AD7E03F46274BADF71BD43F2EC896E5EBB2E73F9016670C7382D93FB3EC4960730EE93F7FDC7EF964C5A83F75AF93FAB2B4DE3F5CC823B891B2AD3F3BAB05F69848C13FCB4752D2C3D0DF3FEDD808C4EBFAB93F22E17B7F83F6C63F5AB741EDB7F6E53F5EBD8A8C0E48EC3FC8ED974F560CEE3F8DEE2076A650ED3FC18BBE823463DB3F3C1405FA441EEB3FA7E67283A10ED63F39268BFB8F4CDF3F4A07EBFF1C66E43FE4654D2CF095E93F4BAB21718FA5D53F319A95ED435EEC3F8446B071FD3BE93F92054CE0D6DDD53F14D044D8F074E53F774EB340BBC3E43F153AAFB14B54BB3F83C2A04CA3C9E73FD89AADBCE4FFEC3FDA1CE736E15EED3F17D7F84CF6CFB73FDB3521AD31E8E93F86AC6EF59CF4EE3FD4B5F63E5585D93F34B91803EBB8E23F4B3CA06CCA15C63F1D386744696FD33F195586713708E63FC0046EDDCD539D3FE6CB0BB08FCEE43F00C8091346B3D63FACAA97DF6932DC3F5EF1D4230DEEEB3FBAF94674CFBAD63F09C1AA7AF99DD23FC823B891B2C5E23FD2E3F736FDD9DB3F55698B6B7C26B33F569FABADD8DFEA3F5DFA97A432C5B83FC72FBC92E4B9CC3F7C0E2C47C840BE3F1893FE5E0A8FEB3F2E3C2F151BF3E53FCFBBB1A03028D23F75C93846B247B83FE19524CFF57DD23F90C18A53AD85CD3F49D74CBED9E6B63F310BED9C6681BE3FC80C54C6BFCF983F01DE02098A1FD73F613255302AA9833F3B8DB454DE8EC63FBAA1293BFD20E03FEEB25F77BA73EF3FD82B2CB81FF0E33FA1BB24CE8AA8C53F8F6D19709692EA3F9B3924B55032C93F84B872F6CEE8E53F317898F6CDFDE03F83DE1B430070E93FDA3A38D89B18CA3FA14CA3C9C518C83F2234828DEBDFE63F863C821B295BCE3F0B9C6C0377A0DB3FA180ED60C4BEE03FD7DD3CD52137933FA7CB6262F371E03FD1CE691668F7E03FEC8497E0D407D83F5ED5592DB047E03F844A5CC7B8E2D13F3BAC70CB4752AA3F59BE2EC37FBAD63FF06B2409C215BC3FBF0E9C33A234ED3F0B24287E8C39EB3F87DBA16131EAE03F31276893C327D03F08E6E8F17B9BAE3F97C79A9141EED43FA016838769DFDF3F88D68A36C7B9D23F01DA56B3CEF88E3F43C9E4D4CE30D03FA051BAF42FC9E83F28806264C99CE23F59C16F438CD7C63F6631B1F9B836E83F5AD427B9C326DB3FA12B11A8FE41EB3FA69D9ACB0D86DB3FA20BEA5BE674E03FBE141E34BBEEC73FB477465B9544D93FB796C9703C9FCB3FF5673F524406E13F5CAAD216D7F8AC3F5839B4C876BED43FC64FE3DEFC06EE3FB91B446B451BEE3FCC441152B7B3D33FA56B26DF6C73E13F11FFB0A54753E03F6094A0BFD0A3E43F5BD07B630800AE3FCAFB389A23ABE13F60E63BF88903E43FCF656A12BCA1EE3FC685032159C0B03FFEB8FDF2C98AD13FF5824F73F222333F4CA7751BD4FEE43FC9AB730CC85ECF3FCBF6216FB97AE13F24B6BB07E83EE73F3D0AD7A3703DEF3FB95510035D7BE33F45813E912749E33FEF737CB43863EC3F8CD7BCAAB35AE13FBDE3141DC9E5BF3FD41055F833BCD73FBEBED6A546E8CF3FF226BF4527CBEA3F2638F581E49DE73F8AE8D7D64FFFB13FCD0182397A7CE43FA9C29FE1CD1AC23F462575029A087B3F6803B00111E2DC3F45B9347EE195CA3F91ED7C3F355EBE3F6A4B1DE4F560EF3F94A300513063D43FE141B3EBDE8AD43F5DDC4603780BD13F98A432C51C04D13FB53522180797D33F3E0801F9122AEF3F4E9CDCEF5014CA3F16342DB1321AEF3FA2EE0390DA44EC3F4AF1F109D979E03F802A6EDC627EDF3F3A78263449ACE83F2B89EC832C8BEE3F47E7FC14C781D23F1C06F357C8DCE03FE7FD7F9C30E1E63FA8E0F08288D4D33F1618B2BAD573E83F1B4641F0F876E53F3201BF469220E63F77A04E7974A3E73F212235ED629ADE3F412E71E48148ED3F3561FBC9181FCA3F36CB65A3737EE23FC5E3A25A4414DB3FD07CCEDDAE97C83FAA2D7590D783B93F2E8F352383DCE83F856055BDFCCEE83FB7291E17D5A2E83FF08B4B55DAE2D03F815EB87361A4673FD4D688601C5CDB3F38876BB587BDA03F2CD670917BBAD03F5F0839EFFFE3DE3FECDD1FEF552BBF3F919A7631CDF4EF3F72874D64E682E13FB859BC5818A2E23F5C02F04FA912E43FC80C54C6BFCFE43F340EF5BBB035EF3FB4AB90F293EAED3FD07CCEDDAE97EE3F4CE3175E4972E33F9B5AB6D61709A53F7506465ED644E53F438CD7BCAAB3BA3F569A94826EAFE53FB340BB438A01E13FF71F990E9D9ECD3FAA60545227A0B53FE4C0ABE5CE4CE13F95B54DF1B828EF3FEE5A423EE8D9E43F137CD3F4D981E63F19AF795567B5D03F7D03931B4556EF3FC24CDBBFB2D2DD3F7D7A6CCB80B3A43F95D6DF12807FBE3FF31B261AA4E0D83FCDC98B4CC02FEA3FD6E594809884E63F28D714C8ECACEA3FBE67244223D8E83FA6423C122F4FC33FE833A0DE8C9AEF3F1A31B3CF6394D63F25ADF886C2E7E33FB7973446EBA8DB3FD5B48B69A67BEC3F80F3E2C457BBE53F3ACB2C42B115D33F74999A046F48CF3F1CB3EC496073D43F7EE4D6A4DB12D13F76C4211B4817E53FA1F65B3B5112C03F48A7AE7C96E7CB3FF224E99AC937D23F467A51BB5F05DA3F193735D07CCED63F6002B7EEE6A9DB3FB85B92037635DC3F8EACFC321823DC3FE259828C800ADB3F8D0A9C6C0377EB3F6A85E97B0DC1D33F4FADBEBA2A50E63F08AEF204C24ED53F8602B683117BE43F9224085740A1DC3FCAFB389A232BDC3FB477465B9544C23FCC086F0F42C0E73F2F8507CDAE7BA33FDC0E0D8B51D7E53F9929ADBF2500D43F4E6210583934E63F7216F6B4C35F733FA20DC0064408E23F85285FD04202D33F787E5182FE42BF3FDCF5D214014EAF3FCD599F724C16CD3FF243A511337BEB3F1764CBF27519EB3F159161156F64A63FE48409A35959EF3F67D13B1570CFD33F9548A297512CA73F1D59F9653046E33FFDDCD0949D7EEC3FF624B03907CFDD3F5B99F04BFDBCD63F4069A8514832CD3F785E2A36E675DA3F8693347F4C6BCD3F35289A07B0C8D03F0A4AD1CABDC0E33F4C16F71F998EEC3F9C887E6DFD74EB3F72DEFFC70913DD3FD04719710168BC3F0B9755D80C70E03F58FFE7305F5EC83F070951BEA005E33F7C478D093197943FD7187442E8A0BB3F7E39B35DA10FE53F8B321B649211E03FD2A755F48766C03F91D3D7F335CBD73F894160E5D0A2E23FD9CEF753E3A5D63FCF6740BD1935EF3F18601F9DBA72E93F49DBF813950DEF3F226C787AA5ACE63F842D76FBAC32E93FBB99D18F86D3EC3F20B8CA13083BD53FE5B8533A58FFDE3FD1798D5DA27AEE3FDD09F65FE7A6C13F200BD1217024E13F98DC28B2D650BE3F7898F6CDFDD5E13F7B6649809A5AEF3FEFC9C342AD69B63F191F662FDBCEE93F9A07B0C8AF9FE63FF418E59997C3CE3FE7A6CD380D51EC3FDA1F28B7EDFBEA3FFB3BDBA337DCE03FB1E07EC00303EA3F4A42226DE34FC03F2104E44BA860E63F629D2ADF3392ED3FA73E90BC73A8E03F3145B9347EE1CF3F2DEDD45C6EB0E73F9C6F44F7ACEBEB3F1D01DC2C5E2CE43F8E075BECF6D9E93FCA6ABA9EE8BAD13FA60BB1FA230CE33FCC61F71DC363DA3F280F0BB5A6F9E53F5BED612F14B0D93F7E6FD39FFD48CB3FFBE8D495CFF2E03F2AAC545051F5C33FF9D7F2CAF5B6B93FEBABAB02B598EA3F6F2F698CD6D1E53F967A1684F2BEE93F6C5F402FDCB9DB3F86014BAE6271E73F645B069CA564D93F8C4B55DAE29AE73F338B506C054D9B3F3BC5AA4198DBDD3F69C36169E047EC3F40A033695375E53FD1EAE40CC51DE93F5C59A2B3CC22A43F77BD344580D3D53F47ACC5A70018C33F95EF1989D008EC3F761BD47E6BA7E23F1764CBF27519D23F3F1C2444F902E83F8D98D9E731CA933F77499C155193E63FBD3AC780ECF5DC3F3A048E041A6CC23F6C921FF12B56E13FF4FA93F8DC09E23FE8D84125AEE3E53FE7A6CD380D51E53F53060E68E90AEC3F56F487669E5CD03F7CED9925016ABE3F177E703E75ACEC3FA4349BC76130DB3F2F505260014CE83F13BA4BE2AC88DC3F388600E0D8B3D83FD68BA19C6857B93FEB1B98DC2832EB3FACAA97DF69B2E03F868F88299144E73F94C2BCC79926CC3F601DC70F9546E73F0CAD4ECE505CE53F66D993C0E61CC03F98C28366D7BD653F6F62484E266EDD3FB6BE4868CBB9E83F5A80B6D5ACB3ED3FAF415F7AFB73E93FCB660E492D14EF3FA9BEF38B12F4C33F54ABAFAE0AD4E53FE36BCF2C0950A33F0803CFBD87CBEB3F7575C7629B54C03FD55E44DB3175C33F66BFEE74E789ED3F0EF3E505D847DC3F9F02603C8386C83F1C7BF65CA626E53F19C748F608B5EC3FBC02D19332A9ED3F7F68E6C93505D83F9EB30584D643E83F96253ACB2C42B13F5723BBD23252D33F2E39EE940ED6EC3F7A354069A851B03F53CDACA580B4B33FDD3F16A24360E03F0053060E68E9D23F58E1968FA4A4E63FB4E73235095EED3FE2C80391459AC03FADA6EB89AE0BEC3FEFE6A90EB999EF3F2B4F20EC14ABE73FE84F1BD5E940A63FD2FC31AD4D63CF3F3F726BD26D89E83FAED3484BE5EDEB3F352A70B20DDCD53F90D8EE1EA0FBCA3F9430D3F6AFACE83FF0C16B97361CEF3FDD5B9198A086E33F640454388254DB3F1EA7E8482E7FE93FEA9788B7CE3FE73F1C261AA4E0A9E33F3BFBCA83F494ED3F90A1630795B8D53F7EFCA5457D92DC3FB6A0F7C61000EB3FD49B51F35572EA3F2FC37FBA8102C13F9241EE224C51EB3F11AB3FC230E0EE3FAE2EA704C424D73FC8B7770DFAD2D93F2A52616C2148E03F6B82A8FB0024E33FBE874B8E3BA5D73F11C7BAB88D06CE3F8D98D9E731CAD73FC16F438CD7BCEA3F71917BBABAE3E83F5D15A8C5E061DC3F18CFA0A17F02E73F6E895C70067FCB3F1CB5C2F4BD86E53F74999A046F48DC3FFBB0DEA815A6E43F4583143C855CD03F20EC14AB0661B23F8BA4DDE8633EDD3FF816D68D77C7E23FF44D9A0645F3D53F24F1F274AE28CD3F23F8DF4A766CC83F2976340EF53BE33FE56036018665E33F700B96EA025ED63F2CD8463CD9CDDD3FB54E5C8E5720DF3F5053CBD6FAA2E63F899AE8F351C6EC3FBD395CAB3DECD63F29081EDFDE35B83FA81ABD1AA034E93F51F4C0C760C5B93F085740A19E3ED63FD89FC4E74EB0CF3F2FA704C424DCEB3F84BBB376DB85D63F43C5387F138AE23FFB3BDBA337DCC33F5B9A5B21ACC6D63FBBD573D2FBC6E83FF6B2EDB43522EE3FCCF10A444FCABC3F2E76FBAC3253C43F84D558C2DA18B73FCA880B40A3F4E73F9BE271512DA2EB3FDA54DD239BABEF3FCFF6E80DF791DE3F9D6340F67AF7BF3FDF347D76C075EC3F1AFB928D075BD73F42EC4CA1F31AE73F62BA10AB3F42EB3FA88B14CAC2D7E83FA9F57EA31DB7E73FD7F6764B72C0D93F7769C36169E0EC3F34F6251B0FB6E33F240F44166962EF3FCBF27519FE53E53F3CF4DDAD2CD1D93F228E75711B0DED3F732CEFAA07CCDE3F2750C422869DE23F14984EEB3628E33F2B4F20EC14ABB23F67614F3BFC35D23FEA758BC058DFE43FF60A0BEE073CE53F87FC3383F840E03F5F7B6649809ACA3F53E8BCC62ED1EA3FFC51D4997B48EB3FC6C37B0E2CC7EF3F05FA449E245DD23F494BE5ED08A7EB3F212235ED629AE43F13656F29E78BDF3FFC1873D712F2C13FC77F81204086AE3FB6F3FDD47869E63FB056ED9A9056E83F2FA2ED98BAABE03F226DE34F5436C03FFF209221C7D6ED3FA1496249B9FBD63F9885764EB340D23FCE33F6251B0FC63FB8EA3A545392C33FAC55BB26A435CE3F8658FD118601E83F268A90BA9D7DE43F9C16BCE82B48E63F971C774A07EBDB3FB37A87DBA161EF3FD36C1E87C17CEE3F2766BD18CA89E13FAD6EF59CF4BEE43F3BA6EECA2E18DE3F46CEC29E76F8AB3F6DE525FF93BFD03FC25087156EF9E23FD89E5912A0A6D53F806264C91C4BE03FE86B96CB46E7C83F92CEC0C8CB9AE23FD61A4AED4534E83FF9C08EFF0241CC3F7A50508A566EEA3F4583143C85DCED3F3AC956975302C63F919BE1067C7ED03F191C25AFCE31E43F10CCD1E3F7B6E83F4301DBC1887DC43FE6CC76853ED8E43FE257ACE122F7C83F4913EF004F5AD63F98A3C7EF6DFAE53F0FEF39B01C21D63F6CCCEB884336CE3F861DC6A4BF97A23F6D003620425CD93F47E6913F1878B23FA8514832AB77D03FF6622827DAD5E63F68B0A9F3A8F8BB3F603FC4060BA7E53F3276C24B70EAE03F59BE2EC37F3AE43F581CCEFC6A0ED93F0C1EA67D737FE03F7F17B6662B2FC73F58923CD7F7E1CA3F5B9544F64196EE3F170E84640193ED3F13D4F02DAC1BD03F80D250A390E4E93F62D9CC21A985923F8FFAEB1516DCEC3F8F334DD87E32EA3FAC3AAB05F698EE3F1893FE5E0A0FDA3F10786000E1C3ED3F8A027D224F12E13F75AC527AA697B43F1DCC26C0B0FCA13F15527E52EDD3E93F931D1B81785DD73F1E6CB1DB6715EC3F28486C770FD0CD3F37FB03E5B67DE23FB58AFED0CC93D43FF5673F524486E83F632992AF0452E83FE773EE76BD34C33FC381902C6002ED3F15E0BBCD1B27DF3FC460FE0A992BD53F9961A3ACDF4CD93F6A1327F73B14EE3FD427B9C32632EF3FCE18E6046DF2E73FC1A8A44E4093E83F997E8978EBFCDA3FDC9C4A06802AA63F7E8AE3C0ABE5EE3FA31F0DA7CCCDE63F6BD5AE09690DEE3F1C28F04E3E3DE93F0AA359D93E64EE3F3AAE4676A565E53FFC1D8A027DA2ED3FFBE8D495CFF2DE3FDC679599D2FADA3F3080F0A1444BD33F079B3A8F8AFFEA3F116E32AA0CE3BA3F8A93FB1D8A02EA3F132A38BC2022D53F8927BB99D18FA63F5798BED7101CD43F3D81B053AC1AC63F0A698D412784D73F0C040132746CED3F43CBBA7F2CC4E63F9ECE15A58460C33F107A36AB3ED7E83F139D6516A1D8D13FB85CFDD8243FA23F7D5EF1D4238DE33F88D860E1244DE93F0CB08F4E5DF9B43F47567E198C11CB3F5C1C959BA8A5E83F4436902E362DE23FA62A6D718DCFB43FF33E8EE6C8CAC73FD3A414747B49E93F59880E812301E63F12312592E865E73FBB0A293FA9F6DA3F64CDC8207711EF3F1FA2D11DC4CED53FB28174B169A5BC3F658C0FB397EDE33F9C50888043A8CC3FBDA772DA5372DB3F9C19FD683865C63F8E59F624B039BB3FD82AC1E270E6DA3FBB2539605713EA3F0057B2632310E83F309B00C3F2E78B3FFE0FB056ED9ADE3FB2DAFCBFEAC8613F481971016894BA3FF5BD86E0B88C9B3FC7D8092FC129E03F49F4328AE596C23F6DE7FBA9F152E13F658C0FB3976DC53FAEB7CD5488C7EA3F7CEF6FD05E7DC63F543882548A1DDB3F02F4FBFECD8BE83F861DC6A4BF97EF3F2FFA0AD28C45D83FDDEA39E97DE3D33F3BE5D18DB028E03FBB9BA73AE4E6E33FDA0418963F5FE03F82C98D226B0DEE3F37DF88EE59D7C63F732B84D558C2CE3F645C717154EEEE3FD8BAD408FD4C8D3F9D84D217424EEB3FF1D4230D6E6BAB3FF30181CEA44DE73FDBC35E28603BDA3F8A213999B855603F187959130B7CE23FCE50DCF126BFEA3FA0FD48111956E63F9CE1067C7E18C73F6F47382D7851EF3F386744696FF0C53FE9D66B7A5050D13F7B67B45549649F3F05C24EB16A90EF3FAE6186C61341DE3FFD6CE4BA29E5D53FDB32E02C254BE13FB9C7D2872E28EB3F48A819524571EC3FB0C56E9F5566C83F95287B4B395FDB3FFF0758AB764DBC3FB79A75C6F7C5C93F43588D25AC8DDC3FE010AAD4EC81863FA33D5E488707EF3F008BFCFA2136C03F9C6D6E4C4F58E93F49D9226937FA883FABED26F8A669EF3FE2E5E95C514AD53F5C7347FFCBB5E33F431EC18D942DD63FC85BAE7E6C12E73F6571FF91E9D0B53F9702D2FE0758BF3F261AA4E029E4E33FC1A739799109D83F1F2E39EE940EEC3F821B295B24EDDD3F431D56B8E523ED3F202922C32A5EE13F4D66BCADF45AE73F613596B036C6E83FD3F4D901D715D23F6B4AB20E47D7EE3F4F5B238271F0E83F4FAE2990D959E23F349E08E23C9CD23FFA298E03AF96CB3F365CE49EAEEEA83FAB949EE925C6B63FADDD76A1B94ED73F35D4282499D5C13F04E78C28ED0DE33FD2AB014A430DE63F4DD87E32C687E73FF5673F524406E93F92B1DAFCBFEADB3FC6FCDCD0949DC63FDC10E335AF6AE03FA13193A817FCE83FD656EC2FBBA7EA3FE675C4211B48E53FBB5F05F86EF3C23F57D0B4C4CAE8E13F514EB4AB90F2DB3F89601C5C3AE6E13F1BD82AC1E2F0E83F4D874ECFBBB1D43F58E36C3A02B8E13FBEBED6A546E8EE3FDE7360394206E83FF14A92E7FABEE13FDD990986730DCF3F782975C93846B63F19A9F7544E7BEB3FB83CD68C0C72EF3F1B0DE02D90A0DD3F8753E6E61BD1EF3FC2C2499A3FA6BD3F43E1B37570B0D03FA165DD3F16A2D13F5D6E30D46185D63F0E677E350708C43F5B94D920930CE43FCE001764CBF2E43FA27E17B6662BE23F215A2BDA1CE7EF3F08E9297288B8B53F93C83EC8B260C63FA6B8AAECBBA2E83F41446ADAC534833FB2D7BB3FDE2BE63F6A300DC347C4E23F79CDAB3AAB05DE3F54ABAFAE0AD4D23F15CAC2D7D7BACA3FCD3D247CEF6FD83F910DA48B4D2BC53F397F130A1170E53F5E0EBBEF181ED33F1BD65416855DBC3F57B3CEF8BEB8AC3F59DC7F643A74DD3FCF15A5846055EC3FCBF27519FED3E83F21AD31E884D0D03FFF092E56D4607A3F18963FDF162CE03F1421753BFB4AEA3F03EE79FEB451EF3F6CEBA7FFACF9D23F25B20FB22C98A83F4E098849B890B73FFACF9A1F7FE9E53F8D08C6C1A563E23F616C21C84109D63F83DDB06D51E6E53FE7012CF2EB87BC3F711B0DE02D10E23F2E7590D78349CB3FFED137691A14AD3F99F221A81ABDCE3F6A12BC218D0ADE3FB18BA2073E06E83F121615713A49EC3FE146CA16493BE23F3B8A73D4D171D73F855B3E92921EEC3F202A8D98D967E13F27C0B0FCF9B6D43F3ACAC16C028CE13F03E962D34A21DF3F7AE2395B40E8E83F2635B401D880E63F5393E00D6954D83F5CC823B891B2EF3F8D4468041BD7EB3F8AE76C01A1F5E43F99F38C7DC9C6E43F3F390A100533EF3FD5CA845FEA67E53F1FF30181CEA4CB3F5A65A6B4FE96D03F39B4C876BE1FE73F5E9ECE15A584EB3FC5E6E3DA5031CA3FE71BD13DEB1ADA3FB3EDB4352218C13FC6A2E9EC6470E03F16A6EF3504C7AD3F85B01A4B581BC33FE23E726BD26DD23FFF3C0D18247DDC3FAD8905BEA25BD73F261DE5603601963FDBF97E6ABC74BF3FDEB06D516683D33F62F888981249C83FC2C3B46FEEAFE03F69705B5B785EDD3F90A0F831E6AED13F8ACBF10A444FAA3F637AC2120F287B3F8C2B2E8ECACDEA3F226FB9FAB149C43FE99C9FE23870E83F37E33444157EE63F08AA46AF0628E53F0796236420CFD63FD508FD4CBD6ED53FB477465B9544D23F512FF83427AFEE3F79793A579412E23F72C0AE264F59DF3F3BC43F6CE9D1C83F601E32E54350C53F2026E1421EC1E33F90C01F7EFEFBE63F147AFD497CEEB83F414AECDADE6EE03FB5A50EF27A30D13F65E256410C74B53F6F29E78BBD17E23F179D2CB5DE6FD63FC9AA083719D5E13F7217618A72E9EA3FD05FE811A3E7E63FDD442DCDAD10DF3F6760E4654DACE03FC3D842908312E83FB0C6D97404F0ED3FF10F5B7A34D5D73F725298F738D3DA3FB62FA017EE5CEC3FFE2C9622F9CAE63F42EE224C512E9D3F43C5387F130AED3FC30C8D2782B8EE3FF6285C8FC2F5DF3FABCE6A813DA6E53F71917BBABAE3E33F6E3480B74002EB3FCD203EB0E33FE53F8BFCFA213658CA3FFEF2C98AE1EAD63F8CF337A11001E33F9B1C3EE94402E33F47753A90F5D4B63F360186E5CFB7E13F4FE8F527F1B9DA3F5E6397A8DE1ACA3F6092CA147310B83FAA0A0DC4B299EC3FD0D6C1C1DEC4C43F1215AA9B8B3FEB3F96AFCBF09F6EE93FE7C6F484259EEA3F308331225168B53FDE3D40F7E5CCEC3F92E7FA3E1CA4E63F56F146E6913F283F9B046F48A382E63F97E4805D4D1EE63F9ED0EB4FE273BF3F1822A7AFE7EBE43FE2E654320054E33FE7E104A6D3BADE3F17D4B7CCE9B2D03F9DD66D50FB2DE83FAD4D637B2DE8E23F28B517D1764CDF3F116F9D7FBBECC73F05A568E55EE0EB3FD788601C5C3AC83F42CC2555DBCDE53F6D8E739B70AFDD3F85ED27637C98ED3FD029C8CF46AEE03FA7CF0EB8AE18E73FDF5339ED2939DE3F8C852172FA7ABA3F9BC8CC052E8FDB3F058C2E6F0E57E33FD07EA4880C2BE73FB3B6291E1755E03F6682E15CC30CDB3F236AA2CF4799EA3F06651A4D2E46E73FB54FC763062AEF3FED48F59D5F94E23F3A5D16139B8FDB3FC30E63D2DF4BC33F9A7CB3CD8D69ED3F732D5A80B6D5E63F9D9B36E33444EE3F76543541D47DE53FC3EFA65B7688DA3FF5F23B4D66BCAD3F9FE925C6327DEC3F09C21550A827E73F2CBCCB457C27C23F20ED7F80B5EAE23F49658A39083ADE3F29B2D6506A2FC43F8CBCAC8905BED23F54FD4AE7C333EB3F29CB10C7BAB8AD3F3A5AD5928E72BC3F97749483D984EC3F399A232BBF0CD03F033E3F8C101EDB3FEF1CCA501553DD3F3EB48F15FCB6E83F3674B33F506ECB3FC3BCC799266CCD3F31242713B70AE03FE8BF07AF5D5AEB3F6F83DA6FEDC4E23F5CACA8C1340CE83FB9347EE19524E43FCDCCCCCCCCCCDD3F97E13FDD4081CF3FE8BD310400C7E43F81CCCEA277AAE63F431F2C634337B73F88DA368C82E0913F52616C21C8C1EA3F85D21742CEFBE73F053411363C3DE73FF94ECC7A3114E93FD882DE1B4380E23F69368FC360FEDA3F1E6D1CB1169FC23F8C683BA6EECADD3F71917BBABAE3E83F040473F4F8BDEE3FE6E8F17B9BFED13F118AADA06989EF3F8C868C47A984B73F560E2DB29DEFB33F4BE658DE558FEE3F8E041A6CEA3CD13FC1E5B1666490DD3F9C525E2BA1BBDC3F7BF486FBC82DE73F8DD31055F833E83F2AABE97AA26BEC3F7E1CCD91955FE23FF838D384ED27CF3F577BD80B05ECEC3FD89FC4E74EB0EC3F09E1D1C6116BCF3F4D8578245E1EE13FCE88D2DEE00BDA3F9CA4F9635A9BB63F7F4DD6A88768EF3FA987687407B1DD3F98FA7953910AE63F7DCF488446B0E93F0588821953B0E13FBADDCB7D7294E93F758F6CAE9AE7C03F15C8EC2C7A27EA3F84BBB376DB85D03F5E49F25CDF87CF3FCD5B751DAAA9E43F1C45D61A4AEDBD3F70ED444948A4D43F91D26C1E87C1EF3FD520CCED5EEEDD3F6BB933130CE7CC3F24473A03232FD43FEDD45C6E30D4A13F46D3D9C9E0A8E03F7995B54DF1B8D63FBD6F7CED9925C33F15AA9B8BBFEDE23FC68A1A4CC370ED3F24B891B24552EC3FB1DB679599D2ED3F1094DBF63D6AE13FAE9FFEB3E6C7D33F967A1684F23EDB3FB22E6EA301BCEF3F0E8464011338E83F62DBA2CC0699E13F94F8DC09F65FDB3F16F71F990E9DD33FD993C0E61CBCE43FDBDC989EB0C4933F0954FF209221E73FC405A051BAF4EB3FB58CD47B2AA7CD3F7D3F355EBA49DE3F1CB28174B1E9E33FEC12D55B035BE53FBBECD79DEE3CD23F9E60FF756EDAD13F09C4EBFA05BBA13F2FF834272FB2E03F753BFBCA83F4D13F289EB3058456E73FA8DF85ADD9CAE13F7171546EA296D93F8E041A6CEABCEC3FD3122BA391CFEE3FDAFF006BD5AEE13F6ADB300A8247EA3F82C64CA25EF0E43F40852348A558E23F2FFD4B529962E53FFD67CD8FBFB4E03F4B395FECBDF8D93FB5FB5580EFB6ED3F632992AF0452D73F725298F738D3EC3F679B1BD31316EA3F48A7AE7C9667EF3FA4FACE2F4A50EC3FB64AB0389CF9CB3F6058FE7C5BB0D03FDCBB067DE9EDCF3FE1F08288D4B4D13F4F58E2016553DB3FE3FA777DE6ACE63F134548DDCEBEE83FB9FFC874E8F4CE3FB5A9BA473657DC3F2C9E7AA4C1EDE63FE527D53E1D8FDD3FCC0C1B65FD66C23F85D21742CE7BEF3F996725ADF886CC3FD47C957CEC2ED33F0E87A5811FD5EC3F0491459A7807BC3F520ABABDA4B1EA3F5BB22AC24D46DD3FF65E7CD11E2FCA3F63B48EAA2688E53F0C906802452CCE3F6AC2F69331BEEF3F21AE9CBD33DAD23F766D6FB72487EF3F533F6F2A5261E03FBE33DAAA2432E83F21CA17B49080A13FDFA7AAD040ACEE3FE78A5242B0AAED3FAC53E57B46A2E53F6DFDF49F35BFE03FDF701FB93569EE3F36E49F19C407DF3FBF0AF0DDE60DEB3FA435069D103AE23F74D4D17135B2E93F17A06D35EB8CD83FBE69FAEC80EBDD3F6CCCEB8843B6ED3F4C1762F54718D23F3B1DC87A6AF5E43F0C0742B280098C3FC8CD70033E3FAC3F0EDB16653648E23FED2DE57CB1F7D13F27D87F9D9B36E53F2A0307B474057B3F2CF52C08E57DD73FCC7B9C69C2F6933F317C444C8924D23FB936548CF337E13F5B25581CCE7CE63F9EB30584D6C3EE3FE02D90A0F831ED3FC5538F34B8ADBD3F1D90847D3B89E93F7976F9D687F5E93FA4C16D6DE179EF3FD734EF384547A23F9544F6419685EB3FBF9A030473F4EE3FD68C0C7217E1EC3FB212F3ACA415AF3FF0332E1C08C9D83FF0315871AA35E73F255AF2785A7EDC3F3C86C77E164BD33FAD3594DA8B68E63F6EA301BC0512CE3F79793A579412E63F892650C42286C33F28D6A9F23DA3E53F834D9D47C5FFE43FB51666A19DD3CE3F6AF6402B3064BD3FC442AD69DE71C03FE485747808E3D93FA92F4B3B3597EE3FCAFD0E45813ED73FFC56EBC4E578C13F9FE925C632FDCE3FC82764E76D6CEE3F596C938AC6DABF3FC3EFA65B7688D63FFCE3BD6A65C2B33F9C1551137D3EDC3FC93B87325445E33F575F5D15A8C5D13F975643E21E4BDF3F0987DEE2E13DEA3FA64412BD8CE2E93FB8ACC266800BE23F2AFF5A5EB9DEB23FEEE87FB9162DB83F0EBE30992A18853FA1A2EA573A1FE63F734A404CC285A43FA5A14621C9ACEF3FC861307F85CC653F1041D5E8D500B53FDB6AD619DF17E13FE4839ECDAACF953F747B4963B48EDA3F46EEE9EA8EC5E33FFFD0CC936B8AE33F9E094D124B4AED3FE78BBD175F34E63F33897AC1A7B9EE3FF9C08EFF0241B43F306475ABE7A4D43FA92EE065868DE43F09C4EBFA05BBEA3F3160C9552CFEEB3F38A27BD6355AEA3F57772CB64945AB3FC9C6832D76FBDC3F041C42959A3D703FB685E7A56263DD3FA1BDFA78E8BBC93F8D60E3FA77FDE43F5B0BB3D0CE69DD3F03D19332A9A1CB3FC4060B2769FEBC3FC99239967755E03FC3482F6AF72BEC3F6DC9AA083719E63F1A33897AC1A7DC3F6AF6402B3064E93F04ABEAE5771AE23F17299485AFAFE93F7D3ECA880BC0E53FCE6E2D93E178C43F5EBC1FB75FBEEE3F255CC823B891E13FC139234A7B83BF3FD7DCD1FF72ADEB3FF6083543AA28D43F98F6CDFDD5E3DF3FB7EC10FFB0A5ED3F0C5BB39597FCD23FB37DC85BAE7EE13F8BC56F0A2B15EF3FB2F677B6476FD73F5036E50AEF72D53F72A59E05A1BCD93F780B24287E8C893F268A90BA9D7DD83F32772D211F74E63F31EE06D15AD1B63F1ADF1797AAB4E63F86915ED4EE57DE3FE0B9F770C9F1E33F4CDE0033DFC19F3FFF976BD102B4EA3F92B245D26E74E83F7D59DAA9B9DCC03FB6A1629CBF89EC3F471D1D57233BE93F6E6C76A4FA4EEF3F38143E5B0707D53F66D993C0E61CEA3FBB270F0BB5A6E73F581AF8510D7BEC3F9CE1067C7E18EB3FD2C8E7154F3DCC3F2EA9DA6E826FC63FD7C22CB4731AE13FD7F7E120214AE03F4417D4B7CCE9EB3F537B116DC7D4D83F16BD5301F73CDB3F070ABC934F8FB13FFB5A971AA11FEC3FA83AE466B881E73FBB61DBA2CC06CB3F293DD34B8CE5E23FFC3905F9D948E03F5682C5E1CCAFE33F9AEC9FA70183D53F0E68E90AB611E13F47938B31B08EC73F60AFB0E07EC0E73F4ED1915CFE43C03FE52B8194D8B5C93F9D0DF96706F1E73F331AF9BCE2A9DB3F6E52D158FB3BEE3F910A630B418EED3F016BD5AE09E9EF3F6EFC89CA86B5EB3FF7393E5A9C319C3FE63DCE3461FBD83F5532005471E3BA3F1F2FA4C34318EE3FABCB29013109DD3F5776C1E09A3BA23F08228B34F10EE63F0F26C5C72764E83F4016A243E048C03F59349D9D0C0EE63FFB3BDBA337DC973FD576137CD374EA3F2BF697DD9387EB3F0C8FFD2C9622D73FA0DCB6EF517FC33F7E52EDD3F198B53F9A25016A6AD9D53F8864C8B1F58CE93FDE205A2BDA9CE03F7C9DD497A59DD33F9FAF592E1B9DEE3FD00CE2033BFED03F317BD976DA1AC53FE48409A35959E03FB42094F77134D23F213B6F63B3A3EF3F200BD1217024E23F44C18C2958E3E73FB0AA5E7EA7C9B83FC45E28603B18C73F4A4563EDEF6CCF3F38A110018750D63FFAB5F5D37FD6DC3F5AB741EDB776DE3F026553AEF0AEE73F252191B6F1A7EE3FA9F8BF232AD4EB3F111C97715303D63FCFA44DD53DB2E23F3EEB1A2D077AB03F85EE92382B22E33F2657B1F84D61BD3FA12DE7525C55D53F153C855CA9E7E83F44A852B3075ADE3F6EA7AD11C138E23FBC24CE8AA889E23FD5B14AE9995ED43F21C9ACDEE176983FE5D2F8855712E73F145B41D3122BDD3FF3C7B4368DEDB53F7D96E7C1DDD9ED3F7CB5A338471DD13FD6E07D552ED4E83FB9FDF2C98AE1E73F3F52448655BCD13F5F44DB317557DE3F97CADB114E0BC23F7E39B35DA18FED3F787AA52C439CE33F70952710760AE43FE5EFDE516342DE3F1F9F909DB731E13FF032C34659BFE83F664CC11A67D3D33FFDC0559E4058E63F03ED0E2906C8E53FF8DEDFA0BDFAE33FBC77D4981073B13F2C64AE0CAA0DEC3F910C39B69EA1E63F2524D236FEC4EE3F7B32FFE89BB4EA3F1D774A07EBFFE63F70ED444948A4D73F793C2D3F7095DA3F8FFCC1C073EFC33F32AEB8382AB7E93F7157AF22A383ED3F4BE48233F8FBEC3F965E9B8D9598EF3F9E9ACB0D863AE73F9B5AB6D61709BD3FAF795567B5C0DB3FD9EDB3CA4CE9E93F9A97C3EE3B86E73F0A48FB1F60ADB63FDF878384285FCA3F6E6B0BCF4BC5E83FD461855B3E92BE3F9B1F7F69519FE73F43AED4B32014E33FFB73D190F128AD3FE5284014CC18ED3FBF7D1D3867C4E93FD55B035B2558C63FD461855B3E92EB3F7FC2D9AD6532D43F2DD15966118AE43FFE5F75E44867D43F0395F1EF332EE83FCA5356D3F544973FB153AC1A8439E73F0971E5EC9DD1B23FB189CC5CE0F2DE3F111C97715303E33F15713AC95617E43FD66F26A60BB19A3FB2F336363BD2E93FCA4E3FA88B14DB3F08C89750C161EF3FB91B446B459BE93F95D5743DD175D33FD446753A90F5DF3F8350DEC7D11CE53FA5DC7D8E8F16C73FEBE5779ACC78DF3F1B834E081D74BD3F34F279C5538FE53FB075A911FA19E33F795DBF60376CAB3F6FB9FAB1497EA43F3A2174D0259CEF3FFCC74274081CDC3FEC6AF294D5748D3FA4A99ECC3FFAC63F3881E9B46E03E53F8B54185B0872B83F556D37C137CDE63FD28F8653E6E6B33F8A1EF818ACB8E83F478D09319754EB3F6BB933130CE7C63FB3D2A414747BEE3F5BCD3AE3FBE2C63FE52B8194D835E53FCDAB3AAB0576E03F8A03E8F7FD9BC13F5299620E820EE23F7880272D5C56D13FDEC83CF20703EA3F9DD5027B4CA4943FF0A485CB2A6CD33F6C79E57ADB4CAD3F414AECDADE6ED63F85EE92382BA2E53F60EAE74D452ACE3FA5F5B704E09FE33F84D6C3978922DE3FD658C2DA183BDD3FE36F7B82C476BB3F952D9276A38FB53F117008556A76E93F22FB20CB8289D43F575BB1BFEC9EDE3FE09F5225CADEA23F87A6ECF483BAA83F486DE2E47E87E13FB20FB22C98F8C53F2AE44A3D0B42EB3F8CDB68006F81C43FCAE2FE23D321E13FA52C431CEB62EC3F0186E5CFB785E73F5072874D64E6D93F16DEE522BE13A33FF8AA9509BFD4D93F5871AAB5300BEF3F7216F6B4C35FCF3F3B00E2AE5E45963F7993DFA29325E13F0CACE3F8A1D2DD3F82548A1D8D43D43F79E57ADB4C85E43FD2E0B6B6F0BCC63F37E2C96E6674E23F6C7BBB2539E0EB3F3274ECA01257E63F7AC5538F34B8CF3F8411FB04508CC03FD522A298BC01BE3F07EFAB72A1F2EC3F95F1EF332E1CD13FB933130CE71AC83FA71FD4450A65EB3F35CF11F92E25EB3F3D5FB35C363ADF3F88F19A577556E13F08CC43A67C88E33F38D73043E389B83F1EC6A4BF97C2EE3F66D828EB3793ED3F29CE5147C7D5CE3FAA436E861BF0EF3F04AE2B6684B7D33F3F7100FDBE7FDF3F43E21E4B1FBAED3FD8F2CAF5B699DF3FEBE6E26F7B82CA3F3E213B6F63B3CB3F9CC3B5DAC35EDA3F58C9C7EE02A5EE3FE4A1EF6E6509EB3FD2393FC571E0CF3FA4A833F790F0E43FDA73999A046FEA3FBB09BE69FA6CE83FA8E0F08288D4E03F739F1C058802E03FC746205ED72F983FF7E978CC40E5EE3F26E1421EC18DE93F0DFAD2DB9F8BB63FE1455F419A31E23F49F7730AF233EF3FCF30B5A50EF2EC3F81CF0F238447E43FDA20938C9C85D03F4E7B4ACE893DB03F5D15A8C5E0E1E93F0A664CC11A67D83F8509A359D93EE23F6AA164726AE7E23F6682E15CC30CBD3F7765170CAEB9EB3F2FA699EE7552D93FAB5AD2510E66D83FFFCC203EB063E23FA7C98CB7955EB73F759483D90418D23FDCF63DEAAF57C03F2785798F33CDEC3FC5CA68E4F38ADB3FB07092E68F69E03FB35F77BAF3C4D03FD4D17135B22BE83FF5BEF1B56716EE3F47904AB1A3F1EC3FB3614D6551D8ED3F42B0AA5E7E27E53FB8205B96AFCBD63FDD442DCDAD10C43F42CC2555DB4DCA3F01C3F2E7DB02E83FAD1402B9C491D33F10B1C1C2499AB73F0E85CFD6C1C1DA3F5AA148F7730AE63F3BFDA02E5228D23F293FA9F6E9F8E73FD046AE9B525ED03F2EE57CB1F762EC3FC860C5A9D6C2D43F807F4A9528FBEF3FC3802557B178E03F49D74CBED9E6E23F6CEC12D55B03E93F7366BB421F2CCB3FA7751BD47E6BD23F6FF3C64961DED23FFBCE2F4AD05FE13F6765FB90B75CDA3FF88A6EBDA687ED3F844BC79C676CE73F419C8713984EC53F950D6B2A8B42E93FE38A8BA37213ED3FB34291EEE714EB3F0A48FB1F60ADC23F035DFB027AE1C63F471CB28174B1C33F56EF703B342CE73F8E3F51D9B026E53F0B47904AB1A3913F2AE5B512BA4BD93FC8EA56CF49EFEB3F4337FB03E536E43FBFF4F6E7A221EE3F5A2A6F4738ADE23F7E02284696CCC13F13B875374F75CA3F7A56D28A6F28C03F1C25AFCE3120B73F4A0C022B8716B13F503750E09D7CD53F59DB148F8BEAEE3F09C6C1A563CED63F185A9D9CA1B8E43F3354C554FA89EC3F32E4D87A8670E93FE9F2E670ADF6D23F4C6BD3D85E0BDC3F94895B053150E43F4757E9EE3A9BE93FF5D8960167A9EE3F38A0A52BD846D33FF9122A38BC20E43FC9FFE4EFDE51B33FF1D93A38D81BE33F31B43A394371D73FF8E0B54B1B0ECD3FFA27B8585183E33F17D4B7CCE9B2DF3F51DD5CFC6DCFED3F63F20698F98EEA3F892650C42286DC3FCAA5F10BAF24D73FB2DAFCBFEAC8EA3FDAE1AFC91AF5DD3F446E861BF0F9E33FF623456458C5D33F2C0E677E3507E93F363D2828452BCB3F59350873BB97CB3F92EC116A8654E63F0A117008556AEC3F7505DB8827BBDD3FFDD8243FE2D7ED3F73840CE4D965E33F191EFB592C45E23FC3D4963AC8EBD03F23C0E95DBC1FC13F0ABABDA4315A973FF4A5B73F178DE73F2DE92807B309E03F83A279008BFCC63F102219726C3DD23FFF092E56D4606A3F25917D906541EF3F8D5E0D501A6AC23FB952CF82505EEE3F725298F738D3E33F952710768A55B33F47054EB6813BEB3FC6C1A563CEB3EC3FAAD72D02637DD03FF294D5743DD1D13F93E1783E036AE83F9544F6419605E03FD55B035B25D8EB3FF31B261AA4E0C53FD2E0B6B6F0BCE13FB1A4DC7D8E8FA63FAC0320EEEA55D33F90300C587295E93FAA2C0ABB287AB03FEA758BC058DFD13FD1AE42CA4FAAC33FFD497CEE04FBBF3F8C834BC79C67ED3FFEB627486C77D93F24473A03232FE53FF1475167EEA1E73F9A0B5C1E6BC6E53F76A911FA997AEA3FF75AD07B6308E93FF92EA52E19C7D93F75ADBD4F55A1C33F73F6CE68AB92E53F09185DDE1CAE753F39268BFB8F4CDA3F69C70DBF9BEEEB3FAEB6627FD93DE43FE886A6ECF403E33F782AE09EE74FC13F3F541A31B3CFDE3FEB54F99E9108EB3FDE91B1DAFCBFA23F7F4FAC53E57BDB3F08C90226706BEA3F60E4654D2C70E33FFE99417C60C7CB3F651A4D2EC6C0EA3FC05DF6EB4E77E23FA73CBA111695E23FB3D2A41474FBE03F3F6F2A52616CD03F102384471B47AC3F377172BF4351D13FD0B87020240BB43F5D19541B9C88E13F3A950C00555CED3FD921FE614B0FE73F147AFD497CEEA43F9E0B23BDA85DE63FC5538F34B8ADB53F4B5AF10D854FEB3F85402E71E481B43FB003E78C28EDE13F7A8B87F71C58DD3F9DF3531C075EE53F6D8D08C6C1A5E63F36CCD0782288DE3F5AB91798150AEE3F47054EB681BBE03F7120240B9840E13F02637D03931BC33F3F6EBF7CB2E2E83F008C67D0D0BFE23F87889B53C980EA3F0ADB4FC6F8B0E93F8BDF14562AA8EE3F0D51853FC39BEA3FDFFDF15EB532D33F460BD0B69A75E43F946B0A647616D53FFCC8AD49B725D03FFA0D130D52F0C83FB5DD04DF347DE73F36CAFACDC474E93F45BB0A293FA9E33F26016A6AD95AD23F481ADCD6161EEC3FCC5F21736550D13F7B67B4554964DA3FA7E7DD585018D83F0A9E42AED4B3CA3F1ABFF04A92E7CA3F36CCD0782288DC3F827170E99873EA3FD7F7E12021CACF3F4513286211C3C03FD47E6B274A42CE3F1920D1048A58D43F2C9E7AA4C16DDA3FD2FBC6D79E59C23FB91AD9959691EC3FE4D9E55B1FD6D13F6A300DC34744EA3F0FB8AE9811DECC3F21AF0793E2E3E13F593332C85D84C53FDC4B1AA37554E93FCC5F21736550DA3FD3F8855792BCEA3F8733BF9A0384E43FF7915B936E4BDE3F1711C5E40DB0E03F0B43E4F4F57CE23F61C1FD800706E03F467EFD101B2CD03F371C96067E54D53FD7A546E867EAC73F9DF7FF71C284EE3F0E164ED2FCB1EC3FB8921D1B8178C93F26FDBD141E34E23FEFAEB321FFCCC23F7B4E7ADFF8DADF3F441669E21DE0DD3F49D6E1E82A5DE83F3337DF88EED9EA3F3E3C4B901150E13F5C035B25581CD23FE42F2DEA93DCD93F467D923B6C22C13F1077F52A323AB03FDC2E34D76924E83F2A1A6B7F677BE13F91813CBB7CEBB33F3CDD79E2395BC83FB760A92EE065D73F42E90B21E7FDEB3F13B875374F75DF3FE8887C975297E23F6C06B8205B96AF3F569FABADD85FDF3FFB5DD89AAD3CEF3F3012DA722EC5E43F2D2460747973D93FBF9D44847F11E63F3C4F3C670B08CB3FA59E05A1BC0FE73FC36169E047B5E53FE338F06AB933DA3FAF997CB3CD8DA93F1DC87A6AF5D5E73F8E93C2BCC799DD3FA83462669FC7A83F43E1B3757030EE3F124DA088450CEC3FDCA0F65B3B51423F454B1E4FCB0FC83F4513286211C3E63F21753BFBCA83CA3FA3772AE09EE7A73F4CC2853C829BEF3F40D9942BBCCBB53F596B28B51751EC3F7044F7AC6BB4E53F71AAB5300BEDE33FB136C64E7809E23F0A4B3CA06CCAE63FB5A84F72874DD83F7288B839958CE13FEA40D653ABAFE13F31EF71A609DBEB3F1A6F2BBD361BCB3F058BC3995FCDC13F0E4A9869FBD7EA3F2635B401D880E13F1F4DF564FE51E93FB4CA4C69FD2DD53FCA1AF5108DEED23F2176A6D0798D8D3F3140A20914B1DF3F52B7B3AF3C48D63FDE921CB0AB49E53F834E081D7409B73F9A6038D73043933F9A7B48F8DE5FE43F7D23BA675DA3B53FD461855B3E92BA3F25CFF57D3848DE3FC40B2252D32EDB3F12859675FF58EE3FC7DADFD91E3DEF3FF816D68D7747E43FF3599E077767D73F7407B133854EED3FE2E7BF07AF5DD43F06465ED6C482E93FC2F7FE06ED55E83F2D23F59ECA69D43F5645B8C9A832E83FF65E7CD11E2FD73F7BF8325184D4E73F726F7EC34483EC3FA69883A0A355DB3F7C7BD7A02F3DEC3FF1F274AE2825A43F753A90F5D4EAD23F217711A62817EC3FD845D1031F83ED3F0A815CE2C803EC3FFDBFEAC8914EEE3F1077F52A323AD23F06F2ECF2AD0FD83F1D774A07EBFFEA3FC3F4BD86E0B8C63F261C7A8B87F7C83F5000C5C89239E23F075F984C158CDB3F6B0BCF4BC546EF3F15C9570229B1E23FEE7A698A00A7BF3F79AF5A99F0CBE73F68CD8FBFB428E13F601F9DBAF259E33F268DD13AAA9ADC3FDF516342CC25DB3F29CC7B9C69C2963F8D9AAF928FDDEB3F0DC51D6FF2DBE23FD845D1031F03EA3F0E9F7422C154EB3FA3B08BA207BEE53F058A58C4B043EB3F295AB9179815E53F3DD2E0B6B6F0CC3F6F0ED76A0F7BED3F4371C79BFC96E63F12DA722EC555E83FE0BDA3C68498ED3F1BF5108DEE20863F0E30F31DFCC4DE3F828FC18A532DED3FEE258DD13AAAE43F581D39D21918D23FF7729F1C0588B63F9A9999999999DF3FA565A4DE53B9E33FEBC726F911BFE23F7EE19524CFF5E43F3B18B14F0045ED3FC3F4BD86E038EE3FD449B6BA9C12D33FB345D26EF431D63FA852B3075A81E13FD3C08F6AD8EFC53F56444DF4F928E83FA439B2F2CB60D83FD9EE1EA0FBF2E33FAED689CBF10ABC3FA41AF67B621DEC3F0B7A6F0C01C0D13FE4654D2CF095EB3F6A6B44300E2ED83F9E42AED4B320DE3F05FC1A498270E23F753C66A032FEE03FB4E908E06671ED3FD21C59F96530E63FA4DE5339ED29CF3F909E2287889BD63F378B170B43E4E93F7250C24CDBBFEB3FA182C30B2252E53FA5D93C0E8379EE3FD7C1C1DEC410EC3F3AE63C635F32E23F5055A1815836EA3FFB40F2CEA18CEC3FBAA0BE654E17EA3FB9347EE195A4EA3FD8B969334E43AC3F52D4997B48F8D23F2E39EE940E56E23F29779FE3A345EF3F9A266C3F19E3E13F857AFA08FC61E03F6BB933130CE7E33FACC43C2B69C5D03FB2D6506A2F22EA3FFED137691A14D83F1AA20A7F8637DF3F2C2B4D4A41B7873FE719FB928D07CF3FF92F1004C8D0CD3F7BA35698BED7EB3F7C613255302AC53F9833DB15FA60DF3F1D226E4E2503DB3F9B20EA3E00A9B13FF702B34291EEE23F0211E2CAD9BBE53FB8EA3A545392DE3FF1129CFA40F29E3F857AFA08FCE1E13F90D8EE1EA07BE43FFDA02E52280BB33FFED30D1478A7EE3F5133A48AE255D43F778192020B60DE3F6D5512D907D9E83F6E8B321B6492E03F3CBF28417FA1E83F8A8EE4F21FD2DB3F6E8B321B6492C73F183E22A64412A53F25034015376EC73F51BCCADAA678E03FCC457C2766BDDC3F0531D0B52FA0C33F39D55A988576DD3FD731AEB8382AEB3F62DA37F7578FEA3FD6355A0EF4D0ED3FFBC9181F662FDB3F3370404B57B0AD3FD11E2FA4C343B43F01C0B167CF65C63F6C4084B87276EF3F89230F441669EC3F0CCEE0EF17B3D83F5796E82CB388E53FE57ADB4C8578C83FD9B3E7323509D73F0CEA5BE67459E93FCEC3094CA7F5E93FBC934F8F6D19D23F3DB5FAEAAAC0E83F4AECDADE6E49D53FCFBD874B8E3BD73F5A7EE02A4F20E03F67F2CD363726EF3F5CCCCF0D4DD9D53F2E573F36C98FE63FE8305F5E807DD93F34D6FECEF6E8EC3F6E19709692E5C83F73F6CE68AB92D73FEB0088BB7A15E03F32AA0CE36E10D03F4E452A8C2D84E63FF1F62004E44BB83F19ADA3AA09A2DD3FA4E2FF8EA850D73F0F4757E9EEBAED3FA7EA1ED95CB5EA3F2098A3C7EFEDE73F397D3D5FB35CDA3F9D4830D5CC5AE33FDF32A7CB6262D13F5BE9B5D95889E93FFA0CA837A3E6C33FFA7B293C6876EF3FB29C84D21742D23F1D59F9653046A43F1EFF058200199A3F6BBA9EE8BAF0E43F5D4E098849B8E93F438CD7BCAA33E93FD3D85E0B7A6F9C3FFD1186014B2EE73F9B374E0AF31EBF3FDCB930D28BDADE3F41D47D00529BEF3F1EDD088B8A38E23FD0D1AA967494CF3FD97745F0BF95A43FF56393FC885FE13FF1475167EEA1E03F1615713AC956D23F8E1F2A8D98D9E93F19E3C3EC65DBE03FE09D7C7A6CCBA83F1E6E8786C5A8C53F76DEC66647AADF3F9AB0FD648C0FE43F78094E7D2079DC3F941799805F23E73F7BBDFBE3BDEAE53F8F519E7939EC9E3FCA5180289831D83FAF06280D358AE33F029D499BAA7BCC3F19C91EA16648DF3FC9E88024ECDBCB3F4016A243E048E73F689599D2FA5BD63F25CD1FD3DAB4E03F66A208A9DBD9EC3F4B94BDA59CAFE93F4DBD6E1118EBDE3F86E63A8DB454D33F60CC96AC8A70B33F6C3F19E3C3ECD23F72DD94F25A09C13FF0366F9C1466E13FC32E8A1EF818C63F12BF620D17B9D33FA62A6D718DCFE53FDF6B088ECBB8E43F01FC53AA4459E73FFB05BB61DBA2CA3F7E1D38674469CD3FCF4BC5C6BC8ED73F1AC1C6F5EFFADB3FE2AC889AE8F3C53F82C7B7770D7AEA3F7B4D0F0A4AD1D23F40FCFCF7E0B5E83F4CA60A4625F5ED3FB29FC552245FDD3F05FA449E245DD13FBC7493180456D53F7026A60BB1FAD73F0C76C3B64519EB3FF75AD07B6308E53F6B0F7BA180EDC63F5853591476D1E03F28BA2EFCE07CE03FA3923A014D84C53FDFDFA0BDFA78E13FFF3C0D18247DD43F331AF9BCE229E93F67EE21E17B7FDC3F906B43C538FFED3FD1048A58C4B0E93F78B306EFAB72E03F3FFED2A23EC9ED3FAB4198DBBDDC973FCDAB3AAB05F6E83F84F1D3B837BFE23FEC8A19E1EDC1E13F1781B1BE81C9C73F4A5F0839EF7FEF3F94A5D6FB8D76D13F2B4D4A41B797B43F30F2B22616F8EA3FC9586DFE5F75D03F8C15359886E1E63F3DD34B8C657AE93F643DB5FAEAAAE83F302DEA93DC61DE3FB685E7A56263E93FD9B0A6B228ECD13F350873BB977BE63F43E4F4F57CCD923FD26EF4311F10E33FA6F10BAF24F9EA3F0169FF03ACD5E13F2CD49AE61DA7D03FE10D6954E0E4E63F0C94145800D3EF3FE0DA899290C8EE3F1C0C7558E196CF3F931B45D61A4AE03F3128D36872B1E73F0FEF39B01C21A33F9FCDAACFD556E43FDAAA24B20FB2D43F876F61DD7877E03F87DD770C8FFDCE3FDC2E34D76924EB3FC72E51BD35B0D33F6117450F7C0CDA3F47054EB681BBE43F5C751DAA29C9C23FE6B16664903BE63FF73AA92F4B3BC73F392BA226FA7CD83FCA6C9049464EE43FB43EE5982CEEE53F89F02F82C64CE93FAC53E57B4622CE3F164CFC51D499E83F02F1BA7EC16EE73F59FD1186014BA63FD3BCE3141DC9EF3F8940F50F2219923F1094DBF63DEADD3F4EB7EC10FFB0D13F6346787B1002E53F1A69A9BC1DE1D03F55F7C8E6AA79C03F4EB340BB430AEC3FA83AE466B801B33FD717096D3997E43F68588CBAD6DEC93F8E91EC116A86C23F126BF12900C6B73F7C98BD6C3B6DD53F4F948444DAC6E03F528028983185E63F800F5EBBB4E1EB3F14E7A8A3E36AEB3FD38558FD1186C73F57CC086F0F42CA3F0FD3BEB9BF7AC23F0055DCB8C5FCCE3FBDE2A9471ADCB63F25AE635C7171BC3F158C4AEA0434ED3F938AC6DADFD9DA3F6E313F373465DB3FD9CF622992AFD83F7B32FFE89B34E73FF7E80DF7915BED3FAFE9414129DAE23F7E198C118942D63FBC22F8DF4AF6E13FD8D825AAB706D23F4CFC51D4997BC23FB0AC342905DDEF3F91813CBB7CEBD83FD943FB58C16FD23F9EB30584D6C3E53F2CBB6070CD1DE63F35D3BD4EEA4BE13FD26EF4311F10E53F66A3737E8A63E73F6C7C26FBE769E63F3944DC9C4A86E93F1F9E25C808A8D83F27BC04A73E90E13FD5963AC8EBC1CA3FE8137992744DED3F7D5BB05417F0AA3F952C27A1F405EE3F2D944C4EED0CD53F5439ED293927C23FF984ECBC8DCDC63FAB5E7EA7C98CB33F191F662FDB4EE33F5FF0694E5EE4E53F7F33315D8855E23F693BA6EECA2EC43F3D2CD49AE69DEE3F2158552FBFD3A43F52103CBEBD6BC03F16A75A0BB350E93F65C6DB4AAFCDDD3FF52C08E57D9CEA3F8E739B70AFCCEE3F36ACA92C0A3BE43FC0AE264F594DEA3FE5620CACE3F8EB3F6BD5AE09698DDB3F8658FD118601DB3F728BF9B9A129DD3FFB0626378AACBD3FFD12F1D6F9B7D83FB20DDC813AE5C93F677C5F5CAA52E13F8EAF3DB324C0EE3FBFB9BF7ADCB7C03FF9D687F546ADDA3FCD237F30F0DCD53F1B66683C11C4E13F89EC832C0B26E43FF910548D5E0DCA3FE197FA795391E13F5C3E92921E86EB3FA3CD716E13EEB13F147B681F2BF8BD3FC72B103D2913EC3F93E34EE9607DED3FCCB392567C43D63F75AF93FAB234EB3FF488D1730B5DD33FE0F599B33EE5DA3F4FEACBD24ECDBD3F3317B83CD68CB03F0A9E42AED4B3DC3F04E8F7FD9B17C13FEC8497E0D407DC3F31444E5FCFD7DC3FF16261889CBEC43F3C4B901150E1CE3F1500E31934F4CB3FBE66B96C74CED23F6C5F402FDCB9E83F58E36C3A02B8D53FD53DB2B96A1EE53FB587BD50C076E33F9A982EC4EA0FE63F84BD89213919EF3F22533E0455A3D73F0DC347C49448C23FA77686A92DF5E83F5000C5C89239E43F5725917D9065E43F9CFC169D2CB5E63F724D81CCCE22E63F26732CEFAA87E33F7D410B09185DCA3F3B394371C79BE03FA41B615111A7C93F085740A19E3EDE3F21E7FD7F9C30DC3F897D02284696EA3F4FB0FF3A376DC23FCF81E50819C8E83F6D74CE4F719CEE3F02486DE2E4FEE13FE869C020E953EA3FAEB8382A3751CF3FFBE6FEEA71DFCA3FEC3026FDBD94EC3FAA9B8BBFED09D43FEF1F0BD12170D93F8BA8893E1F65AC3F14CC988235CED33FB328ECA2E801E13FC2C2499A3F26E13F177FDB132436E83F92AE997CB3CDBD3FC493DDCCE8C7ED3F65A6B4FE9680E03F8D4468041B57E33F0002D6AA5D13B23F5CAE7E6C921FE53F5872158BDF14DB3FD6011077F5AAE43FBCB20B06D75CE03FA6D3BA0D6ABFE43FDAE1AFC91A75E13F793F6EBF7CB2D83F22AAF0677833E53FA99F3715A9B0E13F420A9E42AED4BB3F3DD4B6611404E53FB9DFA128D027D63F51DEC7D11C59DE3F34DAAA24B20FC23F90300C587295E33F14950D6B2A0BEA3FC233A1496249E23F8E57207A5226E93F213EB0E3BF40D73F22533E0455A3CB3FFC51D4997BC8E83FF65E7CD11E2FE13F63B48EAA2688E23FC7A01342075DD63F8D0DDDEC0F94E03F80828B153598DC3F08B0C8AF1F62C53F9DF17D71A94AB73F03CFBD874B8EE93F645930F14751A73F3B8A73D4D1F1EE3F0DAA0D4E44BFEA3F76F9D687F546EC3FABE80FCD3CB9EB3FC007AF5DDA70783F5E0F26C5C727D23F08B0C8AF1FE2EC3FE124CD1FD3DAAC3FCE8DE9094B3C903FA2B3CC2214DBE83F3B6F63B323D5D63FE2AB1DC5396AEE3F0B5F5FEB5223E03F3599F1B6D26BE23F5131CEDF84C2EF3F8192020B60CAB83F3A950C0055DCC43FE6046D72F8A4EA3FFD8689062978EF3F240F441669E2D63FB954A52DAEF1C13F70EA03C93B87E93F1E6FF25B74B2E33F15FE0C6FD6E0BD3F1BF33AE2900DB43F761BD47E6B27D73F5987A3AB7477C73FBA68C878944AE83F38D73043E389C43F0E2E1D739EB1DB3FDE04DF347DF6EC3FE14048163081EC3F1B13622EA9DACC3FB77EFACF9A1FBB3F3FFF3D78EDD2E93FF86F5E9CF86ADF3F541EDD088B8AEC3F551344DD0720E33FFE9DEDD11BEEEF3FDD088B8A389DC23F89CE328B50ECED3F643C4A253CA1D33F71C79BFC169DD03FB01D8CD82780BE3FA1F48590F37EE13F40FCFCF7E0B5DB3FAE0E80B8ABD7EA3F153C855CA967E33F560BEC319152E63F43C70E2A711DDD3F5419C6DD205AD73F3A02B859BC58D13F419DF2E84658DF3F0798F90E7E62EA3FB1BFEC9E3C2CE63F0798F90E7E62E03FCF30B5A50EF2E63FFF9254A69883E83F499D8026C206EC3F8BC058DFC0E4DE3FB1169F0260BCEC3F6D382C0DFC28E23FF0694E5E6402DA3F34BC5983F7D5E93F5C55F65D117CE03FB20FB22C98F8D33F66BE839F3880DB3F78EC67B114C9C13FCC4065FCFB0CED3FA835CD3B4ED1D63F86AE44A0FA07D93F01DF6DDE3829E93FB0027CB779E3E43FBC02D19332A9E53F7F315BB22AC2E43F0DDFC2BAF1EED83FAA0EB9196EC0D43F64CC5D4BC807ED3F8DD47B2AA73DB53F0C5BB39597FCD13F31B1F9B836D4E23F63B323D5777ECB3F09707A17EFC7D23F922232ACE20DED3F2CBAF59A1E14EE3F6F29E78BBD17CB3FF8FE06EDD547E93F93FFC9DFBD23EA3F2384471B47ACDE3F38BBB54C86E3DD3FE833A0DE8C9ADC3F5F46B1DCD26AD93F096D3997E2AAAA3F92921E865627B33F560BEC3191D2D23F98309A95ED43B63F18265305A312E73F06F1811DFF85E63FE197FA795391EA3FCAA48636001BCE3F62DBA2CC0699CE3FC91CCBBBEA81E03F43CBBA7F2C44973FA48B4D2B8540DB3FB76114048FEFED3FA5F9635A9BC6D93F8CD99255116EDC3F3C1405FA449ED53F57957D5704FFC33F09C556D0B4C4E13F72FC5069C4CCEA3F4E64E60297C7CE3F4792205C0105E53FF8A41309A69AD63F842C0B26FE28EC3F8F8AFF3BA2C2EE3F486DE2E47E87EF3FEA094B3CA06CE83FD656EC2FBB27D23F927A4FE5B427EA3F4983DBDAC273ED3F35EF38454772D13FC5758C2B2E0EE93F776A2E3718EADB3F8CBD175FB4C7C13F6C239EEC66468F3F083D9B559FABB53F093543AA285EDC3F3DF372D87D47E83F87DD770C8FFDE93F24F1F274AE28E63F77BF0AF0DDE6EB3FF661BD512B4CEF3F85EB51B81E85EE3F19761893FEDEEE3FC0AE264F594DEF3FF629C76471FFC93FC1374D9F1DF0E23F6F826F9A3E3BC03FC8444AB3791CD73FCFF41263997EA93FFB230C0396DCEB3FA0FA07910CB9E13FC0CFB87020A4E53F3D0B42791F47C73F1B6327BC0427E03F33A48AE25556E53F060DFD135CACB03F1823128596F5E03F9D2CB5DE6FB4D23F570740DCD5ABE43FF9D7F2CAF5B6DD3F5396218E7571DF3F09C1AA7AF99DD13FDF37BEF6CC12E33F382F4E7CB5A3D23F1C7920B24813AF3FACA8C1340C1FD13F21904B1C79A0E63F6745D4449F8F823F3AAE4676A5E5E23FFA4509FA0B3DE53F0B0DC4B29943C43F30F2B22616F8D33F4F5B23827170E93FACC43C2B69C5E23FFB90B75CFDD8C83F95EF1989D008A63F9A7CB3CD8DE9DF3FA112D731AEB8EE3FAB3DEC8502B6C93FD829560DC2DCE33F46239F573CF5E23FFDBD141E34BBEA3F923D42CD902AEC3F024A438D4292D23F5B23827170E9E73F1572A59E0521E83F8ACA86359545C13F397CD2890453E03FD6E6FF55470EEE3F4A438D4292599D3F8DD13AAA9A209A3FF660527C7C42DD3FEBABAB02B598E83F573F36C98F78E63F3108AC1C5A64EF3F217711A62817E53F63635E471C32E53F87DF4DB7EC10E03F71C806D2C5A6BD3F098CF50D4CEEE63F91B75CFDD8A4E53F8D5F7825C973A53FB7B244679945D73F0E4DD9E90775DE3F03603C8386FEEB3F9413ED2AA4FCE23F2B685A626534D43F6D74CE4F711CDB3F488787307E9AE23F897B2C7DE882E33FC9AB730CC85EEA3F5F09A4C4AEEDCB3F390EBC5AEECCC63FAED85F764F1EC43FCD203EB0E33FE83FA5F44C2F3196C93F29965B5A0D89D93F581CCEFC6A0EDC3FA515DF50F86CE83F1ADB6B41EF0DEF3F57B5A4A31C4CE33FFE2B2B4D4AC1E93F2B685A626534EF3F01A60C1CD0D2D43FDF6C73637AC2D43FDEFFC7091346DF3FEDBAB7223141B53F1215AA9B8BBFD43FF4A44C6A6803E53F78978BF84ECC8A3FCAC2D7D7BAD4EC3FE6577380608ECA3FBC57AD4CF825E93FBE50C0763062E13FE73922DFA5D4CD3F280D350A49E6E23F6C06B8205B96D23F98A1F14410E7BD3F0C3F389F3A56E83FF1475167EE21E93F9D499BAA7B64CD3FFB75A73B4FBCEE3F72C0AE264FD9E53F3D2CD49AE61DD73F6E6E4C4F58E2EE3F6937FA980F08E53F0536E7E09950EC3F4CFC51D499FBE33F3A419B1C3E69E33FBB99D18F86D3EB3FF511F8C3CF7FD23F739EB12FD978CC3F2DCF83BBB376E53F38BA4A77D759E73F1F6ADB300A02E23F7B15191D9084D33FF12DAC1BEF0EEA3F1094DBF63DEAD03F003620425C39C33F3A75E5B33C0FE93F8D47A98427F4E83F01C11C3D7E6FE63FE0D8B3E73235DB3F6E6C76A4FACEE03F1B683EE76ED7EA3FA41B615111A7DA3F69AD68739CDBAC3FD9B5BDDD921CC63F9A94826E2F69EB3F512E8D5F7825ED3F653909A52F84C03F44149337C04CE53F048F6FEF1AF4CD3FF910548D5E0DE13FBE874B8E3BA5EE3FB4AED172A087EC3FB4AF3C484F11EF3F58C7F143A511BB3F7A5567B5C01EB33F749B70AFCC5BD23F4B1E4FCB0FDCE83F2104E44BA8E0C83F37001B10212EED3FB9DE3653211EE83FAE9AE7887C97E63F47CA1649BBD1EA3F83A625564623E43F799274CDE49BC13FAAB69BE09BA6AF3FCD3E8F519E79EA3FAD2F12DA722EAD3F6E32AA0CE36ECE3F6CB07092E68FE73F759483D90418E93F0ED76A0F7BA1B43F384A5E9D6340E33F5A12A0A6962DE33F971E4DF564FEB53FF0A65B76887FE23FB37C5D86FF74C53F56F2B1BB4049D53F19575C1C959BBC3F4A0B9755D80CCC3F8333F8FBC56CCD3F6A6D1ADB6B41DC3FA296E65608ABC13FA6EECA2E185CCB3F1DE560360186EC3FA0A70183A44FDC3F2F6B6281AFE8BE3F471D1D57233BEA3FA510C8258E3CD73FF8713447567EC73F2FE1D05B3C3CE03FDBF7A8BF5E61D33FEB56CF49EF9BEA3F1E6FF25B74B2DC3F9D6340F67AF7DC3FEA93DC611399E43F7FA0DCB6EF51D13F10E9B7AF03E7B43F1A53B0C6D974E23F37E33444157EE93FC80A7E1B62BCA63FE3FF8EA850DDC03FC70E2A711DE3E53F7BF486FBC8AD