module {
  llvm.func @malloc(i64) -> !llvm.ptr
  llvm.mlir.global private constant @__constant_101xindex(dense<"0x00000000000000002500000000000000250000000000000028000000000000004D000000000000005000000000000000530000000000000077000000000000007A000000000000007F00000000000000A200000000000000A300000000000000A500000000000000CC00000000000000CF00000000000000D000000000000000F500000000000000FA00000000000000FC00000000000000230100000000000028010000000000002A010000000000005001000000000000520100000000000055010000000000007A010000000000007D010000000000008301000000000000A701000000000000AB01000000000000AE01000000000000D301000000000000D601000000000000DA01000000000000FE0100000000000003020000000000000A020000000000002E0200000000000036020000000000003902000000000000620200000000000068020000000000006D02000000000000920200000000000094020000000000009702000000000000BB02000000000000BF02000000000000C102000000000000E602000000000000ED02000000000000EE02000000000000130300000000000016030000000000001A030000000000003D030000000000004003000000000000440300000000000066030000000000006A030000000000007203000000000000960300000000000099030000000000009C03000000000000C203000000000000C603000000000000C903000000000000ED03000000000000F103000000000000F6030000000000001A040000000000001F04000000000000220400000000000047040000000000004A040000000000004C04000000000000710400000000000075040000000000007C04000000000000A304000000000000A904000000000000AB04000000000000CE04000000000000D404000000000000D704000000000000FB04000000000000FE0400000000000004050000000000002905000000000000310500000000000039050000000000005E050000000000006005000000000000610500000000000084050000000000008B050000000000009105000000000000B605000000000000B605000000000000B905000000000000DC05000000000000"> : tensor<101xindex>) {addr_space = 0 : i32, alignment = 64 : i64} : !llvm.array<101 x i64>
  llvm.mlir.global private constant @__constant_1500xindex(dense<"0x00000000000000000300000000000000060000000000000009000000000000000C000000000000000F0000000000000012000000000000001500000000000000160000000000000018000000000000001B000000000000001E000000000000002100000000000000240000000000000027000000000000002A000000000000002D0000000000000030000000000000003300000000000000360000000000000039000000000000003C000000000000003F000000000000004200000000000000450000000000000048000000000000004B000000000000004E0000000000000051000000000000005400000000000000550000000000000057000000000000005A000000000000005B000000000000005D000000000000006000000000000000630000000000000006000000000000001B00000000000000440000000000000000000000000000000300000000000000060000000000000009000000000000000C000000000000000F0000000000000012000000000000001500000000000000180000000000000019000000000000001B000000000000001E000000000000002100000000000000240000000000000027000000000000002A000000000000002D0000000000000030000000000000003300000000000000360000000000000039000000000000003B000000000000003C000000000000003F0000000000000040000000000000004200000000000000450000000000000048000000000000004B000000000000004E000000000000005100000000000000540000000000000057000000000000005A000000000000005D000000000000006000000000000000630000000000000006000000000000003B00000000000000430000000000000022000000000000002C000000000000005D0000000000000000000000000000000300000000000000060000000000000009000000000000000C000000000000000F000000000000001200000000000000150000000000000018000000000000001B000000000000001E000000000000002100000000000000240000000000000027000000000000002A000000000000002D0000000000000030000000000000003300000000000000360000000000000039000000000000003C000000000000003F000000000000004200000000000000450000000000000048000000000000004B000000000000004E0000000000000051000000000000005400000000000000570000000000000058000000000000005A000000000000005B000000000000005D000000000000006000000000000000630000000000000012000000000000003B00000000000000450000000000000027000000000000002E0000000000000030000000000000003E000000000000004C0000000000000000000000000000000300000000000000060000000000000009000000000000000C000000000000000F000000000000001200000000000000150000000000000018000000000000001B000000000000001E000000000000002100000000000000240000000000000027000000000000002A000000000000002D0000000000000030000000000000003300000000000000360000000000000039000000000000003C000000000000003F000000000000004200000000000000450000000000000048000000000000004B000000000000004E000000000000004F000000000000005100000000000000540000000000000057000000000000005A000000000000005D000000000000006000000000000000630000000000000054000000000000000100000000000000480000000000000000000000000000000300000000000000060000000000000009000000000000000C000000000000000D000000000000000F0000000000000010000000000000001200000000000000150000000000000018000000000000001B000000000000001E0000000000000021000000000000002300000000000000240000000000000027000000000000002A000000000000002D0000000000000030000000000000003300000000000000360000000000000039000000000000003A000000000000003C000000000000003D000000000000003F000000000000004200000000000000450000000000000048000000000000004B000000000000004E000000000000005100000000000000540000000000000057000000000000005A000000000000005D0000000000000060000000000000006300000000000000110000000000000030000000000000005F00000000000000580000000000000000000000000000000300000000000000060000000000000009000000000000000C000000000000000F0000000000000010000000000000001200000000000000150000000000000018000000000000001B000000000000001E0000000000000021000000000000002400000000000000250000000000000027000000000000002A000000000000002D0000000000000030000000000000003300000000000000360000000000000039000000000000003C000000000000003F000000000000004200000000000000450000000000000048000000000000004B000000000000004E0000000000000051000000000000005400000000000000570000000000000058000000000000005A000000000000005D00000000000000600000000000000063000000000000000600000000000000100000000000000032000000000000004C0000000000000062000000000000004D00000000000000520000000000000000000000000000000300000000000000060000000000000009000000000000000C000000000000000F000000000000001200000000000000150000000000000018000000000000001B000000000000001E0000000000000021000000000000002300000000000000240000000000000027000000000000002A000000000000002D0000000000000030000000000000003300000000000000360000000000000039000000000000003C000000000000003F00000000000000410000000000000042000000000000004500000000000000460000000000000048000000000000004B000000000000004E0000000000000050000000000000005100000000000000540000000000000057000000000000005A000000000000005D000000000000005E0000000000000060000000000000006300000000000000170000000000000037000000000000004B0000000000000054000000000000005A000000000000000C00000000000000500000000000000000000000000000000300000000000000060000000000000009000000000000000C000000000000000F000000000000001200000000000000150000000000000018000000000000001B000000000000001E000000000000002100000000000000240000000000000027000000000000002A000000000000002D000000000000003000000000000000310000000000000033000000000000003500000000000000360000000000000039000000000000003C000000000000003F0000000000000041000000000000004200000000000000450000000000000048000000000000004B000000000000004C000000000000004E000000000000005100000000000000540000000000000057000000000000005A000000000000005D00000000000000600000000000000063000000000000000E0000000000000015000000000000003A000000000000004D00000000000000540000000000000000000000000000000300000000000000060000000000000009000000000000000C000000000000000F0000000000000011000000000000001200000000000000150000000000000018000000000000001B000000000000001E0000000000000021000000000000002200000000000000240000000000000027000000000000002A000000000000002D0000000000000030000000000000003300000000000000360000000000000039000000000000003C000000000000003F000000000000004200000000000000450000000000000048000000000000004B000000000000004E000000000000005100000000000000540000000000000057000000000000005A000000000000005D0000000000000060000000000000006200000000000000630000000000000003000000000000000D000000000000002400000000000000110000000000000018000000000000003200000000000000360000000000000052000000000000005D0000000000000000000000000000000300000000000000060000000000000009000000000000000C000000000000000F0000000000000012000000000000001500000000000000180000000000000019000000000000001B000000000000001E000000000000002100000000000000240000000000000027000000000000002A000000000000002D0000000000000030000000000000003300000000000000360000000000000039000000000000003C000000000000003F000000000000004200000000000000450000000000000048000000000000004B000000000000004E0000000000000051000000000000005400000000000000570000000000000059000000000000005A000000000000005D000000000000006000000000000000630000000000000027000000000000003800000000000000610000000000000062000000000000000A000000000000000E00000000000000240000000000000000000000000000000300000000000000060000000000000009000000000000000C000000000000000F000000000000001200000000000000150000000000000018000000000000001B000000000000001E0000000000000021000000000000002200000000000000240000000000000027000000000000002A000000000000002B000000000000002D0000000000000030000000000000003300000000000000360000000000000039000000000000003C000000000000003F0000000000000042000000000000004500000000000000460000000000000048000000000000004B000000000000004E000000000000005100000000000000540000000000000057000000000000005A000000000000005D00000000000000600000000000000063000000000000001A0000000000000022000000000000005A0000000000000014000000000000001B0000000000000029000000000000003D00000000000000000000000000000003000000000000000400000000000000060000000000000009000000000000000C000000000000000F000000000000001200000000000000150000000000000018000000000000001B000000000000001E0000000000000021000000000000002300000000000000240000000000000027000000000000002A000000000000002D0000000000000030000000000000003300000000000000360000000000000039000000000000003C000000000000003F000000000000004200000000000000450000000000000048000000000000004B000000000000004E000000000000005100000000000000540000000000000057000000000000005A000000000000005D000000000000006000000000000000630000000000000006000000000000000A00000000000000320000000000000055000000000000005F00000000000000070000000000000021000000000000002800000000000000330000000000000037000000000000004900000000000000600000000000000000000000000000000300000000000000060000000000000009000000000000000C000000000000000F000000000000001200000000000000150000000000000018000000000000001B000000000000001E000000000000002100000000000000240000000000000027000000000000002A000000000000002D00000000000000300000000000000032000000000000003300000000000000360000000000000039000000000000003C000000000000003E000000000000003F000000000000004200000000000000450000000000000048000000000000004B000000000000004E000000000000005100000000000000540000000000000057000000000000005A000000000000005D00000000000000600000000000000063000000000000000B000000000000002D0000000000000030000000000000003A0000000000000043000000000000005200000000000000550000000000000062000000000000000B0000000000000034000000000000004600000000000000000000000000000003000000000000000600000000000000070000000000000009000000000000000C000000000000000F000000000000001200000000000000150000000000000018000000000000001A000000000000001B000000000000001E000000000000002100000000000000240000000000000027000000000000002A000000000000002D00000000000000300000000000000033000000000000003500000000000000360000000000000039000000000000003C000000000000003F00000000000000400000000000000042000000000000004300000000000000450000000000000048000000000000004A000000000000004B000000000000004E0000000000000051000000000000005300000000000000540000000000000057000000000000005A000000000000005D000000000000006000000000000000630000000000000002000000000000002D0000000000000030000000000000004A0000000000000053000000000000005D0000000000000006000000000000001200000000000000190000000000000030000000000000005F0000000000000000000000000000000300000000000000060000000000000009000000000000000B000000000000000C000000000000000F0000000000000012000000000000001500000000000000170000000000000018000000000000001B000000000000001E000000000000002100000000000000240000000000000027000000000000002A000000000000002D0000000000000030000000000000003300000000000000360000000000000039000000000000003C000000000000003F000000000000004200000000000000450000000000000048000000000000004B000000000000004E000000000000005100000000000000540000000000000057000000000000005A000000000000005D00000000000000600000000000000062000000000000006300000000000000480000000000000052000000000000000F000000000000002C00000000000000480000000000000000000000000000000300000000000000060000000000000009000000000000000C000000000000000F000000000000001200000000000000150000000000000018000000000000001B000000000000001E000000000000002100000000000000240000000000000027000000000000002A000000000000002D00000000000000300000000000000031000000000000003300000000000000360000000000000039000000000000003C000000000000003F000000000000004200000000000000450000000000000048000000000000004B000000000000004E000000000000005100000000000000540000000000000057000000000000005A000000000000005B000000000000005D000000000000006000000000000000630000000000000037000000000000003F0000000000000040000000000000005C000000000000000F000000000000003A00000000000000000000000000000003000000000000000400000000000000060000000000000009000000000000000C000000000000000F000000000000001200000000000000150000000000000018000000000000001B000000000000001E0000000000000021000000000000002300000000000000240000000000000027000000000000002A000000000000002D0000000000000030000000000000003300000000000000360000000000000039000000000000003B000000000000003C000000000000003F000000000000004200000000000000450000000000000048000000000000004B000000000000004E000000000000005100000000000000540000000000000057000000000000005A000000000000005D000000000000006000000000000000630000000000000002000000000000000C00000000000000220000000000000033000000000000003900000000000000560000000000000061000000000000003D0000000000000000000000000000000300000000000000060000000000000009000000000000000C000000000000000F0000000000000012000000000000001300000000000000150000000000000018000000000000001B000000000000001E000000000000002100000000000000240000000000000027000000000000002A000000000000002D0000000000000030000000000000003300000000000000360000000000000039000000000000003B000000000000003C000000000000003F0000000000000042000000000000004400000000000000450000000000000048000000000000004B000000000000004E000000000000005100000000000000540000000000000057000000000000005A000000000000005D000000000000006000000000000000630000000000000018000000000000001A0000000000000032000000000000000C0000000000000014000000000000004200000000000000550000000000000000000000000000000300000000000000060000000000000009000000000000000C000000000000000F000000000000001200000000000000150000000000000018000000000000001B000000000000001C000000000000001E000000000000002100000000000000240000000000000027000000000000002A000000000000002D0000000000000030000000000000003300000000000000360000000000000039000000000000003C000000000000003F000000000000004200000000000000450000000000000048000000000000004B000000000000004E000000000000005100000000000000540000000000000057000000000000005A000000000000005D0000000000000060000000000000006300000000000000030000000000000015000000000000005000000000000000000000000000000012000000000000003F000000000000004C0000000000000000000000000000000300000000000000060000000000000009000000000000000C000000000000000F000000000000001200000000000000150000000000000018000000000000001B000000000000001E000000000000002100000000000000240000000000000027000000000000002A000000000000002D0000000000000030000000000000003300000000000000360000000000000039000000000000003C000000000000003F000000000000004200000000000000450000000000000048000000000000004B000000000000004E000000000000005100000000000000540000000000000057000000000000005A000000000000005D00000000000000600000000000000063000000000000001B000000000000001F0000000000000024000000000000006000000000000000020000000000000011000000000000001F0000000000000033000000000000003B000000000000003C000000000000004C00000000000000630000000000000000000000000000000300000000000000060000000000000009000000000000000C000000000000000F0000000000000010000000000000001200000000000000150000000000000018000000000000001B000000000000001E000000000000002100000000000000240000000000000027000000000000002A000000000000002D0000000000000030000000000000003300000000000000360000000000000039000000000000003C000000000000003F000000000000004200000000000000450000000000000048000000000000004B000000000000004E0000000000000051000000000000005400000000000000550000000000000057000000000000005A000000000000005D00000000000000600000000000000063000000000000003D0000000000000045000000000000004E0000000000000042000000000000005500000000000000570000000000000000000000000000000300000000000000060000000000000009000000000000000C000000000000000F0000000000000012000000000000001500000000000000170000000000000018000000000000001B000000000000001E000000000000002100000000000000240000000000000027000000000000002A000000000000002B000000000000002D0000000000000030000000000000003300000000000000360000000000000039000000000000003C000000000000003F000000000000004200000000000000450000000000000048000000000000004B000000000000004E000000000000005100000000000000540000000000000057000000000000005A000000000000005D000000000000005F0000000000000060000000000000006100000000000000630000000000000009000000000000000E0000000000000025000000000000005400000000000000070000000000000028000000000000003500000000000000000000000000000001000000000000000300000000000000060000000000000009000000000000000C000000000000000F000000000000001200000000000000150000000000000018000000000000001A000000000000001B000000000000001E000000000000002100000000000000240000000000000027000000000000002A000000000000002D0000000000000030000000000000003300000000000000360000000000000039000000000000003C000000000000003F000000000000004200000000000000450000000000000048000000000000004B000000000000004E000000000000005100000000000000540000000000000057000000000000005A000000000000005D00000000000000600000000000000063000000000000002E0000000000000034000000000000003F0000000000000047000000000000000000000000000000260000000000000048000000000000005400000000000000570000000000000000000000000000000300000000000000060000000000000009000000000000000C000000000000000F000000000000001200000000000000150000000000000018000000000000001B000000000000001C000000000000001E000000000000001F000000000000002100000000000000240000000000000027000000000000002A000000000000002D0000000000000030000000000000003300000000000000360000000000000039000000000000003C000000000000003F000000000000004200000000000000450000000000000048000000000000004B000000000000004E000000000000005100000000000000540000000000000057000000000000005A000000000000005D000000000000006000000000000000630000000000000039000000000000003E0000000000000045000000000000004F000000000000005F000000000000000C000000000000001500000000000000310000000000000000000000000000000300000000000000060000000000000009000000000000000C000000000000000F0000000000000010000000000000001200000000000000150000000000000018000000000000001B000000000000001E000000000000002100000000000000240000000000000027000000000000002A000000000000002D000000000000003000000000000000330000000000000034000000000000003600000000000000370000000000000039000000000000003C000000000000003F000000000000004200000000000000450000000000000048000000000000004B000000000000004E000000000000005100000000000000540000000000000057000000000000005A000000000000005D00000000000000600000000000000063000000000000004F0000000000000057000000000000005B000000000000001E000000000000006200000000000000000000000000000003000000000000000500000000000000060000000000000009000000000000000C000000000000000F0000000000000012000000000000001500000000000000180000000000000019000000000000001B000000000000001E000000000000002100000000000000240000000000000027000000000000002A000000000000002D00000000000000300000000000000033000000000000003500000000000000360000000000000039000000000000003C000000000000003F000000000000004200000000000000450000000000000048000000000000004B000000000000004E000000000000005100000000000000540000000000000057000000000000005A000000000000005D00000000000000600000000000000063000000000000001A00000000000000350000000000000037000000000000003900000000000000060000000000000024000000000000002B000000000000003E0000000000000040000000000000004100000000000000530000000000000000000000000000000300000000000000060000000000000009000000000000000C000000000000000F000000000000001200000000000000150000000000000018000000000000001B000000000000001E000000000000002100000000000000240000000000000027000000000000002A000000000000002D00000000000000300000000000000033000000000000003500000000000000360000000000000039000000000000003C000000000000003D000000000000003E000000000000003F000000000000004200000000000000450000000000000048000000000000004B000000000000004E0000000000000050000000000000005100000000000000540000000000000057000000000000005A000000000000005D000000000000005E0000000000000060000000000000006300000000000000040000000000000023000000000000002B0000000000000043000000000000004E000000000000005B0000000000000019000000000000003E0000000000000000000000000000000300000000000000060000000000000009000000000000000C000000000000000F000000000000001200000000000000150000000000000018000000000000001B000000000000001E000000000000002100000000000000240000000000000027000000000000002A000000000000002D0000000000000030000000000000003300000000000000360000000000000039000000000000003C000000000000003F000000000000004200000000000000450000000000000048000000000000004B000000000000004E000000000000005100000000000000540000000000000057000000000000005A000000000000005D000000000000005F00000000000000600000000000000063000000000000002E00000000000000340000000000000036000000000000003F0000000000000044000000000000005600000000000000210000000000000031000000000000003A0000000000000000000000000000000300000000000000060000000000000009000000000000000C000000000000000F0000000000000010000000000000001200000000000000150000000000000018000000000000001B000000000000001E000000000000002100000000000000240000000000000027000000000000002A000000000000002D0000000000000030000000000000003300000000000000360000000000000039000000000000003C000000000000003F0000000000000041000000000000004200000000000000450000000000000048000000000000004B000000000000004E000000000000005100000000000000540000000000000057000000000000005A000000000000005D00000000000000600000000000000063000000000000001B000000000000003800000000000000590000000000000003000000000000002A000000000000003C000000000000003E0000000000000046000000000000005800000000000000000000000000000001000000000000000300000000000000060000000000000009000000000000000C000000000000000F000000000000001200000000000000150000000000000018000000000000001B000000000000001C000000000000001E000000000000002100000000000000240000000000000027000000000000002A000000000000002D00000000000000300000000000000031000000000000003300000000000000360000000000000039000000000000003C000000000000003F000000000000004200000000000000450000000000000048000000000000004B000000000000004E000000000000005100000000000000540000000000000057000000000000005A000000000000005D000000000000006000000000000000630000000000000003000000000000000C0000000000000026000000000000002B00000000000000340000000000000040000000000000004100000000000000580000000000000005000000000000000B000000000000000D000000000000001000000000000000120000000000000027000000000000002F00000000000000560000000000000000000000000000000300000000000000060000000000000009000000000000000C000000000000000F0000000000000012000000000000001500000000000000180000000000000019000000000000001B000000000000001E0000000000000021000000000000002400000000000000270000000000000028000000000000002A000000000000002D00000000000000300000000000000033000000000000003500000000000000360000000000000039000000000000003C000000000000003F000000000000004200000000000000450000000000000048000000000000004B000000000000004E000000000000005100000000000000540000000000000057000000000000005A000000000000005D000000000000006000000000000000630000000000000016000000000000004800000000000000610000000000000000000000000000000300000000000000060000000000000009000000000000000C000000000000000F000000000000001200000000000000150000000000000018000000000000001B000000000000001E000000000000002100000000000000240000000000000027000000000000002A000000000000002D0000000000000030000000000000003300000000000000360000000000000039000000000000003C000000000000003F000000000000004200000000000000450000000000000048000000000000004B000000000000004E0000000000000051000000000000005400000000000000560000000000000057000000000000005A000000000000005D000000000000006000000000000000630000000000000000000000000000000F000000000000001900000000000000210000000000000022000000000000002C000000000000003500000000000000010000000000000008000000000000000A000000000000000B0000000000000028000000000000004F0000000000000000000000000000000300000000000000060000000000000009000000000000000C000000000000000F0000000000000012000000000000001300000000000000150000000000000018000000000000001B000000000000001E000000000000002100000000000000240000000000000027000000000000002A000000000000002D0000000000000030000000000000003300000000000000360000000000000039000000000000003C000000000000003F0000000000000042000000000000004400000000000000450000000000000048000000000000004B000000000000004E000000000000005100000000000000540000000000000057000000000000005A000000000000005D000000000000005E000000000000006000000000000000630000000000000026000000000000004C00000000000000620000000000000000000000000000000300000000000000060000000000000009000000000000000C000000000000000F000000000000001200000000000000150000000000000018000000000000001B000000000000001E000000000000002100000000000000240000000000000027000000000000002A000000000000002D0000000000000030000000000000003300000000000000360000000000000039000000000000003C000000000000003F0000000000000042000000000000004300000000000000450000000000000048000000000000004B000000000000004E000000000000005100000000000000540000000000000057000000000000005A000000000000005D0000000000000060000000000000006300000000000000"> : tensor<1500xindex>) {addr_space = 0 : i32, alignment = 64 : i64} : !llvm.array<1500 x i64>
  llvm.mlir.global private constant @__constant_1500xf64(dense<1.000000e+00> : tensor<1500xf64>) {addr_space = 0 : i32, alignment = 64 : i64} : !llvm.array<1500 x f64>
  llvm.mlir.global private constant @__constant_100x100xf64(dense<"0xDC0E643E35BFE93F6803912105FAB33F9A50BADC88D7E73F36FF7A54DAA0E33F0889A23D3D24CF3F1F0C662FE4B7E53F74895C224834EA3FC8288B5A3129E13F32C355973C74E13FC4B399722379EE3F689929F18540E33F640763FD10C0D43F6B1F91FEF084EA3FF8750873B63EEE3FB0575948D62ED03FCC42C31382C1C93F4BE5924E5A99EE3F03C12352DA80E23F8861EAAAB755B63FB611091BB2C4ED3F18321ED717CDDD3F8816EF1BD5D0E53F70E4A8DA6D60CD3F2E59598C4288E13F3A3FA70A71E4D43FE07CEAB3B757C83F8136220781D5E13F545785F8DEF2C43F807CC45F1949933F00591492E5EF6B3F07BA55527796E83FFC3337D1DF0FC33F8616C6E130BAD83FE46B7CF3D3FCEB3F80797F9FE542C33F283627AF937AB73F78BB85BBDB48BA3F7AF33B0E7431DB3F9CA8892BDF20C63F69B2EC36F336E23F08926942541EC03F0C2E95F0DD08D23F50B23820AE1DBE3F585A18E7BC77B73FD8CC9516CC08CD3F278E4B536CC4E43FD780C27F214BEB3FADFE12FB027BE53FC60279C31985D03F60A34B45C862A63FEE881DE5A40BD23F3AEEF30E1915E43F6E5B583FAF87D73FEF169FEC3B17EB3F62842077425DEB3F29AF7762BC9EE03F2A27D44E1A08E13F7005D8965F51A73F464980EF59CED03FF7916210A28DEC3F1817F0ED90E0B93FBCB15B23D541C03F60E895DD77BFB73FA67642C4A875EE3FD87AD994DF2CE03F148405CB3F39CF3F462ECDBD721DD63F29262A5F6E69E43FDE93A9713CE8E43F5C5B9EA528BDEF3F24285BE63887D53F8AFFBBDC5D68ED3FDC7587298490EA3F93F6940DDDDFEE3FB21AB5BF7412DE3F55D430C5583EEE3FB714335A8645ED3F00367CE7B3E6783FD4145B4769ECD93FB06BB8AC88D3D33F02D947ECABB0D43F8227FB7F69DFD23F6BAA21A6D830EF3F080991A484DFED3FA08225AD0134DB3F971D2B115D2DED3FAC8B7D179286ED3FE43765BAA08CE13F0E4708E30EA3DB3FD24FA298A4DDDF3F63DB75570FAEE93FF8540E4BC2EDD23F504A860C387EAC3FDA81887D7105E03F0E9B0C94F168E93F9A0BBF979E33DC3F9A8A076433DAD63FF8064D6AE30BBC3FDA7133C29936EA3FEC8684338BDECF3FC4BE85D6C57BE53F16AF6AE7FFE3DC3FC6111C72FB6AD63FC81FB8A73698D23F579425D2E9B6EF3F5E44C1576541E83F291BE0F71760ED3FAC1720F5552ED83F900CDAFD5AD2D83FE0A9ACDB89649B3FBCCCADC8C348E33F8ED6C4ABCEFEED3F92EFBD9E4310D53F6B16D69C870AEE3FC0DE0D3AFEFBE23F8CF429E1DF23C73FDC7525C94CF9E13F002440FED419BF3F1C7C977DC6CEE03F743560CFEEA0CA3FBEC4C3B44CBCE73FD502C318CF5EE73F262DF59A81ACE43FC4B96936ACF0E93F04DF964711DDCF3F47ED033311D0E33F88024CFF30FAC63FFE9FF9C1ABB5E73F353718B17733EC3F962355CE9232D23F669A1C4FDE13D33F60FA37DC8F2FB23F20D36115B5C1A43FF3E92704A00AE73F51A7539A1835EA3F544A2CCF4013DC3F68B1B513D36FB53FA013DA93AA0AE43F4606F9F06B11DF3FE8B3340723DFC43FE8935FE3A20FCC3F75A55132C2D8EF3F08CCE1415AC1D33F5EB5A4220F91D53F54789DE6E654CE3F8F97093676F3EB3F00404D94AFB4D73FF441387323E3DA3FE550EC75A375E03FEDEBB498E0EEE53FF3A626A9057FE53F204A959D5C0AA13F1A2BD5E519D9EC3FC45C1F372732E83F548EEE938D94E63FE643A2DCCF65DD3F50C7D52F2A51A63FEE7AF7E76CB9DC3F521D1528C57CDA3F3658AEDC0298E53FFD0460511FB1E13F6EB68B59A20FD93F6D8858976283E03F7A2448367A43EE3F8CD90A6F69F7CA3F7C891006AE68DD3F5C0D8CF186ADDD3F7861F7629037DB3F59ECA78AF09EE23FFE2250EC430BEF3F99BAB5A929F0EC3F66CD1A173A9BEC3F97438BFF0C1BEC3F43EB85CCC581E03F3021CD0C6D3AB83F0D525020319CEF3F8AAE56171693D93F64FBE0B1BF02C43F33C64F95FDF3E23FF01D1512F5A1B73FE042793C7091C83F142D0EE355BCD13F76BB0362F11EE23F5030BA9DBC5FE73FCAE92986C0E9D53F70B80429A091E63F3AF6F0322A03D23F527C570A4DCCDC3F8A99A5BE3063DE3FC00FEDFCA03EA83FD4A43765E660C13F1C7CCDD4B46EC23F48C5606245D4EB3F66CD713E1DF8D33F98BDB78EA824DC3F6008D2488C82BA3F7A27A4FD5BB1EF3F57EF3B667102EC3FB07825E22606A63F91436842D003E73FBC21E341B327CB3F464299EC66F7D93F9062C8281723C53FBA6A84BF110BD03FEA81FD1FFB73E03F88E5F902CD42C23F741AA6D55080D03F69039F0FD0BAE63F989CD09FF41DCB3F7ED0E121F9FBEB3F4A9057D0C789DC3F424BA554FFA4EE3FFF9187CF0152E53F014A0EE6DD28EF3F2CF8532ED1ABC53F3EB8B19763BAD63FA0B7D0D09674AC3F680C9186CDF8C63F0E3BE7D4B92CEE3F2547D718C225E63F5939E3140CF5ED3F75DC2890BCE6EB3F72F1DF15262AD63FD41C59BE9A4EDC3F14C7D37D4718CC3F5249404FF319D63FA28A84EE198FE83F870D12DAAB37EE3FB0759D5E4B9BC03FA4EC230D3154E63FCFDEEB0F125DE23F72FAAE23C7BDED3F78A3EEB8F752EE3F95FDE4646909E63F4ADA44B6D160E43FAC02F6636F60D33F6E9751D21A35EB3FE10354DEB986E83F8D9F998F8DC5EB3FEC4468171278C93F0079F1561BC2EC3F50E904E9505CB63F54418233EFE4C63F4088DCAE5415CF3F655C11E591DCE13F607B9F8EB4539F3F40A2B6F364A7E23FE72AA823E450EA3F047ED0F4FCCDC73FD4BCD1B2229AEE3F5BF41F154781E73F08D0C1E040B7BA3FA15A1FA1A0C1EA3FC034612B477EC13FE76CA1DDAE33EC3F08590DE13A17BF3F0694EC725715D63FFCFC58E3D87ED63F0FAA97149694EA3FBC06D1A19EC7D73FC41467459853EC3FC33780617FC4E93F5A28A001AA29EC3F00189B19F2C8883F2539D75088CEE43F6C6D0DE1A562DA3F388DE70019D7C53F405E520AE484D03FB24250FE96E2D03F719777FF51D7E63F7C0E8F1A1CE9C23F6C49561D6FA7E33F84DACECF376DEC3FB005B1C84B96D73FB4568B424B23E13FEF16699AFA4CE43FDE52215571DBEC3F26A6430744E0EC3FC8AFFCFB674EBA3F207B538189D3B23FFF63AB0EE265E03FA8A0ECA174E0C83FD9BBFD19FE2CE33F805123515EC1973FE84BC0023AF0D93F1C5300DE83B1E03F302B9C3B0670B93F3209A29360B2EF3F6A6A9829765EE83FE8B33CAFA745CA3F2A91D74CFD63EB3F7615AF7C0441D93FC2A5675C087FDF3F958B63178E2EE63FF067FD36A631D73F54429CA005EAC03FD82510FCEE54D53FF2E3E771A110E53F5FE27A07ECDEE23F20A1E070CDDDEF3FAC5315BF4BF6E33F0247594BD25BDB3F48A9BD8635C6D23F197D292FB066E43F906AFCDE3EFFA73FEC983864BB15E43F98C61CBE4CB1D23FBA3413E85553E53F29149C51674BEB3F8CFA37165041E33FF4CBF483CCC7ED3FB4E767BD5B33D63F51648B8FF3CFEA3FCCD8DAFEF8C1D43FE26BA0ED9C1AD93FA026FA336D6BEE3FBA07A9786E5FD53F1D6194E232FDE43FC8A65B643353E13F59827B57D3B2E83F1EA216EFF374E23F6E6A27079B9AD73F612A01B49CF8E93F5867CEA60D05B93F884E9A547B9EB33F84100383335FEE3F45CA1F840214EC3F211D241FC6E5E23F8CC51ED7A969EA3F00350ED61F31C33F2A44FA9785E1E13F053F2B0933CDE53FE81F904D53D6D13FA04A8598404ED03F7D22BE96BA14E73F1CEE0E701CE9E73FC3F67F2A1EC4EA3F7898F4394538DD3F88C67C42CB2FC93F88DB82244B28DF3F07198F5258BEEE3F46DB3095D013EB3F80CFE0C5EB37B53FFFB1E17DE628E03F86C2ACFD44D1E03F4C0E7CF49A9EE13FE47008492481D63FF6DB84598F17D43F4CE1EC9499CADE3F44D1FB0DF4E1EE3F78F5E8A0454DE03FECA3433DBE8AC43F98E53309257DBE3F142BA8260636CB3FD0C8B096D2C6A43FB05068066D2BC93F79DE9D944459E63F602D932B9E3BA73F8CDC4BE5E5BEDF3F820E9EDA3942E93F90B5A32A3F0CED3FE427E8F084D1E03FF695699071D4D33F008AE8D71D55613F8472B4F78F97CD3F6E5CC147E595DC3FEA05CB18B89ED03F30E02EF170D5D53F90FEAE418D8EB23FAA662FFC5071E23F3EB5E4D947B7EF3F1F189A4D01B4EF3F80C3FFC69C359B3F67662CC28EC3E63F629384F56AC5DD3F727607DC1054D43FB3ABA93199C5E43FB6FA5EEFA7D9D63FDCAF03C8DB02C33FAACC2FE9B06EED3FECFE030883BEDA3FD9EF3D9FD580E63FD5FF16F90324E03FB8A00CA65108D83FB03A9CB9A109E73F5E76FA45580BEB3F3C1BD9C52F00C43F6C6622B29F96E03FC985A7970693E53F7C5EEF07A1BFE53F6EDA3AB141BBEA3FAC253E954D82E63FB47434F96759EF3F692C280AD8A6E83FC34CF5D2556CED3F44F61A533518C73FA0809105BB35B53F9A07BB4E5185EB3F5805F5F74645E53F08E3337A2AE6C13F341FC21D44D0CF3F003DF761B71B6B3F5C0BB15CE8CEDD3F00F398C82657993F2D31B9E5B5F1E33FB8DD8B78CB5ECF3F80FB74ECACE6DC3F130260330AACE63F4458376AFA95D03F848FA7F88FD5EA3F6847393CB293DD3FE83B10DE737ECA3F1070E67D8EDFAA3F73836A833A9AEF3F7256B5A103A0D53FA8D7AEE724C7E33F606332FD49E49F3F2CEB117D2A6DC13F5F78EA1FA2F0ED3FC7B35CE0D42DE43F6C0D8027726FD83F3853A827D406EA3F24011AE74531E53FB07709C0657EC83FEB59BEAF885FE63F8ECE9B5F6CE7E83FD402095DED5FC73F6B93BAB8AEAAEE3F985172D7C973C93F2483AA99358FDA3F380589EA0BE0EF3FF4A8D9600B3AC03F0ABDA31C538DE33F902E691BEDB9DC3FF8A72757B55ADD3F431ADF42BC56E43FB4D282C248B8E63FE36D7C77595DEC3FE056FC300B339D3FC0959AD46EA0A93F68CB9632953FDA3F0BFC09E38C09E63F58F098E01826B23FBE36D74382ABE33F622F4778B89EE73F6A7F64A0BA71EA3FE098C3C95E1EB83F80789CC1F266913F6875DCFAF11CEA3F7420F1EAAA31C13F0BEF0D3AF588EC3F6FDD1AF92E85E53FE8D3E0953C45C33F4E7D485638CEEB3F82974D0227EBDE3F4FFC0584527DEE3F0EB46B6BD940ED3F66802C85D80FEA3F3F649EC4EDACE23FDE5532F44D80DC3F682594D0BC6ABC3F908C2713457FE73FC77333177842EC3F40ACA51716319D3F28AECF5C4BE1EF3FA5667639B02DEF3F2E1413429D55DE3FBCCC69F28E86D83F2A3288D127F4D33F30622BC1AA7FEC3FCB5109AC760FE93FD00A17FD9BE6C53F7A6B5346ACA8D73F48D01C053E3DCA3FC82E54EF6C4EB63F2008DDACD8629E3F20F4F6C38CEBB93F4ACBC04A62E5E93F260A5B16F199EA3FD4EA13B0AF5EC03FB05A3BB37074DB3F2EC34EE06A18E63F14C472F924DDEF3F8CBBF63C1AA7C93F93CAB22D969FE33FC64326F7AAF4E43F34764436194BEA3FB001B6D1D7F7AA3F701AD9AEFBDCEE3F96314599A90DE73F986549AD49ECD53F5CF07654F4E9EF3FA0FE384BAD00C23F8385977D598AEF3F403E85114A40913FCC50A35E2D18EE3F13C813FC1157EB3F9B7ADE4D24B2ED3F4055BD0510479E3F7F145360F11CE53FCC2735A4B433D03F8E7C350586DCE63F589C05DF7149D23FBEDF5218A8A6E83FF2A8EFB6C09FEB3F0059748E797E873F9E1341F94C4DD73F5AEB754B474EE53F40E7A62BFD31D13FCD4198988DDFE93F3C1115AB79CDC33FBA7B7BF4105BED3F2F5A2162B188E03F91F55773069DEE3F02CBA36ABBF6EB3FAF79B860FDD7E53FEEF62228A69AE03F45E15B9AD0C5EF3FC6E4E79A26F1D23F256999C9C6D2E73F0E69DF7A0F31E93F6E412F684C31DE3F2E172562AABCD53FFC8FD46296F2E43F9DCB8A0D292EEF3F00432849F824693FE09EF50CD74A983FAAC79E81F294E33FBCFCBD3AEECFEC3FE40BAD260857ED3F7AE99257E07AEC3FC04276DBECD3E13F44FFC06C8F35C73FD4BC34060471DA3F84657B7BD209E53F095DA2B5BBFEEE3F6CA87F342EA7CE3F42D7B536D9D2E73FB8E7944BC322D83F82ABF3248E80DA3FACF51898913ACD3FF91FF2F038BBE93F30BCC7C0DB76A43FA094488ABF1CE73F3D48B597DBC9E93F7A02AD4AED99ED3F31EEF71BF92FE93F5EBE63DFA712E53FA8BE74FD7CA3E13F44CF71F4953BDC3FB81D6B3F40E9CB3FE1D73D200248E33F70B60E92CA09B03F9DFB746A7D5BE63F345B083F8613EC3FC8F6D189E1B9CC3F00FF9ED8593C6D3FC014A81A1212DA3FEBA7C2F2C69DEF3F58037F0FB66FD13F581C32396D2AB43FDC426C38D205CB3FB5883937F4DFEC3FB47F4FB1B5C7DB3FD4372242051BE63FDC438E1E5985C93F4C29F98D77E5D33F48D2CF8A05D8BC3F05DDB606D95EE23F926C2F26481BEC3F80566E5CE4B4A53FB388B5AB9872EB3FD697AE520029D13F5472ED1EAD07CB3F723D4BE01D92EB3F10D72B92A839CB3F9AACAEB30BDDDB3F84250D388C06DC3F7B8EC5F57CD6E63F1260B9DEB23CEA3FB8CB5D1F489CBF3F60CCCA256F6AA33F8011D1EBD57CE43F80A951C68A8B803FFA3A2261F3D2E73FE0CA656677AABC3FE2C169792472E03F68A930E166F0D93FD69B3A97B30AE93FF937D10BCA21EC3FF1AD2576EEA7E83F50FFC0F4A836EA3F0DCEA6578F21EA3F5479AFA78084D03FF1425BE668A9EC3F882D48FCE12CC33FABE6C1C9030EE63FE5662521934BE63F82FD4C6DF8CCD83F30E70E690644A33F305A47F2D39CDE3F00238A15D752C03F902D52D3EE94B23FAE0F3FBBB6D7E83F045DEC79671CD43FACAA7109F8FDEC3F580CF79AF255DC3FD480E7CC3864D83FCF9181D49392ED3FA023B77350B59D3FE8605215A5C1C53F9C10B050D51AEF3F9820937A2A68BC3F88087AA2B2D0B03FC028C8862087A93F0145A405905BEF3F605A0ACD451AB43F4D2D48377E6BE13F765779578A8EDE3F847171FBEEF7E33F30EA736D4C4BB63FA8E36FC5DEAEDE3F0C23E26C3FBBC73FE0ADA9180F06E03F95B8E632F203E03FDC1141A9FDA6EF3F9879EA5AEEA3D53F2710ED33BCDFEB3F36571C5AE047DF3F370514518AD2E43F14FEB0DD5983EA3F2D10F29B72E3EC3F02D4A4FA7499DA3F70783A03CFA1DF3F408ED7EC9A28C73FB2B7863B3592DA3FDAC14AE1CB73E03F74C4EF0F97B6D73F84A5A83C5CC6D73F94B754982AF8E23FA811AF6DF6A8EE3FEA87D18710BAE53F165377452136E03FD2099FC4AD14E63F0401AEAA0AA9D83FC4D23F14E8ABCC3F0C6DE59374B0E83F362994B388E1DE3F509AA5CB0ADCB83F125C8E6BB3DCD93FC830C57DCEB4D33F73B4B7AA8072E83F1E2A9080961DE13F0207D32388EDDE3F2F38AFF17AC7E93FEEFB17286BB4DD3F26DC1CB9CC9EDA3F005E0CD9ED4D723F2B972AEEA2AEEC3F888C946B8E58CB3F063978D8D6C0ED3F901AA05C1858D23FE6F8175F7B98EF3F76BE70E816D4D93F3C458C02EEC0DC3F64136954A1ACE63F98676BA04431C13FDFECA8BB71FAE83FDBF9465E8FC6E63F7886AF8A87C7D73F10859AF2036AE83F85FA83D7820FE53F73ECF9920B38E43FE214FD361937E33F786879A627A3E13F80D24DFC41D6BE3F46EDC2DD902EE73F88711DDF86F5BA3FDD1167C02053E83F5738060D2FC9E03F18F633B4E547D23F009282DC548A8F3F0050333AE4CD6A3FE75CB9D2BD18E13FCED2E3AA130CD63F0E2BCCACEE0BE73F97B30818A3B1ED3FA8D5B7E284D1B23FA7AD84FAC503EC3F273C2B939C98E33FC2155791A203D63F50EF05F79F62E93F71812EB5E311E83F38AEC508D268D13F041CC4472161D13F60D5E69C5AE1B53FF8609A514D40EE3F5880D9FF0A0DE73F29D795FC97F0E83F68B184CBEC54BF3F3031152F3618B03FC4059D214315CD3F89C87E2EF388ED3FF93E1E3493C5E53F984BD3A90879B73F025E0EE8A5C3D73F089B5041E41DDA3F545C6583A63DDD3F9852230D2007CD3F2FF2EC0AD0E3E93FE01BD1E26F40D53FD480E452B76BE23F4893B947CC3AC03F5C9305373EACD43F34DE70034366ED3F8A56FCB70D71DD3F18D369C3AFEBCA3F4414421C94E4D93F80B9CC4D413CBE3F59020D20F98DEC3F9C26B6BE91C6D23FA06EF41589C7E23FA91BF3BFBEAFE23F624D7967724DE93FC0FC00253D95CF3F90CD7531DE9ED43F31B02F2784E2E43F6837B81A41D5B03F3857CA11E494C13F3715D448B933E53F603E2871EFB0DC3FEAD8F3CDBC59DF3FD0BA8C52AA11C03FBC134684C308EC3FA07478D912ECD13F03EC043DC8B7ED3F0DD9B26CF617E63F80C09AF3EFCFEE3F187AB7BEE58FD03F48D9F8916CEBD03F5C5B4A8EDECEC73FF2BA3A8911EAE53F3A25FA76EAB9E93F3C5DCE8B66FACF3F8A051925CBBFDB3FF01C2B2AAF76A13F2E5045719ED9E43FE0A9130A063C953F18B381946981CD3F6815610A176CC53F1A9936C60F22E13F382C331E0AAABE3FEEC4BABEE881E03F18565806B304B83F43BB5CA17E4EE83FC073C8C4C9689A3FE8C0126EC355E93F363B67090D61EB3FA4D55D7AEF9BE63FB6E3D698F97EEA3FBA0619F221ABD03FE38B9CD8453EE73F226AEAC1FCAFDB3F9E1991348414D33FC0D3E602E9E0983F42DBB8C5FDC7E33F690113027B84E33F7BB77F05E78DE33F7D04BA6467E5E03FF454D6DD2467E13F1EEE27417A36D23F00C123627715AD3F40ED52CDA472873F61910F5072DCEF3F00751CBC0D32C03F857EFA93D26CED3FC7B3CA0A0663ED3F585DC6D5C36EB33FD02B2F4B9823DD3F7E230FC9D8EBEB3F72900893883CDB3F70874F8490B8A83F7EDBC6CCAF53E23FF715D378FE0CE83F48017ECF69EDE03F3CC025F95D3CEF3FAED1A5FC6B52D03F7594F39F8443EA3F899A12A34551E73FC4C8D455840FD33F8DD9D34106CFE43F9DBE1CE389C9ED3F40F95BAF3882C43F849B4B4026AEE63FEFD542B64A04ED3F1274575DA232E93FFAF5A6B9F990D23F0EA293D96190E43F2DD691822588E93F4AC8E51B16FDD43FCC262015F0E7DD3F760192B03E9CD23F99316ED36BF1E33F02E4A780B2F5DC3F4FE29E31F027E83F7819F1E9703FC93F44B4718A772EE63F2FAA375B953BE73FEAC3EDEF4AF3DA3FF97F76617140E63F2D80BDC3C919E63F7005B863815EA93F8C3D7AAFE910E93F7482C1E5C81EDE3FB03448E24596D83F9809A8F03D47C33FE61F2A9389B4D73F060AF2C41813D83F2406F41B0214CD3FC444D786016FEC3FF697CCE11844DF3F00F6E18FB109913F38FAE6534BCFD73FF7052938682CE43F06115EE61480E83FA053690053AAA83F6AF3F67A4F07E63FF01900D33936C33F1ABB56F366E6EC3F70213341F0E9C23FE79C0948A0B5E63FF06C7A6BF3D8E43FEBBCD47907B2E93FA434FA62D4D2E13FB813BEE942A0C83F2E7DC28A6AFDD13FA0DA49E3CD25D53F133CF68B3045E63F1333DB6BDA7AE13F10C99C14F813E23F83B3D988D794EA3F00E20220B2DB583F180EE8227EC7CF3FA6A968FBAE34E63F025E847618BCDF3F470D4EF8D570E63F49777BC79DA0ED3F1558FB3DA821EF3F5804B039AFB0E83FD0B676CB4219BF3FF9F6CC454F97E73F8189D84BDD5CE23F3705D8967830E33F04069BC09475E23F344C3E104487D13F2E79045DBB08E53FBC3371AAD21FC63FA0A0426D231EDE3F1862E317DBE3BD3F80034DD2F723C53F9C776870A6DBC23FC6B8FF31E252EB3F581ECC775F47E53F8483E643743FD73F70C7382467C6C03F0EE82919BC6FE23FA018A146A5AFE43FDA13BF106AD4EA3FD4719F9F836EC73F75D8D9377A54E13FD2E331B6814EDA3F0F219CE8DD2AE63F60ECEBD0B545A83FE4D4CDCE87D7D53F346CFE8C222FEA3F2608F08EC010D93FD0A7608EDEEDA23FA9F23E448A84E93F6C80A680416AEA3FC611C99C674BEA3F304AF13D9873E13F2CB3999B540BE73FA5A3DDB6B228E93F24346065ADD2E43FB0CA23987818EE3F100F1D0E7328E63F982E8A844014CC3FF216416E1492E73F9756165E8F19E23FC441CBD08C21D43FEF30DA500198E93F8CB844804B3BEF3F26B4BA433F9AE03F90446A83ACBAE83FBC3ABDB0DBD8DF3F0875B67FC37EEB3F94FDCE6DAEF2CA3F406128D94AE18D3FF4C855894C1DEF3F863D8F84A4C5D13F4CBE1D94BBAAC13F29825E7BAE64EA3F001358F8BD07683FBC7CA1BF7914CA3FD8A9B8D9331AB13FA9EB74D755FDED3FC02DD68EA5A9C53F0804FCBE388AD63F84BCFF83CF8BEA3FB5CECFB28A7BE63FFC5B657F2FD5C13FF8CC8DD4DBDEEF3F9CAB9818E923CF3F52D545E3A6E5EB3F83077A1A3450E03F8CE377285D4BEF3FD9D21016A6A3E93F9CBC056A4CF9D63F507777FC9D04A33FCCED1AC407F8E03FC406EE312E0DE73F71F2DBDDD775EC3F49F722C9DF43EA3F81CFDD7B7E51E03F1C8C05A3FA86C83FB6968AF3095BD53FAB42DFD7EF42E43F38010A3A8E38C03F7887E976A7D4B83FA9A95109AA66E03FF4D33C14E737C03F2DD4D4C096D4E13F44994AE29E71D23F181BBCC7D7B7B23F88E138F18C99E93F00D570C1EACAE23F263DCA5B1ECBEF3FFD75F318C3ACE93F822F94A87FFEED3FEE2BAC47CA96D03F0DBFD3E11731E83FD1C4A71364F4EA3F4495F3806709E43F2496AA9559F6E23F988584883E41E73F79D1DC2ABA10E03FD8B1E4841FFFCD3F4471AE3A48EDCF3F50A0BDD4D52FB63FBA09DEFBE1EBD03F66314B26F0AFE43F40E6F2788C69D73F403F8BEEFC06B73FDC007609E625C73F009BD39BF71A973F10C1479FB371AD3FF8696E8B7A9FBF3F1CDF6FB6E4F9CA3FA01AD5AE3BE2A53F5233BDE1F9BBED3FA460056080F2E43F91ABD472C2EAED3F8AF80343B383EC3F78DACE2AA4F0BA3F9E3F5FA309DAD33F4838D5D33905B83F6BC456469A16E13FFC63C9C85C0AD03F72D388DC60DDDB3F0A31244A51F7DC3FB4FA5AB7EF33CA3F1244FA9D285EEC3FC9F179C37B81EB3FE4B67A9B75D2D43F25D77B809662E23F75C3FF672CD8E73FEC8DABB15065C63F57A369022F9CE83FE2905B5158D4D63F904EAFC0E3F4B43F235C02B15ED4E33FEC891BF83844CB3F47FB57CF6589E73F401AFDD43787983F423102A39116D53FF8AB071AAA3ED13FB6D75BDB87ABD63F183AF1D005B0E33F872C2A73E214E33F28A621776BE6C93FA3CEC4BBE3D5E43F9CA0A9318FAEC23FD06C2E0676BBAD3F1FAD77FE0AFDEE3F84049F0094A3D83F749C313D9534DA3F467B5D050509DE3FD0AF16DE4704EF3FF5698087EA82E03F104950F01CFADE3F10796FC40A47CF3F34B675D2EE48DF3FD297CBE7C737E53F97D8BA91C5D7E03F1A02922B61E7EA3F5DDEA459EB51E23F40752EA8031EE63F56F2B9AB9328E13FAFEE35A599A1EC3FCB7449A09C29E83F13B49595AAC6ED3F54243BF62E13DE3F30CF26CA53E8D93FCA62FACF2A16D73FA847CB648E85E83F86A077A8466DDA3F5A2A557371C3EB3F0A3E4AFFE1EBEF3F4012F500ECCADD3F3010C71953EFBA3FD8065D97FBE5BC3F223D5DC9D306ED3FC0696E7ECA73E43FB62D256264BFE73FB80938BCEFA6C93F0A812D196E95D23FD0AAC589498DE53FED33EC51E14EEC3F37F2BC1576CBEE3F27F3CBECAD53E53FDBEF84B4C781E03FB49B55F88D64CF3F302BDB0EBAD2B73F3EB426A3B9A7D73F2B035B5CF121ED3F70EA1C191809AF3F87BE532A05EBE63FF81BD68F6F3DBB3F64410E4C30E0D73FACF4C60FFA14DC3F6248921A8E6EDD3F60245125D40AEF3FBCAC5B182C78C33FECE2AC13F379D23F37617B71B72AE53F10E5EE850932AD3F2A5E4E11C4C0D83F0297FC6AF36AEE3F3811BB241CE9D03F3651A59E35B6D83F91FC3CDA3983E03F94EB53D11BB6E63F6088F9EE339CAA3FC06C24C7388A9E3FDD4EBEC0E176E23FC207752B7E34D83F805DD9C843D4C13F7B4D53711CB3E23F3746D56BFD45E33F7BCBC4187D7AE63F0A117DA9836DED3FF8A8D09039DCE03F1A03F5671168EF3FFA6126EFBFC9D93F409360BEE3639E3F0C8983073F08C53F5995940A81FFEA3F72AF4CFCFA6FE83F1F6477D60FDCE23F6CA13D829013C43F93C84719DA36E93F9C26C8BD658CDE3FC0E097F7B7FC803F7E100E817848D13F002E5A1C338F5B3FBEDB447AC436EA3F400620B6CF47823FBC1571A09EA0C53FDEF9D16EDB06DD3F3B66B19B8F04EA3FCFC8FC463293EB3FA98366CBA74CEB3F5411E101E88FD63FC09C6D77AD47CA3F5E17335932FCD43F588812271EACC43FCB5D279C807AE83F8AB529923E08EE3FD0FB8E8670B1DE3F684AA4E93205D43F8129525F6528E93F00E0EEFD9D38C53FCB291071458EEB3FEE5BE42E3FB4D03FB4F443A3823AEE3F6B27111EC256E13F082029EFB9C0C13F0CD76A10ADA0E63F5ED3C14E8F6CDC3FCA7382FF4817D53FD258D4DEE4A1E33FDAF5A3346640E53FB0B122069C53AF3F44C91E7321C7CD3F328B1AF46223E53F3690A60D78B5E23F2083E49B482A903F380E11A79774B93F14B55974057DD93F00530C010E61C63F908FD27B5270C43F50C02CB9D4BDDC3F05A38C730161EF3FE00F7C586972C53FF4B14CC65120C53F6C5229E4C05DD13F87DCEDEC8E91E73FEC880DB7FA16D93FB5DFD75839CCE93FDC2864AECFB2DE3F0F20AE9E571BEB3F20F8F5BA0C4F973FE29C8F80747FE63F10ED1D6DD8FFE73FB066951569B7A53F4C3C0E13DBA0DA3F230185BAAEEFE23F95C0227CB3D6E43F9115DBC5A8BFEF3F2EAC91D28E44D73F22B07402C9C4D03FAF1DC44BDEF4E53FF8DF26C6379DDD3F20ADE204C991A13F2EC31386D7F4DE3F21FC1663116EEE3F17CADBA508A1E83F72B6125782CFEF3FD1E9ABE1F6E9EF3FDA105D379044D93F170DE69268B4E83FF0D827D16F6BAE3F28BAE0828ED1E33F40DC2671D589B73F70B7B46A12A6C23F749B9F1C3FFFDC3F08194E66B0F2CD3F885AEC04CAAAB23F8732EDD3CC92EF3FDACC2CC612D8E33F98B19C68535FE93F20B32ACA3404CC3F0AFCF8144FA1DF3FAA610D9C8687D73FA8B907EFEF65EB3FD0796AEC9383E63FD86694493821D03FD0A2AB295199AF3F9DD7757B2026E73F10AE0F5429D6EB3F7636C0CA20DBE73F0208412971D5DB3FF0902C8343ECA03FE0E9655813459C3FE262C5605229DE3F6A9759495F6BEF3FFC043C00A75ECF3FE67B007710ACE03F95CC0101BE0BE83F939D9B2599B8EC3F4A849E1439C2D03FBC2B4E3FC0BDEF3F64C171039EC8C33FAB2BC45DFFE0E33F9AAEA1E0D627D33F00B57E8E777FA73F00E033D45DEB893F2CF8B5D8A864E63F9476F352C52FEF3F86FAC92391DADC3FC459F3FEF541E43F3C89C0347BF6C53F459FA3348BFDE23FF997891C5ADAEB3FE6B327336872D43FE0D330DA0BB8EF3FCD1C030C4F3EEE3F18E204CD3705B13F1CFCA3E3D2A8D73F080618BA0378B23F339E6E0209F6E93FF19ACCF45C15E93FDB17F025E11CE23FC89787045ACDE83F297A21FA4DD1EE3F2E1D4A28B7DEDB3F746EDABB542FE33F475BB28A50C6E73F299DF03CB936ED3F26376A03AEE1D13FC9250D74EE92EC3F6D1124969006EF3F8AC857ACF103EE3FCC92B4AA3805D93F52970ED13735DB3F491B388D2EA9EB3F8C125333CEA0DA3FFCEDB46D3DC4C23FD819A948FC1CCF3FA2644FF563B3D73FF07A7AB94A78D23F5D9B58D5623BEA3F785CDB997CD8B83F2B0A06135749EB3FF0DDCDFA2352D63FE0E869302D81BA3F58138C4B75E5DE3FCEBF38CA5FD5D53F9C63B0684A4DDB3F3FE0DDDCF09CE53F0D2C793014DAE83FEC821B829035CC3F2021626784AEB53F7370104914D0E83FF2063038FBCCD33FDC397F44A500D63F203D68754719B33FF699D330E8DAE63FC8477BE4247EE93FE8952C00E8F1B53F58ED7E786A2FDA3F1083764A1402ED3FFCB583CDE8E8D03F134BE53D1B4CEC3FF3B9F9A0DD1DEA3F548764A9E810D03FE0990D1BBA06DF3FB31FC6BC5D98E23F2C90B66DAC85C03F41A253A9476DE63F2E434EB74D77E53F9A63BD6ED744D13FD65FBCACD2E3D03F0A02A6D2B92CE63F680F29EB621AB43F142E63F8D03CC33FA239F0E1571EDD3F192E41808DB8E93F9E1825305099DF3FC0F4EBB1262FC23F1CC95184BC9DDF3F00C7F935171F6B3F90D48C5DB2D8C23FA02E618C2B6FCB3F353EC0BB5C74E43FCD21D8E83B19E03F4086391BDEB6813F00C0E9A1E3493E3FD02FC9641117C13FA33EBDF7A2BDE73F6E4EA05252D6E53F10210876580DE93F608547318CDDC13F648200D08880DD3FA03C7BD704DEAF3F55A5D2D684CBE63F1234CD456B7ED33FDF8E99C718BFEB3FD73E5F033231E13FA0635F9F6755B03FA60218037E64EC3F1C2D04E8CF3BCE3F1A61F3332AC3EA3FEDC5715F977BED3F92F2B8782A09ED3F006486E8BE6EAB3F0696FD5E87CFED3F750764DC6DD0EB3F0842AA7458CDB33F4E73AC536524DE3F52CEFCFF3180EC3F11385A554243E33FB9A942EB3A01EE3F005A8D049C8FD13FD8D2F88B8684CF3F24FABA3DCA53DC3FC8ABABB21EBABA3F44FE3DC7AE98C73F1483462E18B3DF3F13F256675C5DEA3FD3534BA2A436E73FB1798A4D12FCE43FCC8A1BE5A06DE83FEC265B241878C13FEA48C7257AA5E63FD0268C61971BB03F363184D7C575DD3FBE98FE9DF8D0EA3FDEB87158002FD73FF836A070203BBF3F3EBCB88500E1DC3FCCCE4100FE1ADC3F0D042065EE4DE33F0459ED2996F2E93F6F07EC0FC3B2EE3FA40C94B4E3AFEC3F4ECC59F3C8C1E23FE0B381AE6311BF3F4E24C4E3A46BE13F0C9A71F4BA9DE93F114851528218E83F10C928832879A43F70E63C1D6F21E43F3E01ECC630BBDF3FE3FC8061EA99E83F5CE003585132DF3FC941FB6C87FDE33F06CC3F84FEEED03F800ED954AFA7B53FB1DADB51F5A3EC3F323647956A92EF3FD084CC790D87E03FAC8BE35FE4E1D83FFA0C8A3B29CDDF3F10BCC8700971D63F6279BAB03FDCE63FE7DF250944FFE13F96C403103439DF3F28FDFD8F5813DA3F6D763428B21CE43F4052113D3234BC3FD8A6DAC3AB9BDB3FE08FDA1A627CDB3F8E67A61ABB61E63F50178BA73D3BBD3FA930E1AA01A4E43FC855EB7A8CF9DE3F1F2EE25F633AE33F70003E6F4A29C53F83448C15A367EB3F9C138193A72FD73F55306D7E2856E03FDE2153FA6319E83FF89591674E92C43FCC0462849358CB3F4A8E4D406D39E33F0BF884724D9CED3F70821FCB67BCC83F24884530C7E4CF3F532590CE97FFE13FC82EF63E0A9FDB3F2B68CD5804FDE33F21A8FE990CFCE83F259826DC90C1EE3F8A4A95708F00E43F12B80FFAD8C5D83F2EB465C398D6E63F885947000EE6D53F34F05047E62DC53F00D2F1FD9260E23F000BFC4BAF4F783F6B9B758C818EE73F12B3F4387337DC3F0CDFF016C5E5EF3F565BF711AD89ED3FD65811A8FCB4E73FE2B4D5FA1A17DA3F58E1D144FE5AB13FC07FDB3CCA118F3FD8956C6B791CBE3FA2BDFA3EE790D43F3602ED937222DF3FC0E9FA6565E9A63F491EC1D0A38AE43FAA2C7A5920FBD93F58A9EA1C939DDB3FC0E1B0545AB4893F00CC0739C5DDBD3FA02B0CD24BCDDC3FD4407535529AEC3F4ACB736245E7EF3F28BF3C6E4624C23F98DE9DDF2FC0E93FFF3B40FD9CDFEF3FB75350D6DAF5EE3F847C70E9A186DC3F7C36B751E8B7DE3FFA792D87F214E83FE4A9061F9AEECE3F709F03798C23AE3F12D2DFD91168DF3FB99746B6F437E63F98929CED8828CD3FEA93947A481DD23F53B3A7A98640EC3FAF9FA342D69DE33F9B26D95067C7E03F42990D92AF78DB3FF0CC8B75F411EC3FDA3BC2009845E63FE1C59C7EC1BDE93F3E0028A9D1B2DE3FBD38C36DFFB1E43F063883404A7EDB3F54FE45106809D53FC406AC840D5BCE3F982EDD429C25D73F506E668E6960CB3FD8AE7C0E2629E03F453DA749D56DEC3FB6B42AFEAA7DD23F9EFF244D5E10DB3F2183AB444908E53F77758F1E5FB9E63FB0BFFDA4A341E93FC2EDD089622AD13FB8E0FA21475EE73F05C8457259ACE93F7C6FF8D39FC0E73FD2E4D8B0A179D83F65A0E6050908EB3F11BD68403F3EEB3FCC1A03810EF4E63FD51A9E7623CDEB3F809EF7C56205C93FC0510083DEBFAD3FEC86A47AFE28EB3F9636F54A3A0EEC3F2187E48107F8EF3F5D9E6E861FD8E83F65066F3B2C69EA3F1C0FB2DB03B3DF3F683032FA2F56B83F9A7AA912FB9FD73FF5541028623CE23F8CF2F81D7A4DDB3F503FC87FBC26ED3F3FEA481342EFE53F3C6379FA892AE53FFA6F48819948E63F80DE6FB76CE0763F02A360E3C7A9E83F68CDA78289E5D73F64CBAC6C42F4C73FB3203B6BF03BEE3F90BD9CCDE46EAD3F2E6F45776848D53F60A1FA221ECAC33FC855987CDAB1EB3F207D51A9448AB83F4BC532D2B7BDEF3FC9DDA82CD91EE63FC804AD67D859E03FAA282587559CE83F4C89DECA5E62EB3FC0B9A19D3AAD983F2F40D8370D4AE83F3CFBD418062DD03F32E0A8F80DA5DA3F8C312083DCA6C93F553CBFA99C6FEA3F9EFDF957DD19D03FD313EF09BFB4EE3FCC42ADB9E8F7C13FDC97A1E062A6C83FA0C9BD80D921C43F7601955C3241DA3FADD20E7FDC33E63FCC88D54238C7C13F289C9D9A5057CC3FBC3E2474B8EFDD3FC07BB3700128EF3F64969267DB22DB3F3A5D126F306ED73F94677D267DF4D43F8AE75C468892EE3FB906B6C0E991E93F3AAA4807B3D7E13F9B251A3B6F9CE43FB8FC60CC3657DE3FA0D2C8D2DDD6D33F9BF25E35D865E63FF222529FE1BCD83F1F8DD21C8D15EC3F5A95029406EDE13F64F6B0E0F30DDD3F404AD3B8C527CD3FE851569519CFBD3FF0485A149EDDA83F34F34DE437BCDB3F20974FFB093FD63FBD7E26B0FE60E63F18A987F0AB2CD83FC94CDBE82B42E43F3622AA8CCCA7E43F405ACFD6067EC33F6EE6E079C12CE33F22E9B847032CD73F72CEF0621E8CE33F3477E435708BDF3FFE001470C482E13FC2B9F910EAC4E73F949CCD682981C93F647639F97ADAEB3F07114742A0AEEB3FDE1F8CD6A185E03F404F8A54B288A63F5C7D7A23EED5CC3FF6B2CC1885ECE93F1458FF194315CD3F9AFCD5339033D53F2A27770987A0D33F9E7B778BABDCDE3FF7065DC42CF8EE3FEE2665E05DBFE63FF8127777E4F0E33F18E6329F20D2D53FBCAF65227D2EE43F281A20F42FC4D63F19FBF7595183EE3F143E9457B96DC93FECA382F819DCD43F8076EF9D62DDA73F4C3476CE6743CA3F6927A5B47B32E53F60AB82A92FA3C13F5CC26B606C86CE3F34326E17ACABE53F8002C3D7469FCB3F782982BFF736E73F284E5BE7F764B73FD8423C303823EC3F603E8AE08E329D3F46857F04DB9ADA3F22D716713F48E33F40E04F15C378953FDE2FB85631B8ED3F61F79C7866F6EF3FA073D9A41FB7DD3FDE389494D035D33F72F2DDBA2460E33F8C9CCE93DD86DF3F01C500342491EF3FC2EE3860A201D83F28D1C9524795C03F16A74243E38ED73F9F38DE12596DED3F7AA62C95666FD43FE65CCC4396E2D33FE831F8989581E53F202403C55492CC3FBAC83A00A40FD13F99B68B36052FEF3FF9B51A914306E03FE5E32E438972EC3F6C340677B33AC23F968D9BD8B6D1D43F711C6AA2BAA1E03F60F214587B1AC33FA254CC753B59D63F54A71F7EA8A6D33F058F7439DE23E03FC0F03B5CCD229D3FC569344FC40BE03F28611FE2DAD1DD3F2AE6255DA64FD43FC0FEE3F94673CB3F2F8461B6DB55ED3F3A66909C14AFD43FCC6EBC5BD2A9E93F1B9260D4E8DFE13FB4F850FB3D10E33FA2FA99A89D96D03F746ADCD29699CF3F7B5A44DE4C17E03F939C4A68C813E83F3015C88EDA0EEC3F80BCC30F8E8FB43F6447A13D7AFFC23F6C2065F39480D93F80586AD71734B13FAC567BA4F7BEE53FB855BEDA40B9DD3FA894A44FEB34BF3F3C65BDD13E09CC3F3566B601D38FE63F88749327F75DD23FF8FE62B60AC3ED3FE0B8755AFAFDCE3F7154BE6BB0AAEA3F6F27994684C5E73F5FBE03DCE97AEB3F24F1451C8716C33F4C8D276C8C9FC33F7034799FA346B63F6A8EC4DE41EFD23F23E0BD11A620E83FB0C77A21583DA33F98DBD553D164D63F05EBA04B9E3DE93F72EFDFC9D8ACD13F2060160316BD9F3F621F40C0E8E4E23FE8420BE2B202CF3F3F6872FE54ABE03F80C00509CF93933F3EE727D005B9DB3FA644DBE1FC1BE33F37351F3130EFE93FD850838F2430C53FFA4F4EBFB79FD33F1C5C1D29422BEB3F2AD03A501278E23F872C380DD34BE43FF98BD58F3B80E93FD1209473668EEF3F4655A2F5ADE5E93F3693DDAF87A2EB3FE6BA298573D9D83F7C616194A665E33F12401FCCA003EC3F809E36734EAEB03F56EF1B9731E6D23F402A79BE861C8D3F3E9268995CBEE33F34FF957A0A43C43F9EDE37FE7C96D23FD8533A30FCAACB3F94A13178EF2DCA3F7FA559C37D18E33F61EE52AF55E8E83FFDE922F84720E73FE6A6E915F215E43F9F2FCB338923EA3FE4BDF809ED33DA3FAAE8C7C9BCD0EB3F374CA3F8B8CAE13FB75A3FC35A0FEF3F3C26222D0A6DEE3F6CD413788F60C43F773331111C16EC3F64505F25529CD63F9F4CFBFB6D58E03F4438861ABA94C33F20E2326E4B86913F3FA78F6FBFE2E13FDAE62122F77DE93F20A62BC62286C83F007DFA75A96CE03FE2247E3654F1EB3F169CA3E4DC14D23F9FF5C96FEA55EB3FAC2BED137E0DC83F0880045EA70AC83F7224E6471006ED3F348642DCBE97C43F34FF6B559ADCEC3F99EE0FDA8002E23F586ADCEB905AC03F809034544C55AB3FD0DD630373A6AF3FE6B43A5D3CCEED3F12316B67671DDC3FFD63E7E5ADE6EE3FB07DF8D282D1D73F34258CCD5AD4D93FFBFB28DDF658EA3FA056B3F47212A23FAA18E3BAA7ADE83F64180F1DD1F0E13FB8FF14ECE0AAB43FB0F28B70CA37D43F54252E834623EA3F29CA4509F73DE03F7519AF8A8D99E23FEC3905A0B923EC3FE0AB291770C8EB3F152F3678F589E73FB4B2DA9AA236CA3F90B257E26278C23F5C046D98B146ED3F5FEE99F888D6ED3FC4EC30E63296E43FF3DF9B243FD4EE3FF4B914815902D73F19B8C6CA7EB7EA3FCB8A344F573AE03FD5F62D86C245E73F09620516A29AE83FE261362944C8D83F79885797808AEF3F40E2C601932E853FC2D28BF7F1CDE23FECEF3DFB5BBFEA3FCC2DEB1DB897C33F6F4F1C734D7AED3F4A10EC2AA421E53F68FE35CFFDC5DC3FEF0E8C66D931E73F047374474E4CE73F189C3158CAA3B83F63BCBFFD91A9E43F82D754309BB7D53FEC3482896614E13F3B526AADC2D0EC3F034E53D8E071E63F2FEB88884FDEEC3F187788018101B63F57EBE0E01821E53FB64202606FD3EE3F57109535B177E23F1B0DC6ECE80DE23FD6ED5C041B27DC3F38260B69BE31E53FC4BE7422C427C93F50CFE810655BDF3F74E4C8AA7CC4DB3F9732DF69B8ECED3F705032499D59B83F9E72F86CDB74EE3FC82613DDB9F0CB3F0C1BCC177279D83F54E3C8B64F18C83F04F684CA3DFCD93F7BD32B8C16DEE43FBDE126A6434EE03FBC2C9FA9C263C23FC226D3534438E73F094534CAF52BEE3F48D20AD71B8BD53FB42241FB9460D83FC0817A0F6B33B23FB390102F423DE73F5486B05858FEE33FCC9E69AE62E0C03FD4AE274EA217C03F0418F9E239EDCE3F04CB2C7C6C19DA3F311763A325D2E43F808A9E4AD58F773F8C40F56679F6D43F3830AF275259CA3FACF8B86AD20EDE3F0080C11267FCBD3F227C1FCFCA44D53F581BB452EFF8C83F6BDF7A51A4A6E73F788E3ED2B3E2DF3F9ED5E7759CE5D23F87716CF65892E03F7018958F3CF0CF3F4DB9C0E5F176E83F20BFC88B15A0A93F62EA0A44408FD83F42B2005739B3E03FB22B0FE35283EF3F0C3D2C0EA9CED63FE0EBB780BAA5CF3F6CE3C1B2E2FCDE3FB4EF4D6918D2DC3FB01C3F5F7E2FA73F8B3F5F331AEFED3FF3468C925017EB3F78A8D770B1FFC83F34BC9F4348FEDA3F8085484E59FEC33F64153CA4293BD93FE8689416F25CD63FD889095FFCC9EF3F2BC930832F6FE13F6E0B8B02DC3CD23F5A78DA65811FD53FD14535BD9AC8E63F0A841102165ED53F60D6B1D4070FCE3F8D066EE4FC41E43FB8A8095D7199D63F24F633196ADDDC3F64B426199E60D93F7601B1FEB3E8EC3F9FA4E32E5C71E73F336E7286AB16E53F3E64BFD33983EE3FF679A50ABD13E03FD4422EFCACFCE53F4B5BE60163EAE63F1FBF022C10D5E53FE016383E60F2E43FD45E921CF965E23FE457BD325805EB3F3C1948A2C007EA3F200953F946A0983FC8C7A9263BFABA3FA3095B1CA190EC3F965956761999E03F58E2597683E0C83F3DAC3C9A4F32EE3FF8A786A2FE52BC3FABC6BDF8A024E13F80FB0B10203BB03F5BC9218E6894E93F76FB74945177DE3F5E5ACCA508A5D23FBC21C671677DD23F394F394CE1C1E33F6CF6B9D50F50DF3F34D97A5BDAC4DB3FDAD821066DF9DF3F78F5F28D205BDB3F90ECB48701C6A53F2189D47793B3EB3FC0BDEC85FA76BB3F16CE6F889296E63FCC9342DB975FED3F7215267F1C62E73F0CD9B3C01F06C83FDE217A34D165D13FFC77E199A695C93FE8C26654C81CCA3F1308C988B064EC3F14C160B29903C33FB91514DE8FB5E93F341FCDB69D6EDE3F00F6D4EE5086873FAAB24397D058DA3F0022F05C6DCEB93FE8025134185EE33FC00C47788741B73F50F92F0F2DE5A83F40C2E66923CD843F87986D5680B0E03F32A7DC3D69E9E23F3F6EC14FDE80E43F3A2C2ADF3250D33F21D50690C7EEE73FF594102431B4E43FF8E2F111BCD0DE3F847CE9541FE8D83FB86ECABA1130CB3F25C3DA55F5BDED3F0060F6857BD5AF3F2D27C3AC13AAE33FF194F4BB3828EB3F30DEFA317E93B13FAABFFF098C50E13FBCA5B35EF0C2C93F17A6CA2D4B67E63F448A895D13A0DA3FF4183D493C2ED63FDE8967CBA4CEDA3FE60261E7AF0EEA3F7558D6EEEC71EA3FF086A6675212A93F8072E511C7EAD23F80C66695F7197A3F978CCD12AAF6EC3F18EA434AF415C93F585312A3E8BFD23F416B8E35096EE03F2D63BF06FE7EEC3FF42CB0144436E63FEC42206FECFBDD3F4431E72F177DDE3F30FC94EAE7CDB83F195665642BECEC3FB085087EEDA8A13FB0ECE23A98F7ED3F6CCD8EA56EEDC03F98D7AAEED215C63F1A013325365FEC3FE399AB83019FE33FA8A104B33740D63FE4CAAD7285DECB3F009B18B4FBA2ED3F13202426C23BE53FA97B686EFB3AE43F8285026006C5D63F8492614BF580D23FC84EA513640DEB3FF00E1A732ECBE63F78034D2BED0BEA3F6005F80BA474953F0DF45FBB5ABEED3F4479852A4FBFE43FE0714C69D606BD3F440D8A77BDA5C93F09B3F8D9D959E43F1946C53198E4E63F0AD367D8B518D63FC59389FD2299E13FB0E58D1F9950EF3F04D6174BCB20DE3F961362CD7FBADB3F4C6D2BC4910CE53F929F4E6BD7E3E53F249A5AA868BFC43F52647BBDB66FEF3F54B4D442309AC03F808782CBA320BE3FCC081EFBBED6E13F3118A26A95A2E93F1E351FBB6EB4E83FE02F35C11C21A03F600C209FCB3CCF3F26B7A9EF65EDD13F600B491CDCECD53F19CFD1EF6EE0E13FABA207C6BB9CE93F5050EE092D7AB23F3054D305D99BAF3FD00D0CCB678AEC3F78C9A8F33FC7B53F9E5A04BB98A3DA3FA672C09E7645DA3F04CD29932618CC3FF5B13B8651E5E73F1E308D0FAE4FEC3FF4D82A2D95B2DE3FA22A5FE4E99CEC3F777A72B011D9E53F99EC851BD555E93FE0CD76F0FE339D3FE15684B3E43AE53F786E20A047A1DD3FA9123EAB64CCEA3F707DD636D4D8A73FF583AAB40B8CE73FAA74D287137CDF3F08A59B3BA8A0BA3FFCAD578C2305E93F1032AC9D2BC0A33F97BFFB3E21CCEE3F20C5ADA916F7DF3FE6BA14F0A51AD63F04FAA2E74E96DB3F045A2C042AC0DC3F8E372D395971EA3FAA9FA5538958E33FA2BC0E12F21DE93F5F5E1AB9E030EF3FC2D2CEAE4BEDD53FCA78430DF82BED3F75FC49DC70F3E93F3A799EF9DF2ED93F048866565165EB3FB82C2E9AEAD7EC3F185809C7E5DBC83F05F8070AC890E43F528B45B0B3E4E73F6A02E2A45674E93FECFC1DD50431E03FFBF9049584B1E23FECC368D0260CC43F307188A4E74BE93F363B67DB3F3FD23F986BB9E73AF4D33F5404BDA2433FC83F83E8E9A44D40E23F19ADE748B9A8E03F1C55A9862939EA3F0677A3B3EC73D53FB7FFEBBE296DE53F377A70092FB9EE3F085F70AD3065DE3F28A06703D4C8CA3F6C444B5CF2D4DC3FDB23FED58FB6E93FF4A26B65E814E03F8B49F314D823EA3FE618826A0170D33F4C157653F3D4DC3FD964A28214ACE63FD9E5EA9C88F1EF3FB884647711B5D03F88A589788EF9B53FC8ABAD6E5AF3DC3F851E1FF3365CE43F60B92B21B97AC73FA0F5A8F43363B23F5A6369CA5F65D93F488B3EDB5E15E33FCFB1F0881795E23F7094B74E40B9D13FBACB00566C3FE13F2F60254452E2ED3FF90556244958E33F0AB5AED8F8F3E83F1E3EF824F283EC3F32A4C4086CF4E73F94852B728C89D33F301BF7CDB4F3DA3FBAC67A39BD96DA3F00174245FD0EA53F85D634BC2F23E13F3A4817DF8B53EA3FF8BE6CE87BA0BC3FE7501DAB2FBFE63FFE245A18D646DC3F4796305E57A6E33FD843C9FA4EE4C13F987265002CADD83FD0D51AEF8160CF3F5930E12A2318E33F3B6B4391AC15E23F10349117421AD03F5B747B6B823AEB3F890C2A92AF57E63FD0D820D7F5FCA03F69DDC9D82677EE3F1A15AB35B5DCE03F47C9ABFD6B2FE23F6419156769BDC53F5705A72CEDF0E73F0CA8E0E0381CE03F5E808F0D97C4DA3FAC654543AC70D73F805ABC623C67BC3FEC8330C6F066ED3FF4A393FDBE75D63F3685BE45A061EA3F5839A9180C13CC3FD16EEB8F2F87E83F000E87FD9E5A5F3FA00DC140B7DFA23FBA748115EC6FD03F0095E68127357E3F6069A0F992B2CA3F577FFBE1E704E33FAC362C8D2F45CF3F04CB5C79F915EA3F623A40158068E73F673C079F113DE93F0892FABC96DED23F444EF7D98E7FE93F28141F0BCAFAD43F3F8FA8725E6FE93FE4ED16733844DA3F405EFDD81804D23F7FB690C5AC8DE83FF2FCA1A8682DDF3FF5215722F8B6ED3F9B04D99FD86CE53F96DE4C8D433ADB3F594DAFFDADAFE43FA2965D716CE4DB3FE894181ED543B03FAD57CD49F848E03F962EBC16D6CBD33F38EB76E04221ED3F20B72A81499FC73F2816F8C9E29FBA3F4A2EE5036166D33F9200318083EDD83FA40D8540DED3CB3F2D879B53654BE03FD6082691A45ED63FCCD4DC81E2A1C63FAA5BCE2F6D92D43FB0B0FA41A46ACA3FF82552C57DBECA3FA2D9428DB69AD93FE2ECAF7D565BDE3F17979DC1ADBCEB3FE9165841C132E83FDCACB0621B72E33FEA40CD048008E63F92A1FE8DEA5BEF3F5473698636B1DD3F7404DA456C79D53F2FCD6C02A7AAEE3FE878EE4EEA2AB23F30AA9D84F375C53F973890E760D5E63F1020DAA311D0BD3F90BC526860D9EC3F46F53A9D5555D23F002897DA9050E83F9E12918AAB86D93F7544643A7D58E43F679378EE73FBEC3FAFA775CF665BE63FC4D876A4094EC33F446FD4C421C7DA3F42214319467AEB3FCE097036DC8AD83F79A9C40A0698EE3F777C375780B1E43FA44ECA774A56D63FE0E408901A96AE3FF2B999841DCDD83FC0E1088192EEA53FF84951411A5CD93F5A5BAF14AF6BE23F69D93B3F7E1FE63FE81DB001D697DA3FE036C1422323B13FDAAAC23953AFE43F90E26D05459BCE3FF9771AA68E03EB3FC8A7AD42BC3BEC3F1241708EECF3E13F9EDB0A64F06DE13F0A9953201331D53FF8F41D2B43C8C73FB2C0ADCCA29BE33F402DB0979F158D3F2F7B4EC5B6BFE53F687B125145A2C53F08B112BA8FFDB83F207281094545BD3F782BC2346D63E23FDACDABA75CB6D13FE3FF879B4D6EE43FA468BF1C9BEFC43F80C4F4816ED5753F09CC663A231DE03F6EE392435BDCDF3F8E72E49890D7EB3F36A609368A08E63F16AE1B0FA9F3E83FA0DCD2926871B63FDE0241364EEDD33F11B7370EE2C6EE3F837DB18FDD87E93FF0DDFF32D85FEB3FC05712FD579BC63F34397CDA10F7C93F7E82A4F31DD2E73FC789AA36FC9AEB3FFCA932D95F15E83F48D91355ABABE63F2068EB58878DA13F15C14EC375B8E83FECA05AA22398D63F02F0A2BC28D4D53F697FD83DAE8CE03F58BD5A892915D23FB07B1AF296BACC3F20B94E7B86A29D3F370FA92BED33EC3FB1BF35374BBFE23FB0484A725037AB3F7073EB75C56EB33FAC1E51CB60D4DA3F78C0B76C325EDD3F8AF7A4A645A2D43F4B3675CD0628E63FD0FBD12015CFCF3F0487C5FEDF44CF3F344044985E1FD53F0AF4BA3FDFABEE3F9CEC6076D1BCED3FF0F05A5E5EEAEF3F8C35D10F021FC23F186BDE58B66CC83F70A6E07AD550DE3FED56B3CFA9D0EE3FA499333388F6D83FCCFA93F0B06CCD3F56AF45FC20CDED3F2C464684EA45C83F19806ABF7100EB3F6E2B002BC8D7DB3F204394C65D28D03F9899D5B91AB7DF3F1E9AFEF99FEDDA3F02FABBAFC3D0DD3FF6EB1B28C64CE43F1DEE70D8B4ACEC3F6EB9C514AE81ED3FBD95E413E431E53F20CD593C7CABD33FB19F8AEEF68DE03F10CF3D9ED817DB3FB614E7DD54A2E13F16C80B0A92B7E53F766B90141FA7E83F2F993E0D54BCE73F7E48323CA26DDD3FD952F47F6865E03FB8F99BF608ACE03F22F6061F825AD73FF3628D54AD8FE73F5AD4AF971875E73FAAE9CD7E6A91D93F1D0D5746156BED3F226578CF380CE83FDCCCD66CEE67D93FF6373A25CFFFE83FF11B465940C4E93F1C90F1459839E93F4DE8803A3A3EE83FD1E7268A91EDE33F30D5267C4655BA3F32BF21D6B7A5E03F6A5C93167956DC3FE28BB1B397DFD63F0C7CB6540CFFCB3FC3F1F4CB272BE33FEC00150EA335C13F1F027011E224E93F94D5C5ACC9F8D03F90DD35869B2EEA3FF442D24EE50DD63FC01B57120F7BB03FAF57ABE038F5EB3F7CE0E959F29CD93F701471BA05D1EA3FE553F9263377EA3F4B14577DBAB6EF3FA86195E9FC97EE3F30803DF7D175B33F82F517BD5F8BE23F2590137B3220EE3F2AE2A05C0BDDD53F57FAFD9D4F46E93FEBEE544B42ADEA3F563333C97B03DB3FC04F81191B0FD23F2DAF39541198ED3F364436BEDB93E93F6D0541EE0931EF3FF503698227B4EF3F3C48B58C244AC23FF58567B0A62CED3F00C7A5BF1143D93F6C23EDC9F456EE3FFD6C56C6D59FE23F5E4CE4A0E3A3E03FBE09FAFD4A99D53F66B74B31E822E93FB0F8A47C244AB73FC52BEED1424BEC3FA3C2A47D7B48ED3F9CDEA78EFAAED73F01FE4E29B061E33FF2A911A7CAFDD93FA416DFDEF0E6D93F51300881B76FEE3F8EB58A6B8F18E93F669AC63CDE79DD3FD8B4E8BD7A30D63F9C2DAAC84BDCEF3F1AF36895085CE43F5DBF213228EBE73F40907D976AAF923F5C26B7FB27CAD53F7AE2E7633F4ADB3FAA6114D86C2BED3FBCF27D81068DE33F48425838EEDCBC3F4868423FCA63CA3F1D3E6626C8B5EA3F7A548C581E72E93FC9ECF8AFC77FED3F7516E92F403DE83F5F0A4CD3D8A1E83F7AD233E4E564D33F8875D92983A0BD3F9EE19BEA693CDB3FD2112E51CD2CDD3FD0250B73B806D03FE0CD64C89201A43FD7B5FF7A8697E43F7825BDFCAE18DC3FD8E006D0B3F1DD3F10AF5C68F234B33FAC02800405C9DD3FA79BA0AD465EEA3F417370B122C4ED3F08822071BF66E13FBCAFEAD30055E63F80B2C1AE3B8CCE3FA59CA94F70A7EB3FE42CBCBA03DEC83F13DE5BAF2675EE3F3C4CAC28E53ECB3FEDA4DCC16F4FE63F0004F249995B633FA0AB2ECEB6AA993F0CE3BF14F331C13F2807089592FEBE3FF45D2B86781CEE3F300DB885479FE23FF02AF27BF394D83FE289E765FB12DD3FFBC6D6581AC1E83F2CEC3CFDA4B4C83FF3D52E167E17E33F2EC9EED1BEDBD63FACC079188181E53F94E967C42BFCD33FAA15E4C245C2D03F6CAD12C64192C13FFBFE184FAD21EC3F185BF9892980D83F40AE7ACAA5D7843F00E12E47FB3ABF3F10899DB2962DB53F3A91CA0BE55FD33FC51208913A9CEB3F6C1D3F02EA7EEC3F42F5EEB0B918EB3F2E314876370FEA3F6F68801330ACEE3F49B698B798B9E53F2D994C4C55B6E93F4480C67A44E9DA3F87256D2B5979E73FB8A2098FA87BD83FFE78A98C517AD63FF255C5A9E130E63F78E4B1839F3DB23FCA6F82934FD4D53F74163FB83604E23F3B09A0739889E53FFB0323303D07E23F34F66932F627E83FDF9720062B4AE93F02CA80C0AF68EA3F66731FD428CCE03FC3FD938E68B6E23FB8B88BB25759C23F68349818F442DE3F7A7507BA5F91DF3FE38FB8ADEE65E83F700FD1FC0598C93F20CB90A51A50A73FE6F143828BC8E63F82D00A103480DA3F462C6BA1DAF0DC3FA064CA1BBC45A33F50EA7BBE6989BE3F94F92E2E7A89E83F6FB8FD92ADE6E63F3D5B4379B581E53F69AC71D299DCEC3FC099DC81ECABA63F40163FE23C9DEE3F2874681F0E5BD13F2E886D58354FE43FBBF7D81AEBF2EE3FA4ED2A1C24C1DF3F90A7AF756C0CA53FC00C7EDC8BDBA53F3C4D6260F1EBDF3F38E1C494855CD63F20345C7125B0A93F401D4B99A0AB9C3FCF1C75638475E63F40D275E9A74FA03F011155904D08EF3F10F2104A5F6CAF3FF501398C0AA9E33FC0596920EE43EF3FB8356B981D4DBF3FCCF12A9390CACC3F887677EDCE30BF3F2B680A55F440EE3F9CE1CDED6100DF3F304523370895DF3F06A939BC3B42EF3F07025FC45804E23F161E9D27D646DE3F04D7A9C126CED03F609F45FFD5FC9E3FD8859E33639ED03F3197C6279880E33FF688539C0319DF3F4E3FACD4969DD93F48238AE3F157CC3F5AE5F804E5B2D73FA844FD1A0F9AD03F5EE966B8A32FDD3F3E61DC60B101D43FF068C22CBB3DD13F72508FF56893E13F84E867B2A922EE3F64580B4CB68CD63F36C355FEF244E63F200A15A315F8AC3F50A569818E7AE33F407B007DD748823FA0A582D58361DD3F48A9AB3FD015D63F500261AB602ECC3F4260EE666080EE3FC0D294C2F7AEDD3FE8BB0B9DCCACEE3F67E12EF47D66E03F90965CDF8D29C43F72D4567FE0B5D43F3E6E350D4BFAE53F15F048C26524E43F880A9F55A763E53FD8DAAEF778D1E53F657EBC0E4480EB3F7995EC419551EA3F0B14D64E3FA8E23F3A06E7D97B48E23FA05EEDAD5EB5EB3FA4F36313ECFCE93FD0976CF36050D33FE01776B5FDE5B63FBAAFB6F0104AD03F288EA9037A35B83F32E5047D1619EC3F93A0E8381A35E93FCFF1AE22E60FEB3F2B327F054A7CE33F4798871918F6EB3F109685AC0B3CA03FFE7F5A4E5863E13FDC67D7D37C1BCC3FC835D781E991D63F14C76DC26F00EB3F3C1234F458C5DE3F6DDF893CED95E13F28CAC48CCF1EDE3FA47814019F5FDE3FD30AB87E5342EF3F4C6E243B6CBACD3F304C90EA09AED53FEB5EDDC53596E13F4263792E8775D23F84B20BDC64F1C33F947682B7CF1FDE3F64F633EC1BC4DC3F447C37DA1036C53FA18926AEB36AEF3F8646C9E8E853E63F88DEA8D37027E33F6A0D910550B6E83FD20D569E8BB3D63FD017791EB6C1B03F77B68C022EF4E23F8A592AC0AEBDE13F92C0A3C63F16D63F8653DA4FD4C9EC3F9074C5B52527EA3F3AADF7C01F90D73FC43A773C0752E53FF2AF6B7F1B50ED3F150841895B17E63F686497B87CC6C63F52AA7002CD50D23F18E3C2F244C9D23F50A820EA9B4DE33FF233DE589DB6DC3FC199332173E4EB3F4E06AE25BF90D33FB0068CDAE1FAB73FB0079D71F607CA3FE035D2CE774CD83FFBE7B4AC86F6E43FA8D9397396F1DD3F453A8686D6E1E83FD85C81902AC6B93FE62D85C454C9E73F32E0DE47174ED23F0054CCE1B16E653F12539C863EC4D53F2CA51C6CE24BC73F68D35482FCD3E63F9CDE40CBF81AC23FAAAB998F6B0FD03FA82CFAA549AFBE3F0A3AFDA21B08D43FE7B33A7CB700EE3F80BC3EF05F94C93F1509E4AC7AFCED3F121701E17650D83F82B91619ADC3DB3F56E3EC92A471E83F24E138079B05DD3F589341999099BE3F6240C4B2B4B5E13F6C0100EAAF3BE53F8DA9FD646726E63F891452AFF598E13F4EBFD648ABCDE63FAAACBA37529CDA3F505C26AC7E96E03F98BC8AC9716CCB3F384A265932AEBD3FE8521233658FC73FA88509E348FECD3FBF777326D396E93F5483A24AD332E63FD62B3EE24856DA3F4759DA1A2B07E13F8FBB32A61C11EF3F46D196841FBDD93F87B47E15E96DEB3F22B7ABBA8A51E03FA0546AEE9F3AEF3F049259C41195D23F5034C073471DDC3F2C4F2902631BC03F0E03DBAB0BBAEF3F0EBAD1FCC727E73FA648857083AFD83FA63BFCC40207D53FE009F1A518F39E3F0A7FF08F4E14EB3F2CD6A8506CA3D93FFDD342DCE81FE23F5097CD7D1011D93FF81A9B6FD3FADF3FD39DE1F1AD5CE13F4830B076FAA8DC3F1CFB13EF18FDD13F00B2EC5EF063843F647B52E76D2AC33FACDF45284DD1C73F64D3A517BF72DF3F40173738D7D2D53F2246BF64679FE33F74B61E22057CED3F9C70D0272C1BDB3F11CB1B54C502E03F770BF3FC822FE13F24E3D87F8683E73F8E7C58BA72D4D93F311DD45C611EE93F96344912CA2CE03F1A10C33339E1D33F10ADB2E4E4D2C53F7836E666EE6BB83F2425342B53B8ED3FA176A57EAA65EF3FD88D3B2D0F75DF3F6AA7144BDC8DE13F7316517D6426E63F6C8013556DB6EC3F739CC6DC39F2ED3F4C78871A9425E93F68445A256F3DE03F72D49FCA8C91E13F76031D029689DD3F0AB73C9F58DEE53F92C89E7CA244DC3FE4136C166F47ED3FC03FBA8FC0F19D3F91E3CD4BD143EC3F7B900C67220DE73F24257A49A27ED53F666561412956D33FE057C2A5F418C33F80EA80CFF473AC3FA8B9B330740FE13F7EF5EE0A81AADA3F08D9013D88C1B43F017052D6B4B6E23F62F9874965B5D63FD0F63F0C430DEB3F9C556747EBFED03F009F6307E4F98B3F2D39F35483CCEE3FEDC55FE64CCDE73F881D7AF06076EF3F1936A962EB13E43F80E29E97AD89CD3F890C3FE53114E63FE845A8C9C110C73F1865C879B1B6C83F9266E869A97EEC3F42A361E521AFE03FA70A27FB392BE53F60465F7FFAE7AA3FF49F2BF29F90C33F4879C12FB5A1B03FEABED4921A1FE63F279A41414CEAEB3F19EC9636E731E43F30BBDE4CEBD5A03FD4C5DD9E8080D53F4C82F3DE6A04D83F7D6303E1896CEB3F200C1AD26361C63FE08652EAEE56923FF0FDCFDCC628AB3F945509B79484D43FD00EB6064CF6C13F46E2210BA431DB3F1134B8AF04BDEF3F99BF2D954816E53FE18CB3EEEF37E43F84174E538147D03FDE20EF1F4A2EDA3F0C38C108C627E73FC038670FEBC7AA3FA4E4B864D563CF3FED9E138B2A3EEF3FD617A4611D3FE73FF08A4FB623D4C13F59E448523F5AE03FCA8F8A438171DE3F6D0C1BF10784EA3FDC5657E7C7F2C63F70B5E60630D0D93FA7F8ADEE6F0BE13FE8127DBCFFEDDA3FCC59695DC1E5C33F58E0FE07E2FEC23FCE9F08AFB677EF3F20260F1EB83BBC3F64A8E910E927D13F1CB9AC2323EACC3F122419EB5057EB3F60C8B9D7B5D3923FA93DC07B3DEDE73FCE7881A006E2E93FEC0EA8692EB3E43FA0DE43D5DEE9A03F27A1DDCE8F7CEC3F909228181D2ABE3F483E89208EA4E63F0856640B20D6C43F6F622549C2DBE03F80E9380CB634D83FE66B61F7AADCE03FB88EEACFFCA0EC3F87128DEC9B34EA3FC2AAC52193A9DF3F7847DBC71D6FEF3FE40C7B871A12D43F5FF413AC76B2E83FD37E7CEF8C9DE53F7A874A1BB4F3D43FA4915A73D04DE23F9EB0E8A54224D43FDAAA83791D46E13F004B14AAD08FB63F326077046DECE43FE8B621914157DC3F3AF76A9CE6A4EB3F03A22B8860F4E13F4C24D208E3B7E13FD63EBF3D802CEA3F5A8A578495BDE73F60F724D60B48C23F24C7D6E747BBE03FFDA45AB3814DED3F628EFA94B0F9DB3FD19F49F77BABE93FA068BA1E631B943F805531D8D505DA3F27D33A51DC8BE73F743B91137D8FD63F3E90E2882318D03FF8CBA90F9F26BF3FE0320E966EC6B53FA68B98A20041EB3FECC959C0CD1AE43FF4F08A8BF7EFCB3F760289DBA987E53FA0FCD170DA62DA3F27CE825E5567EB3FDD8D34255CE2ED3F68B183FAA8A1DE3F34E2DD469A1FE73F4DDC6CF15B21E93FCDDA21FDBB1CEA3FD061207D95C8AF3FD9BEDB3C36F1E13F147BE7824701E03F9C7DFC445275DF3F924F7187B0ECEC3FFC360291CC16E43FE6398D32290FD03FE71A1E0AF979E43F20928D8CA6C8CE3FBE5DAC2E5158E53FD48B5B4B4502E03F30658B3AE9EEE93F988D01A5E19BCE3F68CE6E92E60EBE3F008C203126A94E3F0347790F9525E73F2FA75DD0418DED3F2B215A9E04CCE23FE032F821922CE93F36E80153F245E33FE8FD93922C9BD53FFDABECFECDC0EF3F18900E4FCBE9B03F9AAAB76085C1D03FB97447277971E63F80E009D2584E9C3FFC2F53667F34C23FA01208117A5C9B3F4838088F745AB93F09F385ED536FE43F327DDB62062FEE3F8D4C6DF48C9EE83F24FDBCADA270E03F28B71C3D4E77D63FC038E3FD33448B3F845E93556710CF3F532C90F6AAC8E13FBE69403E50DDD63F107CE1A1D99BD73FDDCD49BF0D02E13F50E47FD371CAD63FE061418EA2BE963FE8453FCB0F75E33FC848D7C77F57C73FE8C06FADBF51EB3F30365B9CC66BE33FC06837D74001E93F763CAEAAFCCADF3F80A3141BA0F8833F20E1252A128CDE3FB741D353505DEB3F885AA1DE99ECE73FB88E42569641DA3F9CFEECA9E91ED43F509787468119B33FDC4AF5E5467CE43F8851381B41A9B33F2CEA43DCD907EF3FD8E708A34D46D43F3699CC86E61FE33FD38F2ED04B72E63F503CCECE272CC83F58A2D37C08F8B63FECEFD05B3F46E53FE063ACBE11C2E63FA32AF2647A7AE33FC146DF79D153E13FA225C41E415BEE3F80110AF2F07CA13F42773EC67A22D63F2412A001EB88CD3FEC1B31AB5450E43F1ED9DDC45E6BE73FDEB31C98B989E63FB83B6B860F42D73FF1D4E4B5E092E43FD88BAEFF7390EB3FEE29B278467DE23FB773CCA5FA53E83F8241A243063BE13FC889D23D6388D53F848B9A56E69EE53F3F88DC4E5EC7E03FC2722AF6625AEA3FA11336239FB8EF3F5B2C17488ED3E83FFC289F0D49C3E93FC390EE4F25C1E43FF4AE42C62764E83FB0D996B07EA4A63F0815878ABEB4CE3F080249C4C27FDC3F00693AB40C6DBC3F32C16B1F70F0D63F1AC03F7752A7E33F04DAB2894D4FD83FFAE4BABEC1E9D43F6C51406439F5D03FF9A674BCCAB2E63F483C27905023BB3FA513A0CB8A14EE3F40362209FF16C63FAAB3673A59AFEE3FB56E1D00D7F9E73FF074151EED40E53F74494FF746A6E23FDC7F3F3E08C1E03FE0AD405CA76EDA3F2868704EA880E53F3E38B91468E7D63F0083396233ECD43F047848CBED60EE3FE53F149938EDE93FE0CC43B1CF86C63F5C28CFA2070BCF3F360D1AEC42F0D63FD855BFA11088D43F271930F856CDE73FCF4BA81AEADAE93F36B231948576EF3FA93ECED22D9CEF3FF46E3E429FEDD43F3F97E8117570ED3FB42885F0C0C5E13F4972FAD2A0D1EC3F360E9F153715D83FB223F9DAFAEBE23F2CB8F6D63979C63F015FEB3602B1E13F8843A4F0967EC53FBBFD11EDEFA4E33F69CFB1C2255BE13FB02D4CAA4054AB3F74C5CF19D743DD3FD447535DA551D23F984AC82F7237D43F75234ACD0BB0E53F16F5DBB2B228EB3F48A55146BEF6D93F62C14364B41AED3FA0F1488AB833EE3F2C3E9CA4A8E0D03F68CC06D0FED8B93F0CC26B8BF510E03F9EF4A556D776D83F72FEFFD12A1FEC3F1BEF5BC838B3E23FD9405E08CF48ED3F6BFA8708CD23E43FEA94E6C6E3A1DD3F10EC6372CDB6D83FD04D1DD56E29B93F9C1BA69C3E89D53FD8930EBF3F66B13FCFCAB23EB738E23FEB77B3BBD11CEB3F9E13D168C9E1EF3FDC55669D62BFC53F7FAF1193A640E53F888EDEEF4FD7CE3F5D9966015C8FE63F6C7903EFCD6BD03FD4B58FC0BC79D73F497EA4E3AF03E33FB29A2CEF9F5ED23FF93CD27C3FC9EF3F133A24B2A43AE33F30B20EBAD1E0E53FD2AECB7A3358E93FB66EA00E25EFE03FAEEDB9EEF6B1DA3F22153595D8C2ED3F985E8B578481D33F86BE5EA568D3EE3FD8FF85029134DC3FE4800FA1F5A9D83FE26C0BB60DEDD33F8438D4E05E3FCE3F55220420C319E53F864D3A216E2AD73F42AFFFCE72E1D33F3765A8973F65E63FE0DEBBE4480AEF3F5F2E225C8F7FE13F1CA137470AADEF3F0E3605DA02CEEA3F49A54152EFCBE53F4638A709A667E03F04997469C1C2D93F801FA37CB29D9D3F8EBCF53EF2C8D23FAACD1873D249D83FA58FA28E09A7E43F2EC1D7E2E1F7DF3FAC992A3674A9C23F0DFC5873BFD6E83FFE06C745D82EEC3FADBA960F58F3EA3F7AA5CDF6E61DDC3FA860FD10A573C03FE261B4CDAFCFE83F4D65CEC833A5E53F28DE6C793E04BE3F2F5BF9E3640EE33FBE2574B06010EB3F60CC46B0F76E913F700471DB19E7AB3F6AFEEB0F0C26E13F4880DDC78270E23F94C8E0085B3DD73F921443301BBDD03FE8A79335026ECC3FECAB76256C3CEE3FFBC50E4B87A8EF3F007DE2C33DDEEC3F2F62909D4402E53F28D001E0C2CBBC3FF07FD6E6FB6AE03FE42B6C4097E4D23FA0DEDE8396E2CC3FD0825780A4E2C63F10BE0D034B0DE63FD80B16066DAAC33FB8760CB217BFEF3F8248EDA68436D93F2D964FC18446E63F847CFBCE136FCA3F7D0066997690E33F1287C43F33D7DA3F88EE790B5BDEEF3F95039F84BFDCEB3FB0485D675CBCCA3F822F542B6F4FDC3FB0D30649DC28AE3F50F6D7A4561BCB3F331849A2828DE53F22D502C55363E33F263F2218FFD0DA3F4056550E876FDB3F3C17C8ABD724CF3F1CC6D238371AD63F724B0B7090C6ED3F5E2960839553EA3F06931F1D5503D83FA09C9337BA80D73FD049BEE7618DD03F32B964C53987EF3FBAC60AADBD35E43FD44617D8CE5BD33F183C15C8C71AD63FA4474E46090EDA3F1ECD1441C852D13F6C4F7EF5EB98E23F80437B17AEDF8A3F57A0016E2B78E43FBBB8E6106605E43FDA9CD23A713ED83F58CFD6A0DE21CE3FDD82E9212334E73F7CF7B0AAFE1DEC3F7427BA5D8957E23F4472FA3491C3E33FF4DB6E6B6ED4D43F582F6F00A656CB3F1814DB0D78C3C53F78F02189A492DE3F0DD5DF31AFCEEA3F484D5082D5C9CD3F58FBA3454118B43FDBA41A2F85D5E93F0616CE134F77D63FDD3D96588B9CE73F61408A9E0C4CE83FDB3344282F78EF3F6C01C4210F74C03FD81B0F9E1384ED3F5FF880888352E33FADEA05F8D013EE3FE0D91D80D7D4AD3FACB07EA606D9C83F62E89F203BACDC3F9D4A6D2A70A6E73F3C72ABD8E3B4E53F85E0D6124586EA3F48A046A9DA67CA3F8C09D6F60E41D43FA54F3BD50D8EE53FE4614CED481DEE3F60579E878222E93F0747B4F0ED74EE3FF9583ED452C1E23F9821CA421C96CF3F454655761D87E93FA41082269D6CD53F7E5F09FAD7EFDF3F54D9921ECAA7C43FB0C5A3450884C63F2C4C2F4713A0C53FA2BCEFCF558ED33F8907B7327389ED3FF7415C7BF80FE63F839B3D58151CEA3FE43BB40DFF24D13F00E887820A8E843FAAE32EE41E0ADA3F3F73DA63EB51EF3F5A4CE992ED2FE13F0656D791DB8CD73F7ED35B9D7286DD3F8AEE29ED6D97DD3FB0BA67C0DD7DDB3F60B9E55798D6A33F1E1438F16401D63F04890B6E8855E93F0A50D4DC1780D43F1AE9DCBC563FEE3F403C694E46CFB03F7884ED9E2137C83FD9D125A5C3DDEA3F501D94F61B7EBD3F3C7D186E2D6CD73FD54875D32FD5E23F809870141EE7D23F3A3AAA71DA36DA3F8C93CF9A4B3CEF3F2050B95AB2FBD73FC285CBA8FD78DA3F62BA07528A8EDD3F2AFADB969E64D23F4818A6EBB304D63F2A8BFC3DEA11EF3F88144F58C2A2CD3FA9539A2C3A87E93FA0609813342BD13F2CEE7A4CBD82C83F891169F52106E23FFADFD1F30F21D73FAD87E169332FEE3FF673126F52ECEB3F66F15439FAB4DD3F898574FF04B4E33FEAAAB32FF779E23FB9832ED0E70EE93F9A4EDEF622BBD03FE6FBB9AA91A5E43F4A77DB196B6BE63F66A331D5BA51D23F7274F022F59CEA3F94E3E88F23B1DA3FE5BE9466E47CE63F1CA9F760E433E03F68EAFD6A8827D53F4C3F94E337D3D53F848040054CD6DF3F6EC0DACE7411DF3FE34442A3BAA7EA3F90994FCF2BA7AA3F486D1E3E1CAAC83F6B2C20A0A3F8EA3FACCB47E44254CF3FA4F312BB2A46CA3F2FA2185E7A74E93FEAE4B7A26324E33FEEA2420581D4EF3F8B84644D71A8E73F4C6084A8A496D33FC03D45428C289D3FB7A605FEDADFE03F859E8C3AC805E63F7E83E236F06EDF3FCC7F9635A815C13F3BD4DB198A95EB3F6F9A274D2D08EC3F28199FFBC6FED53F19C14DF57F6AE03FF6DCC6F25596E53FCE67442682C1DD3F05FF35295BAEE53F50138D5AD535AA3FA0ABC8DF8C82AE3F989F9166A18FDC3F5E41F8EFC69FE93F73D894734FCFE63F30D8060A3598C23F830F4695D954E53F76F7C83D05E4EE3FC6E6B38D128BDD3FC7FB6590B403EB3F0CCF743D258BC13F663E5D115AEEEB3F91BAB45682B9EC3F1538DD12EDF2E93F64BB19C556ADEF3F4CC76105F07FE13F8319BA6B79A5E73F985C3F59897CD93F343A9A896996E83F889CED2EE3ECB73F8EB813261A76E33F0144B9F47FB8E33F738F980CD27EEB3F95A9AD8B3877EF3F961A6A282CD7D53F5049E85E4C2AEC3F1E28F970F03EEB3FEEA6592AD2B2EA3FE4C0D7C4337CD03F8C8C7EF1E2FEC73FC432A0CEADA2D83F2801A547CBD7B83F6702F058FB53E73F58F5D48BC89ABD3FE5900C563651E63FE00D581592EFB83F7E65680CFCAEE73F08312015A280E03F39B8A87E0AB4E63FA3DE0F51935AEB3F08EFF60D89FBBF3FC6BD49FFBC58D23FC5D6B2695081EC3FEAAF9B9F8F17E73FA01951FE8DE6DA3F0001D7541054D33F2E3264B85712EE3F1834DD0A0519D73FDE3186521C17EF3FAE14A410582EDB3F8026569307B47A3FFE96501B6D72EF3FD08E5750E0AEBB3FF9FF72617F8DEA3FBE26B76CF226E83FD46A741FD77FE83FD29BC9BE4E9AD13F9B29B9A435FDE83F56D64A833E73D63F1C303BF12BE1D93F5D975CF3E34DE63FD6101F0E944EEA3F88C5BBC55984B73FC8179E5A2817D93FFF5A87AD89AEE63F48A66A21E356D13F605A4AC53CBD993FD494938078BAEC3FAD5B080B4EA9E13FF6C0F6FA49C2D03FCD218088E004EF3FF013E86E9FDBA63FDCC0D83D20F6EA3FFC1DE7D0FEACE43F7AC1AC959F35E93F90582DF3B815C73FA0D81F7612F5C13F824B65728F28EA3FB9ACBB50D30FEE3F60644B3C1389EC3F96C2F6AE2A49DC3F7D5335B06ADFEF3F5985E49CC0A3E63FEC9242D9EBBBE03FCA936C2A40A6D43FC413C1AC0B8EEB3FC736056B5DA5E43FEDB1F31F1CEAE33F8EB4C78C48D1E83FEBC0CF370FFEE33F8547F157D314E43FE4B2E4A5D55ECF3F9406121695D2E13F570CA97DFAE3E43F6AE4A01E5B12D53F5899A35445F3B13FA21887676DB4D13F76AACF73501BE03FEC0CCA28E3D9C23FC35A9095E805E53F94A39F964A50CD3F007E9BA6F246703F1F9488E36BDAEE3FAFBC64AF5BADE33F065FC50CD163EE3FFC4BECE6D0D2DF3F830BAC597335E73F084C168BD68BBB3F846E644BF1EEC03FC8E610670293C43F5CD84CAA6739DB3F4EBD39F79C1DDF3F58E1F5713EE5ED3F1C777974AC9EE43F0BA63EE3672BE93FEE1C693A6D4FEF3FB018BAAE8657B73F60FFA0FC3974D03F88C381CF6AA2CC3F1D2B839D3A43E73FD6E3D8529A3DD73F2083BF0669F3B23F74CAE30F3A8ADD3F284B9CF5810CBC3FA4503DCA98A7E83FC23C86AFF684D83F7AABA2D2C9F3D13FA2751BDC969ADA3F0039EA1618DBE03F6469F604A165C23F518765BA06F7E93FE09FC37ADF95B63F4C4D0183AEF5EA3FE1D00223CDD9EE3F28FD8C8497D3E53F171460D3808FED3F68600D74E35AE93FF077A71F18A1B53F28DD60021E7DE03FA024F6F990E2E23F8C3815407824CA3FE00277293751AE3F486F513DCA2DE03F8EB1E18584D8E53FA4A02B1F7C13DD3F85D0B2A23BB3E53F903A45A94F3DDE3F84E4C6DFDEB7EA3F56C5A0509A0AD63FC366C0190571E83F94D9325C91A7E93F3F28FB7A79AEE53F0AA23F0BFA38E93F4ADFDCB9B5BBD13F58649DD9AAE9EF3F51B62E2FF652E63F76502147350BE73FAA41F888BC1EE03FCDF518C8DD3FE93F3C41665249D3ED3F644D4577CB91D13FB4DA2CA7B8C6EA3F361CEEF03BC9DE3F406000E3363BD83F72BB4320AC24DE3F78C34347FADBCB3F960362B023BDDD3FAEA8C10BB898E33F110A37C53F4FE63F30196B4A3898CF3F640266E9B4D1DE3F7A6A06B69A9DEB3F34DD39386422D13FE0056064C8A2CA3F8D53BD046634E03FD0AF552DC448CC3F526020733255EA3F866DAE989C5CE03FEC7FED03E7B8DB3F1810EC631BE4CF3F03DAEBF24A8CE23F18CFD138DCD0E13F8AF0993A6E1AEF3F442A33F1E503DB3F18EA2D7CEC97C23F147AC5B7B4A4D23FDE8D3073A6F7ED3F00FC2013C1475F3F881C59E45E9FE63FAF2CC51454DCEE3FFC7980C61A7AE33FA596D4A76A84E63F6D2F198F209AE63F80FB857EBC7DD63F5437054FC848EA3F99695407EC79E73F7CA5730C4C90CC3FDCBCE837842CD83FE16C8AB5DE07EC3F6506CFB0854AE33FB4E9F9881262C43FA542A1397275EF3FA6FDCA7C580CDF3F2A474C07CC1AD03F8A9B52E88C5CE53F783BFB401333DB3F117340AC1775E83F1A8E839389FAED3F45A6B452C210E13F72BD951E8DD6E03F812A30964EC0E33F50E0A935A21DC83F3CD881DC8B4DDC3F32712827D69ED83FA38A55475385EC3F00E78995E34F6E3FFE33D08B3FB4DA3FA87DE26D0195E83FA2F14D9B5657DA3FF6FF7EB86E26E73FA6A615D1594EE43F8AFE12460987D53FC187BC6CF5CAEB3FB8E97836464ABC3FEA36C35160C9D33FC1F1DFE8AAA9EB3F2887B34D422FB33F525295A346A1E83F84386303EABCCE3F40F8709C9E9E973F94DB09E9E82DE03FDDA169C8F02AEC3F2E37D95B60C2DE3F534FD8E8288AEA3F70A290B69E55BD3FB23DBFEC45FCE33F90E9B8A95F19DA3FC049D29C46ACB63F0C801E4F7C3EC93FE42180F09CF6E33F2A6969E7783EE23F5C154B5C987CE23FF601E0819FA6E63FA36D0DBBEFD2E03FE03F5B2D1377903F34B0FDBE7264ED3FF98F3DCB840CE23F78F4549A723DE83FD00CD968C71AEB3F3CEC4BBE60E7D13FF301A9447934ED3F949F47AE2241CC3F84655892BDE6CB3F082525377327CF3F55CDD4B0064EE13F081108AA0CE5BC3FA607625F816CDB3FBF78BE2EBFA3E43FE1E6432E5ACBEF3F467B72D5F369E83F093FF5E8FA7EE03FF8474286ABCFC33F7B0C299417D1EF3FBC062D657B95C13FE2EEA9829034D33F0298E2A01CB9E83FD90C811728A6E03FFC9E37930FA8D83FAC3BB3FB111BCB3FF59209D1AE6DE13F701627E4388FC63F765AA60347B9E33F6CA16EACB53FD73F39E87B67143AEE3F26AAE8375ACADC3F7CFE89658E8BEC3F67C7EEA442F2ED3F02A389CF35DCE63FD6DB1C5BB25BD83FDC1B19A4279ADB3F0E4F7735BBF9E33F743E1CB6C2D8E53F2A1297EBF4C8D73FA86FD8B63BC7CB3F5E3FB05EB4A4E03FF37390103C1CEB3F2E32491E8699E03F40EBF696EBA6E13F7865172CDFFBCC3FE83AD5A639B2C33FB444E39208A8ED3F084E8A977ABEC83F558259025053E33FBDAD41140556E73FEC626EC716F4C33F3179A565B3E2EE3F2CE10BAD833FC23F4C5B8F6B3F37CB3F06612C0F3A3BD33F229F416D4753E03F0099FA708788A33F00D701C395F36B3FFABEB1FEA501DC3F10BD0036D99AE73FF310EC3A8F3EE53F0CBBB345DC41DC3F400326C1BD4ED13F956C03254BCDE63FC0F5DD02E7F88A3FC0D03A3DC192CA3F7E89F2D497BFEE3F03C718CCAB29EB3F008ED082F4EA5C3F6FB4C859B57FED3F9B0DE2949B1BEF3F260182D38EDAE63FCC9660F842FCE53F25177A5C8F7AE83F9145552FC4FFEE3F50228824C904B33F288E8B7D37C0B53FEDC4677A4F4AE53F4CAAC8722CA5E33F171C2E81AE34E53F22E54A5AF125E73F9DB0D5F899A2EE3F96DBD44C6A85D73F0B067E2EA99AE23F043E4919210DEC3F89231263B443EF3FD6428B0BA098E33FC74AF48EB13FE83F64E57C4106B8C53F425615D4A0B7E43F90FF7C8686C2C53FB41DF89EE892EF3FAB61F4D0DDBCE43FC0BDF1F782E7BE3F3C870B701FB0E63FD03A06BA5CD5C63F6614B4DC1FA5E83F6BA4341C559AE13F16E89585A24BE93FC2D3BAA987ACD63F8746197852E7E83FE6DD9CD0BD98EA3FB0E174132187A73F8CFFCCD6E3D4D43FFD0C654987C9EE3F9079E755D16BEC3F3AAF69FE1F05E93FBC51A24BADB2D73F2117071D22A9E23F483AD446AA94D03FD87B70C069B5B63F718AADEFBE02E03F942553F2089FC83F303BB7B1E93CA43F550C3AEE9174E23FD6F24B5375BDD53F17E50A5A56D1E63F74DD7C10A18FDF3FF2404E4D4124D13FFBB950D8703EE13F885B14D52BA5CC3FA01133502546CC3F04070D3BDD1FC93F8E109310E686E23FE001B623A049A23F0C64123C7D7BC33F80DDE7A6DBAADD3F4C819B310AD5C03FACE2FE31B23FCA3F80E99D4DD4939D3FE0635D8826D9C73FF9C54BA931BBE83FAE758C74B36CDA3FD04DE5F9502CA63FD8DAD1BAB1EEC23FEF6F67B6D6D3E63F503964DDEF41B53F38F5D01BE86AE13F308E3EE2125DC23FB634C1E34325EB3FE2BADE19B053EB3F869526DC087FE23F406441DEC39FBA3F90E5068C60B2D83F082184BBA7A4D53F86EA9B4022B3E93F50AE2414F42DDC3F04F623C91435E23FA0A0EC5D91FFC43F71E2E6C59D27E73F1D74A5078CC8EA3FA0DE528709BE953FFA9A991D7224E63F6A50EEF34D85D93F13B3C989F24EEA3F06DEE750588CE23FC479019B376AC63F7FAC37205EC3E23F3010FD84C4CCA53FC056C33C3E4CC33F736F063C41AFE83FA59EAD8DE1E9E63FC0EF84924E998C3F35D376118FF7E53F7435721E25CDC03F91060C22173AEB3FF750449AA0B5E63F508065776F15E83FE76DC5D28BFDED3F8CA17C1D5424C03FE6AF1C02541ADA3F08BF88327723B23F00ED9A9C4493AD3F883A831C3A32D93FBC86AF915CD4C63F2A1816044996E13F2C19D4B93554E73F54F9A79DD8CDE03FFC25D51A78C8D83F084AA0E3075DBA3FFE0FCAA60E82DA3FAAF4144B3B26D93FB82EC03FAEA2BD3F6239260C42C0E63F68F1A501D9FFE43F0D6C34749BE5E33FBCE39BE9A812DC3FE8B8C2AC07F6DF3F54710CD314A4D93F92041AD6BEECE33FE85DD2C86A87B73F5526E0E12769E13F5CF39CB513D9D03F77EFB34BE652EB3F602F0783D638913FC6BB442495D0DD3F369A84F8B1B7EE3F6DD40AB2F7B4EB3F06B43436D637D43FE5AB783A3571ED3F80FC7B25EF7FD43F588F3F23AC6CC73FACB5E615189CE13FF9B7C8A21377EC3FF6CCE8DA3A93DB3F0B75062EF562EB3FC83765829971ED3F3880696BF9F2D73FB62E30237B12DE3F2AE1076A6CCEE93F3160099FB770E43F4C09A366F65CE63FF31F6D091345E93F6CF4C5A4323BE23FE45EE6544DF2D03F1A986C659B8ED23FCF12D2D0B131EE3F083F41248398EE3F604B4EE970A7CE3F5CB3621710D4E13F56BB74ADF5FAD23FA4A1B36B33CACD3FFC590E07C492D73F9196666A6EFBE33F4030A1BD0E1DAF3F5AF2A9D6F0CFD23F7413E4CEC5FBE33F1237DC86E284DE3F0047FFA60C51B53FF84B36773D1BC83FC089A0536764C63FE444FEF06EA5DE3F9F2378F36BDDEA3FA00A0B436C89E63FF85D58721A87BB3F3C5A3CA8469DC03F0581EB79AB79E43F01C893C502E1EA3F304B4C253668C63FE25F6DF3021ED53F00A815E2243D533F787F8D475B92B83FBE245D004C8BEA3F0A0BB6C1B62DEF3F023F27666676EF3FB8FAF8C5ADBEDC3FD5E5AE805681EA3F922A3F1E28AFEA3F5C2E53ED8A52D63F2877A09EAAA3E43F48016CCF910AE93F30BA49A7E942D13F88B67DBEE7BBC93F0C6491104AA7E73F54D97C9EFEC2C43FB2D3C6A5C4A1DA3F00CBB6C883D4DA3F40F41E933585A03FB05572586C75DB3F8058A25C6805BF3F40A466C1FA53A33F2C97558F352DD33F34B1F517B268E33FD8A7BF181D26BE3F5C73981CBBE6DA3F03C578BCE95DEC3F44C3C9607113DE3F007BE4DB2CDEE73FCA23009C6F4CDA3FE40849E15298D13FB8FDA704705CE03F5FB893C0FBB1EE3FB492878CDB8CDD3F7AC1A59E794DD43F47AA682C903DE23FFEC0DB7C1E65D53F9020A552C948D23F900C7C88988CE03F3E039BE23680EE3F57ED8E4EDDF5E33F1E7FDDE84224E33FB0E7369295E0A23F5A00ABC5ED39D13F4A1BFEDB1E4AE13FE08E2F757649E93F30B28263B569C83FB8B1EB8931F6C83FF0C3C0B50FBAEE3F94BD10D6AE80DE3FCE05752E4AFDE53F2425406D412BEE3FC6D8527C4AEAEC3FB088871048F0B53F94B172416211EF3F3D4CDD452009E33FEA84B4368B3EE13FE6116F1A8E84D83FAC6156A06DEBD23F8A7F45949363DD3F0B60E249B119E93FBEFA49AD5C81DC3FEDD7090691B6E73F780157357B35BC3F537801F17E74EE3F18EF0826E4ACB43F5AA767A3C4CFD73F70A27B5E1012D03FF85AA410AA24EF3F9864DB3B2957E43FFEBDAAB660F4DD3FCA1029D80626D33FFA5002225CD0D63F87A8D28CA6B1EC3FC86DF9B56484E73FCCCDF196FB32E83FA41B34DF034ED73FE08DB9512AD2CA3FB0079A030613A83FC686D6EBD8FFDD3F80E98642FA64703F20E43F9EAF93E83F906CFD4636C2B63FE49E8DCA92FAE23FC731A9F33F2FE93F607A223D66CCE93FCB7470A489D8EF3FC01D75097FA0A03FC9F100B33465E43F717F48A3CD52EC3F89B948668797E23FF6E513CE8DCADA3FE8C47284AA79C03F103B1AD93932A43FE6234EAAE398E53F87816FE09FA7E03F70CB3380F947AD3F45ACB2A623EFE03F964A61279A96D93F7172E53D001AE53F988FFF01A8CFEA3F0752FF5C6480E93FA09A7DF731C9C43F0416F7AEFB62EC3FE48063870667C13F32E06D6A0ABBD43F94DEE45F58D9E43F3C3236312823E63FBA9F8878AB96D13FC26EA252B9C5E33F60825371F5A2ED3F063FCF9D72BAD13FA62B75787D4CE13F75384EFB8B01E13FE0EAACD435ECD73F803CC791E543DA3F44DB652502CDC63F8CDB4A934B6CCD3FCA8A1EA64ADEE73F67CA2D31390FEB3FA47C1CE4EFC4C93FC7912D74A532EC3F879C7F5788E5E43F545E337A08C8EB3FFC901EBD590FE33F7AF03BB89EACD83FA0F09DBE76219F3F3000348034A9D63F1C34A2EC3CBED73FE6BFA06FEC42E43F0A2CA2C25C60E13F60873AF53328EF3F8B20CB47F48EE53F220645829159EA3F205AC85FACDBCF3F104CF6846779CF3FCFA0308CBCD8E03FCF3168F75985EB3FE08FCB97D335D13FA36F190E4955E13F4EE2991F6692EB3F7DFA744758CDE93F129F6202F1E3D43FE4BF5D5C9030C33F5666227E0B02EE3FD0D2DFA60725C93F5E5B7922B62BD93F06F3CF8A5042EB3F8D7DE28482E6EB3F13CF43082DDAEB3F2615C173FA91E43F2ACA5F668BDADC3F167DC8ADC4D0EC3F15ED47489602E93FC88217D29BC8B93F0431F8C3B8E5C03F2C310A978CBFC73F00B4CEFAA3EB823FC0F99FC0E8FBC03FBC6A8024AE37C93F232E1F66AD6FE63F19E64DDA578FEB3FAA1463F39320D73F5486EC98A59CC13F007F1D7FF83FD13F88CF7D89175AC33FBAA41CB914ECE43F60D22C39613AA13F681D55C2EBB2CF3F38B75576C2DCCF3FB6263097A6C0EC3FE19E9CEF5DEFE13F2BC39587F4A0EA3F786FF786E33CC13FB94953B80D4BE03F36B896954C31D43F1206874FDCDAD03F11EDBDAD04C3E03F33FB7B5BE384EF3F707AE6979A00D23F80EA02C3EE3EB83F51063089C9C4E23F02A7FB4A34EFEA3F58714548B1ECD93FC0FCD1E0B85FDA3F9466D5FD3CF5E73F9C374EFF8A07D23F7AD9A47912A2D73FF2B83BBDD619E43F9CBD03D2217AC93FE210739F3DBCD13F3F9500671884E23FFDA05213AD1BEC3F06BC07D3F83EDA3FCA01CF58BF9CEF3F1FF3B0474770E33FA1DB24E64B7CE53F94144919F0EBE73FE8A0D573C9ECE83FE1225829C083E23F2066DE39C494963FA82C29D36991C43F5CA59F4FF79EC43F705A86ED43F5B63F81A8F88A3905E53F3D0DEA1256A7EF3FA4890E1D7C4AC13F31F226CA1C45EA3FDA50848E274FD43F744A34E4D823D13FDC481A3A9C11E83FBB74B153D939E63F6696056CA68EDD3FA662B6DE197AD63FC4C2EE195B98EC3F6409BFED6B72C73F64B787685C39EC3F421B9805408AE23FD6683EC6906DE83F9DF15B373473E63FD850CCC0B4BFD43F6FDCE90A7E48E93F80B5F7E78E45EA3FEF5065184FE7EC3FA061B43DBEB1973F14FDF83EB985EE3FD7BE866EFC2EE63F1D0852663388EB3F1E82C4DD9955E43F80A60032ADA4C23FE90AA1C2E228EA3F64A2BC6CDAADCE3FA0B422FF306EE53FFA481FD18F2EE93F8F10CD43F56DEC3F748E6623B406CF3FEC6EAFC06DEBEC3F21E8C950FF24E13FF4FD22BC8028DA3F8CFA53EC3643CE3FCCA98124922ACF3F9BB9A9B442E1E23F54CE897C79CBD13FC0875D6F3B48ED3FA9E06466084BE63FA06897E30CAFCD3F52B8DD61B71FD43F803FEE036697CE3F086DB2A1835FDE3F5A4B90B184BEEA3F92C086788D80E23F2C86C20EF57CE43FE49625EB4D5DEF3F5789D37E2A1CEB3FC89D5472CF72C53F4CEDC33BB63ED13F035C00F6059FEF3F000750579FB8923F38FFD2C56729C93F385302D45618B23FCFD285795278EF3F5D810DB1DB73EA3FBA56B3620EA3E43FDE2021F99727EE3FB4B30C8966BFC03F20CA52590357C53FD0D4D1089BEEB53F97E0DD3F47C7E53F4E4DFF684FF2E43FC8B6D17E06E6D43F9C6F8CF7BD63D13F04F2AA939A69D13F06AB24997559D23F2AD993FAC10FEF3FB8D78CF5C5A2CD3FEC52977D4F3FEB3F3E990874590ADF3FEDA69CFDDBA2EA3F286CA5F29CD2B03F44358FAB8505D53FE0853BA9F5B39D3F60578F071A18B13F0CC83D9DFDCDCB3F15D27628084AE03F90650DFE28F8A23F3423D942C15ACE3F839B489E65DBE03F0060108B5A84B93F6C1068A41383CA3F4080979FAF2D883F3A43232A362AD03FEC43A75B098EEA3F60ABD46674F4D33FF6F09863C81AED3FE08A07B44367B83F0CE0254974FAE53FFAE6CEAE3EB2E13FA886935E3CD7CE3FE04CA50A1A79D53F96546D02096DE43F447DE875D107DE3FBC376A9CDC28C93F9A4EADF9848DE03FA28D002D1F6DD53F5B39CF20237CE33FDA6A3D23F867D33F5253BEDF9711DC3FE96CC8003025E03F1593858881F3E73FEA073FEF8B1FE23FCEE197C56222D13F77E59013307AEB3FE7D13C4CB308E73F527AA9FD3467D23F563C3CCBFFE3D13F0AA03FF7D31FE23F00D486E659EED83F58E10824BAE5D03FE2453CE87428E43F422F3E08EF3FEF3FDEAE7C7616DFE53F70A244658859A63F300CCA2F9E17E33F0A5552F1175CDB3F5ADA893875D8EC3F64600CCFE61ECB3F0CB7E0675E65D13F36CC7E176A0BDA3FF2FD28D2ABB9EA3FD8ECB4CA8637B63F685BE22A05E7E83FC42224A7044FDC3FF84D2ACF701FC83FC047CBD7019DBC3F0451594D7179C23FA03C6024E1309E3F3E070D95608FDE3F856A4460F7BAE23FF05C87EE49C0A63FA76BFFF255A1E93F80EA78EA0388EE3FB92D029E4A79E53FCA4545834576DF3F63F27035C47FE93F54D9B3DD769BEE3F54DBD67678B5D83FD5D9F6743D24EA3FAB15E4C53C35E33F52D256F8967CD03F0A6A18B2EC8DDE3FD0FDDA3170BEB33FAECEFBFF2DFFD43F4C538DA573F9E23FE89E5565C9F6C73F7C11B2AAED5FD63F749224C31089E23F780E32DFEE58BB3F7AA7D469C647DC3FCEF2F01FF916ED3FF0816BC2B69CD03FB2BFD622150BE43F53F0C057FF98EC3F19255E522339E43FA0D9A54504A3E73FB07FC180921BA93F8BDCDF47D459EF3F22473A19F10CEF3F548C8EE5FD17E93F735F91F906DFE93FF61B70A2F94DE63FBADACDDDF2B5E83FB263FA8556C0E23F9557DDCAE232E83FA4B2D7A9223AD83FAE290A2186C2E33F0808D756FA6CD33FB761E69E8ED1EF3F0E1EC784EE63D13F6E2664D32F9BE43F1C6CB8A51975E03FD0A4F716FCE1B63F06D0AC5C0C7DD43F651308B95516EA3FC59653121C26E33FE5EA40E6D6A4E53F604BD4FBBEF8CD3FFDD487D756A9E43F8C7D8C2A89A7D03F540D083DAD46C03FAE2DE0A9FA17D93F6035BF54A4BA9B3F48822E30F125B13FC8DEC7D3FD39BB3F00EDA6027D79B73F1D98C62A38C2ED3F8091B39760888A3F348FD587342AD33F1031F7F67602CE3FF7C0B5CDCBC3E83F789237D07FE8D13F36CF97CD79DADB3F833702F5FC29EE3FC4B4F7799ED4E73FC92CC561A6C0EB3F00C12E2A6A99C23F203482886460CD3F298CD886B176EA3F38A15589D681CE3F7C5E862629AFD03F7EE644B5AEC7EC3F28485D8690A2D93F08FE029E43FDE03FD424FEC58DB1D63F7021CF004C90B53F5C4FA492305ED73FD062DF93055FA83F70A2F99019A4B73F00F15BC7F262D93FF5F0D428A54DEB3F112003E021A2E93FD0A1A239434DDE3F8550BC6A1E31E63FF2A182D94AEDD13F087850F54D3AD03FEC9823D22683D43F981CA4040509EE3F923E23F0293FDD3FBAB358F8EC6EDE3F20A541F51E5AC63FFBFD904FF01FEC3F48E54E992EECE03FA7CC3640E529E23F9A66D0474A38EA3F358CDBBE68FFEB3F7211CE72B661D63F3CAD01BA5723CB3F1FC1362A3914E73F2030EEB551D4B13FE033FCF13135913F203F69F09524E73F6D155EF3317DE73FD64B8CDD65ABEF3F306782BF3E22D03FE392976EB8D7EA3FB8614DAF193EE33FB680BB40AD8BDA3FE82F6DDAB056B43FC46E9D9FAD9CE03FAC08AD056F37CD3FD4BAE0CC72A8C03F85ADBF30DBB7ED3F1006C67EFC43D03F19D5A407C6E9EA3F5D5B4934517EEB3F928C3F0EC5FFD73FA054FB087E65D03F3A241F9AF409DB3FA0D9357E93CFCF3F6779921142A4ED3FC37A3A8EB53AE33F10E3DB20A37CC53FB3CE693FCDC6EA3F88AD25A7B1ABC83F6C361B8A149AE33F388002C87BF4DF3FF8CD1DD02E0CB03F0C0A53AB6405C73FA8DBFB2C9BB4E83F3D37FAD14B64E13FAAABAB658341D23F70EBC9196042BE3FAC90D6586524C43FBB371F27678EE03FF05B1D0EACBBA93F5DB79EB117EFE33F40798E1AC7FBB63FA8A212DFD8ECC63FD69C427A290BDD3F50A483C91908E73FAEA65C3573C3E93F3088631E9EACBE3F9898803F9096E03F9035C8E96EC3C53F4C0412B6AE8BE33F0C5E559811D2D13F58B86669308DC93F809EAB5CAAA6BD3F905ED03CE9AFCB3FFAC86841FD12D03F8CD4BB6B0D98D93F040D3275A982E63FF324A11E2328E13F6059A8343668963FF075F88478F0B83F06BDA7C3AE27EF3F04F48E166D34D13FF303AC7CFFA0E43F006B495F8382923F06AC836B51E3D83F9829C45CEA47BA3F284A63902B00CF3FE0AAB7497E60D53F80355E241D36953FA0F7356C15DA9F3F209CEA61FC62A63F773293784661E03F60DCC41ED9379B3F7309C6CDE2ECEC3F73797B67487AE43F166F5C5154E8D53FE416AC576E86DE3F3E1307CEDDF4E93F0EFFC7F3D56ED43F786E299C8D52D23F7015DD5C9AF8A23F3A2B15F48EDBE93F58071EFDD053D73FBBB6E400FE9FE93FB50666A5E89EEB3F68A3AD80F284CD3F887E9342A75ECE3F6285D1264513EA3FB8AFAEB8076ADE3F14D9F3562569DD3F454901379657EE3F2A0625137DB5D23FD95FC1C3D740E63F70AF86103BCAC23F6F50054596BAE23F7222336D3752E13F80F5490CFD00EE3F701DC367002CBF3FA063E768DE54C53F5F6DC536F88DE53FC81670263E33BE3FADFBBFECAE32E13F939001C9E6DEE73F4072E76A1BE5903F280B01242F37E33FA89FBCC57051D73F0176C29D46ADE73FA041E7AA35299E3FBAA184328830D63F7DC4442EEAA5E83F6820FCCEF178C83F1C88FEF6CCABC33F191D7D4E3D7EEF3F7C27BDC70F30EF3F5027A5A3C95FC73FA93F457383CAE13FADA928C1E7DAE23F0C22E48025C7E73F38337D02307BD93F1B2900A906A5E63F0FFEE0C95242EB3F3855D52D3BD7CB3FDF3EF77A7859EF3F837CFEE1797DE43F1013B6294D69D83FBF797E4D6940E93F7604CDB09D72DE3F9E34176D1772EE3FC6E8D0CF8D7EE43FB002B5BAC50DDF3F3A438FA905F7E13F2433618F5DA0EA3F3C6605789A12E83FE1F36C8E892FE03F8401EA426C4CC73FE0440B6A6F38A73FB8A0A8B6BDD3C43F979B52066EE3E73F9AE2061E331CE83F9FF6678C0139E43FAC8167FB94B8EF3FFE212C5C84BCED3FA379CE335A87EF3F4E4C6475EE4ED83FE0E97C383CDFDD3F0FE403DD7253E23FD0AAF7789985C33F4078DF8C0B909B3F2E4940FCF279E23F0C62E606DD5CE93F691131EC718CE73F8499AE6A3A7BC03FF0545A8A2C99B43F489FAC85FC12C33F98D59FCDB991DA3F44BF6981728AD03F0C13601D5D91C73F14897C5AB8EFE63FB12DD0A8C37AE93F6E9DEBCD8808DB3F5CE8390819E1EF3F069C0EE45042E23FAA8FB2B1A1ABD93F52A511A2E772EB3FB3D220364F50EC3FD4BD5D0CCCBBDE3F28762FE4E297B43F5E5D6E5C6F41EF3FC27AC96B015BD33FE0CDFE601E9CD53F06F559ABB368D83F982C0B49E402EB3F09544DD49AA1E03F7602BFC781DDE03FC5FFEA670E3BE03FA6B140AA8BDFE23F90C60140EFEDE43F981B5500BAFBDC3F0CB493967CFEC43F2824509B881CC13F284C7EDC9AFCB93FF869AA1F7198E53FD416D1D9EC51DB3F3833CD65BF60C43F18CF0B691924E63FCC9A8D8125ECED3F5265AC739EE1DD3F1189E5731A83E73FDCF956F20616E73F1D262E2BAEFDEB3FDEAF7B5807E5D53F32EEDE783981E33FF7D7441F289BED3F05B5C5EB9579E23F5EC0C751F499DE3F36113E60A8B5DB3FE8FAF0547A60C53F80E722A2C980803F9CAA083F4BB9C33F1E62C0ECD209E43FF0233F693402E63FA2C6B3BC67D3DF3FA897E8D0B541B63F394BB30FE4FAEE3FFE4E11803186D13FC57DBEECB314E23F0494FE2DEFF1EC3F84D79F5D7841CA3F55F2A5B749DDE83F9AD73C66071EDA3F54563C3355CCC43FAA2A1C7AC948EF3F72BC9622353ED33FB2E935B002CADD3F94727A0ED38BE03F5EF82A35F864D23FCA88F09864FDEB3F801CB24D2297A93F40F79F81C470993FB623E3F25152EA3F4EB07F02957CEC3FAD8DCBDB0CC1EF3F15CF5DDC5896EB3F7A2455701E40D03F30EC53C2CF27DB3FA02ECF3A221FBE3F8E961860510AE73FEC468F1098A7EA3F48C1D263DEC6BB3FDEB93B23F300D73F53A67635CEF2E83F78623031D73CBF3F24AEEB3FB500CF3F9E26E4906748DE3F905352248C06D63FCF1428F21071EB3FDA2E82CBF8F0D53F18FBF0DF2BA5E53F80CEE5CA9106863F10FF58F52E8DD33F3E69E665E4B5D13F0576FA091DA7E13FD0683AC02F11B43FC8FC756B3CAFC33FC6A5C3036E8ED23FB0DC008CC644EA3FD449D8663F8DDC3F1E022113CA26ED3FF364D95C48FDE83F04A8F129D972EA3F00318318FC3BC13F44B9C85D0AE0C83F00076E7CD07AB93FB30811E9514FE43F08A7719D9A8AC13F6CFC7557199FEE3FBA6435FE8621D53F5952F733B85FEE3F0017D715E4C76A3F4A7640A6AB54D33F57811022A956E73F30376F5CF84DDC3F2768E86CD5CEE13F140D18AA6A47D63F101D1E536AD7A13F0C2E7B599D44E13F4236453C75B5E93FDCC1712ADA8BE53F771205419415EE3F115F9DA54243E93F94A6DF7A9847C83F5C68143CF1E6E43FC07C279F8878823F2B98565A32F8E13F1E398CA3CDF2D73F3842AC9149FACF3F492C26ABBE33E93FE453E7252D9BDA3F80701A4F707EBE3FFA4369EF1AFADA3F258CF263BE81EE3F92B16AF5888FD13FE461E525B29FEB3F4630CB4EF865DF3F14DB0D5134C8E73F2FFAA1A238EBE63F77D28AE3D115E83FA1C3BE3C4760E73F1247A0063BE1D53FE3EB7CFED73BE33F3C3BD5BF5909D43F139395B7E7CBEC3FF8BA7BEBB707E93FD859B78D2EB8C43F5DE91A183BC8E63F8C425242B0C1E53F9960D6443EDFED3F40224F4D4B88923FBC8CB0AB5066C23F2BBF297954F3E43FB0B72E62A27DDF3FD67791DCA6B7D53F66A2B475328BDC3F08736D321CD1B93F600D71884994E43F2E0581C4C5C3D93FBC71C1FE4CADEE3FECEF1211E7F0DB3F9299EF132B86D63FCC262FDC9E0AD83F3C32CF7E4044D13F08573B653471CD3FE4D7F3D64A64E73F4DE0698F2803EF3F8C20DC189C85E83FC6F5F5E3BF68EF3F23104D50D89DEA3FF0E70695DA53AD3F92F5B983E811D63FC7340A470836ED3FAE49CE0CE4CDDF3FD19195136B6BED3F61F48A522B84EC3F809E6F43BAE2873F3A14101818E2D53F7A35200410DBDE3F2C90962E75F7D83F3147C9918015E83FA04608B8648AC63F4CA96302C1ECCC3FBADB78A3EDFCD43FA954F241C9ADE03FB0D99C58B83CA13F987F6DD10395C03F936DD707C4C0EB3FEADB3A33D677DE3F05199DBDC4E8E23F986F224B63C1BC3FCC304CBDE04BD23F6E96DAFF8B65EB3FFF8C6F144764E03F0FB33BC2762FE23F30867FDF926DB53F493C7086330EEC3FF116964FAE95E13F88C8E2B5D6FAB73F385C511E68B3CB3FFC49BFE4F574E73F10F06692745DC03F58080F583E14BA3F800FE8FC2527A03F58B5800C4858D43F042BB6280B5EDE3FDEEEA3D056ABEA3FB6E96EBF0757E33F5B4EC6149336E53FA9B23AAA3F9DEC3F48DA6FBEBBDCD93F3AFAE72FB876E63FCE287C553A0DD23FE0350E3C2017A53FC7AC41248289E83F0010ADF475E2933FB82D5554F2D7C43F58484F2409AFB63F78D2BD7EEBADE43F58445A469BDCD33F15B53AA3F67AE33FF1CDF47D0548EB3FB1EBDDFE54A4E83F1BEF879CD800EF3FA23566370F71EF3F0A11C8B6F3EEDE3F1C85482F372FE43FE810EA33F909C93F63C2EC0BE1BCE03F40ED595EADDFA23F00FB0ED2CBD5703F9E2CCBEE4BC9E43FFEE2E12C13E7DD3F20DCAE948DBBA23FC368C876D857E33F6A725AD09908EF3F40A0159E6C99973F560D0D140EEEDD3F1AF4FE6088DADE3F2493763AE08AC63FF701A822F9A0EB3FD04C8CE0EE11B13FD1FFFD8E072FED3F91725137881DEF3F8758D28E2ADBEA3F087356DAB94ED83F1032CF8737D2ED3FD0ADF0CBC320EA3F9108F915C181EA3F503AA93B6AD5CD3F5C7512DCFB8ACE3F581109D6FD76E53FD0CA94B224F8DD3F486D55C89CB1B53F0D8CD576FA73E13FEECA4571DF4ADA3FF07D0839E794A73FFA4906AB2E36E63FC23DCDD1838FDD3FB884355DCE63BD3F6060F782AF17BD3FA4C4B0833ED5EA3F58C088E38595C53FE60B24AD56F1E53FF3A9554ACA61E83F81114DC475F2EF3F8E7A71D29B66DF3F59D9F3BE9C7AE43FD0E7F9A0C158EF3F4664124A19D8E93F80F0FD485156763F91908476F32EED3FFEC976947947E53F40974429C977973FFCF8FBF37886DF3F41D9669A08FBE73F50C1AD924BB0B93F78B31EFC5C26B13FAE812015CC9AE93FA6B5F5DC5168D93FD64065A935C9DD3FD5C0483F972EE13F7E008FCFDAA0D33F6809751B336BD33F600F9A5E7215E73F931F9503C536EE3F2C9F7CB9D5A9E73F3C8F313EE2ECEF3F2B28E10F4ED6E93F8CC9C62A296ADF3F4169C60129DDE13FFA3C73663F30D63F0D0F84E8FDE3EB3FE41304437ABFE83FC9EBFA69B34EE73F002AF1618F7C683F7B865251D16CE43F70EEF831F290B03FD38DA7C00A80E63F2A6B272C8ED1D23F232C3F311B2FE03FE092AB47C097D93F4EC833AE05BBEC3F1BE15539C533E73FC01340C954B98B3FC0BD03B32732C43FCC6BB3600D72CF3F10C808E7D977A63F779216670335E93F90C2764FC031DC3F3C836146B602D43F5F6D443C7F3FE53F86AB0B1A07D6D93F2601945F55DCDD3F78408F255269B63F25547B594AA2E13F6C3517FE2044D43FA8FFB6BC1D98C33F3CEFA4F02D09CA3F610E3F2E94E7E33F5C138A3BF6BDC23F64FB8F46D4BFE33F008A0455C1135F3FACC6ED1A5D0DD93F6AB398CC7772E23F3A910376E2CFDF3FC7BE5949D932E03F32B155398543DF3FCFA8E21B78A7E53F52D687316BCBEE3F8AA5CB33CADDD23F4C9F07DC8C2BDC3F10144B525AF2C03FA8C886E8E880BE3FA874DE2846F3D73F787EE36E3EE7DF3F537C88FF154DE43F50BF7A31E13BD53F80B1EEB5266B933F56A4CB575A04DD3F7B1B97448122EF3FE95E407E3955EC3FE2DC18D5AE1BE23F08B8221EEF4BCB3F05E358F0599DED3F439705AE5560E93F18C245FEAE42C73FC893C6C40D17BB3F4C4DDA852806C53F94575A5A2894C23F4297B167B013EA3F7E81A9C30918E53F84D1F653B09FED3F501BE459A0C9A13F7A9C45A61D79E63F58F47762884DE63F71EEFF7C9238E63FA8F3DF201E81B83FFEC5C8A8BA5CD83F2C8F15288143CC3FE37ECF6943A7E63FADEA6B44FA2BEF3F52E65E52B5CCD83FDA4C8CD3D682E73F2A3E990CF016EA3F128E17AA6E8EDA3F72AAC495AE74ED3FF968529443A1E03FF5C656B440FCE43FBC90785882A9E53F4924EC41D391E83F683F8333FA9BC03FE917CF8464C1EA3F38510D7B04BCC03FB319C73C35C4E93F106A9C297D38D23F82E11DC4C0B7EA3FA87C6BC89FCCEA3F9D7E39D3170AE43FD84A42ADCF02D23F68509BBB80DDC63F68705EC3FADAE43FF56F16DF57ADEB3F7CE5E051878BDA3F56F968014E37DD3F0021795AF31D743FF663298E72E4EB3F70A06FACF3F1A93F835B05991DB7E73F34D42DC9C9E8CC3F0EE9CEEAADFFEA3FB351145115E0E23FB240EBA5C2AAE83FE19DEE8F0478EA3F0030812385F4683F422FC2A2CBE5E63F4D4B2C51C409EE3FA0A40FE371E79A3FB573F2E59493E43FD39125608069E13FD51B09797AD4E13F5C6126ED55DCE43F808B25A967D79D3F8510BBD2C04BE13FA0E3622D6811B13F34065D7337B9D83FD0156397C1A2E83FC0A253275504BA3F550F0587895EE03F0179B1B43ABBEB3F4DCF47C9A365E33F40EEE66965F3EA3F009756DFBE5CBE3F96D8FA5B92BBED3F668C452E2767E43FE85FCDF0FD73CF3FC61B968756B6DF3F70A672E6E0CFD53F14CA99004B02C93FA0A8F42B53BBD73F1236F4AB7731D23F945B0B23AAFFD53F0E727B40681BD03F88A18A4A5093CF3FB8C38D15D2ADC33F2FA68931EA07E23FE4D3D86B3833C43F00009BBBDC52513FC0FD75FD8DBFA13F024E4300AE89D83FACA16F836466D53F4B3C9B6ADD2AE63F941C418A077ECC3F0EF4EEE7E899D23FB8F02069594CCF3FC73A74965A91E63F47BA0F594ACDE33FBB235287D94CEB3FD8C8F871AD41C53FA01491AC01B2DF3FB09A8FC2ED0CC23FE87C31D4170DDE3F21242B4610D7ED3FC61966F04F6FE93F148250DEBE39C33F83FE11C1931CE03FE21759118512E03F321149927E57D83FC0A8ED69C445943F40498C8AAD73903F022E789AA6B6EA3F74AA32C6C168D03F107642184C1CB53F5EDFBE953701ED3FB922D980E22EEC3F146F4203D526C33F13C201F93B23EE3F54D5BAC0E9B5DA3FDCE3048BDEB5CB3FDA5312D96121EE3FC0D9C3AD289EC53FF9D4477BF835E23F46402353F94FD33F60ED71838A41993F149876A1D804E73FBEB99E2D9DD8DB3F9000096EF583B13FAA13232D7C90DD3F8C20B59281B6DA3FF9E0728F8310E93FBD13246A8AE5E63F8E72B8F971F7DE3F056506EA61CAE43F009930CE2C10813FC0EB779937FDBC3F0012458363078F3F8136D1D7E983EE3F089633A07692DF3FACE57A405A68ED3FF89248D18660C83F69D4473F1E05ED3F4063C3D964D8C93F115B6B2C4D05E43FA89A111273F1C13F5024AC664500A93F64BE85C81A0DED3F577806456A55EB3FC1CFDD3F8CECE13F8066064272ADAD3F7CC66FE650C2D33F882F537DF383C83F67A586526DADE93F31FACC279316E23FC3F85621F7B0E83FB95791EC666BE03FCE011E4C548FD43F9A71CDE7FB16D93FF0618DA810E4A33F469195A7DE10E53FD05F3DF1A4ADBC3FB114AD4CD01BEB3FD8F142F981E2B73F0012DD262B6FEC3F32013154329ED33F4A218A5D4E01EF3